{
  "version": "1.0",
  "truncation": {
    "direction": "Right",
    "max_length": 64,
    "strategy": "LongestFirst",
    "stride": 0
  },
  "padding": {
    "strategy": {
      "Fixed": 64
    },
    "direction": "Right",
    "pad_to_multiple_of": null,
    "pad_id": 0,
    "pad_type_id": 0,
    "pad_token": "[PAD]"
  },
  "added_tokens": [
    {
      "id": 0,
      "content": "[PAD]",
      "single_word": false,
      "lstrip": false,
      "rstrip": false,
      "normalized": false,
      "special": true
    },
    {
      "id": 1,
      "content": "[UNK]",
      "single_word": false,
      "lstrip": false,
      "rstrip": false,
      "normalized": false,
      "special": true
    },
    {
      "id": 2,
      "content": "[SOS]",
      "single_word": false,
      "lstrip": false,
      "rstrip": false,
      "normalized": false,
      "special": true
    },
    {
      "id": 3,
      "content": "[EOS]",
      "single_word": false,
      "lstrip": false,
      "rstrip": false,
      "normalized": false,
      "special": true
    },
    {
      "id": 4,
      "content": "[MASK]",
      "single_word": false,
      "lstrip": false,
      "rstrip": false,
      "normalized": false,
      "special": true
    },
    {
      "id": 5,
      "content": "[CLS]",
      "single_word": false,
      "lstrip": false,
      "rstrip": false,
      "normalized": false,
      "special": true
    }
  ],
  "normalizer": null,
  "pre_tokenizer": {
    "type": "Whitespace"
  },
  "post_processor": null,
  "decoder": null,
  "model": {
    "type": "Unigram",
    "unk_id": 1,
    "vocab": [
      [
        "[PAD]",
        0.0
      ],
      [
        "[UNK]",
        0.0
      ],
      [
        "[SOS]",
        0.0
      ],
      [
        "[EOS]",
        0.0
      ],
      [
        "[MASK]",
        0.0
      ],
      [
        "[CLS]",
        0.0
      ],
      [
        "s",
        -2.8365701911301002
      ],
      [
        "t",
        -3.2164444215023718
      ],
      [
        ",",
        -3.2467501444908304
      ],
      [
        ".",
        -3.3842220028203904
      ],
      [
        "the",
        -3.4841201058132416
      ],
      [
        "o",
        -3.4953030572609283
      ],
      [
        "a",
        -3.5963652060717575
      ],
      [
        ";",
        -3.8328287642480223
      ],
      [
        "&",
        -3.8610828218126354
      ],
      [
        "apos",
        -4.142081432958529
      ],
      [
        "e",
        -4.201965035349572
      ],
      [
        "of",
        -4.204771388069345
      ],
      [
        "I",
        -4.222470928982185
      ],
      [
        "and",
        -4.233632590889956
      ],
      [
        "y",
        -4.304706334517212
      ],
      [
        "in",
        -4.3878007571621875
      ],
      [
        "that",
        -4.465998800794159
      ],
      [
        "d",
        -4.469858205417864
      ],
      [
        "n",
        -4.505444843578703
      ],
      [
        "is",
        -4.618575331077295
      ],
      [
        "it",
        -4.67561788295964
      ],
      [
        "ing",
        -4.7774489729479175
      ],
      [
        "you",
        -4.800789740759827
      ],
      [
        "ed",
        -4.874022891334054
      ],
      [
        "we",
        -4.899263891792716
      ],
      [
        "ly",
        -4.947511377942936
      ],
      [
        "r",
        -5.018876037973172
      ],
      [
        "m",
        -5.061378772357415
      ],
      [
        "And",
        -5.152609792970841
      ],
      [
        "be",
        -5.154158390404133
      ],
      [
        "on",
        -5.176685126026399
      ],
      [
        "re",
        -5.315951005799247
      ],
      [
        "i",
        -5.322027750492266
      ],
      [
        "quot",
        -5.3579056425544564
      ],
      [
        "f",
        -5.385049050642646
      ],
      [
        "was",
        -5.490489232497849
      ],
      [
        "for",
        -5.494846973499413
      ],
      [
        "l",
        -5.535669623128298
      ],
      [
        "are",
        -5.558470464912322
      ],
      [
        "thi",
        -5.579420590501039
      ],
      [
        "with",
        -5.61522828014756
      ],
      [
        "an",
        -5.615563643919074
      ],
      [
        "have",
        -5.6284860760162
      ],
      [
        "c",
        -5.716636118488298
      ],
      [
        "can",
        -5.7335649110068445
      ],
      [
        "--",
        -5.777185219275287
      ],
      [
        "-",
        -5.786573708792195
      ],
      [
        "what",
        -5.826669001644078
      ],
      [
        "So",
        -5.828357284196658
      ],
      [
        "?",
        -5.8325032862282065
      ],
      [
        "p",
        -5.8429209085690275
      ],
      [
        "or",
        -5.865115707242849
      ],
      [
        "one",
        -5.885532564254648
      ],
      [
        "about",
        -5.899010398826279
      ],
      [
        "The",
        -5.913052071653102
      ],
      [
        "u",
        -5.941844835655825
      ],
      [
        "all",
        -5.9483807343045925
      ],
      [
        "not",
        -5.971610538764537
      ],
      [
        "my",
        -6.039005491414281
      ],
      [
        "h",
        -6.064540636136954
      ],
      [
        "me",
        -6.086865886408418
      ],
      [
        "his",
        -6.122899914003725
      ],
      [
        "like",
        -6.124502397792764
      ],
      [
        "b",
        -6.152196444844144
      ],
      [
        "al",
        -6.1524065139793205
      ],
      [
        "people",
        -6.1563634396405735
      ],
      [
        "thing",
        -6.157940424619799
      ],
      [
        "rom",
        -6.175911343243968
      ],
      [
        "out",
        -6.203030487565364
      ],
      [
        "us",
        -6.221598018695849
      ],
      [
        "there",
        -6.2418032339207965
      ],
      [
        "our",
        -6.2442897669545765
      ],
      [
        "but",
        -6.268786244560523
      ],
      [
        "ve",
        -6.311902598136081
      ],
      [
        "he",
        -6.313492197383285
      ],
      [
        "if",
        -6.317576839041029
      ],
      [
        "cause",
        -6.325312185224302
      ],
      [
        "up",
        -6.32734544690145
      ],
      [
        ":",
        -6.335003327426827
      ],
      [
        "just",
        -6.362073190662768
      ],
      [
        "We",
        -6.377195342621601
      ],
      [
        "see",
        -6.415467240698645
      ],
      [
        "But",
        -6.420550519454855
      ],
      [
        "get",
        -6.4318412004591465
      ],
      [
        "very",
        -6.44800730361789
      ],
      [
        "these",
        -6.453124268973976
      ],
      [
        "think",
        -6.454384880828348
      ],
      [
        "by",
        -6.457317471574658
      ],
      [
        "S",
        -6.464578944902081
      ],
      [
        "know",
        -6.47590182341477
      ],
      [
        "g",
        -6.482510886835328
      ],
      [
        "A",
        -6.491164808060374
      ],
      [
        "more",
        -6.4938171983797215
      ],
      [
        "year",
        -6.506219119855462
      ],
      [
        "other",
        -6.517232891872496
      ],
      [
        "how",
        -6.519260841183037
      ],
      [
        "them",
        -6.521924443108883
      ],
      [
        "when",
        -6.523066778604745
      ],
      [
        "going",
        -6.548430337767092
      ],
      [
        "ies",
        -6.549116149646597
      ],
      [
        "some",
        -6.559217232082682
      ],
      [
        "had",
        -6.573583197000433
      ],
      [
        "who",
        -6.598034999148858
      ],
      [
        "would",
        -6.616007234118486
      ],
      [
        "real",
        -6.627135614155085
      ],
      [
        "their",
        -6.638902078784675
      ],
      [
        "were",
        -6.655652160547888
      ],
      [
        "go",
        -6.663468190534196
      ],
      [
        "which",
        -6.666646457996917
      ],
      [
        "your",
        -6.668605904738532
      ],
      [
        "look",
        -6.6698184959217635
      ],
      [
        "want",
        -6.678300797403546
      ],
      [
        "w",
        -6.694745856232515
      ],
      [
        "way",
        -6.695436955955646
      ],
      [
        "time",
        -6.696960480757607
      ],
      [
        "day",
        -6.750635121946797
      ],
      [
        "world",
        -6.753455090820154
      ],
      [
        "here",
        -6.768123897724797
      ],
      [
        "You",
        -6.773524077003076
      ],
      [
        "where",
        -6.803792896551174
      ],
      [
        "actual",
        -6.825037607282214
      ],
      [
        "has",
        -6.827126367752076
      ],
      [
        "Thi",
        -6.845240281386042
      ],
      [
        "every",
        -6.878762545069076
      ],
      [
        "into",
        -6.888327351497011
      ],
      [
        "could",
        -6.896376946340261
      ],
      [
        "will",
        -6.901043187768632
      ],
      [
        "now",
        -6.902686278520559
      ],
      [
        "make",
        -6.9067652809251765
      ],
      [
        "don",
        -6.907993496464586
      ],
      [
        "uch",
        -6.920532179569001
      ],
      [
        "did",
        -6.924139906967254
      ],
      [
        "M",
        -6.930182401060641
      ],
      [
        "T",
        -6.940708270468347
      ],
      [
        "Now",
        -6.9442965868495055
      ],
      [
        "aid",
        -6.973830553103431
      ],
      [
        "work",
        -6.995846731108884
      ],
      [
        "k",
        -7.000566965654205
      ],
      [
        "say",
        -7.025743754954695
      ],
      [
        "need",
        -7.050995791434238
      ],
      [
        "bee",
        -7.057256686401367
      ],
      [
        "right",
        -7.063037464081544
      ],
      [
        "over",
        -7.068377997574359
      ],
      [
        "B",
        -7.071899196000025
      ],
      [
        "hose",
        -7.085852837423532
      ],
      [
        "most",
        -7.0870953794611165
      ],
      [
        "start",
        -7.0954767710361395
      ],
      [
        "ic",
        -7.108538954596764
      ],
      [
        "any",
        -7.110180465315029
      ],
      [
        "He",
        -7.11410683242018
      ],
      [
        "than",
        -7.116042017544917
      ],
      [
        "two",
        -7.132620120530364
      ],
      [
        "new",
        -7.137800423490901
      ],
      [
        "her",
        -7.1418575014118915
      ],
      [
        "something",
        -7.147384485785221
      ],
      [
        "come",
        -7.148160699960792
      ],
      [
        "able",
        -7.150854736239399
      ],
      [
        "life",
        -7.157212705043468
      ],
      [
        "ion",
        -7.160693008461328
      ],
      [
        "call",
        -7.170580051843153
      ],
      [
        "first",
        -7.179153423940139
      ],
      [
        "ll",
        -7.1794147926557965
      ],
      [
        "back",
        -7.186329039777947
      ],
      [
        "even",
        -7.197851760509568
      ],
      [
        "talk",
        -7.198401206318472
      ],
      [
        "ally",
        -7.201160268971135
      ],
      [
        "take",
        -7.201775952137787
      ],
      [
        "use",
        -7.213767546304812
      ],
      [
        "ation",
        -7.219051018312522
      ],
      [
        "C",
        -7.241710038449528
      ],
      [
        "kind",
        -7.251562981983081
      ],
      [
        "got",
        -7.2773801896662835
      ],
      [
        "als",
        -7.284648920006177
      ],
      [
        "little",
        -7.284855228036956
      ],
      [
        "v",
        -7.291497301549217
      ],
      [
        "she",
        -7.292067041736476
      ],
      [
        "That",
        -7.308279298043349
      ],
      [
        "lot",
        -7.327221309005118
      ],
      [
        "What",
        -7.340125354381565
      ],
      [
        "old",
        -7.340798400483757
      ],
      [
        "H",
        -7.359409857210916
      ],
      [
        "D",
        -7.3831394242969655
      ],
      [
        "ever",
        -7.400222083081992
      ],
      [
        "change",
        -7.403435295922779
      ],
      [
        "P",
        -7.4053993248000065
      ],
      [
        "different",
        -7.407934440407673
      ],
      [
        "end",
        -7.413713835930017
      ],
      [
        "good",
        -7.414406014899
      ],
      [
        "many",
        -7.415522108753032
      ],
      [
        "put",
        -7.418493094102415
      ],
      [
        "through",
        -7.437702227922269
      ],
      [
        "part",
        -7.4488372499145035
      ],
      [
        "mean",
        -7.452115689304883
      ],
      [
        "around",
        -7.459453363535628
      ],
      [
        "ask",
        -7.462042357577419
      ],
      [
        "does",
        -7.462324191805685
      ],
      [
        "down",
        -7.474015894214038
      ],
      [
        "show",
        -7.487170223873631
      ],
      [
        "ity",
        -7.50177300307854
      ],
      [
        "own",
        -7.511909100036501
      ],
      [
        "There",
        -7.515850219428239
      ],
      [
        "E",
        -7.520855879814656
      ],
      [
        "body",
        -7.531222001819221
      ],
      [
        "ment",
        -7.555171533631209
      ],
      [
        "th",
        -7.555455830869939
      ],
      [
        "problem",
        -7.5567778643658166
      ],
      [
        "G",
        -7.561788010491472
      ],
      [
        "ar",
        -7.579838556393855
      ],
      [
        "being",
        -7.58057666515231
      ],
      [
        "self",
        -7.592066600410248
      ],
      [
        "human",
        -7.597361234620708
      ],
      [
        "tell",
        -7.597625627825602
      ],
      [
        "same",
        -7.597969185001055
      ],
      [
        "ch",
        -7.604495320230745
      ],
      [
        "Well",
        -7.608847090859666
      ],
      [
        "per",
        -7.6171678374293785
      ],
      [
        "ive",
        -7.621826879548189
      ],
      [
        "may",
        -7.626864141860783
      ],
      [
        "three",
        -7.639491963290834
      ],
      [
        "Be",
        -7.6445785869417815
      ],
      [
        "age",
        -7.647716388365618
      ],
      [
        "N",
        -7.649000680274009
      ],
      [
        "place",
        -7.655723176858701
      ],
      [
        "let",
        -7.660815399555772
      ],
      [
        "doing",
        -7.664584328161066
      ],
      [
        "came",
        -7.670962792371276
      ],
      [
        "well",
        -7.676626376005584
      ],
      [
        "z",
        -7.682014531190394
      ],
      [
        "F",
        -7.6821159581974445
      ],
      [
        "percent",
        -7.6846034581247755
      ],
      [
        "ers",
        -7.700430784681358
      ],
      [
        "brain",
        -7.711726625731119
      ],
      [
        "live",
        -7.7141914129498526
      ],
      [
        "light",
        -7.723660064566435
      ],
      [
        "give",
        -7.731787265460877
      ],
      [
        "question",
        -7.741320713231091
      ],
      [
        "fact",
        -7.741334842467407
      ],
      [
        "child",
        -7.744732562947824
      ],
      [
        "why",
        -7.747673306957171
      ],
      [
        "system",
        -7.755676835329592
      ],
      [
        "ur",
        -7.756621362219025
      ],
      [
        "K",
        -7.781454275517665
      ],
      [
        "idea",
        -7.7833126566870865
      ],
      [
        "again",
        -7.784638276465971
      ],
      [
        "mad",
        -7.78851581633178
      ],
      [
        "find",
        -7.789887635599788
      ],
      [
        "less",
        -7.792756291652481
      ],
      [
        "happen",
        -7.7931608765492735
      ],
      [
        "con",
        -7.796966332580131
      ],
      [
        "man",
        -7.808251009357638
      ],
      [
        "Thank",
        -7.824751120742739
      ],
      [
        "read",
        -7.825987656866267
      ],
      [
        "should",
        -7.827229224034123
      ],
      [
        "create",
        -7.834905910067971
      ],
      [
        "love",
        -7.842340528069997
      ],
      [
        "great",
        -7.848019173316485
      ],
      [
        "car",
        -7.8542094731415855
      ],
      [
        "important",
        -7.855466394814956
      ],
      [
        "turn",
        -7.860021038597749
      ],
      [
        "after",
        -7.860213597764179
      ],
      [
        "last",
        -7.861019729825641
      ],
      [
        "U",
        -7.864483299099247
      ],
      [
        "thought",
        -7.874375270897314
      ],
      [
        "big",
        -7.881557129222148
      ],
      [
        "help",
        -7.893528722952975
      ],
      [
        "went",
        -7.895565320254685
      ],
      [
        "ter",
        -7.896051374747696
      ],
      [
        "story",
        -7.899521070520648
      ],
      [
        "bit",
        -7.902925308693953
      ],
      [
        "technolog",
        -7.909719995365023
      ],
      [
        "ex",
        -7.9154901200453
      ],
      [
        "W",
        -7.92187098998497
      ],
      [
        "him",
        -7.923637028003929
      ],
      [
        "long",
        -7.925172029752085
      ],
      [
        "course",
        -7.9376634064275
      ],
      [
        "each",
        -7.940042556304761
      ],
      [
        "before",
        -7.9428073940000115
      ],
      [
        "point",
        -7.943972773801925
      ],
      [
        "might",
        -7.944831868493453
      ],
      [
        "#",
        -7.961416936107788
      ],
      [
        "vi",
        -7.9692304763945225
      ],
      [
        "still",
        -7.972991435489845
      ],
      [
        "school",
        -7.976385537715903
      ],
      [
        "How",
        -7.976991424513
      ],
      [
        "ren",
        -7.977092358611335
      ],
      [
        "J",
        -7.978307098716358
      ],
      [
        "R",
        -7.97931415860418
      ],
      [
        "example",
        -7.981424874720821
      ],
      [
        "better",
        -7.9824027380240015
      ],
      [
        "try",
        -7.983037515010158
      ],
      [
        "000",
        -7.983668371358253
      ],
      [
        "On",
        -7.990055456992119
      ],
      [
        "never",
        -7.9903188424123455
      ],
      [
        "2",
        -8.00639022808818
      ],
      [
        "learn",
        -8.008964269761218
      ],
      [
        "10",
        -8.009272531300113
      ],
      [
        "water",
        -8.021973336699457
      ],
      [
        "off",
        -8.023345647270634
      ],
      [
        "few",
        -8.026388585481678
      ],
      [
        "cell",
        -8.02647908226987
      ],
      [
        "When",
        -8.0267787532863
      ],
      [
        "O",
        -8.027777454275018
      ],
      [
        "20",
        -8.03183882041316
      ],
      [
        "together",
        -8.036319420755053
      ],
      [
        "next",
        -8.045397670302599
      ],
      [
        "ago",
        -8.046708331988754
      ],
      [
        "hear",
        -8.055689326363861
      ],
      [
        "ness",
        -8.058326761971966
      ],
      [
        "million",
        -8.060238687532648
      ],
      [
        "play",
        -8.061657283715903
      ],
      [
        "design",
        -8.061657481265705
      ],
      [
        "data",
        -8.062105071969167
      ],
      [
        "tween",
        -8.063518440367574
      ],
      [
        "found",
        -8.067132579281214
      ],
      [
        "com",
        -8.071847676292434
      ],
      [
        "ent",
        -8.078863594624792
      ],
      [
        "Wh",
        -8.085277000393765
      ],
      [
        "form",
        -8.0910883634065
      ],
      [
        "believe",
        -8.10170209965709
      ],
      [
        "under",
        -8.103797281716727
      ],
      [
        "tic",
        -8.105674453504648
      ],
      [
        "sort",
        -8.105782297725632
      ],
      [
        "home",
        -8.106091543477955
      ],
      [
        "line",
        -8.107075553558394
      ],
      [
        "number",
        -8.128058673155774
      ],
      [
        "side",
        -8.137147010331823
      ],
      [
        "four",
        -8.142618360282833
      ],
      [
        "ough",
        -8.143119024147154
      ],
      [
        "understand",
        -8.143375701515179
      ],
      [
        "high",
        -8.151685771886212
      ],
      [
        "wome",
        -8.158004701879385
      ],
      [
        "become",
        -8.159237758987839
      ],
      [
        "feel",
        -8.165789299067344
      ],
      [
        "x",
        -8.167329798825136
      ],
      [
        "ize",
        -8.167798308883347
      ],
      [
        "second",
        -8.172542499631726
      ],
      [
        "men",
        -8.184010283038093
      ],
      [
        "space",
        -8.193711718244241
      ],
      [
        "power",
        -8.196173547470348
      ],
      [
        "person",
        -8.198885310256546
      ],
      [
        "ook",
        -8.202214180019674
      ],
      [
        "head",
        -8.202570126891551
      ],
      [
        "No",
        -8.215403663404029
      ],
      [
        "aking",
        -8.223357898005101
      ],
      [
        "ear",
        -8.244694969363074
      ],
      [
        "money",
        -8.250620828053275
      ],
      [
        "using",
        -8.250877439608903
      ],
      [
        "j",
        -8.26422966333383
      ],
      [
        "move",
        -8.264425388934846
      ],
      [
        "alway",
        -8.266677699293396
      ],
      [
        "whole",
        -8.2724783333151
      ],
      [
        "3",
        -8.274457315376237
      ],
      [
        "reason",
        -8.279577698501718
      ],
      [
        "experience",
        -8.281960457799986
      ],
      [
        "art",
        -8.282527638061262
      ],
      [
        "mind",
        -8.282739758648155
      ],
      [
        "hard",
        -8.284820929301148
      ],
      [
        "working",
        -8.290463797123667
      ],
      [
        "cross",
        -8.292113536601438
      ],
      [
        "open",
        -8.294340533279925
      ],
      [
        "project",
        -8.295063306706034
      ],
      [
        "information",
        -8.300026009581929
      ],
      [
        "food",
        -8.30020588285402
      ],
      [
        "case",
        -8.301336139983697
      ],
      [
        "guy",
        -8.303532999723949
      ],
      [
        "L",
        -8.313830686059948
      ],
      [
        "health",
        -8.31567900301755
      ],
      [
        "1",
        -8.319322370263755
      ],
      [
        "country",
        -8.321901882884898
      ],
      [
        "amp",
        -8.32314011189181
      ],
      [
        "For",
        -8.327044728511268
      ],
      [
        "Ma",
        -8.332697691200242
      ],
      [
        "kids",
        -8.336001322911091
      ],
      [
        "room",
        -8.338499286514203
      ],
      [
        "large",
        -8.338502236791413
      ],
      [
        "five",
        -8.338639324636237
      ],
      [
        "grow",
        -8.34333396780317
      ],
      [
        "ance",
        -8.34581947288224
      ],
      [
        "moment",
        -8.350367528274994
      ],
      [
        "develop",
        -8.35610515678961
      ],
      [
        "My",
        -8.357873404168213
      ],
      [
        "social",
        -8.36297225983567
      ],
      [
        "process",
        -8.363611282747758
      ],
      [
        "act",
        -8.363644293854488
      ],
      [
        "building",
        -8.365811519951194
      ],
      [
        "dollar",
        -8.366705939081651
      ],
      [
        "ice",
        -8.368857170111383
      ],
      [
        "done",
        -8.370444395760874
      ],
      [
        "walk",
        -8.371048971791012
      ],
      [
        "ge",
        -8.385855815030974
      ],
      [
        "famil",
        -8.390327886072335
      ],
      [
        "away",
        -8.391936256468913
      ],
      [
        "She",
        -8.392134473096334
      ],
      [
        "coming",
        -8.39517238531586
      ],
      [
        "top",
        -8.3976676722457
      ],
      [
        "sense",
        -8.397999706754746
      ],
      [
        "ca",
        -8.399276407194531
      ],
      [
        "future",
        -8.403446541850446
      ],
      [
        "small",
        -8.409702551269316
      ],
      [
        "computer",
        -8.416045703707598
      ],
      [
        "science",
        -8.421215021113447
      ],
      [
        "energ",
        -8.4223363435683
      ],
      [
        "war",
        -8.42774212180932
      ],
      [
        "5",
        -8.428421601175682
      ],
      [
        "land",
        -8.428504769545702
      ],
      [
        "hi",
        -8.428681996760455
      ],
      [
        "quite",
        -8.429390755223169
      ],
      [
        "!",
        -8.439304375498867
      ],
      [
        "air",
        -8.439463427667118
      ],
      [
        "state",
        -8.440101989247367
      ],
      [
        "ill",
        -8.443901671363014
      ],
      [
        "name",
        -8.447030419096759
      ],
      [
        "share",
        -8.448979756764471
      ],
      [
        "bring",
        -8.450175254707958
      ],
      [
        "group",
        -8.45193627594049
      ],
      [
        "answer",
        -8.453275243676245
      ],
      [
        "left",
        -8.454296232129707
      ],
      [
        "communit",
        -8.456566559110207
      ],
      [
        "ran",
        -8.460602430468164
      ],
      [
        "ha",
        -8.46189873848236
      ],
      [
        "ary",
        -8.46252311577145
      ],
      [
        "4",
        -8.466974072443236
      ],
      [
        "pre",
        -8.467340826453707
      ],
      [
        "keep",
        -8.471797067224667
      ],
      [
        "pro",
        -8.475128313948039
      ],
      [
        "basic",
        -8.475300664582374
      ],
      [
        "month",
        -8.47732366769024
      ],
      [
        "face",
        -8.48000953875362
      ],
      [
        "care",
        -8.481265007551835
      ],
      [
        "image",
        -8.481318296926094
      ],
      [
        "build",
        -8.483305619731563
      ],
      [
        "best",
        -8.486103259755216
      ],
      [
        "allow",
        -8.48663530219161
      ],
      [
        "50",
        -8.49080825881149
      ],
      [
        "These",
        -8.4973968421148
      ],
      [
        "200",
        -8.500731242290154
      ],
      [
        "simple",
        -8.501700901402485
      ],
      [
        "probabl",
        -8.501722712622758
      ],
      [
        "rate",
        -8.505776217852201
      ],
      [
        "game",
        -8.518847838288824
      ],
      [
        "book",
        -8.522692448714507
      ],
      [
        "half",
        -8.52391378542682
      ],
      [
        "minute",
        -8.527509821659404
      ],
      [
        "abilit",
        -8.528538527732819
      ],
      [
        "rying",
        -8.530385910880407
      ],
      [
        "6",
        -8.530528425058506
      ],
      [
        "job",
        -8.531337234117114
      ],
      [
        "countr",
        -8.531998158722557
      ],
      [
        "business",
        -8.532507264020971
      ],
      [
        "issue",
        -8.541542270756032
      ],
      [
        "close",
        -8.541612865304415
      ],
      [
        "die",
        -8.542741404614954
      ],
      [
        "retty",
        -8.543257865165511
      ],
      [
        "sure",
        -8.544617321607856
      ],
      [
        "ical",
        -8.546512172974673
      ],
      [
        "possibl",
        -8.547822666861979
      ],
      [
        "ile",
        -8.549991372374521
      ],
      [
        "interesting",
        -8.55215185226023
      ],
      [
        "ating",
        -8.553927635568092
      ],
      [
        "house",
        -8.555595351013867
      ],
      [
        "billion",
        -8.55671572415529
      ],
      [
        "piece",
        -8.560444473635819
      ],
      [
        "Re",
        -8.561053269527791
      ],
      [
        "music",
        -8.5612559140018
      ],
      [
        "los",
        -8.562164750980603
      ],
      [
        "Let",
        -8.569801954255077
      ],
      [
        "else",
        -8.572366895655904
      ],
      [
        "week",
        -8.572637578315767
      ],
      [
        "hour",
        -8.577731198059478
      ],
      [
        "matter",
        -8.579966558875512
      ],
      [
        "societ",
        -8.580009127572684
      ],
      [
        "realize",
        -8.580733255586086
      ],
      [
        "while",
        -8.581268005396968
      ],
      [
        "low",
        -8.58391113378395
      ],
      [
        "8",
        -8.585054924535008
      ],
      [
        "saw",
        -8.589777602932209
      ],
      [
        "animal",
        -8.590517710026242
      ],
      [
        "93",
        -8.594452146762297
      ],
      [
        "TED",
        -8.594478649951174
      ],
      [
        "lives",
        -8.596281716701402
      ],
      [
        "kill",
        -8.597480363875526
      ],
      [
        "test",
        -8.597941380802727
      ],
      [
        "run",
        -8.599228826913324
      ],
      [
        "global",
        -8.603872324285113
      ],
      [
        "stuff",
        -8.608336482584683
      ],
      [
        "30",
        -8.609875801395006
      ],
      [
        "language",
        -8.61197497919726
      ],
      [
        "living",
        -8.612409172990304
      ],
      [
        "video",
        -8.61335975447486
      ],
      [
        "seem",
        -8.614730256320092
      ],
      [
        "model",
        -8.61658549450743
      ],
      [
        "public",
        -8.618777723018916
      ],
      [
        "pos",
        -8.619192896636541
      ],
      [
        "though",
        -8.619325316199962
      ],
      [
        "bad",
        -8.620660507871607
      ],
      [
        "young",
        -8.621102961515373
      ],
      [
        "91",
        -8.621710313741278
      ],
      [
        "night",
        -8.622142014818198
      ],
      [
        "gra",
        -8.623750808049985
      ],
      [
        "complete",
        -8.627002999931815
      ],
      [
        "ke",
        -8.628989316409754
      ],
      [
        "far",
        -8.630690473168531
      ],
      [
        "base",
        -8.635252530739052
      ],
      [
        "certain",
        -8.635296118693972
      ],
      [
        "New",
        -8.635507871939698
      ],
      [
        "city",
        -8.636194211340806
      ],
      [
        "bu",
        -8.637887074897003
      ],
      [
        "hav",
        -8.638024293507701
      ],
      [
        "inside",
        -8.641492141952469
      ],
      [
        "later",
        -8.64187948157577
      ],
      [
        "7",
        -8.648940332399691
      ],
      [
        "La",
        -8.65041367088515
      ],
      [
        "level",
        -8.65068309363037
      ],
      [
        "Al",
        -8.653717310527668
      ],
      [
        "student",
        -8.656334400177126
      ],
      [
        "American",
        -8.659467544030441
      ],
      [
        "view",
        -8.661534502611829
      ],
      [
        "ingle",
        -8.661870185336355
      ],
      [
        "watch",
        -8.663451356555434
      ],
      [
        "late",
        -8.665057008595817
      ],
      [
        "government",
        -8.665114943342843
      ],
      [
        "gu",
        -8.66799381671034
      ],
      [
        "hope",
        -8.671399135694042
      ],
      [
        "wrong",
        -8.672049308567154
      ],
      [
        "particular",
        -8.674932980672441
      ],
      [
        "All",
        -8.676826353334214
      ],
      [
        "term",
        -8.682331097678606
      ],
      [
        "control",
        -8.682760951926301
      ],
      [
        "picture",
        -8.68634111780949
      ],
      [
        "oil",
        -8.686382149219563
      ],
      [
        "girl",
        -8.686555200704188
      ],
      [
        "elve",
        -8.687157965265055
      ],
      [
        "whe",
        -8.687919591873555
      ],
      [
        "ather",
        -8.690012951181444
      ],
      [
        "ide",
        -8.691392411232052
      ],
      [
        "19",
        -8.693071883402471
      ],
      [
        "once",
        -8.696503376648122
      ],
      [
        "ful",
        -8.696905569125935
      ],
      [
        "An",
        -8.698205835659834
      ],
      [
        "special",
        -8.707432494607405
      ],
      [
        "often",
        -8.71239810957524
      ],
      [
        "machine",
        -8.713201964123343
      ],
      [
        "imagine",
        -8.71428857397164
      ],
      [
        "thousand",
        -8.714705916199147
      ],
      [
        "six",
        -8.727283645266294
      ],
      [
        "heart",
        -8.728170094616592
      ],
      [
        "remember",
        -8.730403203033141
      ],
      [
        "spend",
        -8.731873515801443
      ],
      [
        "interest",
        -8.732123358236578
      ],
      [
        "study",
        -8.737505562383975
      ],
      [
        "difference",
        -8.739038199224934
      ],
      [
        "material",
        -8.739038976894527
      ],
      [
        "histor",
        -8.742480704268493
      ],
      [
        "planet",
        -8.748783836139062
      ],
      [
        "ck",
        -8.749918554554522
      ],
      [
        "inter",
        -8.75995617071528
      ],
      [
        "true",
        -8.764084931072269
      ],
      [
        "V",
        -8.767143094536674
      ],
      [
        "Le",
        -8.76736460209262
      ],
      [
        "figure",
        -8.768750326561218
      ],
      [
        "ated",
        -8.769699671947713
      ],
      [
        "words",
        -8.773048063685174
      ],
      [
        "ick",
        -8.77455681303245
      ],
      [
        "free",
        -8.77534073272609
      ],
      [
        "word",
        -8.779213566769325
      ],
      [
        "saying",
        -8.780325867956083
      ],
      [
        "9",
        -8.780615041179939
      ],
      [
        "education",
        -8.781497715187946
      ],
      [
        "Africa",
        -8.781730269749138
      ],
      [
        "order",
        -8.78210285751475
      ],
      [
        "nothing",
        -8.783222900083729
      ],
      [
        "cost",
        -8.786231692241548
      ],
      [
        "parent",
        -8.787797048128116
      ],
      [
        "both",
        -8.789361395246388
      ],
      [
        "disease",
        -8.789562282536213
      ],
      [
        "exact",
        -8.79012759255533
      ],
      [
        "force",
        -8.790655416237511
      ],
      [
        "spec",
        -8.79094686679926
      ],
      [
        "rest",
        -8.791975999493605
      ],
      [
        "lie",
        -8.796290695125288
      ],
      [
        "discover",
        -8.797851955520752
      ],
      [
        "happens",
        -8.799256356502596
      ],
      [
        "cu",
        -8.800076392975786
      ],
      [
        "ail",
        -8.80286217062913
      ],
      [
        "market",
        -8.803192596514556
      ],
      [
        "individual",
        -8.804244109138939
      ],
      [
        "research",
        -8.807931999693455
      ],
      [
        "buil",
        -8.811044995169606
      ],
      [
        "ship",
        -8.811212678018723
      ],
      [
        "entire",
        -8.812542902225989
      ],
      [
        "ard",
        -8.813263081115567
      ],
      [
        "couple",
        -8.815815202487656
      ],
      [
        "amazing",
        -8.817478501363627
      ],
      [
        "ure",
        -8.819043943919107
      ],
      [
        "beautiful",
        -8.825839901555076
      ],
      [
        "State",
        -8.826200675822166
      ],
      [
        "patient",
        -8.827520802699503
      ],
      [
        "sound",
        -8.834030726088804
      ],
      [
        "Earth",
        -8.834275099577631
      ],
      [
        "full",
        -8.835662883721977
      ],
      [
        "mother",
        -8.843118786047576
      ],
      [
        "past",
        -8.844281395204217
      ],
      [
        "par",
        -8.84443705777677
      ],
      [
        "pay",
        -8.845086679009768
      ],
      [
        "front",
        -8.845816421767353
      ],
      [
        "ster",
        -8.845982771597644
      ],
      [
        "environment",
        -8.846952710647045
      ],
      [
        "value",
        -8.847970403939616
      ],
      [
        "decided",
        -8.849909756953625
      ],
      [
        "torie",
        -8.85056065745863
      ],
      [
        "speak",
        -8.855271835898169
      ],
      [
        "hold",
        -8.859479260039038
      ],
      [
        "experiment",
        -8.863483089397695
      ],
      [
        "times",
        -8.86531002974212
      ],
      [
        "Or",
        -8.866539481938041
      ],
      [
        "universe",
        -8.866977337411289
      ],
      [
        "final",
        -8.871770733481938
      ],
      [
        "follow",
        -8.874023063875509
      ],
      [
        "leg",
        -8.875622314364684
      ],
      [
        "100",
        -8.877357346982214
      ],
      [
        "hundred",
        -8.877530966505216
      ],
      [
        "program",
        -8.877593574072664
      ],
      [
        "Unite",
        -8.88216286383268
      ],
      [
        "culture",
        -8.884654256390242
      ],
      [
        "makes",
        -8.88537424419954
      ],
      [
        "team",
        -8.885904209836347
      ],
      [
        "result",
        -8.891779344744258
      ],
      [
        "Oka",
        -8.893147243901723
      ],
      [
        "stop",
        -8.893184355651389
      ],
      [
        "ways",
        -8.894117566512854
      ],
      [
        "solution",
        -8.895372394175794
      ],
      [
        "economic",
        -8.89884442376991
      ],
      [
        "uring",
        -8.899501888023648
      ],
      [
        "cancer",
        -8.902754694590534
      ],
      [
        "huge",
        -8.90442629037545
      ],
      [
        "woman",
        -8.906461354413773
      ],
      [
        "Every",
        -8.910742964360171
      ],
      [
        "clear",
        -8.91717006711584
      ],
      [
        "step",
        -8.917958606104945
      ],
      [
        "personal",
        -8.91911105580268
      ],
      [
        "centur",
        -8.921452012567316
      ],
      [
        "que",
        -8.921992492757408
      ],
      [
        "ideas",
        -8.922108480883924
      ],
      [
        "ade",
        -8.923121233462657
      ],
      [
        "focus",
        -8.930206329503486
      ],
      [
        "law",
        -8.930221837291867
      ],
      [
        "fel",
        -8.931530205634754
      ],
      [
        "produce",
        -8.93495691650129
      ],
      [
        "quick",
        -8.936053444622672
      ],
      [
        "Do",
        -8.936280355194981
      ],
      [
        "rap",
        -8.936976827492263
      ],
      [
        "taking",
        -8.93949893484427
      ],
      [
        "deal",
        -8.940358806826334
      ],
      [
        "must",
        -8.940842364470694
      ],
      [
        "phone",
        -8.94137151028438
      ],
      [
        "happ",
        -8.943014356015432
      ],
      [
        "friends",
        -8.943634017198045
      ],
      [
        "gan",
        -8.945001213249293
      ],
      [
        "Internet",
        -8.945198182644965
      ],
      [
        "friend",
        -8.954374818727178
      ],
      [
        "product",
        -8.957104379497853
      ],
      [
        "type",
        -8.957826912585137
      ],
      [
        "teacher",
        -8.95915211268311
      ],
      [
        "behavior",
        -8.960451221932473
      ],
      [
        "pass",
        -8.960854654742349
      ],
      [
        "leave",
        -8.962396635975225
      ],
      [
        "China",
        -8.965303255923882
      ],
      [
        "—",
        -8.968165689348053
      ],
      [
        "les",
        -8.969015731951
      ],
      [
        "class",
        -8.971814718626298
      ],
      [
        "population",
        -8.973990971952091
      ],
      [
        "challenge",
        -8.97475439303222
      ],
      [
        "plan",
        -8.97661675057169
      ],
      [
        "break",
        -8.980313131795654
      ],
      [
        "leas",
        -8.982473745289035
      ],
      [
        "ble",
        -8.984214302446325
      ],
      [
        "scientist",
        -8.98574426230333
      ],
      [
        "third",
        -8.991965363987841
      ],
      [
        "nature",
        -8.99422201115635
      ],
      [
        "natural",
        -8.995652395579508
      ],
      [
        "mov",
        -8.996867529021909
      ],
      [
        "happening",
        -8.997946762079327
      ],
      [
        "ver",
        -9.006473483715183
      ],
      [
        "paper",
        -9.007862770389526
      ],
      [
        "listen",
        -9.011811122910771
      ],
      [
        "Pa",
        -9.01341262395811
      ],
      [
        "cut",
        -9.015672055551786
      ],
      [
        "since",
        -9.016240851773318
      ],
      [
        "ach",
        -9.016744432898617
      ],
      [
        "Ro",
        -9.024724310241837
      ],
      [
        "structure",
        -9.025950658108119
      ],
      [
        "network",
        -9.03022664273808
      ],
      [
        "film",
        -9.032128046752272
      ],
      [
        "color",
        -9.033446355991682
      ],
      [
        "lead",
        -9.034774657446146
      ],
      [
        "media",
        -9.035953011206253
      ],
      [
        "opportunit",
        -9.036260039105727
      ],
      [
        "qu",
        -9.039272352235152
      ],
      [
        "explain",
        -9.040506109925289
      ],
      [
        "object",
        -9.042497061564477
      ],
      [
        "Some",
        -9.04288352835406
      ],
      [
        "company",
        -9.044591330793223
      ],
      [
        "sometime",
        -9.045533585767647
      ],
      [
        "ious",
        -9.045563769039802
      ],
      [
        "plant",
        -9.048902130758293
      ],
      [
        "key",
        -9.049465824074195
      ],
      [
        "Oh",
        -9.051149412350414
      ],
      [
        "mine",
        -9.053929298200778
      ],
      [
        "India",
        -9.054622956455862
      ],
      [
        "America",
        -9.056765084471941
      ],
      [
        "difficult",
        -9.061444986930422
      ],
      [
        "15",
        -9.061957597484064
      ],
      [
        "drug",
        -9.062214683912494
      ],
      [
        "bigge",
        -9.062894438406252
      ],
      [
        "ground",
        -9.063332894504352
      ],
      [
        "father",
        -9.070392520642864
      ],
      [
        "ried",
        -9.071208284095022
      ],
      [
        "sub",
        -9.07140094222984
      ],
      [
        "haps",
        -9.072663310076027
      ],
      [
        "star",
        -9.072936221246856
      ],
      [
        "eight",
        -9.07374218914391
      ],
      [
        "ger",
        -9.07614565060539
      ],
      [
        "voice",
        -9.076578788389579
      ],
      [
        "powerful",
        -9.076850738763733
      ],
      [
        "outside",
        -9.077536462162271
      ],
      [
        "cap",
        -9.077939134826188
      ],
      [
        "arm",
        -9.078578335706172
      ],
      [
        "amount",
        -9.078597894969782
      ],
      [
        "ory",
        -9.08115270733263
      ],
      [
        "ap",
        -9.081603053007468
      ],
      [
        "short",
        -9.081929051504625
      ],
      [
        "shape",
        -9.083280778560606
      ],
      [
        "God",
        -9.087791272638107
      ],
      [
        "gav",
        -9.088645192238737
      ],
      [
        "oursel",
        -9.089047789158563
      ],
      [
        "deep",
        -9.089145693510673
      ],
      [
        "robot",
        -9.092989468241012
      ],
      [
        "ence",
        -9.093395664506424
      ],
      [
        "risk",
        -9.099108991146426
      ],
      [
        "field",
        -9.100552915653948
      ],
      [
        "add",
        -9.100623385618054
      ],
      [
        "creat",
        -9.101899023330247
      ],
      [
        "itting",
        -9.104136407546026
      ],
      [
        "stage",
        -9.104195557438437
      ],
      [
        "solve",
        -9.109200411467192
      ],
      [
        "race",
        -9.10956707676866
      ],
      [
        "hind",
        -9.111347885799056
      ],
      [
        "green",
        -9.111698241070858
      ],
      [
        "buy",
        -9.111846524825719
      ],
      [
        "tention",
        -9.114058988212488
      ],
      [
        "40",
        -9.11521121670562
      ],
      [
        "red",
        -9.115312483639535
      ],
      [
        "scale",
        -9.115675270220201
      ],
      [
        "death",
        -9.11588221533722
      ],
      [
        "ping",
        -9.116820147744736
      ],
      [
        "fear",
        -9.118748986917966
      ],
      [
        "engineer",
        -9.119037532590582
      ],
      [
        "rule",
        -9.120938584495317
      ],
      [
        "wait",
        -9.121344985687758
      ],
      [
        "port",
        -9.123191626486845
      ],
      [
        "learning",
        -9.123730677261314
      ],
      [
        "cha",
        -9.126200907385904
      ],
      [
        "decision",
        -9.12733051552059
      ],
      [
        "black",
        -9.128289670196622
      ],
      [
        "ang",
        -9.130094504542313
      ],
      [
        "Ch",
        -9.133324274367723
      ],
      [
        "size",
        -9.136679069282952
      ],
      [
        "action",
        -9.138179365612835
      ],
      [
        "exist",
        -9.146988738498427
      ],
      [
        "box",
        -9.152789533940545
      ],
      [
        "middle",
        -9.152911846488568
      ],
      [
        "photograph",
        -9.15379601257067
      ],
      [
        "local",
        -9.155139171367644
      ],
      [
        "yourself",
        -9.156857394876958
      ],
      [
        "York",
        -9.15751105608465
      ],
      [
        "boy",
        -9.158361429095056
      ],
      [
        "ball",
        -9.158768494076849
      ],
      [
        "fight",
        -9.15896513350379
      ],
      [
        "imply",
        -9.161562369349848
      ],
      [
        "companie",
        -9.16197673089162
      ],
      [
        "fire",
        -9.163285093868414
      ],
      [
        "political",
        -9.16334494830668
      ],
      [
        "feeling",
        -9.163752448694177
      ],
      [
        "dream",
        -9.164452579838695
      ],
      [
        "longe",
        -9.166753594010965
      ],
      [
        "choice",
        -9.16908800553791
      ],
      [
        "normal",
        -9.169107386212584
      ],
      [
        "drive",
        -9.172394741404291
      ],
      [
        "safe",
        -9.175120858306842
      ],
      [
        "path",
        -9.179564864137518
      ],
      [
        "poor",
        -9.180450715689886
      ],
      [
        "recent",
        -9.18345636706826
      ],
      [
        "12",
        -9.183883290507039
      ],
      [
        "street",
        -9.185522482580325
      ],
      [
        "cop",
        -9.185626561391523
      ],
      [
        "memor",
        -9.187367346844862
      ],
      [
        "pick",
        -9.18782418760502
      ],
      [
        "econom",
        -9.188217782911156
      ],
      [
        "present",
        -9.18829633668071
      ],
      [
        "stead",
        -9.18941791536366
      ],
      [
        "knowledge",
        -9.190587189792787
      ],
      [
        "common",
        -9.190713473764568
      ],
      [
        "manage",
        -9.190979036069237
      ],
      [
        "generation",
        -9.190983505817085
      ],
      [
        "fall",
        -9.192628995451376
      ],
      [
        "relationship",
        -9.193058964766978
      ],
      [
        "nce",
        -9.193175254465164
      ],
      [
        "lab",
        -9.193712913860843
      ],
      [
        "cent",
        -9.19375264677587
      ],
      [
        "support",
        -9.195545464421421
      ],
      [
        "mate",
        -9.19590498258344
      ],
      [
        "eyes",
        -9.201640580263721
      ],
      [
        "save",
        -9.202707265936796
      ],
      [
        "along",
        -9.205548432462134
      ],
      [
        "major",
        -9.207658316144197
      ],
      [
        "app",
        -9.214556406104709
      ],
      [
        "uck",
        -9.215860802825125
      ],
      [
        "given",
        -9.217528647677916
      ],
      [
        "source",
        -9.21774686687949
      ],
      [
        "sun",
        -9.218190762115995
      ],
      [
        "physical",
        -9.218551094105244
      ],
      [
        "pattern",
        -9.220033475146156
      ],
      [
        "device",
        -9.220033654761135
      ],
      [
        "vision",
        -9.220255177392895
      ],
      [
        "sign",
        -9.220558328801527
      ],
      [
        "reach",
        -9.220632279158156
      ],
      [
        "super",
        -9.221604220531898
      ],
      [
        "hands",
        -9.222639067932917
      ],
      [
        "board",
        -9.222704888871021
      ],
      [
        "strong",
        -9.222784470675341
      ],
      [
        "gen",
        -9.223033509295027
      ],
      [
        "stay",
        -9.223812231499462
      ],
      [
        "gene",
        -9.226593053623013
      ],
      [
        "olar",
        -9.227777514271004
      ],
      [
        "ler",
        -9.228388327268753
      ],
      [
        "ight",
        -9.229727103938343
      ],
      [
        "obvious",
        -9.235090146205382
      ],
      [
        "access",
        -9.235090232744078
      ],
      [
        "perfect",
        -9.237623123038041
      ],
      [
        "mission",
        -9.238337004543016
      ],
      [
        "ither",
        -9.242437768322041
      ],
      [
        "doctor",
        -9.242707564338673
      ],
      [
        "wonderful",
        -9.24287542496348
      ],
      [
        "imp",
        -9.24328712090508
      ],
      [
        "led",
        -9.251246715141313
      ],
      [
        "train",
        -9.252162894126947
      ],
      [
        "record",
        -9.252822009168941
      ],
      [
        "People",
        -9.252947915746594
      ],
      [
        "ative",
        -9.253608813382584
      ],
      [
        "spen",
        -9.25366287629
      ],
      [
        "artist",
        -9.254229851410056
      ],
      [
        "condition",
        -9.255525403720535
      ],
      [
        "thank",
        -9.257190779785883
      ],
      [
        "direct",
        -9.257303600591335
      ],
      [
        "beginning",
        -9.258200349850917
      ],
      [
        "bar",
        -9.258504874982496
      ],
      [
        "organization",
        -9.263350696814367
      ],
      [
        "write",
        -9.264611737200674
      ],
      [
        "works",
        -9.265908529025733
      ],
      [
        "ward",
        -9.267150911430251
      ],
      [
        "resource",
        -9.271109951287018
      ],
      [
        "fun",
        -9.27484384539356
      ],
      [
        "18",
        -9.275185441548768
      ],
      [
        "born",
        -9.27609444338114
      ],
      [
        "sleep",
        -9.277422862498465
      ],
      [
        "growth",
        -9.277929351032824
      ],
      [
        "begin",
        -9.281241385313532
      ],
      [
        "center",
        -9.283085539579488
      ],
      [
        "depend",
        -9.283712758929774
      ],
      [
        "unti",
        -9.284197530383723
      ],
      [
        "rain",
        -9.285534994737272
      ],
      [
        "map",
        -9.285915146877333
      ],
      [
        "raise",
        -9.286417078126707
      ],
      [
        "pen",
        -9.28650458858862
      ],
      [
        "wonder",
        -9.286827021805607
      ],
      [
        "service",
        -9.287140626695358
      ],
      [
        "cover",
        -9.289251084782443
      ],
      [
        "treat",
        -9.290048844820841
      ],
      [
        "complex",
        -9.290481461224411
      ],
      [
        "Yea",
        -9.290945814093284
      ],
      [
        "aster",
        -9.291293375076311
      ],
      [
        "effect",
        -9.291824508936314
      ],
      [
        "pri",
        -9.29466177476474
      ],
      [
        "serve",
        -9.294922313849533
      ],
      [
        "position",
        -9.296391202918686
      ],
      [
        "Y",
        -9.297208031546358
      ],
      [
        "fast",
        -9.2991575275564
      ],
      [
        "consider",
        -9.300547340226377
      ],
      [
        "includ",
        -9.303090139918245
      ],
      [
        "violen",
        -9.303809606399547
      ],
      [
        "rought",
        -9.30397988322713
      ],
      [
        "measure",
        -9.30536621393185
      ],
      [
        "tree",
        -9.305787383940718
      ],
      [
        "spread",
        -9.30581729042878
      ],
      [
        "Just",
        -9.307594041382234
      ],
      [
        "chang",
        -9.30838539094411
      ],
      [
        "notice",
        -9.311401732123885
      ],
      [
        "main",
        -9.316264374733349
      ],
      [
        "taken",
        -9.317422367643847
      ],
      [
        "cool",
        -9.31865864149661
      ],
      [
        "60",
        -9.31919437788682
      ],
      [
        "absolute",
        -9.31946152178877
      ],
      [
        "Lo",
        -9.32170044168669
      ],
      [
        "near",
        -9.32357153825454
      ],
      [
        "Yes",
        -9.328817108599745
      ],
      [
        "forward",
        -9.329400752323618
      ],
      [
        "aught",
        -9.330143626697769
      ],
      [
        "function",
        -9.330582437706386
      ],
      [
        "door",
        -9.331297086200815
      ],
      [
        "unning",
        -9.331322536523407
      ],
      [
        "road",
        -9.331902701491874
      ],
      [
        "travel",
        -9.333314148041755
      ],
      [
        "impact",
        -9.333607171995512
      ],
      [
        "giving",
        -9.33366034206858
      ],
      [
        "ization",
        -9.337264636265509
      ],
      [
        "fish",
        -9.341383711248463
      ],
      [
        "ocean",
        -9.341780806580537
      ],
      [
        "movement",
        -9.343286946225291
      ],
      [
        "kid",
        -9.344828062228753
      ],
      [
        "morning",
        -9.34737785913546
      ],
      [
        "worth",
        -9.348131914744187
      ],
      [
        "tend",
        -9.349217605430086
      ],
      [
        "blue",
        -9.353034672792438
      ],
      [
        "micro",
        -9.353284614966825
      ],
      [
        "Our",
        -9.354723154888148
      ],
      [
        "Can",
        -9.355791371104836
      ],
      [
        "average",
        -9.355899923218898
      ],
      [
        "dead",
        -9.356538614930898
      ],
      [
        "connect",
        -9.358671403184928
      ],
      [
        "potential",
        -9.358737232667691
      ],
      [
        "80",
        -9.361962485311654
      ],
      [
        "office",
        -9.362987498653194
      ],
      [
        "press",
        -9.363586002602833
      ],
      [
        "wide",
        -9.363944926654433
      ],
      [
        "uni",
        -9.366193657399915
      ],
      [
        "invent",
        -9.366725038396986
      ],
      [
        "approach",
        -9.367358062791215
      ],
      [
        "audience",
        -9.370289346709765
      ],
      [
        "moral",
        -9.37474123605859
      ],
      [
        "total",
        -9.375463461153444
      ],
      [
        "expect",
        -9.378224685190123
      ],
      [
        "hat",
        -9.378691817495856
      ],
      [
        "ium",
        -9.38257345847867
      ],
      [
        "elect",
        -9.38400889184631
      ],
      [
        "nice",
        -9.384458913971013
      ],
      [
        "lic",
        -9.386188000699324
      ],
      [
        "protect",
        -9.386958948292111
      ],
      [
        "rich",
        -9.387351722209488
      ],
      [
        "extreme",
        -9.387768866414474
      ],
      [
        "message",
        -9.387813922217582
      ],
      [
        "rote",
        -9.388975551844442
      ],
      [
        "English",
        -9.390716678277023
      ],
      [
        "Co",
        -9.391218522449913
      ],
      [
        "list",
        -9.391690769010879
      ],
      [
        "code",
        -9.391929338472107
      ],
      [
        "photo",
        -9.392186036964468
      ],
      [
        "store",
        -9.392810790844978
      ],
      [
        "smart",
        -9.393450723357263
      ],
      [
        "decade",
        -9.3966436085637
      ],
      [
        "general",
        -9.396834440488266
      ],
      [
        "DN",
        -9.397177354526836
      ],
      [
        "involve",
        -9.397760538272717
      ],
      [
        "ze",
        -9.398242260948752
      ],
      [
        "innovation",
        -9.39961883197493
      ],
      [
        "credible",
        -9.405598467146598
      ],
      [
        "qualit",
        -9.409030496754745
      ],
      [
        "provide",
        -9.409112817816016
      ],
      [
        "suggest",
        -9.411613493190972
      ],
      [
        "blood",
        -9.411613987137617
      ],
      [
        "situation",
        -9.411625884708869
      ],
      [
        "modern",
        -9.411634154202682
      ],
      [
        "ple",
        -9.411814403099836
      ],
      [
        "cur",
        -9.413126790523872
      ],
      [
        "rid",
        -9.414588185308721
      ],
      [
        "writing",
        -9.41464206292914
      ],
      [
        "gre",
        -9.418808277239389
      ],
      [
        "industr",
        -9.420775034923075
      ],
      [
        "equal",
        -9.42093027980627
      ],
      [
        "studie",
        -9.423782277946653
      ],
      [
        "Com",
        -9.423815817695758
      ],
      [
        "With",
        -9.424052449156278
      ],
      [
        "toward",
        -9.425186150260174
      ],
      [
        "forest",
        -9.425603352071729
      ],
      [
        "sudden",
        -9.42681083443117
      ],
      [
        "region",
        -9.42688543396006
      ],
      [
        "books",
        -9.427428072465533
      ],
      [
        "text",
        -9.430534723449416
      ],
      [
        "aria",
        -9.431588845427193
      ],
      [
        "graph",
        -9.432065740000038
      ],
      [
        "hole",
        -9.432336011908463
      ],
      [
        "affect",
        -9.432955594613293
      ],
      [
        "track",
        -9.433207080613416
      ],
      [
        "molecule",
        -9.434185870773678
      ],
      [
        "miss",
        -9.434748084069344
      ],
      [
        "Right",
        -9.436434428621993
      ],
      [
        "specific",
        -9.437312728632897
      ],
      [
        "rry",
        -9.438002156673342
      ],
      [
        "wall",
        -9.438066095082306
      ],
      [
        "dark",
        -9.441003544080614
      ],
      [
        "Chin",
        -9.441772127339553
      ],
      [
        "row",
        -9.443788811174006
      ],
      [
        "climate",
        -9.448483570647607
      ],
      [
        "continue",
        -9.44855093967805
      ],
      [
        "pull",
        -9.448690314178425
      ],
      [
        "represent",
        -9.44910231165047
      ],
      [
        "foot",
        -9.449806003785739
      ],
      [
        "/",
        -9.451618248341564
      ],
      [
        "concept",
        -9.451619106273935
      ],
      [
        "surface",
        -9.451687768644765
      ],
      [
        "fill",
        -9.454877379055453
      ],
      [
        "development",
        -9.454900439907362
      ],
      [
        "telling",
        -9.455221439769996
      ],
      [
        "ung",
        -9.45717046842275
      ],
      [
        "greate",
        -9.457787348052499
      ],
      [
        "Z",
        -9.457917476549266
      ],
      [
        "gone",
        -9.458726874075486
      ],
      [
        "chance",
        -9.459662526361772
      ],
      [
        "range",
        -9.461286094530255
      ],
      [
        "increase",
        -9.464257379395946
      ],
      [
        "understanding",
        -9.464396584983927
      ],
      [
        "hospital",
        -9.467441358333481
      ],
      [
        "success",
        -9.473613348036348
      ],
      [
        "bottom",
        -9.473841617971495
      ],
      [
        "stand",
        -9.475419459879227
      ],
      [
        "tools",
        -9.477498688121656
      ],
      [
        "song",
        -9.477509980472405
      ],
      [
        "25",
        -9.479972609119974
      ],
      [
        "effective",
        -9.480884312936826
      ],
      [
        "camera",
        -9.481395177821915
      ],
      [
        "qui",
        -9.483852283871812
      ],
      [
        "white",
        -9.486774190700388
      ],
      [
        "visual",
        -9.490036781765495
      ],
      [
        "literal",
        -9.490975176657487
      ],
      [
        "print",
        -9.491166294034404
      ],
      [
        "flu",
        -9.491566481010707
      ],
      [
        "Ra",
        -9.49315757752436
      ],
      [
        "page",
        -9.495355929825013
      ],
      [
        "ries",
        -9.497349198057702
      ],
      [
        "search",
        -9.499125289423777
      ],
      [
        "gas",
        -9.499190025775638
      ],
      [
        "conscious",
        -9.499859199431878
      ],
      [
        "fair",
        -9.499964288893343
      ],
      [
        "olog",
        -9.501532707623358
      ],
      [
        "Con",
        -9.502450965588837
      ],
      [
        "wish",
        -9.502899376034943
      ],
      [
        "join",
        -9.504463808805362
      ],
      [
        "alone",
        -9.5050646722778
      ],
      [
        "cal",
        -9.50653207151071
      ],
      [
        "trust",
        -9.506871029486952
      ],
      [
        "0",
        -9.507343389795288
      ],
      [
        "hip",
        -9.50954385717954
      ],
      [
        "strange",
        -9.509563296280307
      ],
      [
        "democrac",
        -9.509792920559441
      ],
      [
        "park",
        -9.510287037888535
      ],
      [
        "ich",
        -9.512251131126165
      ],
      [
        "ki",
        -9.51269680668776
      ],
      [
        "truth",
        -9.51315244030798
      ],
      [
        "val",
        -9.513401992125557
      ],
      [
        "baby",
        -9.514682655172953
      ],
      [
        "World",
        -9.51982710806152
      ],
      [
        "agree",
        -9.52140390699386
      ],
      [
        "peace",
        -9.523194215525521
      ],
      [
        "factor",
        -9.5235410830294
      ],
      [
        "lay",
        -9.524874278512957
      ],
      [
        "current",
        -9.52659262576487
      ],
      [
        "guess",
        -9.52669352075808
      ],
      [
        "meet",
        -9.5269940320639
      ],
      [
        "lose",
        -9.527571686137579
      ],
      [
        "collect",
        -9.528654700113414
      ],
      [
        "fail",
        -9.528832183173337
      ],
      [
        "demo",
        -9.529359306955186
      ],
      [
        "Where",
        -9.529558842789982
      ],
      [
        "Go",
        -9.529916186541417
      ],
      [
        "known",
        -9.529939177414285
      ],
      [
        "offer",
        -9.530738341415606
      ],
      [
        "wind",
        -9.532357538948695
      ],
      [
        "ped",
        -9.53287296960318
      ],
      [
        "conflict",
        -9.533363102962804
      ],
      [
        "Of",
        -9.533535401361286
      ],
      [
        "news",
        -9.534933522284213
      ],
      [
        "lots",
        -9.536760080735323
      ],
      [
        "essential",
        -9.536776269044264
      ],
      [
        "mass",
        -9.537617548067416
      ],
      [
        "fund",
        -9.538006146475503
      ],
      [
        "meter",
        -9.538260759112294
      ],
      [
        "magic",
        -9.540256336668785
      ],
      [
        "online",
        -9.541109493611188
      ],
      [
        "table",
        -9.541983777189031
      ],
      [
        "hel",
        -9.542626004557498
      ],
      [
        "connected",
        -9.542748502041267
      ],
      [
        "mental",
        -9.542942747301318
      ],
      [
        "fine",
        -9.543058160632558
      ],
      [
        "11",
        -9.543206807264703
      ],
      [
        "highe",
        -9.544367969789278
      ],
      [
        "conversation",
        -9.547085751638331
      ],
      [
        "engage",
        -9.547317520912927
      ],
      [
        "istan",
        -9.550079760492714
      ],
      [
        "describe",
        -9.550573736512648
      ],
      [
        "movie",
        -9.551485395703775
      ],
      [
        "und",
        -9.553523006628033
      ],
      [
        "touch",
        -9.55558174396115
      ],
      [
        "author",
        -9.557503967986193
      ],
      [
        "avail",
        -9.557539344969115
      ],
      [
        "carbon",
        -9.55757174878595
      ],
      [
        "log",
        -9.559174639965974
      ],
      [
        "Google",
        -9.560998644096163
      ],
      [
        "village",
        -9.56100163251423
      ],
      [
        "require",
        -9.561044636060334
      ],
      [
        "unt",
        -9.56190456504049
      ],
      [
        "pain",
        -9.562189832199408
      ],
      [
        "activit",
        -9.564516865362545
      ],
      [
        "OK",
        -9.566445593989135
      ],
      [
        "connection",
        -9.569021230478494
      ],
      [
        "push",
        -9.569047217557745
      ],
      [
        "Di",
        -9.56914508957123
      ],
      [
        "benefit",
        -9.571562654028437
      ],
      [
        "leaders",
        -9.572569639434384
      ],
      [
        "Car",
        -9.574207700776686
      ],
      [
        "similar",
        -9.575108161008144
      ],
      [
        "subject",
        -9.578666880393769
      ],
      [
        "genetic",
        -9.579172809489563
      ],
      [
        "national",
        -9.58114513052627
      ],
      [
        "ray",
        -9.582282405103609
      ],
      [
        "South",
        -9.582596074364936
      ],
      [
        "miles",
        -9.583331855536532
      ],
      [
        "somebod",
        -9.584780730032282
      ],
      [
        "card",
        -9.585192838564343
      ],
      [
        "aware",
        -9.585558456238033
      ],
      [
        "incredibly",
        -9.585822537536036
      ],
      [
        "fundamental",
        -9.585825169998582
      ],
      [
        "kay",
        -9.585901867445308
      ],
      [
        "Li",
        -9.588124049003628
      ],
      [
        "core",
        -9.588708192378048
      ],
      [
        "screen",
        -9.589421913746914
      ],
      [
        "izing",
        -9.589875838672787
      ],
      [
        "slow",
        -9.590379557171639
      ],
      [
        "rise",
        -9.590442195503249
      ],
      [
        "Not",
        -9.59092456862419
      ],
      [
        "member",
        -9.592301006492983
      ],
      [
        "site",
        -9.59235680915701
      ],
      [
        "serious",
        -9.593039452563513
      ],
      [
        "revolution",
        -9.593361582991047
      ],
      [
        "70",
        -9.594905459739964
      ],
      [
        "journey",
        -9.596652972805948
      ],
      [
        "happiness",
        -9.59665707904382
      ],
      [
        "appear",
        -9.596976924634074
      ],
      [
        "dog",
        -9.597040945450894
      ],
      [
        "roll",
        -9.599575697134867
      ],
      [
        "draw",
        -9.600696092907489
      ],
      [
        "ju",
        -9.60166272848452
      ],
      [
        "Don",
        -9.606030493640649
      ],
      [
        "seven",
        -9.607765535246312
      ],
      [
        "tool",
        -9.609239946822438
      ],
      [
        "sex",
        -9.6096549291409
      ],
      [
        "evolution",
        -9.610030516174866
      ],
      [
        "favorite",
        -9.615006366403593
      ],
      [
        "report",
        -9.615853736858337
      ],
      [
        "digital",
        -9.618750834517666
      ],
      [
        "count",
        -9.620589795448799
      ],
      [
        "response",
        -9.622389707709502
      ],
      [
        "By",
        -9.624586184862917
      ],
      [
        "ntil",
        -9.629655109047743
      ],
      [
        "scientific",
        -9.629866303828575
      ],
      [
        "attack",
        -9.629918865604468
      ],
      [
        "ible",
        -9.629931652076056
      ],
      [
        "transform",
        -9.632186937167742
      ],
      [
        "van",
        -9.633367954441868
      ],
      [
        "intelligen",
        -9.633626859972352
      ],
      [
        "period",
        -9.633638064077973
      ],
      [
        "creative",
        -9.636692142556647
      ],
      [
        "ural",
        -9.637217517487635
      ],
      [
        "har",
        -9.637259657095473
      ],
      [
        "detail",
        -9.637414337022438
      ],
      [
        "among",
        -9.637423127152445
      ],
      [
        "abo",
        -9.639323767825108
      ],
      [
        "Europe",
        -9.64105680615625
      ],
      [
        "necessar",
        -9.641187169887834
      ],
      [
        "deliver",
        -9.641201596913053
      ],
      [
        "stick",
        -9.648166599446089
      ],
      [
        "nation",
        -9.648261082129315
      ],
      [
        "bird",
        -9.64881770454232
      ],
      [
        "teach",
        -9.648934520715454
      ],
      [
        "shift",
        -9.652843236453013
      ],
      [
        "electric",
        -9.653724324919466
      ],
      [
        "X",
        -9.656483812743147
      ],
      [
        "ending",
        -9.657555405477318
      ],
      [
        "meaning",
        -9.657773305889677
      ],
      [
        "ature",
        -9.658137121752016
      ],
      [
        "block",
        -9.658308595658793
      ],
      [
        "recognize",
        -9.659899537518939
      ],
      [
        "medical",
        -9.66057655742609
      ],
      [
        "successful",
        -9.6606215690005
      ],
      [
        "bank",
        -9.663608836884098
      ],
      [
        "wood",
        -9.665188236316428
      ],
      [
        "stress",
        -9.666466048458556
      ],
      [
        "breath",
        -9.667935473549111
      ],
      [
        "ker",
        -9.670554711617758
      ],
      [
        "version",
        -9.67149733829213
      ],
      [
        "content",
        -9.671805589582382
      ],
      [
        "John",
        -9.672022269996743
      ],
      [
        "bra",
        -9.672073999216664
      ],
      [
        "interact",
        -9.67293614940614
      ],
      [
        "craz",
        -9.675944573252153
      ],
      [
        "account",
        -9.676034276287417
      ],
      [
        "waste",
        -9.676395131075088
      ],
      [
        "evidence",
        -9.679876769934737
      ],
      [
        "secret",
        -9.679885628027797
      ],
      [
        "goal",
        -9.680959328850356
      ],
      [
        "arch",
        -9.68128509594111
      ],
      [
        "90",
        -9.682299823108432
      ],
      [
        "clean",
        -9.683841000827918
      ],
      [
        "bus",
        -9.684295615816584
      ],
      [
        "mark",
        -9.685726539051274
      ],
      [
        "practice",
        -9.68779750683559
      ],
      [
        "emotion",
        -9.688124382970344
      ],
      [
        "wear",
        -9.688994222896191
      ],
      [
        "First",
        -9.691782087964029
      ],
      [
        "progress",
        -9.691782607516341
      ],
      [
        "positive",
        -9.691795743680686
      ],
      [
        "poll",
        -9.692397711804565
      ],
      [
        "sounds",
        -9.694410048389368
      ],
      [
        "flow",
        -9.698828800419921
      ],
      [
        "nine",
        -9.698991110908562
      ],
      [
        "Japan",
        -9.69980183769729
      ],
      [
        "trial",
        -9.699977237138278
      ],
      [
        "chemical",
        -9.70383015051423
      ],
      [
        "After",
        -9.703872571390791
      ],
      [
        "Maybe",
        -9.704709081541164
      ],
      [
        "publish",
        -9.7078784606038
      ],
      [
        "Even",
        -9.708062906810182
      ],
      [
        "kept",
        -9.7085912895035
      ],
      [
        "bodie",
        -9.71129836977115
      ],
      [
        "degree",
        -9.711947223973459
      ],
      [
        "grand",
        -9.712089707279517
      ],
      [
        "throw",
        -9.713487543815503
      ],
      [
        "achieve",
        -9.716038250952105
      ],
      [
        "finish",
        -9.716113806294818
      ],
      [
        "trip",
        -9.717503624923314
      ],
      [
        "role",
        -9.717622478007495
      ],
      [
        "link",
        -9.717887386404822
      ],
      [
        "lower",
        -9.719929139113201
      ],
      [
        "feed",
        -9.724052421376607
      ],
      [
        "character",
        -9.72417757878994
      ],
      [
        "dance",
        -9.724235609298145
      ],
      [
        "blind",
        -9.724258081266024
      ],
      [
        "cris",
        -9.724734355134272
      ],
      [
        "TV",
        -9.726731418847645
      ],
      [
        "lip",
        -9.726959219315589
      ],
      [
        "pictures",
        -9.728970315233418
      ],
      [
        "Brit",
        -9.729253332980406
      ],
      [
        "Look",
        -9.729599655051745
      ],
      [
        "dig",
        -9.730316783284657
      ],
      [
        "usual",
        -9.731919519151084
      ],
      [
        "pack",
        -9.732070337757458
      ],
      [
        "female",
        -9.73258624592286
      ],
      [
        "active",
        -9.732983869443494
      ],
      [
        "vote",
        -9.734361280584602
      ],
      [
        "cru",
        -9.735717249820087
      ],
      [
        "sell",
        -9.73952731331006
      ],
      [
        "software",
        -9.740876018248649
      ],
      [
        "choose",
        -9.740877860123842
      ],
      [
        "IV",
        -9.741356042886283
      ],
      [
        "soon",
        -9.746301885894901
      ],
      [
        "adult",
        -9.74929757653528
      ],
      [
        "neuron",
        -9.750965420396778
      ],
      [
        "surprise",
        -9.753530359001667
      ],
      [
        "sexual",
        -9.75359292832305
      ],
      [
        "onto",
        -9.754591921962973
      ],
      [
        "further",
        -9.757793560319381
      ],
      [
        "fix",
        -9.758262761894912
      ],
      [
        "ates",
        -9.758975454941204
      ],
      [
        "sum",
        -9.759166613416216
      ],
      [
        "institution",
        -9.762058293182314
      ],
      [
        "plastic",
        -9.762075495181465
      ],
      [
        "anti",
        -9.76226073849476
      ],
      [
        "male",
        -9.763182941201656
      ],
      [
        "shop",
        -9.763602191355641
      ],
      [
        "lum",
        -9.763664181687481
      ],
      [
        "bor",
        -9.764820576331134
      ],
      [
        "bri",
        -9.767479317630055
      ],
      [
        "organ",
        -9.768058739589485
      ],
      [
        "nder",
        -9.768916002454826
      ],
      [
        "remain",
        -9.770071793441003
      ],
      [
        "extraordinar",
        -9.770682761821952
      ],
      [
        "visit",
        -9.771049774796888
      ],
      [
        "context",
        -9.771267925757638
      ],
      [
        "African",
        -9.774360888227147
      ],
      [
        "surprising",
        -9.77498950899738
      ],
      [
        "ought",
        -9.775168722244482
      ],
      [
        "standard",
        -9.775301016917375
      ],
      [
        "East",
        -9.775484266470515
      ],
      [
        "aging",
        -9.776593944638407
      ],
      [
        "famous",
        -9.779338223025707
      ],
      [
        "compare",
        -9.77969297490392
      ],
      [
        "load",
        -9.780075304728387
      ],
      [
        "return",
        -9.782549232305831
      ],
      [
        "virus",
        -9.784413878862878
      ],
      [
        "explore",
        -9.785142335942458
      ],
      [
        "ign",
        -9.785278372513769
      ],
      [
        "bab",
        -9.78673139287345
      ],
      [
        "letter",
        -9.788042154389892
      ],
      [
        "infect",
        -9.788412289878945
      ],
      [
        "speed",
        -9.78844032062623
      ],
      [
        "treatment",
        -9.788978093533771
      ],
      [
        "finding",
        -9.789179694631054
      ],
      [
        "define",
        -9.789358599769233
      ],
      [
        "logical",
        -9.791124937358969
      ],
      [
        "expert",
        -9.792623726670804
      ],
      [
        "indeed",
        -9.79279113834158
      ],
      [
        "square",
        -9.792992592397631
      ],
      [
        "traditional",
        -9.793467206993224
      ],
      [
        "skin",
        -9.795323742140457
      ],
      [
        "istic",
        -9.796315180154059
      ],
      [
        "suit",
        -9.796370386799952
      ],
      [
        "lock",
        -9.796631387270196
      ],
      [
        "older",
        -9.797487292494585
      ],
      [
        "West",
        -9.797806248263424
      ],
      [
        "weight",
        -9.799219567213065
      ],
      [
        "mini",
        -9.79976535565659
      ],
      [
        "sky",
        -9.80096638966424
      ],
      [
        "price",
        -9.80159695963021
      ],
      [
        "grade",
        -9.803390428897412
      ],
      [
        "worse",
        -9.803955424991393
      ],
      [
        "math",
        -9.805234869132743
      ],
      [
        "direction",
        -9.807224200105617
      ],
      [
        "multi",
        -9.80846594327641
      ],
      [
        "evolve",
        -9.80916146001315
      ],
      [
        "heat",
        -9.809189201051963
      ],
      [
        "wise",
        -9.80920052050777
      ],
      [
        "perform",
        -9.8094967442597
      ],
      [
        "invest",
        -9.810754020654835
      ],
      [
        "election",
        -9.811548563683916
      ],
      [
        "trans",
        -9.81474486914655
      ],
      [
        "element",
        -9.814837426111442
      ],
      [
        "detect",
        -9.814838344076922
      ],
      [
        "Ju",
        -9.815740216344452
      ],
      [
        "cloud",
        -9.816561193798538
      ],
      [
        "strateg",
        -9.819355866069328
      ],
      [
        "ular",
        -9.820276867120478
      ],
      [
        "mix",
        -9.820470302798519
      ],
      [
        "Most",
        -9.820615824869817
      ],
      [
        "luck",
        -9.821864558176781
      ],
      [
        "predict",
        -9.823909337308303
      ],
      [
        "burn",
        -9.824296291848196
      ],
      [
        "wire",
        -9.825257521059429
      ],
      [
        "warm",
        -9.825298520264973
      ],
      [
        "shot",
        -9.826926424272134
      ],
      [
        "mobile",
        -9.828455690523565
      ],
      [
        "neuro",
        -9.828819085312503
      ],
      [
        "War",
        -9.831576940709066
      ],
      [
        "Afghan",
        -9.833041405000467
      ],
      [
        "immediate",
        -9.833041442022338
      ],
      [
        "check",
        -9.833610234052756
      ],
      [
        "exten",
        -9.834840539800652
      ],
      [
        "training",
        -9.835089782860562
      ],
      [
        "North",
        -9.836152571418843
      ],
      [
        "bacteria",
        -9.837655445274336
      ],
      [
        "Arab",
        -9.83766037098227
      ],
      [
        "massive",
        -9.838329295223776
      ],
      [
        "unit",
        -9.83940295790295
      ],
      [
        "pound",
        -9.84046983999307
      ],
      [
        "critical",
        -9.843130716187902
      ],
      [
        "fold",
        -9.843402072334488
      ],
      [
        "meeting",
        -9.844891250390743
      ],
      [
        "ologist",
        -9.84553396516711
      ],
      [
        "expensive",
        -9.846930508467471
      ],
      [
        "perspective",
        -9.846930518503196
      ],
      [
        "broke",
        -9.846935024225136
      ],
      [
        "wild",
        -9.846935379148476
      ],
      [
        "wif",
        -9.847333194916521
      ],
      [
        "slide",
        -9.84763149709589
      ],
      [
        "method",
        -9.851612848976998
      ],
      [
        "daughter",
        -9.851634691833455
      ],
      [
        "partner",
        -9.851895269767692
      ],
      [
        "eventual",
        -9.852010435019144
      ],
      [
        "accept",
        -9.856298235388628
      ],
      [
        "typical",
        -9.85630514342761
      ],
      [
        "prevent",
        -9.856334154519327
      ],
      [
        "bomb",
        -9.856461961987026
      ],
      [
        "Are",
        -9.856967776309006
      ],
      [
        "compassion",
        -9.859398272949505
      ],
      [
        "mom",
        -9.85949445419158
      ],
      [
        "college",
        -9.861017227726244
      ],
      [
        "politic",
        -9.86297443253973
      ],
      [
        "Dr",
        -9.865712100244057
      ],
      [
        "freedom",
        -9.865761650196998
      ],
      [
        "website",
        -9.865777923323318
      ],
      [
        "ction",
        -9.865940461985803
      ],
      [
        "carry",
        -9.866211735148994
      ],
      [
        "improve",
        -9.86624069337886
      ],
      [
        "habit",
        -9.867720996115715
      ],
      [
        "leader",
        -9.870411117745332
      ],
      [
        "saving",
        -9.87069214760407
      ],
      [
        "500",
        -9.871167256132328
      ],
      [
        "hell",
        -9.872989010877667
      ],
      [
        "stream",
        -9.87534073135398
      ],
      [
        "acing",
        -9.875979249343684
      ],
      [
        "harm",
        -9.87620999719033
      ],
      [
        "drop",
        -9.877094723188527
      ],
      [
        "prison",
        -9.878155277230553
      ],
      [
        "inspire",
        -9.880111905892635
      ],
      [
        "glass",
        -9.88012866439129
      ],
      [
        "remarkabl",
        -9.880385990518198
      ],
      [
        "trul",
        -9.882925725229576
      ],
      [
        "purpose",
        -9.884939875113364
      ],
      [
        "familiar",
        -9.884953726289153
      ],
      [
        "Chris",
        -9.885081918028476
      ],
      [
        "emerg",
        -9.887432582124212
      ],
      [
        "excited",
        -9.887995232102556
      ],
      [
        "cycle",
        -9.888035717341385
      ],
      [
        "Per",
        -9.888406762677086
      ],
      [
        "possibilit",
        -9.88979415013284
      ],
      [
        "mountain",
        -9.889794230083954
      ],
      [
        "David",
        -9.889795450651382
      ],
      [
        "statistic",
        -9.889797429759373
      ],
      [
        "respect",
        -9.890450075816327
      ],
      [
        "supposed",
        -9.89275299836552
      ],
      [
        "16",
        -9.892964513378132
      ],
      [
        "standing",
        -9.893568985218963
      ],
      [
        "release",
        -9.893709394195032
      ],
      [
        "enter",
        -9.893757825552598
      ],
      [
        "profit",
        -9.894908471669737
      ],
      [
        "gain",
        -9.895191610411596
      ],
      [
        "Imagin",
        -9.89530607847814
      ],
      [
        "surger",
        -9.89538194868651
      ],
      [
        "please",
        -9.895616403631275
      ],
      [
        "lesson",
        -9.895673293919184
      ],
      [
        "receive",
        -9.897851272065283
      ],
      [
        "respond",
        -9.89956525156213
      ],
      [
        "effort",
        -9.899796121827205
      ],
      [
        "14",
        -9.903002197499424
      ],
      [
        "spot",
        -9.903101825443411
      ],
      [
        "exciting",
        -9.904502155481563
      ],
      [
        "securit",
        -9.904570423208252
      ],
      [
        "col",
        -9.905991572238667
      ],
      [
        "capital",
        -9.90951850961509
      ],
      [
        "protein",
        -9.90964884855719
      ],
      [
        "13",
        -9.910073717897667
      ],
      [
        "riving",
        -9.912683275407737
      ],
      [
        "edge",
        -9.91404566335595
      ],
      [
        "religion",
        -9.914425853112164
      ],
      [
        "earlie",
        -9.915359293284304
      ],
      [
        "production",
        -9.916586903783717
      ],
      [
        "pover",
        -9.918504900858846
      ],
      [
        "hop",
        -9.919296807082635
      ],
      [
        "afford",
        -9.919545697748443
      ],
      [
        "rous",
        -9.920206347324111
      ],
      [
        "trade",
        -9.920271841980206
      ],
      [
        "original",
        -9.92081469924471
      ],
      [
        "skills",
        -9.922269604663393
      ],
      [
        "medicine",
        -9.9244512148062
      ],
      [
        "argument",
        -9.924452236907836
      ],
      [
        "bridge",
        -9.92445564350858
      ],
      [
        "swim",
        -9.924494942583772
      ],
      [
        "fuel",
        -9.9245371472093
      ],
      [
        "enjoy",
        -9.924577125363147
      ],
      [
        "target",
        -9.925328295012884
      ],
      [
        "smalle",
        -9.92607528837495
      ],
      [
        "visibl",
        -9.926890864291728
      ],
      [
        "ritte",
        -9.927065195718525
      ],
      [
        "cook",
        -9.928932426043389
      ],
      [
        "communication",
        -9.929501481562994
      ],
      [
        "financial",
        -9.929501482275494
      ],
      [
        "cultural",
        -9.929531643954283
      ],
      [
        "Vi",
        -9.929914033980259
      ],
      [
        "reduce",
        -9.931237485665752
      ],
      [
        "camp",
        -9.931625131587388
      ],
      [
        "rib",
        -9.934407412505848
      ],
      [
        "document",
        -9.934578915603494
      ],
      [
        "Western",
        -9.934642074008755
      ],
      [
        "impossibl",
        -9.934698032890687
      ],
      [
        "police",
        -9.938271289389153
      ],
      [
        "smell",
        -9.938491082964791
      ],
      [
        "ley",
        -9.939040124743084
      ],
      [
        "concern",
        -9.93968053156487
      ],
      [
        "bunch",
        -9.940785718610421
      ],
      [
        "laugh",
        -9.945483696450577
      ],
      [
        "designer",
        -9.946122121441018
      ],
      [
        "hang",
        -9.947394509947607
      ],
      [
        "mathematic",
        -9.949962767329408
      ],
      [
        "reflect",
        -9.950019377638636
      ],
      [
        "policy",
        -9.950041887643696
      ],
      [
        "trick",
        -9.950876184891346
      ],
      [
        "survive",
        -9.951326240006907
      ],
      [
        "inner",
        -9.952223898449606
      ],
      [
        "Ex",
        -9.953198760742442
      ],
      [
        "reading",
        -9.955064654482397
      ],
      [
        "teaching",
        -9.958896623583156
      ],
      [
        "pop",
        -9.959123314144986
      ],
      [
        "colleague",
        -9.960352189295946
      ],
      [
        "address",
        -9.961425319369047
      ],
      [
        "Mu",
        -9.961950095482884
      ],
      [
        "emotional",
        -9.96515951704706
      ],
      [
        "sumption",
        -9.96558790893117
      ],
      [
        "straight",
        -9.965588622072637
      ],
      [
        "window",
        -9.965645628378248
      ],
      [
        "performance",
        -9.965870352901135
      ],
      [
        "limit",
        -9.966035916151554
      ],
      [
        "Toda",
        -9.966931875169864
      ],
      [
        "extra",
        -9.967975389906318
      ],
      [
        "ignor",
        -9.967990243590126
      ],
      [
        "decide",
        -9.969995034889088
      ],
      [
        "Universit",
        -9.970853212132456
      ],
      [
        "funny",
        -9.97115235284613
      ],
      [
        "cheap",
        -9.973217078097328
      ],
      [
        "wave",
        -9.973269464306062
      ],
      [
        "Col",
        -9.973984063247435
      ],
      [
        "lack",
        -9.975020732948963
      ],
      [
        "rock",
        -9.975123689494751
      ],
      [
        "unique",
        -9.976383194085777
      ],
      [
        "user",
        -9.978398371168472
      ],
      [
        "birth",
        -9.980283009940953
      ],
      [
        "gun",
        -9.981124816764687
      ],
      [
        "dangerous",
        -9.98146201186915
      ],
      [
        "constant",
        -9.981464508289548
      ],
      [
        "promise",
        -9.981670604796452
      ],
      [
        "17",
        -9.984681534132879
      ],
      [
        "generate",
        -9.985763289584417
      ],
      [
        "temperature",
        -9.986808699635848
      ],
      [
        "launch",
        -9.986866486991758
      ],
      [
        "random",
        -9.98721064167846
      ],
      [
        "jump",
        -9.98785793279553
      ],
      [
        "worker",
        -9.988127148985019
      ],
      [
        "interaction",
        -9.98829157176289
      ],
      [
        "career",
        -9.991256797030989
      ],
      [
        "brand",
        -9.991570479205647
      ],
      [
        "increasing",
        -9.992185101321377
      ],
      [
        "Israel",
        -9.992185233535768
      ],
      [
        "agg",
        -9.99240192419122
      ],
      [
        "Like",
        -9.992488931624237
      ],
      [
        "tens",
        -9.995068774420353
      ],
      [
        "beaut",
        -9.997954133858943
      ],
      [
        "unk",
        -9.998057332430331
      ],
      [
        "shark",
        -9.998829226125324
      ],
      [
        "environmental",
        -10.000624591809977
      ],
      [
        "Ph",
        -10.00119129737037
      ],
      [
        "angle",
        -10.002271351688055
      ],
      [
        "vaccine",
        -10.00302522998729
      ],
      [
        "Pro",
        -10.00316003033951
      ],
      [
        "organize",
        -10.00339012803866
      ],
      [
        "brother",
        -10.003474449481999
      ],
      [
        "truck",
        -10.003598511898652
      ],
      [
        "signal",
        -10.004068123900513
      ],
      [
        "pul",
        -10.004547115672274
      ],
      [
        "ember",
        -10.004736741753586
      ],
      [
        "date",
        -10.005217992507845
      ],
      [
        "raw",
        -10.006453504304252
      ],
      [
        "complicated",
        -10.008489881758003
      ],
      [
        "belief",
        -10.008578635901962
      ],
      [
        "passion",
        -10.010600421345188
      ],
      [
        "significant",
        -10.010681309158436
      ],
      [
        "match",
        -10.014070813764071
      ],
      [
        "international",
        -10.014234769350097
      ],
      [
        "station",
        -10.016381438186293
      ],
      [
        "surviv",
        -10.018054121074142
      ],
      [
        "biolog",
        -10.018905576286457
      ],
      [
        "influence",
        -10.019511413346468
      ],
      [
        "lap",
        -10.020223472352281
      ],
      [
        "invite",
        -10.02214509889367
      ],
      [
        "painting",
        -10.023017037956087
      ],
      [
        "pill",
        -10.0239294766284
      ],
      [
        "Pol",
        -10.024129747861284
      ],
      [
        "iddle",
        -10.026508173834543
      ],
      [
        "bread",
        -10.027282246873462
      ],
      [
        "ram",
        -10.02865156162895
      ],
      [
        "prove",
        -10.029598104280193
      ],
      [
        "comput",
        -10.0327503672914
      ],
      [
        "understo",
        -10.032986998606866
      ],
      [
        "autis",
        -10.033584863477383
      ],
      [
        "cold",
        -10.034089982402415
      ],
      [
        "fantastic",
        -10.036269212893451
      ],
      [
        "separate",
        -10.036281684536064
      ],
      [
        "charge",
        -10.036290809503175
      ],
      [
        "German",
        -10.036294421806254
      ],
      [
        "spoke",
        -10.036294736059482
      ],
      [
        "rush",
        -10.03792122227496
      ],
      [
        "atom",
        -10.040829386437622
      ],
      [
        "civil",
        -10.041831004663592
      ],
      [
        "television",
        -10.041918997320906
      ],
      [
        "trouble",
        -10.041919003353872
      ],
      [
        "claim",
        -10.041919311972995
      ],
      [
        "terribl",
        -10.042169071410557
      ],
      [
        "vast",
        -10.043963501825395
      ],
      [
        "mistake",
        -10.04431575927383
      ],
      [
        "engine",
        -10.045713155622135
      ],
      [
        "rip",
        -10.045915697155174
      ],
      [
        "chair",
        -10.047571384446991
      ],
      [
        "ultimate",
        -10.047600742834819
      ],
      [
        "private",
        -10.04786784743398
      ],
      [
        "related",
        -10.047898253154091
      ],
      [
        "creativ",
        -10.050011300824517
      ],
      [
        "citi",
        -10.052116209536738
      ],
      [
        "militar",
        -10.053315426647433
      ],
      [
        "speech",
        -10.053315487634032
      ],
      [
        "root",
        -10.053329502201354
      ],
      [
        "contain",
        -10.053451639346228
      ],
      [
        "architecture",
        -10.053470619891272
      ],
      [
        "Two",
        -10.054153936634105
      ],
      [
        "wors",
        -10.057385962121
      ],
      [
        "urban",
        -10.058614919874639
      ],
      [
        "principle",
        -10.05906215058349
      ],
      [
        "honest",
        -10.060388846877952
      ],
      [
        "accident",
        -10.064842497975139
      ],
      [
        "summer",
        -10.064866807230956
      ],
      [
        "sensor",
        -10.064919540922805
      ],
      [
        "identit",
        -10.064936041338818
      ],
      [
        "instance",
        -10.06500887634173
      ],
      [
        "zero",
        -10.065259052964926
      ],
      [
        "interview",
        -10.065497092855525
      ],
      [
        "researcher",
        -10.066374146261195
      ],
      [
        "resist",
        -10.067005869891616
      ],
      [
        "player",
        -10.067033475400386
      ],
      [
        "physic",
        -10.067872249629175
      ],
      [
        "mention",
        -10.069232647491003
      ],
      [
        "participat",
        -10.070656483321283
      ],
      [
        "crime",
        -10.070662152254954
      ],
      [
        "central",
        -10.070710549749911
      ],
      [
        "adapt",
        -10.07071919047283
      ],
      [
        "demand",
        -10.071039317008747
      ],
      [
        "creature",
        -10.071114817526727
      ],
      [
        "capacit",
        -10.071564078730379
      ],
      [
        "introduce",
        -10.074266072531355
      ],
      [
        "sustain",
        -10.076476986850059
      ],
      [
        "relative",
        -10.07654827546072
      ],
      [
        "failure",
        -10.076790507401826
      ],
      [
        "tech",
        -10.078243285139802
      ],
      [
        "City",
        -10.082221023570064
      ],
      [
        "compet",
        -10.082391608837657
      ],
      [
        "floor",
        -10.082426065763524
      ],
      [
        "urge",
        -10.08377253428096
      ],
      [
        "Art",
        -10.084462933548952
      ],
      [
        "entrepreneur",
        -10.088303916776649
      ],
      [
        "advance",
        -10.08830563009446
      ],
      [
        "popular",
        -10.08836734855528
      ],
      [
        "argue",
        -10.088712749660633
      ],
      [
        "remind",
        -10.089072702245453
      ],
      [
        "flower",
        -10.089091078221752
      ],
      [
        "useful",
        -10.093853523575902
      ],
      [
        "forth",
        -10.094703630731019
      ],
      [
        "eath",
        -10.095136082020336
      ],
      [
        "nobod",
        -10.095950614221707
      ],
      [
        "master",
        -10.09722734016691
      ],
      [
        "orrow",
        -10.097783675078432
      ],
      [
        "liter",
        -10.09969611965229
      ],
      [
        "architect",
        -10.100081304523389
      ],
      [
        "convince",
        -10.100244875493658
      ],
      [
        "sustainabl",
        -10.10031445724709
      ],
      [
        "blog",
        -10.103861821818835
      ],
      [
        "farmer",
        -10.105417444694702
      ],
      [
        "coffee",
        -10.106275396255082
      ],
      [
        "balance",
        -10.106295995543821
      ],
      [
        "Indian",
        -10.10760974909516
      ],
      [
        "plann",
        -10.109520150078364
      ],
      [
        "21",
        -10.111336329892403
      ],
      [
        "From",
        -10.111471117884994
      ],
      [
        "apply",
        -10.111933579727168
      ],
      [
        "traffic",
        -10.112329067266064
      ],
      [
        "shock",
        -10.112352490619873
      ],
      [
        "email",
        -10.112358850722362
      ],
      [
        "error",
        -10.112931712611456
      ],
      [
        "broad",
        -10.11695216942396
      ],
      [
        "except",
        -10.117617411265678
      ],
      [
        "communicate",
        -10.11842658510906
      ],
      [
        "phenomen",
        -10.118426598943472
      ],
      [
        "vehicle",
        -10.11842670196388
      ],
      [
        "surround",
        -10.118452708886533
      ],
      [
        "herefore",
        -10.118698352681042
      ],
      [
        "layer",
        -10.119806607684826
      ],
      [
        "neighborhood",
        -10.124561575070526
      ],
      [
        "Iraq",
        -10.124562033751726
      ],
      [
        "correct",
        -10.124570087531847
      ],
      [
        "classroom",
        -10.125322106700626
      ],
      [
        "round",
        -10.126412160052057
      ],
      [
        "hair",
        -10.126585332211778
      ],
      [
        "stem",
        -10.128010031049705
      ],
      [
        "controll",
        -10.12829122297856
      ],
      [
        "gram",
        -10.129322098216658
      ],
      [
        "rough",
        -10.130442296080247
      ],
      [
        "technique",
        -10.130734401524089
      ],
      [
        "fashion",
        -10.130734982700428
      ],
      [
        "catch",
        -10.131324431386515
      ],
      [
        "Gu",
        -10.131336239082575
      ],
      [
        "sample",
        -10.131424072327494
      ],
      [
        "corner",
        -10.131710457754949
      ],
      [
        "mid",
        -10.136286534282657
      ],
      [
        "express",
        -10.136931073996681
      ],
      [
        "destroy",
        -10.136945600608513
      ],
      [
        "landscape",
        -10.136946281564086
      ],
      [
        "ride",
        -10.139314325936246
      ],
      [
        "gather",
        -10.14236248374716
      ],
      [
        "Facebook",
        -10.143195577283523
      ],
      [
        "option",
        -10.14331682311401
      ],
      [
        "worry",
        -10.143725199249314
      ],
      [
        "fle",
        -10.145563385347959
      ],
      [
        "Sun",
        -10.146260165067087
      ],
      [
        "poet",
        -10.148032543021426
      ],
      [
        "conference",
        -10.14948488315563
      ],
      [
        "graduate",
        -10.149485352069394
      ],
      [
        "insect",
        -10.14953709104828
      ],
      [
        "spin",
        -10.151014113699391
      ],
      [
        "drawing",
        -10.151687852741588
      ],
      [
        "24",
        -10.152895919092188
      ],
      [
        "arrow",
        -10.152947544985668
      ],
      [
        "reward",
        -10.155246883940116
      ],
      [
        "Asia",
        -10.15696949374014
      ],
      [
        "Londo",
        -10.161952803116204
      ],
      [
        "$",
        -10.16218342290934
      ],
      [
        "determine",
        -10.162185843520257
      ],
      [
        "cartoon",
        -10.162261253252726
      ],
      [
        "drink",
        -10.162395062044151
      ],
      [
        "attract",
        -10.16259572678715
      ],
      [
        "wealth",
        -10.162928500459673
      ],
      [
        "graphic",
        -10.163087754191146
      ],
      [
        "collective",
        -10.1631238256379
      ],
      [
        "professional",
        -10.164752770882274
      ],
      [
        "Many",
        -10.165993571573509
      ],
      [
        "Bill",
        -10.1670085830905
      ],
      [
        "campaign",
        -10.168595652950371
      ],
      [
        "transport",
        -10.168751491539123
      ],
      [
        "nuclea",
        -10.17204761332744
      ],
      [
        "sentence",
        -10.175272536356108
      ],
      [
        "expression",
        -10.175884694575853
      ],
      [
        "profound",
        -10.176774310965776
      ],
      [
        "egg",
        -10.183444409885464
      ],
      [
        "joy",
        -10.185479254374155
      ],
      [
        "improv",
        -10.186699338330056
      ],
      [
        "evil",
        -10.187010123309513
      ],
      [
        "iva",
        -10.187391490348567
      ],
      [
        "virtual",
        -10.188074974497875
      ],
      [
        "universit",
        -10.188082734034623
      ],
      [
        "distance",
        -10.188106313882617
      ],
      [
        "arrive",
        -10.188131873221753
      ],
      [
        "Have",
        -10.188923310032461
      ],
      [
        "cry",
        -10.189926568569764
      ],
      [
        "section",
        -10.190272996611181
      ],
      [
        "river",
        -10.190836300178852
      ],
      [
        "complexit",
        -10.192599172914385
      ],
      [
        "instrument",
        -10.19465375098514
      ],
      [
        "various",
        -10.19465507559432
      ],
      [
        "double",
        -10.194656771137664
      ],
      [
        "Mexic",
        -10.194671414672525
      ],
      [
        "combine",
        -10.19471511334553
      ],
      [
        "easi",
        -10.1952241116167
      ],
      [
        "border",
        -10.1967406454565
      ],
      [
        "erie",
        -10.197283626076093
      ],
      [
        "multipl",
        -10.200549888750183
      ],
      [
        "enormous",
        -10.201276215876153
      ],
      [
        "dynamic",
        -10.20127622260717
      ],
      [
        "husband",
        -10.201280330891525
      ],
      [
        "breast",
        -10.201294226539245
      ],
      [
        "organism",
        -10.201375946091803
      ],
      [
        "gentle",
        -10.201378139760308
      ],
      [
        "blow",
        -10.201806508415459
      ],
      [
        "sister",
        -10.203106802219803
      ],
      [
        "creation",
        -10.204043316907633
      ],
      [
        "cel",
        -10.204533324503196
      ],
      [
        "finger",
        -10.204976087123605
      ],
      [
        "tune",
        -10.206491898293908
      ],
      [
        "severa",
        -10.207668267543415
      ],
      [
        "avoid",
        -10.2079448054786
      ],
      [
        "damage",
        -10.207968973659023
      ],
      [
        "soldier",
        -10.207969273827988
      ],
      [
        "300",
        -10.208105764502147
      ],
      [
        "tax",
        -10.209733283131358
      ],
      [
        "motor",
        -10.2098102086394
      ],
      [
        "Take",
        -10.21150244984463
      ],
      [
        "rum",
        -10.212189084671294
      ],
      [
        "craft",
        -10.212827795243449
      ],
      [
        "advantage",
        -10.214654297930837
      ],
      [
        "estimate",
        -10.214654859821632
      ],
      [
        "capture",
        -10.21469187812913
      ],
      [
        "genome",
        -10.21485857365871
      ],
      [
        "disappear",
        -10.214870718861755
      ],
      [
        "Think",
        -10.21507381475223
      ],
      [
        "Ver",
        -10.215686889142589
      ],
      [
        "frai",
        -10.220800670980305
      ],
      [
        "bottle",
        -10.221414175823462
      ],
      [
        "confiden",
        -10.221427517076062
      ],
      [
        "weapon",
        -10.221649239554665
      ],
      [
        "radical",
        -10.221924645265345
      ],
      [
        "careful",
        -10.223447502202056
      ],
      [
        "California",
        -10.228213764263266
      ],
      [
        "algorithm",
        -10.228213764384058
      ],
      [
        "circle",
        -10.228213777411103
      ],
      [
        "strength",
        -10.228226278737111
      ],
      [
        "investment",
        -10.229027508200076
      ],
      [
        "industrial",
        -10.22953416295999
      ],
      [
        "basi",
        -10.232878985587128
      ],
      [
        "relation",
        -10.235299077123852
      ],
      [
        "colon",
        -10.236947361503322
      ],
      [
        "passionate",
        -10.237818944448144
      ],
      [
        "tube",
        -10.23902888261812
      ],
      [
        "justice",
        -10.240282415518456
      ],
      [
        "199",
        -10.240839492460287
      ],
      [
        "rational",
        -10.241867963030746
      ],
      [
        "threat",
        -10.241888647872827
      ],
      [
        "efficient",
        -10.241959631064374
      ],
      [
        "galax",
        -10.241960363884045
      ],
      [
        "pressure",
        -10.242434325551931
      ],
      [
        "mouth",
        -10.242853777093485
      ],
      [
        "bag",
        -10.246662442111958
      ],
      [
        "operat",
        -10.247533529640949
      ],
      [
        "responsibilit",
        -10.248904075499254
      ],
      [
        "component",
        -10.248904152182227
      ],
      [
        "dramatic",
        -10.24890421998506
      ],
      [
        "sector",
        -10.248913888061583
      ],
      [
        "supply",
        -10.248966367214155
      ],
      [
        "crowd",
        -10.248986983471525
      ],
      [
        "pig",
        -10.249662112123232
      ],
      [
        "shoot",
        -10.249887804068095
      ],
      [
        "gift",
        -10.252043430441159
      ],
      [
        "divide",
        -10.255906763175082
      ],
      [
        "foreign",
        -10.255994417894158
      ],
      [
        "imagination",
        -10.256613761302408
      ],
      [
        "rig",
        -10.256747917833941
      ],
      [
        "driver",
        -10.259225663199318
      ],
      [
        "dimension",
        -10.259960902292182
      ],
      [
        "actor",
        -10.262242401965423
      ],
      [
        "Brazil",
        -10.262939336049179
      ],
      [
        "definition",
        -10.26293933826096
      ],
      [
        "desire",
        -10.262947049186849
      ],
      [
        "location",
        -10.262982234151439
      ],
      [
        "biological",
        -10.263207491682664
      ],
      [
        "expand",
        -10.263377435176423
      ],
      [
        "employ",
        -10.269812795952
      ],
      [
        "commercial",
        -10.270031534614343
      ],
      [
        "AIDS",
        -10.27003214664283
      ],
      [
        "bubble",
        -10.270032807360373
      ],
      [
        "Second",
        -10.270034758464151
      ],
      [
        "host",
        -10.271513212426864
      ],
      [
        "corrupti",
        -10.272256046910574
      ],
      [
        "stoppe",
        -10.273850811464126
      ],
      [
        "flat",
        -10.274570527286953
      ],
      [
        "enable",
        -10.275932086951546
      ],
      [
        "associate",
        -10.277183637394762
      ],
      [
        "switch",
        -10.277185056281752
      ],
      [
        "airplane",
        -10.27718607191877
      ],
      [
        "European",
        -10.27742068177805
      ],
      [
        "novel",
        -10.277530810003036
      ],
      [
        "imagin",
        -10.277928797837843
      ],
      [
        "calcul",
        -10.27957551157078
      ],
      [
        "collaborat",
        -10.279840967517377
      ],
      [
        "neighbor",
        -10.284368612125867
      ],
      [
        "Would",
        -10.284368673297095
      ],
      [
        "responsibl",
        -10.284368673704778
      ],
      [
        "opposite",
        -10.284368718704052
      ],
      [
        "click",
        -10.284652784866445
      ],
      [
        "Lu",
        -10.285639117959322
      ],
      [
        "article",
        -10.288717203628174
      ],
      [
        "ification",
        -10.289658144362182
      ],
      [
        "gap",
        -10.290193951658924
      ],
      [
        "bru",
        -10.290244802020396
      ],
      [
        "universal",
        -10.291617756763658
      ],
      [
        "penguin",
        -10.291620953984602
      ],
      [
        "equip",
        -10.291715216134982
      ],
      [
        "bla",
        -10.292853288388505
      ],
      [
        "explor",
        -10.29651176475427
      ],
      [
        "struggle",
        -10.297794351176858
      ],
      [
        "auto",
        -10.29854672777624
      ],
      [
        "victim",
        -10.298914343710006
      ],
      [
        "manufactur",
        -10.298914460132291
      ],
      [
        "oxygen",
        -10.298914637327568
      ],
      [
        "encourage",
        -10.299051258662125
      ],
      [
        "Q",
        -10.303108576266382
      ],
      [
        "psycholog",
        -10.303262686592596
      ],
      [
        "3D",
        -10.303554648177279
      ],
      [
        "hum",
        -10.304160601484007
      ],
      [
        "fortunate",
        -10.306238518882665
      ],
      [
        "infrastructure",
        -10.30626726122454
      ],
      [
        "application",
        -10.306267411232037
      ],
      [
        "National",
        -10.306291116594812
      ],
      [
        "addition",
        -10.306293941129564
      ],
      [
        "consequence",
        -10.306648884762843
      ],
      [
        "Canad",
        -10.307115450783185
      ],
      [
        "motion",
        -10.30772324696243
      ],
      [
        "analys",
        -10.307824717290304
      ],
      [
        "radi",
        -10.307948733923507
      ],
      [
        "legal",
        -10.308905035245667
      ],
      [
        "hol",
        -10.310545954723842
      ],
      [
        "Har",
        -10.313241759252287
      ],
      [
        "Muslim",
        -10.31368065337574
      ],
      [
        "scene",
        -10.313688528741086
      ],
      [
        "ably",
        -10.313741337236966
      ],
      [
        "reveal",
        -10.315251922823165
      ],
      [
        "Again",
        -10.3160224153106
      ],
      [
        "itude",
        -10.317637994203151
      ],
      [
        "Russia",
        -10.321140949965688
      ],
      [
        "civilization",
        -10.321254208960292
      ],
      [
        "400",
        -10.32138630782169
      ],
      [
        "marrie",
        -10.322291370847203
      ],
      [
        "Australia",
        -10.328656115393244
      ],
      [
        "regular",
        -10.328668682672411
      ],
      [
        "Paul",
        -10.328847321090915
      ],
      [
        "Great",
        -10.32886419772825
      ],
      [
        "Actua",
        -10.328966283303682
      ],
      [
        "Over",
        -10.330064255430887
      ],
      [
        "peak",
        -10.331163995852673
      ],
      [
        "uff",
        -10.331787053357708
      ],
      [
        "198",
        -10.331873400250617
      ],
      [
        "password",
        -10.335317646625947
      ],
      [
        "construct",
        -10.335424294120187
      ],
      [
        "frame",
        -10.335859553505166
      ],
      [
        "tremendous",
        -10.336231875891954
      ],
      [
        "atmosphere",
        -10.336232075073783
      ],
      [
        "wisdom",
        -10.336232714144867
      ],
      [
        "collapse",
        -10.336232824872361
      ],
      [
        "batter",
        -10.336260606935031
      ],
      [
        "firm",
        -10.336261008667773
      ],
      [
        "lung",
        -10.337923715331163
      ],
      [
        "cord",
        -10.339749049129994
      ],
      [
        "Mars",
        -10.34020361867033
      ],
      [
        "Audience",
        -10.343865464043002
      ],
      [
        "celebrat",
        -10.343865798778591
      ],
      [
        "patent",
        -10.343895563152714
      ],
      [
        "Kenya",
        -10.344741254020654
      ],
      [
        "produc",
        -10.345923482504187
      ],
      [
        "gate",
        -10.347983237831711
      ],
      [
        "wake",
        -10.349070162913545
      ],
      [
        "magazine",
        -10.35155776844271
      ],
      [
        "restaurant",
        -10.351557781081436
      ],
      [
        "ancient",
        -10.351558357395543
      ],
      [
        "French",
        -10.351560719501187
      ],
      [
        "mortal",
        -10.351613428056385
      ],
      [
        "audi",
        -10.353506281384334
      ],
      [
        "background",
        -10.354321843870835
      ],
      [
        "museum",
        -10.354963193746327
      ],
      [
        "fresh",
        -10.356614722987006
      ],
      [
        "operation",
        -10.358047220685274
      ],
      [
        "perception",
        -10.359309706478498
      ],
      [
        "negative",
        -10.359310452568954
      ],
      [
        "symbol",
        -10.359314186443786
      ],
      [
        "climb",
        -10.359362854954096
      ],
      [
        "Big",
        -10.359559561385453
      ],
      [
        "consumer",
        -10.36436032494198
      ],
      [
        "criminal",
        -10.367122208479497
      ],
      [
        "horse",
        -10.367317391071825
      ],
      [
        "construction",
        -10.367955804638104
      ],
      [
        "injur",
        -10.368177818000124
      ],
      [
        "president",
        -10.36825484789551
      ],
      [
        "noise",
        -10.368723434993203
      ],
      [
        "psycho",
        -10.369883057419703
      ],
      [
        "ecosystem",
        -10.375016347504843
      ],
      [
        "contact",
        -10.37512719216858
      ],
      [
        "rapid",
        -10.375223381195367
      ],
      [
        "newspaper",
        -10.375467081924619
      ],
      [
        "battle",
        -10.376088196730274
      ],
      [
        "hurt",
        -10.376331859274515
      ],
      [
        "unlike",
        -10.37701036053306
      ],
      [
        "metal",
        -10.378016012980815
      ],
      [
        "sphere",
        -10.379304774582348
      ],
      [
        "Bar",
        -10.381330913010608
      ],
      [
        "heav",
        -10.382523794222916
      ],
      [
        "metaphor",
        -10.382932734323466
      ],
      [
        "identify",
        -10.382932801006582
      ],
      [
        "agricultur",
        -10.38293332792916
      ],
      [
        "whale",
        -10.382954227354855
      ],
      [
        "See",
        -10.382967941892886
      ],
      [
        "giant",
        -10.383008133727898
      ],
      [
        "tribe",
        -10.38409465324556
      ],
      [
        "topic",
        -10.390721342239392
      ],
      [
        "fascinating",
        -10.39093273203017
      ],
      [
        "narrative",
        -10.39093287869134
      ],
      [
        "assembl",
        -10.390933752130554
      ],
      [
        "remote",
        -10.390989578054633
      ],
      [
        "boat",
        -10.393209458401175
      ],
      [
        "lunch",
        -10.394095037005345
      ],
      [
        "Sometime",
        -10.397737550375304
      ],
      [
        "foundation",
        -10.398395647094421
      ],
      [
        "marriage",
        -10.398997248289747
      ],
      [
        "solv",
        -10.400340753133323
      ],
      [
        "wheel",
        -10.40060388531278
      ],
      [
        "organic",
        -10.400766165818148
      ],
      [
        "Pri",
        -10.402026893587774
      ],
      [
        "illness",
        -10.40265387674646
      ],
      [
        "tradition",
        -10.405334351118306
      ],
      [
        "plain",
        -10.406893020912758
      ],
      [
        "professor",
        -10.407127333896398
      ],
      [
        "optimis",
        -10.407127671647675
      ],
      [
        "faith",
        -10.407229365814961
      ],
      [
        "primar",
        -10.407328910109484
      ],
      [
        "despi",
        -10.407352446371233
      ],
      [
        "shoes",
        -10.407450045241628
      ],
      [
        "empath",
        -10.407465854442586
      ],
      [
        "45",
        -10.40861081490035
      ],
      [
        "clock",
        -10.413177504974104
      ],
      [
        "trend",
        -10.413883442310128
      ],
      [
        "suffer",
        -10.415120874644728
      ],
      [
        "puzzle",
        -10.415324048929786
      ],
      [
        "politician",
        -10.415356441157915
      ],
      [
        "particle",
        -10.41865196662308
      ],
      [
        "dimensional",
        -10.418803999880524
      ],
      [
        "sequence",
        -10.423160316953634
      ],
      [
        "spirit",
        -10.423563528440685
      ],
      [
        "George",
        -10.42359131939035
      ],
      [
        "technical",
        -10.423591991517682
      ],
      [
        "GDP",
        -10.423594986957433
      ],
      [
        "sugar",
        -10.423596629786672
      ],
      [
        "script",
        -10.423697791377357
      ],
      [
        "nurse",
        -10.423739587035445
      ],
      [
        "proud",
        -10.423797809876925
      ],
      [
        "Jam",
        -10.424217487931898
      ],
      [
        "reference",
        -10.424642257766369
      ],
      [
        "transformation",
        -10.42520197135293
      ],
      [
        "childhood",
        -10.431922201176345
      ],
      [
        "immun",
        -10.431923262736806
      ],
      [
        "unfortunate",
        -10.431954397472971
      ],
      [
        "feature",
        -10.432068242899845
      ],
      [
        "conduct",
        -10.43216326116482
      ],
      [
        "attempt",
        -10.43247182336943
      ],
      [
        "economist",
        -10.433344027786024
      ],
      [
        "volunteer",
        -10.440325206333497
      ],
      [
        "yellow",
        -10.440343335429688
      ],
      [
        "repeat",
        -10.44074071311848
      ],
      [
        "stock",
        -10.441169156818496
      ],
      [
        "quant",
        -10.44139962664361
      ],
      [
        "speaker",
        -10.441943334169025
      ],
      [
        "loud",
        -10.445721032737831
      ],
      [
        "proper",
        -10.446563490274908
      ],
      [
        "govern",
        -10.447930181273634
      ],
      [
        "cognitive",
        -10.448799782864047
      ],
      [
        "practical",
        -10.448801259565762
      ],
      [
        "competition",
        -10.448810924539782
      ],
      [
        "employee",
        -10.449061415173308
      ],
      [
        "talent",
        -10.449731540934668
      ],
      [
        "Good",
        -10.449895008082983
      ],
      [
        "interface",
        -10.449952781814424
      ],
      [
        "More",
        -10.455553624240007
      ],
      [
        "pray",
        -10.455996529292511
      ],
      [
        "brilliant",
        -10.457346792429508
      ],
      [
        "budget",
        -10.457455718228175
      ],
      [
        "bike",
        -10.457572922046303
      ],
      [
        "display",
        -10.458628998871998
      ],
      [
        "earth",
        -10.45876312060821
      ],
      [
        "honor",
        -10.458875928535576
      ],
      [
        "chip",
        -10.45957414064134
      ],
      [
        "cow",
        -10.461539835587189
      ],
      [
        "philosoph",
        -10.46322917093958
      ],
      [
        "channel",
        -10.465967557544353
      ],
      [
        "previous",
        -10.465968279592056
      ],
      [
        "Green",
        -10.46598208102632
      ],
      [
        "coal",
        -10.466731258881719
      ],
      [
        "agenc",
        -10.466894623608578
      ],
      [
        "collection",
        -10.468030612501687
      ],
      [
        "string",
        -10.470662757301074
      ],
      [
        "aspect",
        -10.47187166952863
      ],
      [
        "courage",
        -10.474609919527051
      ],
      [
        "School",
        -10.474663231092075
      ],
      [
        "stimul",
        -10.474676354399012
      ],
      [
        "instant",
        -10.475044293400108
      ],
      [
        "gender",
        -10.47518018119625
      ],
      [
        "shame",
        -10.476523282005363
      ],
      [
        "grant",
        -10.477907643798812
      ],
      [
        "Gra",
        -10.478445939446324
      ],
      [
        "grab",
        -10.478970040967521
      ],
      [
        "mouse",
        -10.479843675966446
      ],
      [
        "artificial",
        -10.48343506376796
      ],
      [
        "mechanism",
        -10.483435079755846
      ],
      [
        "hidden",
        -10.483435226796086
      ],
      [
        "official",
        -10.483436174464781
      ],
      [
        "dense",
        -10.483653132986895
      ],
      [
        "comfortabl",
        -10.483707826196671
      ],
      [
        "weird",
        -10.484883441362921
      ],
      [
        "chemistr",
        -10.486665840414302
      ],
      [
        "dress",
        -10.48724550868107
      ],
      [
        "grid",
        -10.487821299799212
      ],
      [
        "electrical",
        -10.489809729165671
      ],
      [
        "Hol",
        -10.4903227946532
      ],
      [
        "facilit",
        -10.492284627522984
      ],
      [
        "categor",
        -10.492284926149814
      ],
      [
        "precise",
        -10.49303538455765
      ],
      [
        "impress",
        -10.49385898934187
      ],
      [
        "feedback",
        -10.493944181146944
      ],
      [
        "hopeful",
        -10.494701161272442
      ],
      [
        "Does",
        -10.497109324332797
      ],
      [
        "comment",
        -10.498205475136174
      ],
      [
        "distribution",
        -10.501213191754289
      ],
      [
        "succeed",
        -10.50121319860554
      ],
      [
        "leaving",
        -10.501213514763291
      ],
      [
        "opinion",
        -10.501245319110499
      ],
      [
        "grandmother",
        -10.50155750696653
      ],
      [
        "depression",
        -10.501818848950291
      ],
      [
        "assume",
        -10.501951114411272
      ],
      [
        "import",
        -10.501965327813457
      ],
      [
        "iron",
        -10.508967561842606
      ],
      [
        "exercise",
        -10.510222201643113
      ],
      [
        "epidemic",
        -10.5102222021039
      ],
      [
        "Egypt",
        -10.510222247780842
      ],
      [
        "platform",
        -10.510222352067991
      ],
      [
        "satellite",
        -10.510226396955888
      ],
      [
        "tumor",
        -10.510295672997291
      ],
      [
        "disaster",
        -10.51064295080921
      ],
      [
        "Sam",
        -10.510865684478038
      ],
      [
        "lift",
        -10.511722303966431
      ],
      [
        "shut",
        -10.511958780337656
      ],
      [
        "extract",
        -10.516117422909854
      ],
      [
        "electronic",
        -10.519313222487506
      ],
      [
        "accurate",
        -10.51931322352894
      ],
      [
        "Twitter",
        -10.519313271084734
      ],
      [
        "investigat",
        -10.519322282179719
      ],
      [
        "pleasure",
        -10.519332278819904
      ],
      [
        "fiction",
        -10.51935964131557
      ],
      [
        "doubt",
        -10.519371741176096
      ],
      [
        "quarter",
        -10.519425010165932
      ],
      [
        "ordinar",
        -10.519512900222532
      ],
      [
        "credit",
        -10.519565384152914
      ],
      [
        "spring",
        -10.519663416497519
      ],
      [
        "150",
        -10.520824649051535
      ],
      [
        "cutting",
        -10.520950220092015
      ],
      [
        "drone",
        -10.527279920132703
      ],
      [
        "discuss",
        -10.527683193986437
      ],
      [
        "appropriate",
        -10.528487421885181
      ],
      [
        "Could",
        -10.52848788933175
      ],
      [
        "entertain",
        -10.528513648192856
      ],
      [
        "acial",
        -10.528725403470869
      ],
      [
        "counter",
        -10.529080217994359
      ],
      [
        "worrie",
        -10.529682971720042
      ],
      [
        "clinical",
        -10.530632187537917
      ],
      [
        "invention",
        -10.531071668801422
      ],
      [
        "tape",
        -10.534392169294776
      ],
      [
        "Einstein",
        -10.537746791919389
      ],
      [
        "pocket",
        -10.537747081758349
      ],
      [
        "setting",
        -10.538190352586355
      ],
      [
        "empower",
        -10.53871469692449
      ],
      [
        "crop",
        -10.546816152450319
      ],
      [
        "Washing",
        -10.547092911459664
      ],
      [
        "solid",
        -10.547106856681843
      ],
      [
        "musician",
        -10.547228504410095
      ],
      [
        "bias",
        -10.54755818899009
      ],
      [
        "Mil",
        -10.54760502449651
      ],
      [
        "75",
        -10.547816848467546
      ],
      [
        "fellow",
        -10.548036802593426
      ],
      [
        "plus",
        -10.548214331114092
      ],
      [
        "generat",
        -10.550387290070054
      ],
      [
        "obsess",
        -10.553946251828439
      ],
      [
        "dozen",
        -10.556539596348856
      ],
      [
        "gravit",
        -10.55680542973949
      ],
      [
        "disorder",
        -10.557215510042854
      ],
      [
        "Yet",
        -10.558624904454529
      ],
      [
        "journalist",
        -10.559162016642745
      ],
      [
        "berg",
        -10.56292756407898
      ],
      [
        "continu",
        -10.565799146664709
      ],
      [
        "debate",
        -10.566059187466479
      ],
      [
        "illusion",
        -10.56606503479658
      ],
      [
        "interpret",
        -10.566158960625948
      ],
      [
        "presentation",
        -10.566771350653589
      ],
      [
        "alternative",
        -10.575665666396745
      ],
      [
        "garden",
        -10.575667159519536
      ],
      [
        "incentive",
        -10.575690834005645
      ],
      [
        "kilometer",
        -10.575717233519761
      ],
      [
        "discussion",
        -10.576513689529765
      ],
      [
        "title",
        -10.578210425989958
      ],
      [
        "Star",
        -10.578390999737001
      ],
      [
        "dish",
        -10.582642409226873
      ],
      [
        "former",
        -10.585099097077126
      ],
      [
        "England",
        -10.585374469935989
      ],
      [
        "Charles",
        -10.585374984142284
      ],
      [
        "dictionar",
        -10.585376013961564
      ],
      [
        "valuable",
        -10.58538043276721
      ],
      [
        "crack",
        -10.58543847243645
      ],
      [
        "loop",
        -10.585894804745529
      ],
      [
        "surgeon",
        -10.585966292063159
      ],
      [
        "label",
        -10.586054116796888
      ],
      [
        "indicat",
        -10.586155273949169
      ],
      [
        "awful",
        -10.587402294307529
      ],
      [
        "robotic",
        -10.58920612150068
      ],
      [
        "quiet",
        -10.589320411041152
      ],
      [
        "diagnose",
        -10.595178308496854
      ],
      [
        "chicken",
        -10.59517884116644
      ],
      [
        "continent",
        -10.595180898273554
      ],
      [
        "malaria",
        -10.595219572085448
      ],
      [
        "attach",
        -10.595412862721407
      ],
      [
        "confus",
        -10.596437608714
      ],
      [
        "eeper",
        -10.596907512893402
      ],
      [
        "coast",
        -10.601506871982838
      ],
      [
        "taste",
        -10.603147223263484
      ],
      [
        "symptom",
        -10.605079285773432
      ],
      [
        "definite",
        -10.605079336226677
      ],
      [
        "exhibit",
        -10.605080533000962
      ],
      [
        "desert",
        -10.60508083695965
      ],
      [
        "monitor",
        -10.60512497142425
      ],
      [
        "99",
        -10.605744080300456
      ],
      [
        "Harv",
        -10.60647428585094
      ],
      [
        "unch",
        -10.608403405573306
      ],
      [
        "laborator",
        -10.6102982553902
      ],
      [
        "religious",
        -10.615079282015714
      ],
      [
        "unexpected",
        -10.615080057591255
      ],
      [
        "according",
        -10.615080287734164
      ],
      [
        "judge",
        -10.615090733367012
      ],
      [
        "Adam",
        -10.615201296119373
      ],
      [
        "curious",
        -10.615476630600462
      ],
      [
        "consume",
        -10.618850945283992
      ],
      [
        "Talk",
        -10.625164065099785
      ],
      [
        "variet",
        -10.625180342412232
      ],
      [
        "phrase",
        -10.62518036193999
      ],
      [
        "mirror",
        -10.625180451737915
      ],
      [
        "muscle",
        -10.625182484164469
      ],
      [
        "animation",
        -10.625183799848518
      ],
      [
        "empty",
        -10.625186270975401
      ],
      [
        "survey",
        -10.625207130656346
      ],
      [
        "Street",
        -10.625423254767643
      ],
      [
        "MIT",
        -10.625751130918996
      ],
      [
        "applie",
        -10.62593044001948
      ],
      [
        "command",
        -10.626581459328829
      ],
      [
        "satisf",
        -10.628031450475131
      ],
      [
        "cosm",
        -10.630686521462735
      ],
      [
        "clinic",
        -10.633009844022748
      ],
      [
        "mode",
        -10.633792209655802
      ],
      [
        "elling",
        -10.634773476089684
      ],
      [
        "intellectual",
        -10.635384373110746
      ],
      [
        "destructi",
        -10.635384374980823
      ],
      [
        "Thom",
        -10.635402087954404
      ],
      [
        "Mark",
        -10.636744067753106
      ],
      [
        "historical",
        -10.636921109391213
      ],
      [
        "admit",
        -10.638049158308169
      ],
      [
        "transparen",
        -10.639501732437893
      ],
      [
        "bath",
        -10.641105231670654
      ],
      [
        "democratic",
        -10.645693652028715
      ],
      [
        "advertis",
        -10.645694348763845
      ],
      [
        "lawyer",
        -10.64600267832715
      ],
      [
        "toilet",
        -10.646376081860073
      ],
      [
        "utter",
        -10.647162602731658
      ],
      [
        "customer",
        -10.649721390001673
      ],
      [
        "measur",
        -10.649837518807185
      ],
      [
        "mosquito",
        -10.656110379179665
      ],
      [
        "stupid",
        -10.656202379511182
      ],
      [
        "Thre",
        -10.657713985169728
      ],
      [
        "Steve",
        -10.658572071999327
      ],
      [
        "Other",
        -10.65936539412303
      ],
      [
        "preci",
        -10.659866590486132
      ],
      [
        "molecul",
        -10.662422343541525
      ],
      [
        "carrie",
        -10.663315375323464
      ],
      [
        "unles",
        -10.666446491854567
      ],
      [
        "storm",
        -10.666575059564334
      ],
      [
        "equivalent",
        -10.666636635042607
      ],
      [
        "Nigeria",
        -10.666636640525876
      ],
      [
        "temporar",
        -10.666636653632331
      ],
      [
        "combination",
        -10.666636894835847
      ],
      [
        "frustrat",
        -10.666636921629092
      ],
      [
        "adopt",
        -10.666644333106532
      ],
      [
        "transition",
        -10.666654958145184
      ],
      [
        "educate",
        -10.666661872257862
      ],
      [
        "convert",
        -10.666924325259764
      ],
      [
        "strict",
        -10.667179131858635
      ],
      [
        "guide",
        -10.667911421259262
      ],
      [
        "Their",
        -10.670243801211967
      ],
      [
        "arter",
        -10.671717310187578
      ],
      [
        "bilit",
        -10.676531267543572
      ],
      [
        "elder",
        -10.67694751923926
      ],
      [
        "figur",
        -10.677138773333475
      ],
      [
        "Michael",
        -10.677274938730914
      ],
      [
        "liquid",
        -10.677279476303067
      ],
      [
        "distinct",
        -10.67732766850305
      ],
      [
        "Swede",
        -10.677369223152592
      ],
      [
        "knee",
        -10.677370721132473
      ],
      [
        "extinct",
        -10.677471761708006
      ],
      [
        "grandfather",
        -10.677583159693128
      ],
      [
        "regret",
        -10.678058707663338
      ],
      [
        "charit",
        -10.679143848202568
      ],
      [
        "style",
        -10.679556780418396
      ],
      [
        "handle",
        -10.682363604088282
      ],
      [
        "origin",
        -10.685873592832293
      ],
      [
        "apple",
        -10.68653859288728
      ],
      [
        "refer",
        -10.686598775795701
      ],
      [
        "ingredient",
        -10.68802790192268
      ],
      [
        "Pakistan",
        -10.68802802925354
      ],
      [
        "pregnan",
        -10.688028263859895
      ],
      [
        "equation",
        -10.688115868625985
      ],
      [
        "joke",
        -10.688133425689431
      ],
      [
        "threaten",
        -10.688286665888835
      ],
      [
        "Scot",
        -10.688297827249432
      ],
      [
        "apartment",
        -10.688408615619952
      ],
      [
        "enem",
        -10.692522207021753
      ],
      [
        "insul",
        -10.695034528331632
      ],
      [
        "nervous",
        -10.698897187218133
      ],
      [
        "telescope",
        -10.698897190341373
      ],
      [
        "Frank",
        -10.698912752971673
      ],
      [
        "liberat",
        -10.698935295233479
      ],
      [
        "maintain",
        -10.698953708906396
      ],
      [
        "brief",
        -10.699074880135383
      ],
      [
        "600",
        -10.699196354482694
      ],
      [
        "é",
        -10.70988619614882
      ],
      [
        "length",
        -10.709886222071884
      ],
      [
        "perceive",
        -10.709886731035057
      ],
      [
        "prototype",
        -10.709887670324184
      ],
      [
        "vessel",
        -10.709902385676394
      ],
      [
        "silence",
        -10.709946163798241
      ],
      [
        "shadow",
        -10.710875993146535
      ],
      [
        "Uni",
        -10.712767770292036
      ],
      [
        "integr",
        -10.713421370110645
      ],
      [
        "Ken",
        -10.714305967710324
      ],
      [
        "calculate",
        -10.717268744918211
      ],
      [
        "accelerat",
        -10.720997321710037
      ],
      [
        "manipulat",
        -10.720998220896933
      ],
      [
        "Richard",
        -10.72100076123096
      ],
      [
        "regard",
        -10.721051086399946
      ],
      [
        "staff",
        -10.721058295853084
      ],
      [
        "desk",
        -10.721408176187515
      ],
      [
        "drill",
        -10.72173487311112
      ],
      [
        "contract",
        -10.72630708756455
      ],
      [
        "ugg",
        -10.73143728490217
      ],
      [
        "relevant",
        -10.73150932480759
      ],
      [
        "circumstance",
        -10.732233262316115
      ],
      [
        "vulnerabl",
        -10.732233262333443
      ],
      [
        "refugee",
        -10.73223327204634
      ],
      [
        "librar",
        -10.732234410646337
      ],
      [
        "activate",
        -10.732237973175536
      ],
      [
        "Robert",
        -10.732246886230097
      ],
      [
        "witness",
        -10.732405319184943
      ],
      [
        "Angel",
        -10.732638274105824
      ],
      [
        "Life",
        -10.732758492110449
      ],
      [
        "finance",
        -10.733589342214714
      ],
      [
        "peer",
        -10.736758668315876
      ],
      [
        "Free",
        -10.736926912413509
      ],
      [
        "umber",
        -10.738935655768799
      ],
      [
        "abstract",
        -10.74359810564369
      ],
      [
        "inspiration",
        -10.743598182021625
      ],
      [
        "ultra",
        -10.743600249400679
      ],
      [
        "status",
        -10.74399119940285
      ],
      [
        "analog",
        -10.74404827281425
      ],
      [
        "laptop",
        -10.744090326302128
      ],
      [
        "meaningful",
        -10.744190102606883
      ],
      [
        "drag",
        -10.744205950090379
      ],
      [
        "dependenc",
        -10.746272991032626
      ],
      [
        "rocket",
        -10.747428002327446
      ],
      [
        "critic",
        -10.752984506767703
      ],
      [
        "sculpture",
        -10.755091151585688
      ],
      [
        "YouTube",
        -10.755091936434505
      ],
      [
        "studio",
        -10.755093648633787
      ],
      [
        "spectrum",
        -10.755101939052789
      ],
      [
        "volume",
        -10.755120858901584
      ],
      [
        "poem",
        -10.755473214122649
      ],
      [
        "rescue",
        -10.755691634833795
      ],
      [
        "lady",
        -10.755860515835513
      ],
      [
        "propose",
        -10.756966691502537
      ],
      [
        "integrate",
        -10.763101030390139
      ],
      [
        "uncle",
        -10.765384703881224
      ],
      [
        "cooperati",
        -10.766368077102529
      ],
      [
        "conclusion",
        -10.766719058978847
      ],
      [
        "lecture",
        -10.766719119244076
      ],
      [
        "CO2",
        -10.766722774361167
      ],
      [
        "Since",
        -10.766800663163956
      ],
      [
        "flash",
        -10.766879618527984
      ],
      [
        "monkey",
        -10.76693508164762
      ],
      [
        "season",
        -10.767121086971635
      ],
      [
        "transmit",
        -10.767380699634339
      ],
      [
        "terroris",
        -10.767512830977406
      ],
      [
        "physicist",
        -10.767544312926855
      ],
      [
        "pilot",
        -10.768918192440074
      ],
      [
        "destin",
        -10.773417781237917
      ],
      [
        "dolphin",
        -10.778483770226465
      ],
      [
        "sensitive",
        -10.778483892471224
      ],
      [
        "intuitive",
        -10.778484079941137
      ],
      [
        "Congress",
        -10.778484960078679
      ],
      [
        "Haiti",
        -10.778521732964059
      ],
      [
        "encounter",
        -10.778694452833598
      ],
      [
        "pipe",
        -10.77907463180543
      ],
      [
        "Korea",
        -10.779108592133056
      ],
      [
        "cult",
        -10.78230232009538
      ],
      [
        "occur",
        -10.782911934011773
      ],
      [
        "boundar",
        -10.784650089286016
      ],
      [
        "Whil",
        -10.786725793302484
      ],
      [
        "Islam",
        -10.7895726065824
      ],
      [
        "establish",
        -10.790388526343918
      ],
      [
        "implication",
        -10.790388818568378
      ],
      [
        "grateful",
        -10.790392107919708
      ],
      [
        "iPhone",
        -10.79041984636093
      ],
      [
        "frog",
        -10.790454805240559
      ],
      [
        "cyber",
        -10.79046996250973
      ],
      [
        "depress",
        -10.790531172355005
      ],
      [
        "transplant",
        -10.790730529265836
      ],
      [
        "float",
        -10.790798113026959
      ],
      [
        "jail",
        -10.792198742747178
      ],
      [
        "academic",
        -10.80243672285892
      ],
      [
        "distribute",
        -10.80243672672329
      ],
      [
        "fabric",
        -10.80244999719715
      ],
      [
        "Bank",
        -10.802629788877029
      ],
      [
        "medium",
        -10.802749171993023
      ],
      [
        "initial",
        -10.803718775902421
      ],
      [
        "iving",
        -10.805426220994889
      ],
      [
        "flag",
        -10.814112338938994
      ],
      [
        "elephant",
        -10.814631841094954
      ],
      [
        "instruction",
        -10.814631842333629
      ],
      [
        "corporate",
        -10.814631854199959
      ],
      [
        "occasion",
        -10.81463191393711
      ],
      [
        "filter",
        -10.814633750251694
      ],
      [
        "hydrogen",
        -10.814681844223678
      ],
      [
        "unusual",
        -10.814716997920915
      ],
      [
        "implant",
        -10.814820059288198
      ],
      [
        "fluid",
        -10.81483720950344
      ],
      [
        "priorit",
        -10.81495149772756
      ],
      [
        "happie",
        -10.817106318385614
      ],
      [
        "north",
        -10.822587210703528
      ],
      [
        "197",
        -10.826800499605909
      ],
      [
        "illustrate",
        -10.826977730019594
      ],
      [
        "mushroom",
        -10.826977900471565
      ],
      [
        "cratch",
        -10.826978127683914
      ],
      [
        "appreciate",
        -10.826978298691714
      ],
      [
        "advice",
        -10.826980431604762
      ],
      [
        "provid",
        -10.837383537120333
      ],
      [
        "intervention",
        -10.839477526712962
      ],
      [
        "innovative",
        -10.839477533735629
      ],
      [
        "judgment",
        -10.839477602572387
      ],
      [
        "polio",
        -10.839480017499529
      ],
      [
        "illegal",
        -10.83951395659195
      ],
      [
        "fruit",
        -10.839515332880406
      ],
      [
        "minister",
        -10.839977571645925
      ],
      [
        "locate",
        -10.844365105511852
      ],
      [
        "emergenc",
        -10.845691372788167
      ],
      [
        "weigh",
        -10.85045284148794
      ],
      [
        "priva",
        -10.850612262175474
      ],
      [
        "earthquake",
        -10.852135771353677
      ],
      [
        "privilege",
        -10.852135811480366
      ],
      [
        "milk",
        -10.852142100888273
      ],
      [
        "hormone",
        -10.852142392751809
      ],
      [
        "prepared",
        -10.852150666587839
      ],
      [
        "ritual",
        -10.8522252522246
      ],
      [
        "settle",
        -10.852529120316742
      ],
      [
        "Wow",
        -10.852839234669776
      ],
      [
        "dirt",
        -10.852868629553242
      ],
      [
        "hacker",
        -10.858248292018864
      ],
      [
        "challeng",
        -10.859912816703948
      ],
      [
        "Mari",
        -10.862354571206088
      ],
      [
        "chest",
        -10.863247510926586
      ],
      [
        "engag",
        -10.864160964012685
      ],
      [
        "concrete",
        -10.864956475703483
      ],
      [
        "overwhelm",
        -10.864956522903068
      ],
      [
        "Child",
        -10.86495777392616
      ],
      [
        "license",
        -10.864964255835549
      ],
      [
        "panel",
        -10.864991786880902
      ],
      [
        "autonom",
        -10.865002323791007
      ],
      [
        "clever",
        -10.86536765935676
      ],
      [
        "harvest",
        -10.865401756970043
      ],
      [
        "intense",
        -10.865401955648226
      ],
      [
        "Jer",
        -10.867950473860047
      ],
      [
        "Turk",
        -10.872033010234992
      ],
      [
        "Science",
        -10.877943414333972
      ],
      [
        "Obama",
        -10.87794344607126
      ],
      [
        "Darwin",
        -10.877943605336142
      ],
      [
        "Girl",
        -10.877946560586041
      ],
      [
        "stroke",
        -10.877948452368544
      ],
      [
        "navigat",
        -10.87795142747991
      ],
      [
        "client",
        -10.877955809806089
      ],
      [
        "pump",
        -10.87795616574504
      ],
      [
        "Human",
        -10.877981303814602
      ],
      [
        "spiritual",
        -10.877986121362103
      ],
      [
        "vegetable",
        -10.878070579135553
      ],
      [
        "characteristic",
        -10.878137149189381
      ],
      [
        "MRI",
        -10.878200048273095
      ],
      [
        "steel",
        -10.878233962585954
      ],
      [
        "surance",
        -10.878280823817704
      ],
      [
        "pool",
        -10.878537065434141
      ],
      [
        "Paris",
        -10.879461744439354
      ],
      [
        "session",
        -10.879637651793802
      ],
      [
        "rhythm",
        -10.891101210127639
      ],
      [
        "nonymous",
        -10.891101392582431
      ],
      [
        "contrast",
        -10.891101555920365
      ],
      [
        "barrier",
        -10.891101809364162
      ],
      [
        "church",
        -10.891107993373224
      ],
      [
        "analyze",
        -10.891110542888963
      ],
      [
        "inevitabl",
        -10.891119562347054
      ],
      [
        "physician",
        -10.891143720837835
      ],
      [
        "romantic",
        -10.891272944199756
      ],
      [
        "800",
        -10.891473957705
      ],
      [
        "split",
        -10.89296014761222
      ],
      [
        "polic",
        -10.89496163146029
      ],
      [
        "intensi",
        -10.897881884468115
      ],
      [
        "mobili",
        -10.902247236260838
      ],
      [
        "Institute",
        -10.904434502081928
      ],
      [
        "antibiotic",
        -10.90443450209279
      ],
      [
        "sophisticate",
        -10.904434505132672
      ],
      [
        "chocolate",
        -10.90443451993233
      ],
      [
        "automatic",
        -10.904434622954016
      ],
      [
        "dinosaur",
        -10.904434671865328
      ],
      [
        "Christian",
        -10.904436577886404
      ],
      [
        "horribl",
        -10.904445834672284
      ],
      [
        "Smith",
        -10.904447563240701
      ],
      [
        "portrait",
        -10.904454570657457
      ],
      [
        "candidate",
        -10.904516419840954
      ],
      [
        "nerve",
        -10.904541261402652
      ],
      [
        "constrain",
        -10.90480236740323
      ],
      [
        "divers",
        -10.916101324858541
      ],
      [
        "accomplish",
        -10.917948100215614
      ],
      [
        "NASA",
        -10.91794810963434
      ],
      [
        "proportion",
        -10.917949264895226
      ],
      [
        "hunger",
        -10.917952432138158
      ],
      [
        "transfer",
        -10.917959447413175
      ],
      [
        "clue",
        -10.917974921084909
      ],
      [
        "attitude",
        -10.918028646287542
      ],
      [
        "mimic",
        -10.918072126754037
      ],
      [
        "laser",
        -10.918548772758768
      ],
      [
        "vibrat",
        -10.92000709747235
      ],
      [
        "formula",
        -10.920163414272583
      ],
      [
        "bound",
        -10.924890897262436
      ],
      [
        "eaten",
        -10.928321160768789
      ],
      [
        "favor",
        -10.931519873339269
      ],
      [
        "vulnerabilit",
        -10.9316466454282
      ],
      [
        "motivation",
        -10.931646646967216
      ],
      [
        "horizon",
        -10.931646650638903
      ],
      [
        "procedure",
        -10.93164669461668
      ],
      [
        "kitchen",
        -10.931646743229663
      ],
      [
        "authentic",
        -10.931647121987648
      ],
      [
        "identical",
        -10.931647775170681
      ],
      [
        "explanation",
        -10.931648496462053
      ],
      [
        "instinct",
        -10.9316493432225
      ],
      [
        "Gulf",
        -10.931688105758397
      ],
      [
        "Martin",
        -10.931886347235713
      ],
      [
        "acid",
        -10.931919562075489
      ],
      [
        "leap",
        -10.932310833393213
      ],
      [
        "expose",
        -10.93336083478839
      ],
      [
        "kilo",
        -10.941894190170375
      ],
      [
        "Wikipedia",
        -10.945535534317125
      ],
      [
        "Global",
        -10.945535550280354
      ],
      [
        "fascinate",
        -10.945535749414386
      ],
      [
        "implement",
        -10.945535775578753
      ],
      [
        "astronom",
        -10.945536190373062
      ],
      [
        "fertil",
        -10.945536836296384
      ],
      [
        "trillion",
        -10.945538145915808
      ],
      [
        "hypothes",
        -10.945540598879534
      ],
      [
        "stretch",
        -10.945560071710258
      ],
      [
        "Sahara",
        -10.945589656716644
      ],
      [
        "hotel",
        -10.945614700462913
      ],
      [
        "presence",
        -10.945617903465209
      ],
      [
        "Six",
        -10.945654821085318
      ],
      [
        "addict",
        -10.946687622506094
      ],
      [
        "evolv",
        -10.949128646428981
      ],
      [
        "philosopher",
        -10.949974814125417
      ],
      [
        "polluti",
        -10.956386877489098
      ],
      [
        "embarrass",
        -10.959620041682426
      ],
      [
        "Christmas",
        -10.959621232417511
      ],
      [
        "murder",
        -10.959623163526878
      ],
      [
        "metaboli",
        -10.95962576400414
      ],
      [
        "liberal",
        -10.959631788648256
      ],
      [
        "reject",
        -10.959635059993815
      ],
      [
        "announce",
        -10.9596592067832
      ],
      [
        "globe",
        -10.959679544207198
      ],
      [
        "cream",
        -10.959788425390219
      ],
      [
        "Peter",
        -10.959835184844401
      ],
      [
        "crash",
        -10.959960055418794
      ],
      [
        "introduc",
        -10.96505511675306
      ],
      [
        "nutrition",
        -10.973905759012442
      ],
      [
        "motivate",
        -10.973906004059302
      ],
      [
        "wheelchair",
        -10.97398378307213
      ],
      [
        "thumb",
        -10.974070879059251
      ],
      [
        "unknown",
        -10.974102491822006
      ],
      [
        "defend",
        -10.974109698905771
      ],
      [
        "Swi",
        -10.981846332633431
      ],
      [
        "efficienc",
        -10.988398509268206
      ],
      [
        "frequenc",
        -10.988398515862256
      ],
      [
        "knock",
        -10.98840163030081
      ],
      [
        "mammal",
        -10.988402364852103
      ],
      [
        "permanent",
        -10.98840246908982
      ],
      [
        "frighten",
        -10.98843644882638
      ],
      [
        "Design",
        -10.988453768058204
      ],
      [
        "Basic",
        -10.988613185557474
      ],
      [
        "silent",
        -10.988717211485493
      ],
      [
        "Eric",
        -10.991600123505394
      ],
      [
        "discipline",
        -11.003104391717404
      ],
      [
        "miracle",
        -11.003104392586561
      ],
      [
        "defense",
        -11.003104398149897
      ],
      [
        "fossil",
        -11.003104917970235
      ],
      [
        "cluster",
        -11.00310557659512
      ],
      [
        "disrupt",
        -11.00310769006788
      ],
      [
        "heimer",
        -11.003113007612619
      ],
      [
        "eliminat",
        -11.003140274899827
      ],
      [
        "France",
        -11.003148184598118
      ],
      [
        "evaluat",
        -11.003153756442249
      ],
      [
        "Health",
        -11.004679101299427
      ],
      [
        "duct",
        -11.012591918146722
      ],
      [
        "Abou",
        -11.012735083880475
      ],
      [
        "sacrifice",
        -11.01802976594648
      ],
      [
        "astonishing",
        -11.018029769462718
      ],
      [
        "Project",
        -11.01802977638873
      ],
      [
        "escape",
        -11.018876669097535
      ],
      [
        "Phil",
        -11.018952498233801
      ],
      [
        "leak",
        -11.023933878421522
      ],
      [
        "attle",
        -11.032197722491276
      ],
      [
        "participant",
        -11.033181279979019
      ],
      [
        "trauma",
        -11.033181479081122
      ],
      [
        "club",
        -11.033185570418677
      ],
      [
        "froze",
        -11.03318631011478
      ],
      [
        "bicycle",
        -11.0332128028321
      ],
      [
        "condom",
        -11.033239068486477
      ],
      [
        "inject",
        -11.033245518787783
      ],
      [
        "blank",
        -11.033304569285217
      ],
      [
        "eopard",
        -11.033312540521493
      ],
      [
        "zoom",
        -11.033351731687567
      ],
      [
        "orient",
        -11.03345629132631
      ],
      [
        "plug",
        -11.035957329600116
      ],
      [
        "ladi",
        -11.04136280492845
      ],
      [
        "deploy",
        -11.048565946129157
      ],
      [
        "Iranian",
        -11.048569844448801
      ],
      [
        "afternoon",
        -11.048614641023882
      ],
      [
        "fiber",
        -11.048625869525846
      ],
      [
        "cousin",
        -11.04873512381422
      ],
      [
        "shirt",
        -11.04877512512111
      ],
      [
        "densit",
        -11.04886830586851
      ],
      [
        "regime",
        -11.05098512645042
      ],
      [
        "journal",
        -11.059829105962152
      ],
      [
        "furniture",
        -11.06419089754647
      ],
      [
        "Amazon",
        -11.064190941667125
      ],
      [
        "paradigm",
        -11.0641909937687
      ],
      [
        "passenger",
        -11.064191064348606
      ],
      [
        "dominant",
        -11.06419117663517
      ],
      [
        "microscope",
        -11.064191389130624
      ],
      [
        "Eastern",
        -11.064232455681719
      ],
      [
        "athlete",
        -11.064260094348711
      ],
      [
        "beetle",
        -11.067085849272864
      ],
      [
        "diploma",
        -11.080063911370996
      ],
      [
        "Foundation",
        -11.080063958481805
      ],
      [
        "CEO",
        -11.080072219694017
      ],
      [
        "disturb",
        -11.080074693113978
      ],
      [
        "trigger",
        -11.080075548975355
      ],
      [
        "Rwanda",
        -11.080089139490525
      ],
      [
        "ssociation",
        -11.080144634073335
      ],
      [
        "summar",
        -11.08020026724461
      ],
      [
        "agenda",
        -11.080273321699703
      ],
      [
        "Voice",
        -11.08032065042253
      ],
      [
        "ridiculous",
        -11.096192943426601
      ],
      [
        "Antarctic",
        -11.096192943761777
      ],
      [
        "refrigerat",
        -11.096192945587037
      ],
      [
        "incident",
        -11.096193182507664
      ],
      [
        "regulation",
        -11.09620153968455
      ],
      [
        "flood",
        -11.096205201218591
      ],
      [
        "Apple",
        -11.09621639499162
      ],
      [
        "suspect",
        -11.096254472483434
      ],
      [
        "promote",
        -11.096277597913065
      ],
      [
        "William",
        -11.112586395393912
      ],
      [
        "guarantee",
        -11.11258639632671
      ],
      [
        "embedded",
        -11.11258643210469
      ],
      [
        "strike",
        -11.112587336000743
      ],
      [
        "anthrop",
        -11.112587862423286
      ],
      [
        "yield",
        -11.112589200187319
      ],
      [
        "column",
        -11.112591260159629
      ],
      [
        "depth",
        -11.112606292904733
      ],
      [
        "implicit",
        -11.112611120054014
      ],
      [
        "toxic",
        -11.112629404617344
      ],
      [
        "branch",
        -11.112642407895297
      ],
      [
        "ambitio",
        -11.112871585324143
      ],
      [
        "approv",
        -11.11499189643021
      ],
      [
        "tempt",
        -11.128178881183942
      ],
      [
        "conservative",
        -11.129253214663107
      ],
      [
        "anxiet",
        -11.129253267181141
      ],
      [
        "crucial",
        -11.129253939058152
      ],
      [
        "inspiring",
        -11.129257019725646
      ],
      [
        "senior",
        -11.129262550955374
      ],
      [
        "piano",
        -11.129364748316918
      ],
      [
        "radiati",
        -11.129902396359759
      ],
      [
        "struggl",
        -11.1318271269771
      ],
      [
        "obstacle",
        -11.146202206642538
      ],
      [
        "tunnel",
        -11.146202255637224
      ],
      [
        "identifie",
        -11.14620239509667
      ],
      [
        "advoca",
        -11.146202855839622
      ],
      [
        "conservation",
        -11.146203454049509
      ],
      [
        "predator",
        -11.146203474463654
      ],
      [
        "chromosome",
        -11.146205350638798
      ],
      [
        "gesture",
        -11.14620871488348
      ],
      [
        "Vietnam",
        -11.146211561994814
      ],
      [
        "concert",
        -11.14621279495664
      ],
      [
        "dedicate",
        -11.146262538219307
      ],
      [
        "compell",
        -11.14634719801149
      ],
      [
        "combat",
        -11.146447226581236
      ],
      [
        "abundan",
        -11.149486619791485
      ],
      [
        "prosthetic",
        -11.163452362154484
      ],
      [
        "Julia",
        -11.163457991359223
      ],
      [
        "bulb",
        -11.163540810455544
      ],
      [
        "orchestra",
        -11.163582679227856
      ],
      [
        "accumulat",
        -11.180987444316177
      ],
      [
        "desperate",
        -11.180987456127827
      ],
      [
        "origami",
        -11.180987548816638
      ],
      [
        "recipe",
        -11.180987681329277
      ],
      [
        "Space",
        -11.18098787347433
      ],
      [
        "NGO",
        -11.18099323071169
      ],
      [
        "whistle",
        -11.181003158823044
      ],
      [
        "tangible",
        -11.181009315908371
      ],
      [
        "absorb",
        -11.181015774916933
      ],
      [
        "mutation",
        -11.181021762900055
      ],
      [
        "diabet",
        -11.18104307035938
      ],
      [
        "distract",
        -11.181092723149785
      ],
      [
        "subtle",
        -11.18150585177132
      ],
      [
        "erial",
        -11.188992767254732
      ],
      [
        "phosphor",
        -11.198844587091926
      ],
      [
        "scenario",
        -11.198844587288434
      ],
      [
        "nutrient",
        -11.198844588102576
      ],
      [
        "corporation",
        -11.198844591835886
      ],
      [
        "description",
        -11.198844883586425
      ],
      [
        "Peace",
        -11.198845462273866
      ],
      [
        "curiosit",
        -11.198847129017404
      ],
      [
        "intrigu",
        -11.198848156945044
      ],
      [
        "sandwich",
        -11.19885253458433
      ],
      [
        "kidney",
        -11.198858875386335
      ],
      [
        "scanner",
        -11.1990279297512
      ],
      [
        "excite",
        -11.205552242204057
      ],
      [
        "freak",
        -11.210916576223493
      ],
      [
        "curricul",
        -11.217026966691828
      ],
      [
        "parallel",
        -11.21702836507853
      ],
      [
        "substance",
        -11.217031296772602
      ],
      [
        "acquire",
        -11.217033151180923
      ],
      [
        "infinite",
        -11.21703395110589
      ],
      [
        "northern",
        -11.21703447408462
      ],
      [
        "ioxid",
        -11.217059146239407
      ],
      [
        "convict",
        -11.217322100190344
      ],
      [
        "nucle",
        -11.228535149554592
      ],
      [
        "Democrat",
        -11.235544923787085
      ],
      [
        "Should",
        -11.235544924720829
      ],
      [
        "frequent",
        -11.235545086467091
      ],
      [
        "ceiling",
        -11.235545496872321
      ],
      [
        "General",
        -11.235546743935789
      ],
      [
        "Fellow",
        -11.235548014977372
      ],
      [
        "medication",
        -11.235548436982985
      ],
      [
        "fault",
        -11.235548773858321
      ],
      [
        "supplie",
        -11.235549860914448
      ],
      [
        "Through",
        -11.235552106479375
      ],
      [
        "cheese",
        -11.235557948870037
      ],
      [
        "pioneer",
        -11.235559847140946
      ],
      [
        "sauce",
        -11.235560290692696
      ],
      [
        "terrifi",
        -11.235590569373674
      ],
      [
        "suppose",
        -11.242948177285362
      ],
      [
        "currenc",
        -11.253274255379143
      ],
      [
        "conclude",
        -11.254412849909901
      ],
      [
        "attribute",
        -11.254412879372966
      ],
      [
        "exploit",
        -11.254412939757398
      ],
      [
        "jazz",
        -11.254412965123077
      ],
      [
        "alcohol",
        -11.254413441072085
      ],
      [
        "Listen",
        -11.254416193358491
      ],
      [
        "transcend",
        -11.254427417183127
      ],
      [
        "admir",
        -11.254550073086625
      ],
      [
        "compli",
        -11.255169964384235
      ],
      [
        "crystal",
        -11.25544923858513
      ],
      [
        "psychiatr",
        -11.273643617609208
      ],
      [
        "concentration",
        -11.273643634797727
      ],
      [
        "consistent",
        -11.273643864135282
      ],
      [
        "International",
        -11.273643952471446
      ],
      [
        "intuition",
        -11.273644410333512
      ],
      [
        "synthetic",
        -11.273650599006594
      ],
      [
        "ethnic",
        -11.273652449888651
      ],
      [
        "spider",
        -11.273659531620112
      ],
      [
        "matri",
        -11.273679609883283
      ],
      [
        "wipe",
        -11.276676458564866
      ],
      [
        "profession",
        -11.285330932389618
      ],
      [
        "disappoint",
        -11.293252121858364
      ],
      [
        "Micros",
        -11.293252224503153
      ],
      [
        "fragil",
        -11.29325254400003
      ],
      [
        "recommend",
        -11.293252821719257
      ],
      [
        "interrupt",
        -11.293257608581253
      ],
      [
        "protocell",
        -11.293258194246503
      ],
      [
        "probabilit",
        -11.293258971637016
      ],
      [
        "Blue",
        -11.293261583756962
      ],
      [
        "chapter",
        -11.293266190522218
      ],
      [
        "proxim",
        -11.293380023660083
      ],
      [
        "unbelievabl",
        -11.313251460723503
      ],
      [
        "dialogue",
        -11.313251461772055
      ],
      [
        "explosion",
        -11.313251474440797
      ],
      [
        "burden",
        -11.31325176768205
      ],
      [
        "concentrate",
        -11.313252387031762
      ],
      [
        "Greek",
        -11.313254308101143
      ],
      [
        "Minister",
        -11.313256046614375
      ],
      [
        "Syria",
        -11.313260270916643
      ],
      [
        "liban",
        -11.32822320612462
      ],
      [
        "predictabl",
        -11.329887215650668
      ],
      [
        "schizophreni",
        -11.333659623933219
      ],
      [
        "helicopter",
        -11.333659626227647
      ],
      [
        "Olympic",
        -11.333659626959982
      ],
      [
        "pizza",
        -11.333659630692493
      ],
      [
        "Tasmania",
        -11.333659694601295
      ],
      [
        "hemisphere",
        -11.333659802770345
      ],
      [
        "tendenc",
        -11.33366447146274
      ],
      [
        "diagram",
        -11.333664859932732
      ],
      [
        "guilt",
        -11.33367049660385
      ],
      [
        "Ghana",
        -11.33367314454863
      ],
      [
        "reliabl",
        -11.334014915362191
      ],
      [
        "calorie",
        -11.334458602863902
      ],
      [
        "diagnosi",
        -11.354493077632043
      ],
      [
        "awkward",
        -11.354493212108645
      ],
      [
        "tragic",
        -11.354494107399482
      ],
      [
        "gradual",
        -11.354531376083424
      ],
      [
        "nurtur",
        -11.35474992848964
      ],
      [
        "pyramid",
        -11.375769586034776
      ],
      [
        "flavor",
        -11.375769642499934
      ],
      [
        "marathon",
        -11.375769663213166
      ],
      [
        "dictator",
        -11.375769666314778
      ],
      [
        "ceremon",
        -11.37577034198063
      ],
      [
        "pleasant",
        -11.375776361963158
      ],
      [
        "silver",
        -11.375781820723228
      ],
      [
        "Spani",
        -11.376027497841697
      ],
      [
        "clari",
        -11.37785653149376
      ],
      [
        "hallucination",
        -11.39750868349115
      ],
      [
        "glacier",
        -11.397508683986544
      ],
      [
        "Obvious",
        -11.397508689671191
      ],
      [
        "paradox",
        -11.397508718616633
      ],
      [
        "virtue",
        -11.397509001011915
      ],
      [
        "federal",
        -11.397510753739304
      ],
      [
        "Friday",
        -11.397511413767683
      ],
      [
        "dominate",
        -11.397532626048351
      ],
      [
        "excellen",
        -11.402751778934768
      ],
      [
        "chimpanzee",
        -11.419730905693081
      ],
      [
        "cigarette",
        -11.419730905873255
      ],
      [
        "fabulous",
        -11.419730906160641
      ],
      [
        "philanthrop",
        -11.419730909003531
      ],
      [
        "ouncil",
        -11.419730921525094
      ],
      [
        "neutral",
        -11.419730928079023
      ],
      [
        "millimeter",
        -11.419730949617907
      ],
      [
        "maxim",
        -11.419731039902123
      ],
      [
        "Aristot",
        -11.419731356369947
      ],
      [
        "paralyze",
        -11.419732073301905
      ],
      [
        "domestic",
        -11.41973236199822
      ],
      [
        "reconcil",
        -11.4197342940612
      ],
      [
        "flexibl",
        -11.419738136317003
      ],
      [
        "defeat",
        -11.419788419562671
      ],
      [
        "ladder",
        -11.41993078590516
      ],
      [
        "structural",
        -11.442458178429455
      ],
      [
        "simulation",
        -11.442458179596953
      ],
      [
        "bizarre",
        -11.442458179804914
      ],
      [
        "receptor",
        -11.442458186373791
      ],
      [
        "luxur",
        -11.442458301644757
      ],
      [
        "consult",
        -11.442459127082616
      ],
      [
        "humili",
        -11.442496137228328
      ],
      [
        "experienc",
        -11.450627178469475
      ],
      [
        "pharmaceutical",
        -11.465713992348999
      ],
      [
        "unprecedented",
        -11.465713992349036
      ],
      [
        "ubiquitous",
        -11.46571399234969
      ],
      [
        "spectacular",
        -11.465713995231317
      ],
      [
        "anticipate",
        -11.465714003232451
      ],
      [
        "Abraham",
        -11.465714008622772
      ],
      [
        "expedition",
        -11.4657140178225
      ],
      [
        "fragment",
        -11.465714055695669
      ],
      [
        "decrease",
        -11.465714084435568
      ],
      [
        "hierarch",
        -11.465714119989794
      ],
      [
        "August",
        -11.465714194526347
      ],
      [
        "Daniel",
        -11.465714280569728
      ],
      [
        "pandemic",
        -11.465714307790766
      ],
      [
        "register",
        -11.465717391378154
      ],
      [
        "puppet",
        -11.465722659721651
      ],
      [
        "Academ",
        -11.465726270974358
      ],
      [
        "emphasi",
        -11.465783456578807
      ],
      [
        "embodi",
        -11.469558668554518
      ],
      [
        "mechanic",
        -11.470641226775513
      ],
      [
        "Neanderthal",
        -11.489523516171666
      ],
      [
        "Sudden",
        -11.489523524551412
      ],
      [
        "vascular",
        -11.489523535068134
      ],
      [
        "Charli",
        -11.48964381628671
      ],
      [
        "terrifying",
        -11.513913811795598
      ],
      [
        "glimpse",
        -11.513913953474608
      ],
      [
        "flourish",
        -11.513913974279602
      ],
      [
        "expansi",
        -11.513917518662646
      ],
      [
        "pancrea",
        -11.514148579664733
      ],
      [
        "certifi",
        -11.515658035032446
      ],
      [
        "simultaneous",
        -11.53891376006096
      ],
      [
        "comprehensi",
        -11.538913762432026
      ],
      [
        "Build",
        -11.538913807618618
      ],
      [
        "Indonesia",
        -11.538913818024618
      ],
      [
        "devastating",
        -11.53891391080149
      ],
      [
        "stereotype",
        -11.538914800044395
      ],
      [
        "geometr",
        -11.540869224953603
      ],
      [
        "guerrilla",
        -11.564554785771959
      ],
      [
        "enthusias",
        -11.564554787083129
      ],
      [
        "cylinder",
        -11.564554793385591
      ],
      [
        "membrane",
        -11.564554813812274
      ],
      [
        "Detroit",
        -11.564554858651551
      ],
      [
        "stigma",
        -11.564555093765915
      ],
      [
        "syndrome",
        -11.564555115340845
      ],
      [
        "commodit",
        -11.56455664404714
      ],
      [
        "illuminat",
        -11.564557219047849
      ],
      [
        "mutual",
        -11.564559958015094
      ],
      [
        "legislati",
        -11.564799060480901
      ],
      [
        "Cambodia",
        -11.590870575180551
      ],
      [
        "elevator",
        -11.590870575382768
      ],
      [
        "Technolog",
        -11.590870577804644
      ],
      [
        "adolescent",
        -11.590870589070121
      ],
      [
        "grocer",
        -11.59087062586391
      ],
      [
        "Singapore",
        -11.590870642298498
      ],
      [
        "contagio",
        -11.590875314292433
      ],
      [
        "Shakespeare",
        -11.617897602203358
      ],
      [
        "trajector",
        -11.617897602213308
      ],
      [
        "spontaneous",
        -11.617897602219967
      ],
      [
        "thylacine",
        -11.617897602261548
      ],
      [
        "onstitution",
        -11.617897628729468
      ],
      [
        "physiolog",
        -11.617897632803542
      ],
      [
        "urveillance",
        -11.645675384984884
      ],
      [
        "divorce",
        -11.645675389187938
      ],
      [
        "adequate",
        -11.645675409784328
      ],
      [
        "magnificent",
        -11.67424680855243
      ],
      [
        "Catholic",
        -11.674246814878387
      ],
      [
        "Joseph",
        -11.674246823139892
      ],
      [
        "gorgeous",
        -11.674246833304316
      ],
      [
        "criteri",
        -11.674246866082123
      ],
      [
        "explicit",
        -11.674246909985916
      ],
      [
        "negotiate",
        -11.674247004482625
      ],
      [
        "articulat",
        -11.674298724516522
      ],
      [
        "rehabilitati",
        -11.674371049158136
      ],
      [
        "recogniz",
        -11.67758927361113
      ],
      [
        "ncyclopedia",
        -11.703658573257787
      ],
      [
        "vacuum",
        -11.703658579131886
      ],
      [
        "negotiation",
        -11.703658624764284
      ],
      [
        "eradicate",
        -11.703660059974933
      ],
      [
        "discriminati",
        -11.733961603617105
      ],
      [
        "stabilize",
        -11.73396160365021
      ],
      [
        "Tanzania",
        -11.733961603836347
      ],
      [
        "astronaut",
        -11.733961604464643
      ],
      [
        "counsel",
        -11.733961604878598
      ],
      [
        "administrati",
        -11.733961608327164
      ],
      [
        "democratiz",
        -11.73396161346263
      ],
      [
        "migration",
        -11.733961652810564
      ],
      [
        "+",
        -11.765211603560816
      ],
      [
        "á",
        -11.765211603560818
      ],
      [
        "Absolute",
        -11.765211603565197
      ],
      [
        "sufficient",
        -11.765211603863984
      ],
      [
        "convenient",
        -11.765211605187954
      ],
      [
        "Hawaii",
        -11.76521160528641
      ],
      [
        "envelope",
        -11.765211607303245
      ],
      [
        "distinguish",
        -11.765211608667535
      ],
      [
        "encouraging",
        -11.765211611346324
      ],
      [
        "schedule",
        -11.765211945642612
      ],
      [
        "elevate",
        -11.765212198660954
      ],
      [
        "appreciati",
        -11.766387321524892
      ],
      [
        "bureaucra",
        -11.797469668083385
      ],
      [
        "Similar",
        -11.797469668152411
      ],
      [
        "Sierra",
        -11.797469685130402
      ],
      [
        "visceral",
        -11.79746968600342
      ],
      [
        "utiliz",
        -11.797475891148274
      ],
      [
        "q",
        -11.828116083242838
      ],
      [
        "adolescence",
        -11.830803001472093
      ],
      [
        "ambulance",
        -11.830803005193221
      ],
      [
        "substantial",
        -11.83080311230363
      ],
      [
        "Elizabeth",
        -11.865285760034064
      ],
      [
        "Norwegian",
        -11.865285760128561
      ],
      [
        "hamburger",
        -11.865285760235183
      ],
      [
        "Ushahidi",
        -11.901000045769594
      ],
      [
        "Parliament",
        -11.901000045793477
      ],
      [
        "Zimbabwe",
        -11.901000045893015
      ],
      [
        "Environment",
        -11.90100004614284
      ],
      [
        "optimiz",
        -11.901000503540944
      ],
      [
        "beneficia",
        -11.938037084393816
      ],
      [
        "voluntar",
        -11.93803709563401
      ],
      [
        "…",
        -11.97649862124383
      ],
      [
        "bioluminescen",
        -11.976498621243994
      ],
      [
        "disciplinar",
        -11.976498621244517
      ],
      [
        "Bangladesh",
        -11.97649862125304
      ],
      [
        "pedestrian",
        -11.976498621308226
      ],
      [
        "deception",
        -11.976498621366407
      ],
      [
        "exponential",
        -11.976498621385064
      ],
      [
        "Columbia",
        -11.976498621984353
      ],
      [
        "contemplat",
        -11.976498776212294
      ],
      [
        "catastrophic",
        -12.01649862124383
      ],
      [
        "CAPTCHA",
        -12.01649862124383
      ],
      [
        "irrelevan",
        -12.019117830077228
      ],
      [
        "cockroach",
        -12.058165287987167
      ],
      [
        "principal",
        -12.05816528806752
      ],
      [
        "peculiar",
        -12.101643548795382
      ],
      [
        "PowerPoint",
        -12.147098094236199
      ],
      [
        "í",
        -12.297348720801025
      ],
      [
        "Democracy",
        -12.352904276356591
      ],
      [
        "=",
        -12.474227805768352
      ],
      [
        "è",
        -12.612323043863618
      ],
      [
        "–",
        -12.612323043863618
      ],
      [
        "%",
        -12.612323043863618
      ],
      [
        "ó",
        -12.772579454120176
      ],
      [
        "@",
        -12.863488545029535
      ],
      [
        "ü",
        -12.963488545030309
      ],
      [
        "ã",
        -13.074599656143894
      ],
      [
        "ö",
        -13.074599656143896
      ],
      [
        "ä",
        -13.342456799010144
      ],
      [
        "ø",
        -13.509123465716767
      ],
      [
        ")",
        -13.709123465716768
      ],
      [
        "อ",
        -13.959123465716766
      ],
      [
        "â",
        -13.959123465716768
      ],
      [
        "ë",
        -14.2924567990501
      ],
      [
        "́",
        -14.2924567990501
      ],
      [
        "",
        -14.2924567990501
      ],
      [
        "à",
        -14.2924567990501
      ],
      [
        "",
        -14.2924567990501
      ],
      [
        "Á",
        -14.792456799050091
      ],
      [
        "ā",
        -14.7924567990501
      ],
      [
        "É",
        -14.7924567990501
      ],
      [
        "่",
        -14.7924567990501
      ],
      [
        "(",
        -14.7924567990501
      ],
      [
        "£",
        -14.7924567990501
      ],
      [
        "ร",
        -14.7924567990501
      ],
      [
        "_",
        -14.7924567990501
      ],
      [
        "ç",
        -15.7920567990501
      ],
      [
        "ย",
        -15.792156799050101
      ],
      [
        "ñ",
        -15.7922567990501
      ],
      [
        "ê",
        -15.7923567990501
      ],
      [
        "葱",
        -15.7924567990501
      ],
      [
        "€",
        -15.7924567990501
      ],
      [
        "¡",
        -15.7924567990501
      ],
      [
        "*",
        -15.7924567990501
      ],
      [
        "ē",
        -15.7924567990501
      ],
      [
        "Ă",
        -15.7924567990501
      ],
      [
        "ï",
        -15.7924567990501
      ],
      [
        "Č",
        -15.7924567990501
      ],
      [
        "送",
        -15.7924567990501
      ],
      [
        "Ť",
        -15.7924567990501
      ],
      [
        "Å",
        -15.7924567990501
      ],
      [
        "你",
        -15.7924567990501
      ]
    ],
    "byte_fallback": false
  }
}