{
  "version": "1.0",
  "truncation": {
    "direction": "Right",
    "max_length": 64,
    "strategy": "LongestFirst",
    "stride": 0
  },
  "padding": {
    "strategy": {
      "Fixed": 64
    },
    "direction": "Right",
    "pad_to_multiple_of": null,
    "pad_id": 0,
    "pad_type_id": 0,
    "pad_token": "[PAD]"
  },
  "added_tokens": [
    {
      "id": 0,
      "content": "[PAD]",
      "single_word": false,
      "lstrip": false,
      "rstrip": false,
      "normalized": false,
      "special": true
    },
    {
      "id": 1,
      "content": "[UNK]",
      "single_word": false,
      "lstrip": false,
      "rstrip": false,
      "normalized": false,
      "special": true
    },
    {
      "id": 2,
      "content": "[SOS]",
      "single_word": false,
      "lstrip": false,
      "rstrip": false,
      "normalized": false,
      "special": true
    },
    {
      "id": 3,
      "content": "[EOS]",
      "single_word": false,
      "lstrip": false,
      "rstrip": false,
      "normalized": false,
      "special": true
    },
    {
      "id": 4,
      "content": "[MASK]",
      "single_word": false,
      "lstrip": false,
      "rstrip": false,
      "normalized": false,
      "special": true
    },
    {
      "id": 5,
      "content": "[CLS]",
      "single_word": false,
      "lstrip": false,
      "rstrip": false,
      "normalized": false,
      "special": true
    }
  ],
  "normalizer": null,
  "pre_tokenizer": {
    "type": "Whitespace"
  },
  "post_processor": null,
  "decoder": null,
  "model": {
    "type": "Unigram",
    "unk_id": 1,
    "vocab": [
      [
        "[PAD]",
        0.0
      ],
      [
        "[UNK]",
        0.0
      ],
      [
        "[SOS]",
        0.0
      ],
      [
        "[EOS]",
        0.0
      ],
      [
        "[MASK]",
        0.0
      ],
      [
        "[CLS]",
        0.0
      ],
      [
        "t",
        -2.9085615979462744
      ],
      [
        "c",
        -3.005767420668672
      ],
      [
        "n",
        -3.088388669211552
      ],
      [
        "i",
        -3.3557962349695885
      ],
      [
        "h",
        -3.7172270332683244
      ],
      [
        ",",
        -3.7251689406234085
      ],
      [
        "m",
        -3.7436700918535095
      ],
      [
        ".",
        -3.774061355254112
      ],
      [
        "đ",
        -3.7998658891919934
      ],
      [
        "ó",
        -3.850608137684837
      ],
      [
        "ng",
        -4.016747490883278
      ],
      [
        "g",
        -4.1944666218548345
      ],
      [
        "a",
        -4.198848211142671
      ],
      [
        "là",
        -4.49989604478302
      ],
      [
        "u",
        -4.524186981555726
      ],
      [
        "à",
        -4.596143069902469
      ],
      [
        "tôi",
        -4.639358601448198
      ],
      [
        "và",
        -4.6463206164311845
      ],
      [
        "y",
        -4.676079632560237
      ],
      [
        "l",
        -4.680200980127646
      ],
      [
        "một",
        -4.695897948442925
      ],
      [
        "p",
        -4.705953970787801
      ],
      [
        "o",
        -4.780086271896405
      ],
      [
        "những",
        -4.953771079473199
      ],
      [
        "của",
        -4.974700642031774
      ],
      [
        "húng",
        -4.987813431108371
      ],
      [
        "á",
        -5.0869263455406095
      ],
      [
        "v",
        -5.106139033829685
      ],
      [
        "không",
        -5.160520130110974
      ],
      [
        "b",
        -5.231659262164619
      ],
      [
        "người",
        -5.298875418533623
      ],
      [
        "bạn",
        -5.304548875288706
      ],
      [
        "ì",
        -5.352994843373516
      ],
      [
        "trong",
        -5.375582123954208
      ],
      [
        "thể",
        -5.394655453452277
      ],
      [
        "ả",
        -5.409173308024275
      ],
      [
        "này",
        -5.446830202767208
      ],
      [
        "các",
        -5.451727145741749
      ],
      [
        ";",
        -5.455341160959842
      ],
      [
        "đã",
        -5.458184066833313
      ],
      [
        "được",
        -5.494338148089762
      ],
      [
        "&",
        -5.501882977090601
      ],
      [
        "ố",
        -5.524041404815646
      ],
      [
        "s",
        -5.5449052513546935
      ],
      [
        "ra",
        -5.5506712064201835
      ],
      [
        "với",
        -5.567702365359754
      ],
      [
        "ở",
        -5.585940127030261
      ],
      [
        "quo",
        -5.600131245091422
      ],
      [
        "cho",
        -5.605551570902394
      ],
      [
        "Và",
        -5.631674412197205
      ],
      [
        "ơ",
        -5.633822604284447
      ],
      [
        "sự",
        -5.643649557400362
      ],
      [
        "làm",
        -5.786998127839361
      ],
      [
        "để",
        -5.810004067626396
      ],
      [
        "ừ",
        -5.812732312308098
      ],
      [
        "như",
        -5.818948654066064
      ],
      [
        "d",
        -5.819954740174545
      ],
      [
        "về",
        -5.820792003970109
      ],
      [
        "ạ",
        -5.8243399223863594
      ],
      [
        "ất",
        -5.83396233320752
      ],
      [
        "sẽ",
        -5.8380500875360575
      ],
      [
        "ứ",
        -5.904743051078663
      ],
      [
        "ự",
        -5.913825521961185
      ],
      [
        "điều",
        -5.9287305218173945
      ],
      [
        "họ",
        -5.932455454078813
      ],
      [
        "thế",
        -5.938526583569814
      ],
      [
        "k",
        -6.005404673218548
      ],
      [
        "ấ",
        -6.017022461894539
      ],
      [
        "khi",
        -6.028556215217449
      ],
      [
        "ộ",
        -6.047724892736767
      ],
      [
        "Tôi",
        -6.0502730625614625
      ],
      [
        "phả",
        -6.057412648328942
      ],
      [
        "số",
        -6.0580796262846
      ],
      [
        "đến",
        -6.114577275589365
      ],
      [
        "ần",
        -6.117547680562538
      ],
      [
        "ầu",
        -6.124648843518903
      ],
      [
        "ề",
        -6.128406062466809
      ],
      [
        "?",
        -6.151566912722915
      ],
      [
        "r",
        -6.15346888594526
      ],
      [
        "ô",
        -6.16208746396728
      ],
      [
        "ên",
        -6.182435396627833
      ],
      [
        "rằng",
        -6.1922954560348735
      ],
      [
        "ế",
        -6.193911411258425
      ],
      [
        "ang",
        -6.198971191094378
      ],
      [
        "ậ",
        -6.203870345018268
      ],
      [
        "thứ",
        -6.206159613151218
      ],
      [
        "việc",
        -6.2135970504644344
      ],
      [
        "thấ",
        -6.226032352363049
      ],
      [
        "lại",
        -6.23804524789146
      ],
      [
        "vào",
        -6.240465487549216
      ],
      [
        "vậ",
        -6.250002236223011
      ],
      [
        "nghĩ",
        -6.261909900129824
      ],
      [
        "hơn",
        -6.287620651264515
      ],
      [
        "nhiều",
        -6.314999495415355
      ],
      [
        "ình",
        -6.319597958368581
      ],
      [
        "rấ",
        -6.326697570239542
      ],
      [
        "ới",
        -6.328957454241062
      ],
      [
        "cách",
        -6.333978032243671
      ],
      [
        "hay",
        -6.3555170747889775
      ],
      [
        "ấy",
        -6.366085851057678
      ],
      [
        "thự",
        -6.366297493955244
      ],
      [
        "ý",
        -6.372112869455034
      ],
      [
        "khác",
        -6.372902167448897
      ],
      [
        "đây",
        -6.410274482461665
      ],
      [
        "ọ",
        -6.410610092075004
      ],
      [
        "con",
        -6.413578130443751
      ],
      [
        "biế",
        -6.426191941392986
      ],
      [
        "chỉ",
        -6.431824138256445
      ],
      [
        "ă",
        -6.448358617290223
      ],
      [
        "trê",
        -6.454656411998998
      ],
      [
        "học",
        -6.4816870397161335
      ],
      [
        "công",
        -6.489695894489344
      ],
      [
        "Chúng",
        -6.489789193837183
      ],
      [
        "ệ",
        -6.490890484329048
      ],
      [
        "hân",
        -6.502527343773242
      ],
      [
        "ông",
        -6.503184452542552
      ],
      [
        "--",
        -6.5120879876820545
      ],
      [
        "ã",
        -6.526543853686071
      ],
      [
        "phá",
        -6.534272031789204
      ],
      [
        "ây",
        -6.558384068003011
      ],
      [
        "ú",
        -6.57122353801803
      ],
      [
        "dụ",
        -6.583838397359161
      ],
      [
        ":",
        -6.5958469553815995
      ],
      [
        "â",
        -6.605920344134198
      ],
      [
        "thành",
        -6.61159154561204
      ],
      [
        "ớ",
        -6.618708671807305
      ],
      [
        "cũng",
        -6.6405289494454856
      ],
      [
        "ường",
        -6.643957996354484
      ],
      [
        "Như",
        -6.65563584664174
      ],
      [
        "ời",
        -6.659229415309261
      ],
      [
        "bị",
        -6.67606400986903
      ],
      [
        "quan",
        -6.680006283892025
      ],
      [
        "1",
        -6.689455983513504
      ],
      [
        "muốn",
        -6.698940979898406
      ],
      [
        "thậ",
        -6.700940700750964
      ],
      [
        "àng",
        -6.701098455839695
      ],
      [
        "ợ",
        -6.709229632305025
      ],
      [
        "nhậ",
        -6.7280677820884005
      ],
      [
        "nhất",
        -6.75178710090397
      ],
      [
        "í",
        -6.761445545073718
      ],
      [
        "qua",
        -6.763338290999002
      ],
      [
        "giả",
        -6.767295762084137
      ],
      [
        "mình",
        -6.768748339868544
      ],
      [
        "N",
        -6.769280946920675
      ],
      [
        "chính",
        -6.7736457382863
      ],
      [
        "động",
        -6.776521162102291
      ],
      [
        "tạo",
        -6.781875828281937
      ],
      [
        "hiện",
        -6.786883529525573
      ],
      [
        "nhưng",
        -6.792679375895778
      ],
      [
        "giớ",
        -6.7956344934649735
      ],
      [
        "kế",
        -6.809267656330931
      ],
      [
        "gia",
        -6.812755548240169
      ],
      [
        "giá",
        -6.815644011158218
      ],
      [
        "ụ",
        -6.817111009567313
      ],
      [
        "anh",
        -6.82472983205178
      ],
      [
        "giờ",
        -6.877299717072967
      ],
      [
        "ước",
        -6.878808049947022
      ],
      [
        "M",
        -6.887882606752511
      ],
      [
        "cuộ",
        -6.909118341219836
      ],
      [
        "nếu",
        -6.9113590597919785
      ],
      [
        "ư",
        -6.926921943877785
      ],
      [
        "bắ",
        -6.932682804825847
      ],
      [
        "Đ",
        -6.94511963287678
      ],
      [
        "thì",
        -6.963910352078813
      ],
      [
        "chiế",
        -6.965044149414618
      ],
      [
        "x",
        -6.995820727082236
      ],
      [
        "T",
        -7.002879156137665
      ],
      [
        "ử",
        -7.005928659108761
      ],
      [
        "đồ",
        -7.0105127315630344
      ],
      [
        "theo",
        -7.014412300675222
      ],
      [
        "ồ",
        -7.018010464722442
      ],
      [
        "bở",
        -7.0225497499351945
      ],
      [
        "nhìn",
        -7.0278052098369095
      ],
      [
        "còn",
        -7.029642067555436
      ],
      [
        "e",
        -7.036912861880383
      ],
      [
        "bằng",
        -7.044025449813001
      ],
      [
        "tiế",
        -7.045819289801896
      ],
      [
        "bản",
        -7.052999460008676
      ],
      [
        "-",
        -7.05646898596002
      ],
      [
        "sau",
        -7.058695865689966
      ],
      [
        "huyệ",
        -7.06217245144286
      ],
      [
        "bộ",
        -7.07448817169684
      ],
      [
        "cùn",
        -7.0750271798698385
      ],
      [
        "lên",
        -7.090452868334486
      ],
      [
        "ắ",
        -7.092074127656408
      ],
      [
        "sao",
        -7.094031486520631
      ],
      [
        "ữ",
        -7.10054417224238
      ],
      [
        "trở",
        -7.103657469529972
      ],
      [
        "thờ",
        -7.105457742916055
      ],
      [
        "câu",
        -7.1060025327076435
      ],
      [
        "ngày",
        -7.110477621543341
      ],
      [
        "sinh",
        -7.1174628977134144
      ],
      [
        "nghiệ",
        -7.125735131143006
      ],
      [
        "hươn",
        -7.126835724382911
      ],
      [
        "hiể",
        -7.1498965303559885
      ],
      [
        "sử",
        -7.15903595184208
      ],
      [
        "chứ",
        -7.163015815034488
      ],
      [
        "ịnh",
        -7.164114450936481
      ],
      [
        "trướ",
        -7.168176028070555
      ],
      [
        "ưở",
        -7.185457635276904
      ],
      [
        "năng",
        -7.185503618945791
      ],
      [
        "C",
        -7.188302898351292
      ],
      [
        "phầ",
        -7.189281407903637
      ],
      [
        "ổ",
        -7.19294008448057
      ],
      [
        "Nó",
        -7.1953761784413395
      ],
      [
        "nhau",
        -7.201833746721826
      ],
      [
        "thiế",
        -7.204908560448326
      ],
      [
        "dự",
        -7.210145229646502
      ],
      [
        "mặ",
        -7.214891710840888
      ],
      [
        "hỏi",
        -7.235648851943749
      ],
      [
        "B",
        -7.251952037671153
      ],
      [
        "rồ",
        -7.261237119404651
      ],
      [
        "tính",
        -7.26169451325398
      ],
      [
        "hành",
        -7.287167347187195
      ],
      [
        "dù",
        -7.295944804754479
      ],
      [
        "liệ",
        -7.296794601772412
      ],
      [
        "hai",
        -7.310913731051562
      ],
      [
        "trườn",
        -7.311926865632827
      ],
      [
        "Bạn",
        -7.325599819480468
      ],
      [
        "trìn",
        -7.329791694002594
      ],
      [
        "ỹ",
        -7.339415580217743
      ],
      [
        "xu",
        -7.343960109183932
      ],
      [
        "hoá",
        -7.346272687183092
      ],
      [
        "hông",
        -7.356611026360111
      ],
      [
        "kin",
        -7.366152803072556
      ],
      [
        "quá",
        -7.389145366511297
      ],
      [
        "nữa",
        -7.38934217884178
      ],
      [
        "Đó",
        -7.39009493823386
      ],
      [
        "khá",
        -7.399492046282379
      ],
      [
        "vị",
        -7.4193295955898115
      ],
      [
        "ôi",
        -7.4223448064321484
      ],
      [
        "ị",
        -7.422537527601458
      ],
      [
        "phụ",
        -7.424498700122301
      ],
      [
        "xem",
        -7.427990221416467
      ],
      [
        "ăng",
        -7.433062589860652
      ],
      [
        "do",
        -7.438570655613459
      ],
      [
        "thíc",
        -7.441072954584127
      ],
      [
        "Th",
        -7.444370367805469
      ],
      [
        "ẽ",
        -7.447400597037024
      ],
      [
        "sán",
        -7.4534485298470905
      ],
      [
        "ĩ",
        -7.459409430041463
      ],
      [
        "đổ",
        -7.464280308124234
      ],
      [
        "ủ",
        -7.4670849005476025
      ],
      [
        "ều",
        -7.468959344464542
      ],
      [
        "ể",
        -7.473349572627679
      ],
      [
        "gian",
        -7.475617826988511
      ],
      [
        "trẻ",
        -7.478726985031383
      ],
      [
        "Đâ",
        -7.4793472985821445
      ],
      [
        "trọn",
        -7.4798341546578655
      ],
      [
        "hoạ",
        -7.486758676835358
      ],
      [
        "Mộ",
        -7.498954542269605
      ],
      [
        "ăn",
        -7.505195276949943
      ],
      [
        "chế",
        -7.507809047147166
      ],
      [
        "âu",
        -7.509361015439549
      ],
      [
        "V",
        -7.5095106964687925
      ],
      [
        "quả",
        -7.509784368197766
      ],
      [
        "chấ",
        -7.510588362087953
      ],
      [
        "giữ",
        -7.514390908066847
      ],
      [
        "ặ",
        -7.52500850335235
      ],
      [
        "trả",
        -7.52891684473395
      ],
      [
        "oàn",
        -7.539003237358819
      ],
      [
        "loại",
        -7.545208095724344
      ],
      [
        "giố",
        -7.546293109652111
      ],
      [
        "Vì",
        -7.551794030517108
      ],
      [
        "bao",
        -7.55666300548146
      ],
      [
        "tiên",
        -7.558737856200944
      ],
      [
        "bện",
        -7.5589382687995785
      ],
      [
        "khoản",
        -7.565123271434251
      ],
      [
        "ù",
        -7.571951805688006
      ],
      [
        "thú",
        -7.577400283886853
      ],
      [
        "nay",
        -7.5802021935180495
      ],
      [
        "S",
        -7.581108070514283
      ],
      [
        "nhiê",
        -7.581387883474181
      ],
      [
        "đán",
        -7.588152291557947
      ],
      [
        "Vậ",
        -7.5919809512254695
      ],
      [
        "nghệ",
        -7.597147416206911
      ],
      [
        "tác",
        -7.600827374353854
      ],
      [
        "điểm",
        -7.602294653073851
      ],
      [
        "gọi",
        -7.605269208556458
      ],
      [
        "viê",
        -7.605612249841743
      ],
      [
        "tr",
        -7.608934150734305
      ],
      [
        "hoàn",
        -7.611912241591616
      ],
      [
        "thuậ",
        -7.614180634858671
      ],
      [
        "nhỏ",
        -7.615051385913138
      ],
      [
        "tươ",
        -7.620642619099681
      ],
      [
        "úng",
        -7.632120682135028
      ],
      [
        "biệ",
        -7.632447922488791
      ],
      [
        "Có",
        -7.637330358200602
      ],
      [
        "Họ",
        -7.639186019696581
      ],
      [
        "em",
        -7.6403400317573045
      ],
      [
        "đưa",
        -7.643448401059507
      ],
      [
        "ẻ",
        -7.651102346531511
      ],
      [
        "ổi",
        -7.654170192686463
      ],
      [
        "òng",
        -7.655159396745257
      ],
      [
        "2",
        -7.658219304898076
      ],
      [
        "xả",
        -7.665987642198294
      ],
      [
        "ê",
        -7.675357546070492
      ],
      [
        "thá",
        -7.677815309091019
      ],
      [
        "ờ",
        -7.684506508375756
      ],
      [
        "thu",
        -7.686803485879054
      ],
      [
        "vẫ",
        -7.690884897575976
      ],
      [
        "hững",
        -7.691859877592752
      ],
      [
        "mạn",
        -7.703374023209995
      ],
      [
        "bả",
        -7.708408784947706
      ],
      [
        "dân",
        -7.7095216832176074
      ],
      [
        "hoặ",
        -7.710097929732766
      ],
      [
        "quyế",
        -7.718177397070727
      ],
      [
        "dạ",
        -7.722064482324041
      ],
      [
        "triể",
        -7.7262649110430415
      ],
      [
        "bên",
        -7.72776903620075
      ],
      [
        "chuyể",
        -7.729589326194906
      ],
      [
        "thốn",
        -7.7320641196032645
      ],
      [
        "diễ",
        -7.744188977229068
      ],
      [
        "Điề",
        -7.746643429171579
      ],
      [
        "trị",
        -7.7466568984018584
      ],
      [
        "ầ",
        -7.747571098141793
      ],
      [
        "ghe",
        -7.748376000778662
      ],
      [
        "hiên",
        -7.748727414763623
      ],
      [
        "hiệ",
        -7.760791265849977
      ],
      [
        "tuyệ",
        -7.770251380074438
      ],
      [
        "truy",
        -7.779915956366208
      ],
      [
        "ỗ",
        -7.7846355848103554
      ],
      [
        "gắn",
        -7.78723880081386
      ],
      [
        "mỗi",
        -7.792615470521853
      ],
      [
        "toà",
        -7.797208185053361
      ],
      [
        "An",
        -7.820080073234856
      ],
      [
        "xe",
        -7.82114491803318
      ],
      [
        "chú",
        -7.822462897370215
      ],
      [
        "ạo",
        -7.824366538077398
      ],
      [
        "iền",
        -7.8335520168827255
      ],
      [
        "nguy",
        -7.8372565065653035
      ],
      [
        "chủ",
        -7.8400073360605225
      ],
      [
        "Nế",
        -7.842003469479268
      ],
      [
        "ỳ",
        -7.8430330226138185
      ],
      [
        "khoa",
        -7.845674057186286
      ],
      [
        "khả",
        -7.849620333886452
      ],
      [
        "phòng",
        -7.856178568021266
      ],
      [
        "trun",
        -7.859209442764328
      ],
      [
        "phí",
        -7.859447926962321
      ],
      [
        "luậ",
        -7.859797903547684
      ],
      [
        "chưa",
        -7.861305959119118
      ],
      [
        "yê",
        -7.863056735632368
      ],
      [
        "liên",
        -7.868273709075732
      ],
      [
        "ranh",
        -7.869761229881613
      ],
      [
        "nghiên",
        -7.8767834596927075
      ],
      [
        "biể",
        -7.88002478834786
      ],
      [
        "ay",
        -7.894464849657648
      ],
      [
        "kiể",
        -7.899270459844346
      ],
      [
        "khó",
        -7.903690120823396
      ],
      [
        "sản",
        -7.905509914870156
      ],
      [
        "khí",
        -7.908992322630723
      ],
      [
        "Khi",
        -7.910460114052282
      ],
      [
        "tượ",
        -7.911907742990022
      ],
      [
        "điện",
        -7.9135794737806835
      ],
      [
        "Các",
        -7.916693522519226
      ],
      [
        "bình",
        -7.928042687214116
      ],
      [
        "tuổi",
        -7.931451969163343
      ],
      [
        "tiến",
        -7.943637057041935
      ],
      [
        "phố",
        -7.94680803566526
      ],
      [
        "tiê",
        -7.950574059854591
      ],
      [
        "bé",
        -7.952577636555959
      ],
      [
        "đặt",
        -7.954599994430386
      ],
      [
        "Không",
        -7.960852107848973
      ],
      [
        "ộng",
        -7.966421070733964
      ],
      [
        "cuố",
        -7.9742124871343565
      ],
      [
        "bỏ",
        -7.974406760918214
      ],
      [
        "trí",
        -7.979214229933041
      ],
      [
        "khu",
        -7.980976529799351
      ],
      [
        "xã",
        -7.986297760942101
      ],
      [
        "lượ",
        -7.986332603192378
      ],
      [
        "tay",
        -7.99147099875272
      ],
      [
        "phi",
        -7.9915632681085595
      ],
      [
        "chí",
        -7.996338232993409
      ],
      [
        "sứ",
        -7.997262068843413
      ],
      [
        "tiếng",
        -7.99755036698467
      ],
      [
        "phẩ",
        -8.003358934438715
      ],
      [
        "3",
        -8.009594791027316
      ],
      [
        "Tron",
        -8.023449346073207
      ],
      [
        "ỉ",
        -8.03152804493297
      ],
      [
        "mang",
        -8.033201986159229
      ],
      [
        "sác",
        -8.033217670163195
      ],
      [
        "hé",
        -8.036583132457075
      ],
      [
        "ễ",
        -8.039142622974044
      ],
      [
        "minh",
        -8.0441964376478
      ],
      [
        "thị",
        -8.05301240565441
      ],
      [
        "ỷ",
        -8.053398631458291
      ],
      [
        "đầ",
        -8.064664768901267
      ],
      [
        "H",
        -8.065516918222116
      ],
      [
        "cầu",
        -8.077364432576138
      ],
      [
        "dẫ",
        -8.080546505913809
      ],
      [
        "ngoà",
        -8.081744597709369
      ],
      [
        "loà",
        -8.085865533339227
      ],
      [
        "õ",
        -8.088633017463717
      ],
      [
        "thô",
        -8.089028364491119
      ],
      [
        "sắ",
        -8.08926100193397
      ],
      [
        "tinh",
        -8.104933760593864
      ],
      [
        "khiế",
        -8.105406016104283
      ],
      [
        "ỗi",
        -8.106882847389368
      ],
      [
        "luô",
        -8.107851764858669
      ],
      [
        "K",
        -8.107891962881375
      ],
      [
        "hướn",
        -8.118446904663234
      ],
      [
        "dị",
        -8.132036954731888
      ],
      [
        "văn",
        -8.13504706231708
      ],
      [
        "lượn",
        -8.138248139962993
      ],
      [
        "biến",
        -8.139647297738042
      ],
      [
        "ắc",
        -8.15153715247909
      ],
      [
        "khắ",
        -8.152833702255341
      ],
      [
        "viế",
        -8.15488387417136
      ],
      [
        "đặ",
        -8.159329007709761
      ],
      [
        "hạn",
        -8.159841215236563
      ],
      [
        "ỏ",
        -8.162924340735781
      ],
      [
        "Hã",
        -8.163401396251574
      ],
      [
        "thử",
        -8.16600243828706
      ],
      [
        "Qu",
        -8.166076498349193
      ],
      [
        "triệ",
        -8.170233822203336
      ],
      [
        "kiến",
        -8.174732799277297
      ],
      [
        "D",
        -8.17554325206528
      ],
      [
        "quốc",
        -8.176398588654617
      ],
      [
        "quyề",
        -8.190322970486337
      ],
      [
        "suy",
        -8.203865158680598
      ],
      [
        "Tr",
        -8.20634599856615
      ],
      [
        "bán",
        -8.207749325407804
      ],
      [
        "đâu",
        -8.218743351882818
      ],
      [
        "đấy",
        -8.221679753270326
      ],
      [
        "10",
        -8.228758656708257
      ],
      [
        "cản",
        -8.235187959086323
      ],
      [
        "vụ",
        -8.23956309862036
      ],
      [
        "thần",
        -8.239711490940767
      ],
      [
        "ạnh",
        -8.248514464123115
      ],
      [
        "L",
        -8.26828462498102
      ],
      [
        "ò",
        -8.268913880763954
      ],
      [
        "dưới",
        -8.26963494036633
      ],
      [
        "mẹ",
        -8.272916240620622
      ],
      [
        "dàn",
        -8.27531658683796
      ],
      [
        "trá",
        -8.279268128600279
      ],
      [
        "xác",
        -8.282340832240642
      ],
      [
        "trò",
        -8.29027773598919
      ],
      [
        "xuố",
        -8.291462447490431
      ],
      [
        "ươn",
        -8.296175082632619
      ],
      [
        "chia",
        -8.301253394999907
      ],
      [
        "thân",
        -8.301907698213252
      ],
      [
        "thê",
        -8.312521706439817
      ],
      [
        "R",
        -8.319373101716238
      ],
      [
        "%",
        -8.325278259049334
      ],
      [
        "ũ",
        -8.32705637718291
      ],
      [
        "nhiệ",
        -8.331771071426022
      ],
      [
        "duy",
        -8.335815433320821
      ],
      [
        "Ô",
        -8.336101711677136
      ],
      [
        "bay",
        -8.338061325859714
      ],
      [
        "guồn",
        -8.338386201627278
      ],
      [
        "xa",
        -8.343474833745638
      ],
      [
        "tham",
        -8.34368976727799
      ],
      [
        "20",
        -8.351768458131644
      ],
      [
        "thuyế",
        -8.353961268557265
      ],
      [
        "thả",
        -8.357993688200853
      ],
      [
        "vù",
        -8.36339246020274
      ],
      [
        "A",
        -8.364139010558794
      ],
      [
        "giản",
        -8.366593633662301
      ],
      [
        "chắ",
        -8.366786804741604
      ],
      [
        "uổi",
        -8.372522046860503
      ],
      [
        "chạ",
        -8.37640468634524
      ],
      [
        "ỡ",
        -8.379233528356394
      ],
      [
        "đoạ",
        -8.382215132798983
      ],
      [
        "chút",
        -8.385720446062967
      ],
      [
        "5",
        -8.3862044888192
      ],
      [
        "kiệ",
        -8.395716703670885
      ],
      [
        "đẹ",
        -8.396322570820228
      ],
      [
        "huố",
        -8.398487627666901
      ],
      [
        "hôm",
        -8.409728776498389
      ],
      [
        "vọn",
        -8.413306013330038
      ],
      [
        "tră",
        -8.413526142496178
      ],
      [
        "ược",
        -8.416178453369126
      ],
      [
        "thư",
        -8.417833186485918
      ],
      [
        "nhớ",
        -8.426285390212662
      ],
      [
        "vũ",
        -8.428934024812799
      ],
      [
        "nhạ",
        -8.430882294555266
      ],
      [
        "chị",
        -8.438193170722958
      ],
      [
        "sợ",
        -8.439682621083557
      ],
      [
        "trang",
        -8.439731138835128
      ],
      [
        "ngàn",
        -8.440480218418795
      ],
      [
        "gây",
        -8.444275536176406
      ],
      [
        "hưở",
        -8.450081698787553
      ],
      [
        "quanh",
        -8.45053917317291
      ],
      [
        "4",
        -8.451245560777824
      ],
      [
        "qu",
        -8.453108483118747
      ],
      [
        "xâ",
        -8.458381239669858
      ],
      [
        "khỏ",
        -8.460016129552049
      ],
      [
        "Tru",
        -8.46782897305457
      ],
      [
        "...",
        -8.468853843242853
      ],
      [
        "ẩn",
        -8.469717049965237
      ],
      [
        "Tạ",
        -8.47021377871442
      ],
      [
        "chẳn",
        -8.47070872143885
      ],
      [
        "Cả",
        -8.490546004130604
      ],
      [
        "chữ",
        -8.49094999809499
      ],
      [
        "chố",
        -8.494768996011747
      ],
      [
        "kia",
        -8.506833064915686
      ],
      [
        "Cá",
        -8.518657026996124
      ],
      [
        "kiếm",
        -8.522504300561447
      ],
      [
        "pos",
        -8.523241067595904
      ],
      [
        "ếu",
        -8.532488135870665
      ],
      [
        "lai",
        -8.533848619808712
      ],
      [
        "tíc",
        -8.542372685014662
      ],
      [
        "ngữ",
        -8.545630597016238
      ],
      [
        "đôi",
        -8.555169535783744
      ],
      [
        "Người",
        -8.560901515875141
      ],
      [
        "trạ",
        -8.562820074283165
      ],
      [
        "trụ",
        -8.56440523375927
      ],
      [
        "nhan",
        -8.56710477009619
      ],
      [
        "thí",
        -8.56802043272208
      ],
      [
        "kí",
        -8.575021373245326
      ],
      [
        "G",
        -8.580794020702022
      ],
      [
        "toán",
        -8.582583813868087
      ],
      [
        "bước",
        -8.587074408129475
      ],
      [
        "trú",
        -8.592341740057527
      ],
      [
        "kh",
        -8.592600303362126
      ],
      [
        "Bở",
        -8.609998838369346
      ],
      [
        "huộ",
        -8.613056204393502
      ],
      [
        "riên",
        -8.613401152430775
      ],
      [
        "diện",
        -8.614972402974763
      ],
      [
        "sai",
        -8.617972523184157
      ],
      [
        "!",
        -8.623136222007755
      ],
      [
        "phủ",
        -8.625909765732025
      ],
      [
        "rộn",
        -8.62816302119273
      ],
      [
        "000",
        -8.628579793836298
      ],
      [
        "mẫ",
        -8.641500435193418
      ],
      [
        "than",
        -8.642957098196893
      ],
      [
        "quy",
        -8.645962272768143
      ],
      [
        "vẻ",
        -8.646677110350794
      ],
      [
        "đoá",
        -8.666582557373932
      ],
      [
        "#",
        -8.676311954746122
      ],
      [
        "hoà",
        -8.680702158417564
      ],
      [
        "hè",
        -8.691826006638742
      ],
      [
        "trờ",
        -8.695303138169269
      ],
      [
        "suố",
        -8.69941338312698
      ],
      [
        "ằ",
        -8.704673756045974
      ],
      [
        "xé",
        -8.714046005464517
      ],
      [
        "ké",
        -8.716854218295017
      ],
      [
        "Phi",
        -8.721563252255573
      ],
      [
        "trợ",
        -8.723283489946613
      ],
      [
        "chụ",
        -8.724500062661736
      ],
      [
        "Là",
        -8.724727951274632
      ],
      [
        "phút",
        -8.727291066911285
      ],
      [
        "Thậ",
        -8.732011963357548
      ],
      [
        "hiều",
        -8.733331065799426
      ],
      [
        "hoẻ",
        -8.752748491569129
      ],
      [
        "chung",
        -8.76122986342094
      ],
      [
        "ngôn",
        -8.769027527261784
      ],
      [
        "é",
        -8.771383585961352
      ],
      [
        "Vân",
        -8.773505556573998
      ],
      [
        "tổn",
        -8.774213145910494
      ],
      [
        "chọ",
        -8.779631046800716
      ],
      [
        "xin",
        -8.784212450040911
      ],
      [
        "huyê",
        -8.7863731871169
      ],
      [
        "xú",
        -8.789420152733086
      ],
      [
        "hạc",
        -8.79451048838006
      ],
      [
        "ngạc",
        -8.796263025573108
      ],
      [
        "iễn",
        -8.797635000795527
      ],
      [
        "200",
        -8.804900568741854
      ],
      [
        "lãn",
        -8.80545356376367
      ],
      [
        "việ",
        -8.806752394269159
      ],
      [
        "phạ",
        -8.80718584359828
      ],
      [
        "ngồ",
        -8.807275792954641
      ],
      [
        "căn",
        -8.810694953827953
      ],
      [
        "chắn",
        -8.8116667658813
      ],
      [
        "ưỡ",
        -8.81570751286198
      ],
      [
        "ong",
        -8.817899662578945
      ],
      [
        "6",
        -8.821158926902493
      ],
      [
        "trô",
        -8.824750589736269
      ],
      [
        "Sau",
        -8.826466459147001
      ],
      [
        "phứ",
        -8.83740788433643
      ],
      [
        "cuốn",
        -8.837599113679437
      ],
      [
        "hẳn",
        -8.84005000154143
      ],
      [
        "bác",
        -8.845792963453414
      ],
      [
        "Ở",
        -8.85264381837797
      ],
      [
        "chă",
        -8.86776505256466
      ],
      [
        "giấ",
        -8.870428861578983
      ],
      [
        "bạ",
        -8.87659473885481
      ],
      [
        "tiề",
        -8.877152300183003
      ],
      [
        "uần",
        -8.878438526502983
      ],
      [
        "TED",
        -8.878961848693734
      ],
      [
        "hoa",
        -8.884681733800663
      ],
      [
        "O",
        -8.888892641778625
      ],
      [
        "30",
        -8.892656235452268
      ],
      [
        "ban",
        -8.8982428433135
      ],
      [
        "vượ",
        -8.907491074103337
      ],
      [
        "ét",
        -8.909719517080282
      ],
      [
        "Ho",
        -8.910437619412424
      ],
      [
        "khăn",
        -8.911002246994144
      ],
      [
        "Cô",
        -8.913117500934572
      ],
      [
        "ẹ",
        -8.913952136839164
      ],
      [
        "50",
        -8.918116035542642
      ],
      [
        "iệ",
        -8.922723330048894
      ],
      [
        "quý",
        -8.931165720702836
      ],
      [
        "phúc",
        -8.939289879189083
      ],
      [
        "chuẩn",
        -8.939423990181018
      ],
      [
        "Xi",
        -8.945631081326445
      ],
      [
        "thiên",
        -8.946852416555771
      ],
      [
        "sẵn",
        -8.949925096502167
      ],
      [
        "ỏng",
        -8.956859717826827
      ],
      [
        "doan",
        -8.957294128979022
      ],
      [
        "Độ",
        -8.958459755674857
      ],
      [
        "cạnh",
        -8.96558450379041
      ],
      [
        "rưở",
        -8.971220133194949
      ],
      [
        "Giờ",
        -8.97616769750578
      ],
      [
        "Do",
        -8.978715388575925
      ],
      [
        "hiế",
        -8.979847831747112
      ],
      [
        "dung",
        -8.985061843828717
      ],
      [
        "thác",
        -8.99437609777603
      ],
      [
        "lạc",
        -8.997162027686482
      ],
      [
        "xử",
        -9.0019936077798
      ],
      [
        "iên",
        -9.00760542068642
      ],
      [
        "thoạ",
        -9.014203695357029
      ],
      [
        "7",
        -9.014299897489167
      ],
      [
        "lắn",
        -9.016258718864245
      ],
      [
        "8",
        -9.019658211098092
      ],
      [
        "trai",
        -9.023270253170653
      ],
      [
        "phó",
        -9.033682989376144
      ],
      [
        "khổ",
        -9.035212686908963
      ],
      [
        "ngoạ",
        -9.045242660822723
      ],
      [
        "huỷ",
        -9.046137839382464
      ],
      [
        "Ý",
        -9.060433496273355
      ],
      [
        "Ấ",
        -9.066869558935693
      ],
      [
        "I",
        -9.074191820250231
      ],
      [
        "khố",
        -9.077030853553834
      ],
      [
        "100",
        -9.0784530046394
      ],
      [
        "châ",
        -9.082607904620476
      ],
      [
        "ũng",
        -9.084163762526945
      ],
      [
        "Tấ",
        -9.092481439807361
      ],
      [
        "Châ",
        -9.097794707098158
      ],
      [
        "kín",
        -9.097920823884447
      ],
      [
        "thắ",
        -9.102818146385065
      ],
      [
        "ẫn",
        -9.107630330604074
      ],
      [
        "nhiễ",
        -9.113343227348418
      ],
      [
        "danh",
        -9.114095367594569
      ],
      [
        "diệ",
        -9.114590865405065
      ],
      [
        "thiệ",
        -9.115526588247322
      ],
      [
        "ính",
        -9.117195596945084
      ],
      [
        "er",
        -9.118599338496717
      ],
      [
        "lướ",
        -9.120680951522303
      ],
      [
        "9",
        -9.12070261881546
      ],
      [
        "E",
        -9.126655458551843
      ],
      [
        "phổ",
        -9.127045194502598
      ],
      [
        "ằng",
        -9.128338161995813
      ],
      [
        "thủ",
        -9.132011595618096
      ],
      [
        "X",
        -9.13590260162076
      ],
      [
        "thoả",
        -9.141619649019255
      ],
      [
        "pho",
        -9.14520047165221
      ],
      [
        "lỗ",
        -9.152459309263191
      ],
      [
        "New",
        -9.15261399114506
      ],
      [
        "đẩ",
        -9.154646096775483
      ],
      [
        "Con",
        -9.156785688080728
      ],
      [
        "điệ",
        -9.168331486581877
      ],
      [
        "thẳ",
        -9.170472206513473
      ],
      [
        "vân",
        -9.171903417653404
      ],
      [
        "mạc",
        -9.173329627454509
      ],
      [
        "khoá",
        -9.183882151028499
      ],
      [
        "nghị",
        -9.19856511779434
      ],
      [
        "giế",
        -9.20124459102448
      ],
      [
        "tuyế",
        -9.201550593924598
      ],
      [
        "nhắ",
        -9.203287166654164
      ],
      [
        "Tuy",
        -9.205559714175813
      ],
      [
        "sang",
        -9.208100648925573
      ],
      [
        "lĩn",
        -9.213158440540987
      ],
      [
        "z",
        -9.214163778690342
      ],
      [
        "tiện",
        -9.217221991518201
      ],
      [
        "kha",
        -9.224937212210646
      ],
      [
        "P",
        -9.232405261682363
      ],
      [
        "quâ",
        -9.242097423173828
      ],
      [
        "nướ",
        -9.248091529409468
      ],
      [
        "thố",
        -9.259788090074874
      ],
      [
        "Â",
        -9.260391571088151
      ],
      [
        "quen",
        -9.261097283418383
      ],
      [
        "khiể",
        -9.263848053219046
      ],
      [
        "Chỉ",
        -9.266652978388652
      ],
      [
        "ngủ",
        -9.269203333235195
      ],
      [
        "may",
        -9.274648844079499
      ],
      [
        "Hiệ",
        -9.280803386128348
      ],
      [
        "cười",
        -9.298543479284366
      ],
      [
        "Chú",
        -9.305060752090878
      ],
      [
        "bốn",
        -9.30533330002049
      ],
      [
        "/",
        -9.310602904071963
      ],
      [
        "kỉ",
        -9.311227432648643
      ],
      [
        "phẫ",
        -9.312511163389594
      ],
      [
        "gen",
        -9.313098635646984
      ],
      [
        "trừ",
        -9.31648746928303
      ],
      [
        "òn",
        -9.320733261701358
      ],
      [
        "trắ",
        -9.321784072490715
      ],
      [
        "93",
        -9.324467608461141
      ],
      [
        "ghé",
        -9.326849224294108
      ],
      [
        "15",
        -9.327430211105597
      ],
      [
        "Rồ",
        -9.327606777462883
      ],
      [
        "ữa",
        -9.332520121759982
      ],
      [
        "uyề",
        -9.334808843814397
      ],
      [
        "thụ",
        -9.339437594080895
      ],
      [
        "Ngà",
        -9.339752675052903
      ],
      [
        "91",
        -9.343599037073087
      ],
      [
        "nghi",
        -9.355475853149883
      ],
      [
        "Bắ",
        -9.36243760965942
      ],
      [
        "xuyê",
        -9.367500303797271
      ],
      [
        "siê",
        -9.368645780676157
      ],
      [
        "quản",
        -9.37251256602465
      ],
      [
        "quê",
        -9.374860674307438
      ],
      [
        "hút",
        -9.38522212151738
      ],
      [
        "ẩ",
        -9.389986012880174
      ],
      [
        "nghiê",
        -9.390465486107198
      ],
      [
        "hoả",
        -9.393210659232778
      ],
      [
        "chim",
        -9.395358735898835
      ],
      [
        "trù",
        -9.400365607598431
      ],
      [
        "chuyế",
        -9.402090247120299
      ],
      [
        "lao",
        -9.408484396373371
      ],
      [
        "12",
        -9.413350340414016
      ],
      [
        "video",
        -9.417000886052321
      ],
      [
        "trư",
        -9.427020286660676
      ],
      [
        "Việ",
        -9.431176021906065
      ],
      [
        "es",
        -9.436909374332629
      ],
      [
        "40",
        -9.441602025713753
      ],
      [
        "khở",
        -9.442399733047331
      ],
      [
        "Nam",
        -9.44593497857889
      ],
      [
        "xan",
        -9.44848254641703
      ],
      [
        "Interne",
        -9.449621923044177
      ],
      [
        "rừ",
        -9.452570335167328
      ],
      [
        "19",
        -9.454730848678503
      ],
      [
        "Ph",
        -9.455413389731298
      ],
      [
        "Nê",
        -9.460426596141707
      ],
      [
        "lan",
        -9.463380850834213
      ],
      [
        "Cho",
        -9.463534335499924
      ],
      [
        "dừ",
        -9.465245052689038
      ],
      [
        "luyệ",
        -9.466317866450174
      ],
      [
        "khuôn",
        -9.471404440665381
      ],
      [
        "York",
        -9.473547622653768
      ],
      [
        "phậ",
        -9.47691497818279
      ],
      [
        "điể",
        -9.480026320533156
      ],
      [
        "chuộ",
        -9.49217590022182
      ],
      [
        "tín",
        -9.493822769830214
      ],
      [
        "buồn",
        -9.49874982204794
      ],
      [
        "trậ",
        -9.504676396295237
      ],
      [
        "Trá",
        -9.50508356647628
      ],
      [
        "giọ",
        -9.522458889574143
      ],
      [
        "đè",
        -9.525588905260994
      ],
      [
        "Hoa",
        -9.530753524239781
      ],
      [
        "U",
        -9.53333505922308
      ],
      [
        "hoạc",
        -9.536753205663576
      ],
      [
        "trác",
        -9.537531965072528
      ],
      [
        "Sa",
        -9.537931231961744
      ],
      [
        "son",
        -9.544252375331673
      ],
      [
        "Ai",
        -9.546522173176589
      ],
      [
        "Từ",
        -9.555691125590805
      ],
      [
        "quyển",
        -9.55701003670277
      ],
      [
        "buộ",
        -9.561509185697243
      ],
      [
        "J",
        -9.565513239933797
      ],
      [
        "trán",
        -9.567537322822693
      ],
      [
        "dò",
        -9.580768933566373
      ],
      [
        "robot",
        -9.583631983274376
      ],
      [
        "trốn",
        -9.584881651328931
      ],
      [
        "dõ",
        -9.591491345415358
      ],
      [
        "chờ",
        -9.595512498868091
      ],
      [
        "mắn",
        -9.598805192497965
      ],
      [
        "Nga",
        -9.59966073179633
      ],
      [
        "lặn",
        -9.600692567288148
      ],
      [
        "vững",
        -9.601367858144812
      ],
      [
        "tha",
        -9.603999664510127
      ],
      [
        "Công",
        -9.607221341061319
      ],
      [
        "Liệ",
        -9.60900033304673
      ],
      [
        "Thứ",
        -9.610790607318577
      ],
      [
        "Hồ",
        -9.615298464791206
      ],
      [
        "loạn",
        -9.63163465593031
      ],
      [
        "mản",
        -9.634784026942679
      ],
      [
        "Đạ",
        -9.642093519978566
      ],
      [
        "web",
        -9.643655948212224
      ],
      [
        "khẩ",
        -9.644721917006649
      ],
      [
        "hôn",
        -9.648783334296496
      ],
      [
        "Ba",
        -9.655706861246424
      ],
      [
        "điên",
        -9.665123822444855
      ],
      [
        "Al",
        -9.671708539956533
      ],
      [
        "giỏ",
        -9.67249015285335
      ],
      [
        "Hai",
        -9.687158263765081
      ],
      [
        "trì",
        -9.687819881755349
      ],
      [
        "18",
        -9.68991412098819
      ],
      [
        "Chín",
        -9.695593057086505
      ],
      [
        "W",
        -9.695705464937658
      ],
      [
        "Ira",
        -9.709583889547414
      ],
      [
        "thù",
        -9.710757141672673
      ],
      [
        "phấ",
        -9.713529173297655
      ],
      [
        "thă",
        -9.714219565139533
      ],
      [
        "Nă",
        -9.717841777107353
      ],
      [
        "loạ",
        -9.718500934763757
      ],
      [
        "bền",
        -9.719235672657094
      ],
      [
        "de",
        -9.719655397870067
      ],
      [
        "đươ",
        -9.720203567327584
      ],
      [
        "Cậ",
        -9.726488040463156
      ],
      [
        "80",
        -9.733094277214642
      ],
      [
        "kim",
        -9.738162043811581
      ],
      [
        "11",
        -9.740523086326277
      ],
      [
        "ẳn",
        -9.746319747918147
      ],
      [
        "nghỉ",
        -9.759432778433924
      ],
      [
        "lươn",
        -9.759594607987015
      ],
      [
        "nghì",
        -9.762155920384663
      ],
      [
        "ngẫ",
        -9.762777699791005
      ],
      [
        "sạc",
        -9.764280124884225
      ],
      [
        "25",
        -9.77479742329298
      ],
      [
        "quần",
        -9.774897992046133
      ],
      [
        "vỡ",
        -9.7919248845607
      ],
      [
        "le",
        -9.792295792841337
      ],
      [
        "60",
        -9.795492447569497
      ],
      [
        "Giá",
        -9.80037357368792
      ],
      [
        "chồn",
        -9.80361416250258
      ],
      [
        "Mặ",
        -9.805040253743762
      ],
      [
        "bè",
        -9.805280136117062
      ],
      [
        "dặ",
        -9.81386601423771
      ],
      [
        "nguyệ",
        -9.818128804760509
      ],
      [
        "Ồ",
        -9.820741872428211
      ],
      [
        "ách",
        -9.825490696457488
      ],
      [
        "khứ",
        -9.826242798655532
      ],
      [
        "Đứ",
        -9.828115893151118
      ],
      [
        "thưở",
        -9.829995301661434
      ],
      [
        "Gi",
        -9.83094559319474
      ],
      [
        "rẻ",
        -9.83295531364461
      ],
      [
        "kho",
        -9.834636186711974
      ],
      [
        "thầ",
        -9.843664921351005
      ],
      [
        "dĩ",
        -9.849210230009787
      ],
      [
        "ướ",
        -9.85132153233608
      ],
      [
        "Google",
        -9.852112225187689
      ],
      [
        "Nhậ",
        -9.853177421004006
      ],
      [
        "dường",
        -9.854566074268572
      ],
      [
        "phê",
        -9.854609589536299
      ],
      [
        "khuyế",
        -9.862951063825303
      ],
      [
        "xoa",
        -9.870926923950373
      ],
      [
        "trầ",
        -9.872115897125072
      ],
      [
        "bạc",
        -9.8749967789494
      ],
      [
        "trữ",
        -9.887079370885585
      ],
      [
        "Phá",
        -9.894467615864421
      ],
      [
        "Hay",
        -9.894749424698828
      ],
      [
        "hồn",
        -9.898136306167391
      ],
      [
        "uốn",
        -9.902906983723426
      ],
      [
        "F",
        -9.918629940833796
      ],
      [
        "nhấ",
        -9.919094346373681
      ],
      [
        "rác",
        -9.92000229075559
      ],
      [
        "nặn",
        -9.921717026951168
      ],
      [
        "khán",
        -9.922372472567003
      ],
      [
        "nhẹ",
        -9.924775129052026
      ],
      [
        "eo",
        -9.924827780158534
      ],
      [
        "Cuố",
        -9.928259707389564
      ],
      [
        "0",
        -9.932590328101767
      ],
      [
        "Thá",
        -9.935259722918094
      ],
      [
        "che",
        -9.93795821609835
      ],
      [
        "trọ",
        -9.939069152551738
      ],
      [
        "chặ",
        -9.944342392206327
      ],
      [
        "iếng",
        -9.947303540907187
      ],
      [
        "bọn",
        -9.963125862863919
      ],
      [
        "huy",
        -9.96332434930339
      ],
      [
        "huyế",
        -9.964625633341594
      ],
      [
        "thán",
        -9.973451357170152
      ],
      [
        "thừ",
        -9.97757529081954
      ],
      [
        "re",
        -9.989376745975349
      ],
      [
        "Bản",
        -9.990054539170337
      ],
      [
        "khô",
        -9.990508083528418
      ],
      [
        "70",
        -9.999613300253152
      ],
      [
        "HI",
        -10.001630278771291
      ],
      [
        "Lú",
        -10.004497503664366
      ],
      [
        "huậ",
        -10.005219138828501
      ],
      [
        "La",
        -10.009627418779498
      ],
      [
        "nhé",
        -10.01003353724344
      ],
      [
        "Ả",
        -10.025614006412683
      ],
      [
        "90",
        -10.032703648678883
      ],
      [
        "thoá",
        -10.039576249561936
      ],
      [
        "Bộ",
        -10.042445678524185
      ],
      [
        "land",
        -10.044955532984424
      ],
      [
        "tràn",
        -10.046451977471214
      ],
      [
        "doạ",
        -10.049009047159135
      ],
      [
        "ưng",
        -10.054915201616158
      ],
      [
        "Theo",
        -10.057876969981091
      ],
      [
        "Y",
        -10.061192403893005
      ],
      [
        "xí",
        -10.067426747043312
      ],
      [
        "giậ",
        -10.067655029832626
      ],
      [
        "chặn",
        -10.068423601251242
      ],
      [
        "Dù",
        -10.072044845840512
      ],
      [
        "nhắn",
        -10.072767550351262
      ],
      [
        "hắn",
        -10.075567885133825
      ],
      [
        "Em",
        -10.077072164409625
      ],
      [
        "Cuộ",
        -10.0779217390095
      ],
      [
        "phiế",
        -10.078848914103801
      ],
      [
        "khấ",
        -10.083943980779624
      ],
      [
        "nhằ",
        -10.095697073229523
      ],
      [
        "chón",
        -10.098408907517449
      ],
      [
        "hùn",
        -10.106073882215826
      ],
      [
        "chán",
        -10.11277946255349
      ],
      [
        "Phả",
        -10.113430024854463
      ],
      [
        "$",
        -10.113582637262773
      ],
      [
        "kẹ",
        -10.117188253743034
      ],
      [
        "istan",
        -10.11831690971352
      ],
      [
        "xoá",
        -10.119377156269243
      ],
      [
        "dán",
        -10.125877809353067
      ],
      [
        "ặt",
        -10.126068585167722
      ],
      [
        "rượ",
        -10.13886482439645
      ],
      [
        "tuyê",
        -10.144158823640332
      ],
      [
        "500",
        -10.147181312956427
      ],
      [
        "Tiế",
        -10.149502323201471
      ],
      [
        "16",
        -10.154599499090587
      ],
      [
        "Chiế",
        -10.163996623889862
      ],
      [
        "Đố",
        -10.164162921574269
      ],
      [
        "ADN",
        -10.165711576204895
      ],
      [
        "Điể",
        -10.16597923207101
      ],
      [
        "Ma",
        -10.172069214407806
      ],
      [
        "hỉ",
        -10.17267497646851
      ],
      [
        "bom",
        -10.178653260479372
      ],
      [
        "f",
        -10.181815636141248
      ],
      [
        "triế",
        -10.183152453394305
      ],
      [
        "Afghan",
        -10.185041465985528
      ],
      [
        "mãn",
        -10.192638462142678
      ],
      [
        "Bằng",
        -10.19709073426096
      ],
      [
        "giàn",
        -10.201543583740756
      ],
      [
        "14",
        -10.208017896208233
      ],
      [
        "huẩn",
        -10.215024893344186
      ],
      [
        "ẫ",
        -10.219766252637948
      ],
      [
        "ngọn",
        -10.219827848680207
      ],
      [
        "Ra",
        -10.223908469428235
      ],
      [
        "Á",
        -10.22550592077312
      ],
      [
        "hứa",
        -10.228356791848224
      ],
      [
        "Hàn",
        -10.230361030660745
      ],
      [
        "thang",
        -10.233703575093802
      ],
      [
        "John",
        -10.23424198364004
      ],
      [
        "Liê",
        -10.236085968055228
      ],
      [
        "NA",
        -10.237574485439804
      ],
      [
        "Cha",
        -10.241655162884538
      ],
      [
        "khuy",
        -10.242217317210532
      ],
      [
        "13",
        -10.243233304415893
      ],
      [
        "tròn",
        -10.25438136138387
      ],
      [
        "ché",
        -10.257506246434192
      ],
      [
        "kiên",
        -10.259157515141492
      ],
      [
        "hỗn",
        -10.261893460403645
      ],
      [
        "Hô",
        -10.261983686134865
      ],
      [
        "huấ",
        -10.26238692203164
      ],
      [
        "tri",
        -10.266574471323452
      ],
      [
        "gươ",
        -10.268984853419868
      ],
      [
        "ron",
        -10.278560625854194
      ],
      [
        "đắn",
        -10.286364311169688
      ],
      [
        "17",
        -10.289223421509984
      ],
      [
        "Le",
        -10.292514924977171
      ],
      [
        "and",
        -10.293307467362766
      ],
      [
        "ườn",
        -10.303656638359048
      ],
      [
        "David",
        -10.31136811861104
      ],
      [
        "Nhì",
        -10.315182975831544
      ],
      [
        "ười",
        -10.318484772650269
      ],
      [
        "biê",
        -10.319594496658603
      ],
      [
        "pha",
        -10.32037669335385
      ],
      [
        "ưới",
        -10.320725061585486
      ],
      [
        "ỏi",
        -10.322232538655475
      ],
      [
        "protein",
        -10.322460378360576
      ],
      [
        "Lạ",
        -10.326871783851416
      ],
      [
        "amp",
        -10.328970773976593
      ],
      [
        "q",
        -10.339678605667425
      ],
      [
        "ley",
        -10.340492410773004
      ],
      [
        "Lan",
        -10.344760017244436
      ],
      [
        "trứ",
        -10.345094365597483
      ],
      [
        "song",
        -10.347377121734041
      ],
      [
        "21",
        -10.357789545977978
      ],
      [
        "binh",
        -10.3625487625727
      ],
      [
        "Kế",
        -10.364727460869549
      ],
      [
        "Chris",
        -10.368843946839673
      ],
      [
        "ard",
        -10.3712612667422
      ],
      [
        "kè",
        -10.376060271136705
      ],
      [
        "chừ",
        -10.376867140148454
      ],
      [
        "Kin",
        -10.380128812787785
      ],
      [
        "thẩ",
        -10.382190515153235
      ],
      [
        "iều",
        -10.38722252646911
      ],
      [
        "Gia",
        -10.38803390033965
      ],
      [
        "Israel",
        -10.398967820052054
      ],
      [
        "24",
        -10.407932029452976
      ],
      [
        "hư",
        -10.408484325849678
      ],
      [
        "À",
        -10.411275628411483
      ],
      [
        "Chà",
        -10.413658328906395
      ],
      [
        "tein",
        -10.417636077055054
      ],
      [
        "ine",
        -10.425717181660643
      ],
      [
        "húc",
        -10.433451517418028
      ],
      [
        "man",
        -10.433471871597
      ],
      [
        "miê",
        -10.43636425125792
      ],
      [
        "Tổ",
        -10.446917941467175
      ],
      [
        "Thư",
        -10.449409173567272
      ],
      [
        "Re",
        -10.451105555235486
      ],
      [
        "game",
        -10.456650415359029
      ],
      [
        "the",
        -10.456785675525142
      ],
      [
        "viru",
        -10.459457062542409
      ],
      [
        "uỵ",
        -10.465326182949777
      ],
      [
        "Chắ",
        -10.466615616652197
      ],
      [
        "Lo",
        -10.466738239207858
      ],
      [
        "Facebook",
        -10.468617438856882
      ],
      [
        "men",
        -10.469187138206882
      ],
      [
        "300",
        -10.46926624283342
      ],
      [
        "uyển",
        -10.472443465351631
      ],
      [
        "Bill",
        -10.48189336682417
      ],
      [
        "thổ",
        -10.482080661741575
      ],
      [
        "Ban",
        -10.485653267535273
      ],
      [
        "uỳ",
        -10.485665261432167
      ],
      [
        "ượn",
        -10.49124598226382
      ],
      [
        "Californ",
        -10.495195524180664
      ],
      [
        "lưỡ",
        -10.498027328157836
      ],
      [
        "The",
        -10.500096746041727
      ],
      [
        "mè",
        -10.508950419349262
      ],
      [
        "199",
        -10.509309190218666
      ],
      [
        "Me",
        -10.513162713270109
      ],
      [
        "Bố",
        -10.516353125641384
      ],
      [
        "blog",
        -10.517105752114102
      ],
      [
        "bùn",
        -10.519250614361413
      ],
      [
        "khiê",
        -10.52447950920883
      ],
      [
        "buôn",
        -10.52558782528796
      ],
      [
        "thạc",
        -10.528094949852598
      ],
      [
        "leo",
        -10.531542316006448
      ],
      [
        "San",
        -10.532551474597016
      ],
      [
        "heo",
        -10.541457064772485
      ],
      [
        "chợ",
        -10.542766871054628
      ],
      [
        "gie",
        -10.544348202536726
      ],
      [
        "w",
        -10.549031698069227
      ],
      [
        "ore",
        -10.554634418566554
      ],
      [
        "chẩ",
        -10.556425814164976
      ],
      [
        "Cù",
        -10.558260351109936
      ],
      [
        "Khán",
        -10.562665622661385
      ],
      [
        "2000",
        -10.56733545290231
      ],
      [
        "ghệ",
        -10.576903639845142
      ],
      [
        "Canad",
        -10.586809438030269
      ],
      [
        "Mexic",
        -10.586810187160108
      ],
      [
        "Hộ",
        -10.586892936922006
      ],
      [
        "Paul",
        -10.586896258025073
      ],
      [
        "vươn",
        -10.588075395368257
      ],
      [
        "Khoản",
        -10.595312701594754
      ],
      [
        "goá",
        -10.599445377029719
      ],
      [
        "email",
        -10.601920173037303
      ],
      [
        "CO",
        -10.603926600525181
      ],
      [
        "Ú",
        -10.609197349847456
      ],
      [
        "AIDS",
        -10.609237711411197
      ],
      [
        "DP",
        -10.617882758795819
      ],
      [
        "miện",
        -10.623463295996576
      ],
      [
        "Brazi",
        -10.62440805959334
      ],
      [
        "400",
        -10.625206468872989
      ],
      [
        "wa",
        -10.626824050404267
      ],
      [
        "Bả",
        -10.62878005878093
      ],
      [
        "Da",
        -10.633357935578587
      ],
      [
        "Giả",
        -10.63558519824749
      ],
      [
        "lện",
        -10.635637614158222
      ],
      [
        "Lu",
        -10.63865942293312
      ],
      [
        "Kenya",
        -10.639898669730332
      ],
      [
        "we",
        -10.64275204831193
      ],
      [
        "Số",
        -10.654682139889985
      ],
      [
        "bẩ",
        -10.657538531973415
      ],
      [
        "ford",
        -10.657555367650996
      ],
      [
        "Londo",
        -10.663510249974824
      ],
      [
        "quí",
        -10.666125076539416
      ],
      [
        "phú",
        -10.671207721611713
      ],
      [
        "ster",
        -10.671664400373167
      ],
      [
        "Dự",
        -10.672255960987606
      ],
      [
        "Tâ",
        -10.677709072885897
      ],
      [
        "Su",
        -10.690350189867594
      ],
      [
        "lõ",
        -10.690363160249433
      ],
      [
        "khé",
        -10.693805052135414
      ],
      [
        "198",
        -10.694583435365622
      ],
      [
        "fee",
        -10.696033688053433
      ],
      [
        "3D",
        -10.700027517528532
      ],
      [
        "khỉ",
        -10.703603453775447
      ],
      [
        "Cứ",
        -10.704363876687985
      ],
      [
        "trộ",
        -10.720590378574048
      ],
      [
        "–",
        -10.720866440799924
      ],
      [
        "Ok",
        -10.721613906656227
      ],
      [
        "run",
        -10.724736342521275
      ],
      [
        "Chủ",
        -10.729821360511146
      ],
      [
        "băn",
        -10.73503506935593
      ],
      [
        "amer",
        -10.736259937523904
      ],
      [
        "nhãn",
        -10.73891033600663
      ],
      [
        "phiề",
        -10.739748668305591
      ],
      [
        "phì",
        -10.740904854012221
      ],
      [
        "tuý",
        -10.741679054073407
      ],
      [
        "ngắ",
        -10.74240703783367
      ],
      [
        "150",
        -10.745634931728713
      ],
      [
        "George",
        -10.746508715872984
      ],
      [
        "Hơ",
        -10.74712055827921
      ],
      [
        "thỉn",
        -10.752912888641989
      ],
      [
        "Ha",
        -10.75438104970804
      ],
      [
        "De",
        -10.75941054471286
      ],
      [
        "Bao",
        -10.76707383653859
      ],
      [
        "cướ",
        -10.774873462112307
      ],
      [
        "Twitter",
        -10.781754427148337
      ],
      [
        "muộ",
        -10.784102793757942
      ],
      [
        "Phụ",
        -10.78608915197162
      ],
      [
        "Đồ",
        -10.787662782459908
      ],
      [
        "say",
        -10.78921746034076
      ],
      [
        "Tiến",
        -10.789634860567817
      ],
      [
        "rè",
        -10.79713412463403
      ],
      [
        "Pa",
        -10.798694596993652
      ],
      [
        "muỗ",
        -10.800605562476061
      ],
      [
        "ress",
        -10.800738641696563
      ],
      [
        "oán",
        -10.801369177034907
      ],
      [
        "sung",
        -10.801806065018493
      ],
      [
        "ja",
        -10.804248310239965
      ],
      [
        "điê",
        -10.805413526476656
      ],
      [
        "So",
        -10.806913720277688
      ],
      [
        "lăn",
        -10.808578071165764
      ],
      [
        "Nghĩ",
        -10.809040828128666
      ],
      [
        "Toà",
        -10.809208492738218
      ],
      [
        "Hệ",
        -10.814397266391836
      ],
      [
        "carbon",
        -10.818288077227837
      ],
      [
        "Khoa",
        -10.820479831074632
      ],
      [
        "Nha",
        -10.82083674480598
      ],
      [
        "ler",
        -10.822468308567787
      ],
      [
        "trượ",
        -10.823747911138812
      ],
      [
        "reo",
        -10.825944766106337
      ],
      [
        "Eins",
        -10.827667542768282
      ],
      [
        "Tươ",
        -10.827753885517929
      ],
      [
        "75",
        -10.828169662722823
      ],
      [
        "dâ",
        -10.830527201525264
      ],
      [
        "khôn",
        -10.831729408697107
      ],
      [
        "45",
        -10.832539515991396
      ],
      [
        "El",
        -10.833767662260609
      ],
      [
        "slide",
        -10.837090906391888
      ],
      [
        "ham",
        -10.837143632191978
      ],
      [
        "of",
        -10.84268446259285
      ],
      [
        "hẫn",
        -10.845904512864811
      ],
      [
        "Pe",
        -10.846462214832531
      ],
      [
        "Dan",
        -10.847299167839484
      ],
      [
        "len",
        -10.8479658183401
      ],
      [
        "huỵ",
        -10.851202021778985
      ],
      [
        "kên",
        -10.85208367549902
      ],
      [
        "thâ",
        -10.853430374870722
      ],
      [
        "ber",
        -10.867149547767625
      ],
      [
        "ow",
        -10.86768729053619
      ],
      [
        "Se",
        -10.871110475345695
      ],
      [
        "He",
        -10.874388761569517
      ],
      [
        "Washing",
        -10.87571956625477
      ],
      [
        "Loạ",
        -10.880463451089707
      ],
      [
        "rus",
        -10.882783461785419
      ],
      [
        "Khá",
        -10.883704659960287
      ],
      [
        "Joe",
        -10.888583170949591
      ],
      [
        "Steve",
        -10.895634399232112
      ],
      [
        "quạ",
        -10.901396356114006
      ],
      [
        "cưỡ",
        -10.902393820084868
      ],
      [
        "TEDx",
        -10.912773912000114
      ],
      [
        "Quan",
        -10.914770007131054
      ],
      [
        "nterne",
        -10.915813204325572
      ],
      [
        "Charles",
        -10.915925654074211
      ],
      [
        "Nigeria",
        -10.915929615480502
      ],
      [
        "cacbon",
        -10.91592976540161
      ],
      [
        "websi",
        -10.916435950799752
      ],
      [
        "Thom",
        -10.922622770002832
      ],
      [
        "Quá",
        -10.924872263564989
      ],
      [
        "cuồn",
        -10.925995484663066
      ],
      [
        "rắn",
        -10.930213626544049
      ],
      [
        "xon",
        -10.931850689269723
      ],
      [
        "que",
        -10.94098495209612
      ],
      [
        "You",
        -10.941061506015087
      ],
      [
        "35",
        -10.941096274835441
      ],
      [
        "gene",
        -10.945368596016092
      ],
      [
        "khẳn",
        -10.947377986254677
      ],
      [
        "khe",
        -10.948862158197246
      ],
      [
        "Z",
        -10.950857276953215
      ],
      [
        "ube",
        -10.95457799909696
      ],
      [
        "Thổ",
        -10.955517536350094
      ],
      [
        "1000",
        -10.95635784769842
      ],
      [
        "MIT",
        -10.95782227861785
      ],
      [
        "trâ",
        -10.966408536700836
      ],
      [
        "Michael",
        -10.968568894255979
      ],
      [
        "Adam",
        -10.968583029925224
      ],
      [
        "Q",
        -10.975891464685919
      ],
      [
        "Thiế",
        -10.978985883247374
      ],
      [
        "Ben",
        -10.97915688151646
      ],
      [
        "Francis",
        -10.979439938667124
      ],
      [
        "uỷ",
        -10.98262714823424
      ],
      [
        "hính",
        -10.984730986872908
      ],
      [
        "Nghe",
        -10.986907872852894
      ],
      [
        "Los",
        -10.987180284018503
      ],
      [
        "Dâ",
        -10.989329680011082
      ],
      [
        "Pakistan",
        -10.990427560859771
      ],
      [
        "Ar",
        -10.990500419111545
      ],
      [
        "Angel",
        -10.990660712441233
      ],
      [
        "hung",
        -10.992990127871515
      ],
      [
        "GP",
        -10.994762383972484
      ],
      [
        "ngoa",
        -10.995406110774873
      ],
      [
        "hòn",
        -11.00126279551763
      ],
      [
        "ngón",
        -11.009471187559043
      ],
      [
        "Bệ",
        -11.010208788195435
      ],
      [
        "Ke",
        -11.014657938039024
      ],
      [
        "wi",
        -11.01714488959701
      ],
      [
        "Hoà",
        -11.017923337290803
      ],
      [
        "iệc",
        -11.0181551503463
      ],
      [
        "Ngâ",
        -11.021491349182668
      ],
      [
        "Quả",
        -11.022530006935677
      ],
      [
        "For",
        -11.02515348939259
      ],
      [
        "dẻ",
        -11.031017351109629
      ],
      [
        "Man",
        -11.034782573693715
      ],
      [
        "Richard",
        -11.035636236092849
      ],
      [
        "è",
        -11.039434207215464
      ],
      [
        "one",
        -11.04078814055841
      ],
      [
        "ren",
        -11.047033008797793
      ],
      [
        "PM",
        -11.047046277877573
      ],
      [
        "Ngô",
        -11.048079468688288
      ],
      [
        "phiê",
        -11.05192126049612
      ],
      [
        "600",
        -11.053048909832796
      ],
      [
        "quặ",
        -11.054769886813567
      ],
      [
        "Nghiê",
        -11.057184704798662
      ],
      [
        "Robert",
        -11.059028279572743
      ],
      [
        "Xe",
        -11.060119147323835
      ],
      [
        "dọn",
        -11.06767625103208
      ],
      [
        "Tom",
        -11.070574806561092
      ],
      [
        "Chi",
        -11.072443086936378
      ],
      [
        "phô",
        -11.092793765456666
      ],
      [
        "Nguy",
        -11.09537517559746
      ],
      [
        "dia",
        -11.095966464432498
      ],
      [
        "99",
        -11.0960249405117
      ],
      [
        "ter",
        -11.09659750587442
      ],
      [
        "May",
        -11.099512058007594
      ],
      [
        "ate",
        -11.101683083548227
      ],
      [
        "Lầ",
        -11.104531601702803
      ],
      [
        "Bác",
        -11.106806118669564
      ],
      [
        "Jame",
        -11.10805248758064
      ],
      [
        "23",
        -11.116129804962565
      ],
      [
        "ice",
        -11.116268708821762
      ],
      [
        "Time",
        -11.116439080533132
      ],
      [
        "thua",
        -11.116535050185128
      ],
      [
        "197",
        -11.116558846587694
      ],
      [
        "obe",
        -11.119436873288201
      ],
      [
        "ruồ",
        -11.121715578311534
      ],
      [
        "ruộ",
        -11.128394839912922
      ],
      [
        "Đặ",
        -11.133061914492611
      ],
      [
        "Oba",
        -11.133436756095566
      ],
      [
        "Bos",
        -11.135148652763032
      ],
      [
        "Harv",
        -11.137628841763112
      ],
      [
        "Fi",
        -11.138304665988082
      ],
      [
        "long",
        -11.139296300166297
      ],
      [
        "ED",
        -11.139486004468463
      ],
      [
        "Ne",
        -11.139825897238254
      ],
      [
        "bướ",
        -11.14057339031972
      ],
      [
        "Mark",
        -11.141435188300115
      ],
      [
        "iPhone",
        -11.145502239916535
      ],
      [
        "Jo",
        -11.159939246954721
      ],
      [
        "Luậ",
        -11.162287639591717
      ],
      [
        "chằ",
        -11.162909706533274
      ],
      [
        "line",
        -11.170432348844319
      ],
      [
        "Điệ",
        -11.17121220793396
      ],
      [
        "Talk",
        -11.171527621532992
      ],
      [
        "Dere",
        -11.171800593266227
      ],
      [
        "Sinh",
        -11.173053357520711
      ],
      [
        "Gầ",
        -11.174707497358138
      ],
      [
        "zon",
        -11.176316351122232
      ],
      [
        "Ja",
        -11.176794348160954
      ],
      [
        "Chá",
        -11.179786549720653
      ],
      [
        "der",
        -11.187860744582764
      ],
      [
        "soạ",
        -11.192013992764913
      ],
      [
        "luồn",
        -11.205053777833136
      ],
      [
        "dượ",
        -11.205449130327766
      ],
      [
        "cent",
        -11.207591901675539
      ],
      [
        "xướ",
        -11.209130551114932
      ],
      [
        "Ngo",
        -11.209885577095271
      ],
      [
        "Wikipe",
        -11.212192999326431
      ],
      [
        "Peter",
        -11.212218246883939
      ],
      [
        "Coc",
        -11.221868091266092
      ],
      [
        "ers",
        -11.222924705895299
      ],
      [
        "muố",
        -11.225900355324145
      ],
      [
        "Paris",
        -11.226114799288581
      ],
      [
        "Trans",
        -11.226179758066799
      ],
      [
        "Ga",
        -11.231391721875202
      ],
      [
        "ner",
        -11.235518506717725
      ],
      [
        "mươ",
        -11.236154461258469
      ],
      [
        "mòn",
        -11.236561429655865
      ],
      [
        "NAS",
        -11.236875163713334
      ],
      [
        "ike",
        -11.237716573419707
      ],
      [
        "hacker",
        -11.240219695468618
      ],
      [
        "Martin",
        -11.24023637447744
      ],
      [
        "een",
        -11.243379244712116
      ],
      [
        "radi",
        -11.245104418095327
      ],
      [
        "Che",
        -11.254179026871434
      ],
      [
        "Thán",
        -11.257034525855527
      ],
      [
        "ell",
        -11.259126853204332
      ],
      [
        "oxy",
        -11.259607209980167
      ],
      [
        "Giọ",
        -11.26216880137278
      ],
      [
        "giặ",
        -11.265270020962989
      ],
      [
        "Go",
        -11.265273172732394
      ],
      [
        "Te",
        -11.265455583777804
      ],
      [
        "chiê",
        -11.269620158461876
      ],
      [
        "Chị",
        -11.269804415399234
      ],
      [
        "Ama",
        -11.277757665108513
      ],
      [
        "26",
        -11.283005639075707
      ],
      [
        "Sahara",
        -11.283654835614144
      ],
      [
        "phun",
        -11.28422012377488
      ],
      [
        "250",
        -11.28526422497729
      ],
      [
        "27",
        -11.286088001203888
      ],
      [
        "Big",
        -11.286266862383824
      ],
      [
        "xỉ",
        -11.29282305673073
      ],
      [
        "---",
        -11.293256900645723
      ],
      [
        "arwi",
        -11.295870210381677
      ],
      [
        "CD",
        -11.297575372181035
      ],
      [
        "logic",
        -11.29873733919573
      ],
      [
        "MRI",
        -11.298876785678377
      ],
      [
        "Eric",
        -11.299129342239693
      ],
      [
        "22",
        -11.299305216712826
      ],
      [
        "95",
        -11.302140000364943
      ],
      [
        "Car",
        -11.311153281456008
      ],
      [
        "Green",
        -11.314347251553967
      ],
      [
        "olf",
        -11.315622142978427
      ],
      [
        "Smith",
        -11.32909379075119
      ],
      [
        "aptop",
        -11.32919207290879
      ],
      [
        "micro",
        -11.32926575702175
      ],
      [
        "Bang",
        -11.332700380854003
      ],
      [
        "Har",
        -11.333334499499777
      ],
      [
        "Wa",
        -11.333479664674407
      ],
      [
        "Web",
        -11.335449946008383
      ],
      [
        "65",
        -11.339873107554636
      ],
      [
        "Mon",
        -11.344587353129961
      ],
      [
        "heimer",
        -11.344732373716845
      ],
      [
        "attan",
        -11.34512293283651
      ],
      [
        "nano",
        -11.346586452557462
      ],
      [
        "crip",
        -11.347559328837777
      ],
      [
        "II",
        -11.34997694419568
      ],
      [
        "quậ",
        -11.350034181703592
      ],
      [
        "Cụ",
        -11.351918222888637
      ],
      [
        "Stan",
        -11.354480223350429
      ],
      [
        "thượ",
        -11.354840338128408
      ],
      [
        "Mar",
        -11.356104056522113
      ],
      [
        "are",
        -11.356167029111784
      ],
      [
        "oxyto",
        -11.36112109743203
      ],
      [
        "ille",
        -11.366271608690791
      ],
      [
        "Chư",
        -11.37485862562952
      ],
      [
        "tivi",
        -11.376433959241737
      ],
      [
        "Quy",
        -11.377224653949504
      ],
      [
        "Za",
        -11.380036766254072
      ],
      [
        "196",
        -11.38202478688672
      ],
      [
        "phe",
        -11.382447753130368
      ],
      [
        "Tác",
        -11.389909971902517
      ],
      [
        "Ừ",
        -11.39312762052371
      ],
      [
        "Rwanda",
        -11.393127621909716
      ],
      [
        "bar",
        -11.393865063060336
      ],
      [
        "ward",
        -11.395828747350961
      ],
      [
        "War",
        -11.399270902440662
      ],
      [
        "Or",
        -11.401695926170609
      ],
      [
        "Lin",
        -11.403625841406903
      ],
      [
        "Chic",
        -11.405960653156583
      ],
      [
        "fa",
        -11.409579920872066
      ],
      [
        "Gab",
        -11.409911499560586
      ],
      [
        "1990",
        -11.410228412996386
      ],
      [
        "riga",
        -11.41342755974389
      ],
      [
        "ure",
        -11.41429287135718
      ],
      [
        "Khu",
        -11.416661956001974
      ],
      [
        "28",
        -11.417302577078981
      ],
      [
        "Frank",
        -11.417996572803617
      ],
      [
        "29",
        -11.419631836364186
      ],
      [
        "thôn",
        -11.423764778259335
      ],
      [
        "Tony",
        -11.427041927428078
      ],
      [
        "Hoàn",
        -11.430228325336811
      ],
      [
        "Sub",
        -11.431108307618985
      ],
      [
        "ger",
        -11.431465483515385
      ],
      [
        "Sứ",
        -11.434322915891524
      ],
      [
        "Sử",
        -11.435239083309884
      ],
      [
        "Thê",
        -11.435787886057616
      ],
      [
        "Ox",
        -11.436247767399603
      ],
      [
        "ker",
        -11.436520893860381
      ],
      [
        "chuô",
        -11.437569688121586
      ],
      [
        "Apple",
        -11.443985042419122
      ],
      [
        "hydro",
        -11.44399001566669
      ],
      [
        "độn",
        -11.444068735459217
      ],
      [
        "Higg",
        -11.444225533615615
      ],
      [
        "est",
        -11.444734281674823
      ],
      [
        "Fa",
        -11.445072687981229
      ],
      [
        "hoãn",
        -11.445815468111643
      ],
      [
        "đuố",
        -11.448478184982942
      ],
      [
        "zza",
        -11.453339986073072
      ],
      [
        "ale",
        -11.454887270336005
      ],
      [
        "tles",
        -11.459417165262625
      ],
      [
        "Jim",
        -11.467096914424527
      ],
      [
        "MT",
        -11.470292614330823
      ],
      [
        "Đôn",
        -11.47156031569661
      ],
      [
        "Uy",
        -11.472394472725997
      ],
      [
        "our",
        -11.478892401821874
      ],
      [
        "Gates",
        -11.47939405783603
      ],
      [
        "Gu",
        -11.47965175746303
      ],
      [
        "Tes",
        -11.482088057280308
      ],
      [
        "Qua",
        -11.483156151410704
      ],
      [
        "Manh",
        -11.486723990979122
      ],
      [
        "phồn",
        -11.487466992463016
      ],
      [
        "Mù",
        -11.494337035216478
      ],
      [
        "Jer",
        -11.495238748515767
      ],
      [
        "huý",
        -11.495504538634702
      ],
      [
        "Bur",
        -11.497021456417533
      ],
      [
        "Vẫ",
        -11.497632305907997
      ],
      [
        "Kor",
        -11.501646579968517
      ],
      [
        "Quay",
        -11.503318836151013
      ],
      [
        "Wo",
        -11.505052823367334
      ],
      [
        "kiê",
        -11.505561549972889
      ],
      [
        "huỳ",
        -11.513885190364409
      ],
      [
        "Latin",
        -11.514511100813746
      ],
      [
        "ỵ",
        -11.514958117776676
      ],
      [
        "oắn",
        -11.515359600221002
      ],
      [
        "Brown",
        -11.516087712490386
      ],
      [
        "Palestin",
        -11.516088592212489
      ],
      [
        "Henr",
        -11.516274559785087
      ],
      [
        "Kiể",
        -11.516690053114871
      ],
      [
        "chăn",
        -11.520785843324937
      ],
      [
        "Kim",
        -11.522521207271247
      ],
      [
        "hưng",
        -11.5242543977173
      ],
      [
        "Chứ",
        -11.52701064328505
      ],
      [
        "Del",
        -11.538473526171078
      ],
      [
        "33",
        -11.539700996905616
      ],
      [
        "85",
        -11.539993934315314
      ],
      [
        "ation",
        -11.542036742218217
      ],
      [
        "ame",
        -11.545737624387577
      ],
      [
        "Phậ",
        -11.552150042732302
      ],
      [
        "1970",
        -11.554636436094293
      ],
      [
        "sướ",
        -11.554791443785676
      ],
      [
        "Cal",
        -11.555981910072987
      ],
      [
        "eda",
        -11.567171191772637
      ],
      [
        "Sara",
        -11.567971904343596
      ],
      [
        "Hans",
        -11.56852169112529
      ],
      [
        "32",
        -11.573401298168536
      ],
      [
        "ven",
        -11.573898926873802
      ],
      [
        "vaccine",
        -11.573959813076044
      ],
      [
        "jaz",
        -11.574008736953449
      ],
      [
        "ff",
        -11.576051135324906
      ],
      [
        "pian",
        -11.57714084461603
      ],
      [
        "Fe",
        -11.5791609058268
      ],
      [
        "3000",
        -11.5796589212236
      ],
      [
        "ngẩn",
        -11.58331301610982
      ],
      [
        "Wall",
        -11.583584889544795
      ],
      [
        "Mac",
        -11.58823913384353
      ],
      [
        "800",
        -11.588416742837111
      ],
      [
        "clip",
        -11.58944693615582
      ],
      [
        "Her",
        -11.590826326207589
      ],
      [
        "Matt",
        -11.593325997858138
      ],
      [
        "Yemen",
        -11.593792907440626
      ],
      [
        "Ghan",
        -11.594358404675543
      ],
      [
        "700",
        -11.59476479852046
      ],
      [
        "tuỵ",
        -11.595454867006524
      ],
      [
        "Sam",
        -11.59551139837157
      ],
      [
        "les",
        -11.596305983320656
      ],
      [
        "194",
        -11.599218325091542
      ],
      [
        "Oka",
        -11.604011400940466
      ],
      [
        "Ya",
        -11.605139313020205
      ],
      [
        "Ju",
        -11.608528544092334
      ],
      [
        "Lớ",
        -11.611217951003855
      ],
      [
        "ze",
        -11.611798022491884
      ],
      [
        "studio",
        -11.614201082475523
      ],
      [
        "Brian",
        -11.614204864309707
      ],
      [
        "Bush",
        -11.614282248250293
      ],
      [
        "Cola",
        -11.614348227190344
      ],
      [
        "Lego",
        -11.61468612883458
      ],
      [
        "ee",
        -11.621750070538925
      ],
      [
        "lùn",
        -11.625209884449061
      ],
      [
        "36",
        -11.625243994905613
      ],
      [
        "120",
        -11.626361716658717
      ],
      [
        "King",
        -11.62651694790195
      ],
      [
        "age",
        -11.631075216448934
      ],
      [
        "oxi",
        -11.631760630615892
      ],
      [
        "chôn",
        -11.632966711707464
      ],
      [
        "Microsof",
        -11.635034191758868
      ],
      [
        "Tasmania",
        -11.635034191885083
      ],
      [
        "Syria",
        -11.635034793721255
      ],
      [
        "Yea",
        -11.635098899685227
      ],
      [
        "Chấ",
        -11.635194698983314
      ],
      [
        "show",
        -11.636154906523448
      ],
      [
        "Biể",
        -11.636634267720206
      ],
      [
        "xộn",
        -11.640564510909016
      ],
      [
        "Biế",
        -11.640795563446936
      ],
      [
        "berg",
        -11.645108524907855
      ],
      [
        "Uga",
        -11.646461800450474
      ],
      [
        "sườn",
        -11.649559218449456
      ],
      [
        "uel",
        -11.651770040090884
      ],
      [
        "Aristotle",
        -11.656310787496915
      ],
      [
        "PA",
        -11.6569226847393
      ],
      [
        "FG",
        -11.657382995559098
      ],
      [
        "Cambrid",
        -11.657900962471235
      ],
      [
        "Wal",
        -11.659043613949077
      ],
      [
        "195",
        -11.659557165574242
      ],
      [
        "rò",
        -11.664067260160353
      ],
      [
        "Jona",
        -11.666140776426033
      ],
      [
        "ney",
        -11.666223684624345
      ],
      [
        "EO",
        -11.667865436613946
      ],
      [
        "gram",
        -11.669742700773917
      ],
      [
        "bet",
        -11.669897214055322
      ],
      [
        "AR",
        -11.674084251010267
      ],
      [
        "bồn",
        -11.675988322076373
      ],
      [
        "Í",
        -11.678049917924126
      ],
      [
        "Kar",
        -11.679265759961137
      ],
      [
        "quyê",
        -11.68411850518544
      ],
      [
        "Lee",
        -11.685197583073007
      ],
      [
        "48",
        -11.689642358125793
      ],
      [
        "Yo",
        -11.689851775070485
      ],
      [
        "Scot",
        -11.690589671632438
      ],
      [
        "Wat",
        -11.691460767734114
      ],
      [
        "Kì",
        -11.692487330389035
      ],
      [
        "ez",
        -11.692775156740744
      ],
      [
        "Bal",
        -11.693778817040483
      ],
      [
        "Po",
        -11.696440858442452
      ],
      [
        "Xu",
        -11.697493765076912
      ],
      [
        "Flori",
        -11.700272174661245
      ],
      [
        "Taliba",
        -11.700273758097202
      ],
      [
        "Josh",
        -11.700440501098944
      ],
      [
        "right",
        -11.700454596902
      ],
      [
        "Brook",
        -11.700623484634141
      ],
      [
        "Ge",
        -11.70201025985621
      ],
      [
        "Kiế",
        -11.702888636719841
      ],
      [
        "Free",
        -11.703960721840781
      ],
      [
        "Bob",
        -11.704145993837574
      ],
      [
        "SW",
        -11.704343662780612
      ],
      [
        "Rằ",
        -11.705214448501494
      ],
      [
        "phơ",
        -11.706157311592762
      ],
      [
        "Steph",
        -11.706191927138834
      ],
      [
        "Carolin",
        -11.706300294187391
      ],
      [
        "Amy",
        -11.706482248752273
      ],
      [
        "ji",
        -11.706697423861467
      ],
      [
        "Ngượ",
        -11.709481770103777
      ],
      [
        "Khả",
        -11.709680465936504
      ],
      [
        "Gar",
        -11.711256461562778
      ],
      [
        "kiề",
        -11.711747563293462
      ],
      [
        "NL",
        -11.713771934064866
      ],
      [
        "kem",
        -11.715599399098982
      ],
      [
        "SA",
        -11.715902410162844
      ],
      [
        "55",
        -11.718304850931409
      ],
      [
        "etro",
        -11.72140150272308
      ],
      [
        "Án",
        -11.72229857404684
      ],
      [
        "Neanderthal",
        -11.722999412878256
      ],
      [
        "Charlie",
        -11.722999416977546
      ],
      [
        "Lester",
        -11.72309820908333
      ],
      [
        "Wolf",
        -11.723305107288255
      ],
      [
        "Ice",
        -11.72369945859866
      ],
      [
        "Arthu",
        -11.723960761505973
      ],
      [
        "Chế",
        -11.727678454627481
      ],
      [
        "pound",
        -11.727822438157727
      ],
      [
        "Tim",
        -11.73072879621227
      ],
      [
        "Cam",
        -11.732301410128601
      ],
      [
        "Rob",
        -11.734324621220178
      ],
      [
        "Lib",
        -11.737328458270724
      ],
      [
        "Pho",
        -11.74362566772665
      ],
      [
        "—",
        -11.74625522682711
      ],
      [
        "Abraham",
        -11.74625579914592
      ],
      [
        "entro",
        -11.746296088141746
      ],
      [
        "Ướ",
        -11.746557718291362
      ],
      [
        "tre",
        -11.74727537475479
      ],
      [
        "amma",
        -11.747565817936767
      ],
      [
        "Nel",
        -11.748785437030163
      ],
      [
        "dẹ",
        -11.750148511603184
      ],
      [
        "Eve",
        -11.751352568292045
      ],
      [
        "Gre",
        -11.754206987017248
      ],
      [
        "Jenn",
        -11.756072851189128
      ],
      [
        "Pal",
        -11.757195035825319
      ],
      [
        "Mạc",
        -11.765496061089145
      ],
      [
        "World",
        -11.769994958526603
      ],
      [
        "Mandel",
        -11.77027128416548
      ],
      [
        "USD",
        -11.77027960208332
      ],
      [
        "Daniel",
        -11.770411411649928
      ],
      [
        "1980",
        -11.770819067868295
      ],
      [
        "William",
        -11.777371182984421
      ],
      [
        "Ray",
        -11.778314239964919
      ],
      [
        "37",
        -11.779589285505828
      ],
      [
        "Pat",
        -11.786851747094978
      ],
      [
        "Sal",
        -11.790174008972754
      ],
      [
        "Olympic",
        -11.794454995127582
      ],
      [
        "insul",
        -11.794538766275245
      ],
      [
        "Mike",
        -11.7964339508246
      ],
      [
        "Sch",
        -11.797369713025207
      ],
      [
        "Đoạ",
        -11.797666494910246
      ],
      [
        "ẳ",
        -11.800348104636663
      ],
      [
        "Edi",
        -11.803306591589159
      ],
      [
        "Emma",
        -11.812756783042415
      ],
      [
        "luâ",
        -11.812843334241423
      ],
      [
        "Vươn",
        -11.813257728827777
      ],
      [
        "orden",
        -11.814233737592623
      ],
      [
        "Alex",
        -11.818463311847534
      ],
      [
        "dollar",
        -11.819455225943683
      ],
      [
        "Rosling",
        -11.819457453284274
      ],
      [
        "Cong",
        -11.81980410310877
      ],
      [
        "Bar",
        -11.822562889821416
      ],
      [
        "South",
        -11.82575493954009
      ],
      [
        "lase",
        -11.827584844087198
      ],
      [
        "Mad",
        -11.828179319220833
      ],
      [
        "fe",
        -11.830843779185965
      ],
      [
        "Ken",
        -11.831884227337031
      ],
      [
        "Carl",
        -11.832166008150203
      ],
      [
        "Kev",
        -11.833392688583986
      ],
      [
        "ble",
        -11.83998440329309
      ],
      [
        "Ven",
        -11.843846485857847
      ],
      [
        "Indone",
        -11.845096468186526
      ],
      [
        "Andrew",
        -11.845107953172905
      ],
      [
        "Wow",
        -11.845294329229427
      ],
      [
        "Stewar",
        -11.845561699736653
      ],
      [
        "Bán",
        -11.847255016581393
      ],
      [
        "Yout",
        -11.849510856359407
      ],
      [
        "Mos",
        -11.84983621240086
      ],
      [
        "Gor",
        -11.852763210909758
      ],
      [
        "Jane",
        -11.852870856241246
      ],
      [
        "trinh",
        -11.853926632137918
      ],
      [
        "ju",
        -11.8555558058141
      ],
      [
        "Thí",
        -11.859192694245127
      ],
      [
        "old",
        -11.859578330833482
      ],
      [
        "Bọn",
        -11.861010446734172
      ],
      [
        "Bea",
        -11.861447813075554
      ],
      [
        "Chu",
        -11.863446942463876
      ],
      [
        "ever",
        -11.864139554193084
      ],
      [
        "ẵn",
        -11.868734152628914
      ],
      [
        "uther",
        -11.869171161112531
      ],
      [
        "Singapo",
        -11.871415244578516
      ],
      [
        "Hollywo",
        -11.871441780537431
      ],
      [
        "Nghị",
        -11.871448659924596
      ],
      [
        "Jack",
        -11.871599401576809
      ],
      [
        "Hiể",
        -11.872318780329902
      ],
      [
        "chip",
        -11.873040369478087
      ],
      [
        "red",
        -11.873478940344103
      ],
      [
        "Air",
        -11.875579647880764
      ],
      [
        "Chữ",
        -11.875650637853175
      ],
      [
        "ansa",
        -11.877247993893274
      ],
      [
        "Ngoạ",
        -11.877286460135215
      ],
      [
        "38",
        -11.877764218002541
      ],
      [
        "98",
        -11.877938583136501
      ],
      [
        "ene",
        -11.878697454179946
      ],
      [
        "Ed",
        -11.878711703218178
      ],
      [
        "liê",
        -11.880847795356665
      ],
      [
        "ence",
        -11.881788163806883
      ],
      [
        "Ted",
        -11.882175421347535
      ],
      [
        "olly",
        -11.884393240196705
      ],
      [
        "aden",
        -11.887954587556298
      ],
      [
        "entin",
        -11.889740415587362
      ],
      [
        "Nhiệ",
        -11.889853723089036
      ],
      [
        "way",
        -11.892079790203281
      ],
      [
        "thiê",
        -11.893860645826166
      ],
      [
        "Pra",
        -11.897444847134564
      ],
      [
        "Shakespear",
        -11.898438836680812
      ],
      [
        "Street",
        -11.89843889887393
      ],
      [
        "Virgin",
        -11.898438983089639
      ],
      [
        "Black",
        -11.898440626619323
      ],
      [
        "Bronx",
        -11.898469045436686
      ],
      [
        "Gold",
        -11.89886349097023
      ],
      [
        "Robot",
        -11.89898601957572
      ],
      [
        "31",
        -11.901047303034142
      ],
      [
        "Tiê",
        -11.903294935701176
      ],
      [
        "trươ",
        -11.904654711819578
      ],
      [
        "Giữ",
        -11.90992188070906
      ],
      [
        "Bra",
        -11.911759420592526
      ],
      [
        "j",
        -11.914907110152319
      ],
      [
        "muôn",
        -11.917892159780608
      ],
      [
        "rey",
        -11.918417884309026
      ],
      [
        "Global",
        -11.926216620217907
      ],
      [
        "market",
        -11.926216628172622
      ],
      [
        "Victor",
        -11.926216755284738
      ],
      [
        "DVD",
        -11.926223290188378
      ],
      [
        "Montan",
        -11.926287456403937
      ],
      [
        "Joseph",
        -11.926312394701279
      ],
      [
        "Simon",
        -11.926338225530673
      ],
      [
        "Zealan",
        -11.9264169482316
      ],
      [
        "Nano",
        -11.927227458957997
      ],
      [
        "amine",
        -11.927934035957666
      ],
      [
        "Ber",
        -11.92938388812293
      ],
      [
        "Khác",
        -11.930926523670141
      ],
      [
        "Long",
        -11.931850100308731
      ],
      [
        "Pad",
        -11.936242001467665
      ],
      [
        "scan",
        -11.939164340064364
      ],
      [
        "Phí",
        -11.940824375246107
      ],
      [
        "gel",
        -11.94458469397708
      ],
      [
        "AO",
        -11.945843507051947
      ],
      [
        "Pro",
        -11.946480349395982
      ],
      [
        "Trí",
        -11.946984184674598
      ],
      [
        "logo",
        -11.948723820663941
      ],
      [
        "low",
        -11.949235569455002
      ],
      [
        "Die",
        -11.950179428766937
      ],
      [
        "Ron",
        -11.951305766283488
      ],
      [
        "BA",
        -11.951450199995007
      ],
      [
        "Jay",
        -11.951625736867793
      ],
      [
        "Thị",
        -11.953677366199248
      ],
      [
        "woo",
        -11.95414501906307
      ],
      [
        "Prince",
        -11.954789666165997
      ],
      [
        "Albert",
        -11.954924298740522
      ],
      [
        "toile",
        -11.954944290961397
      ],
      [
        "Silicon",
        -11.955185789625308
      ],
      [
        "Bon",
        -11.955568674786262
      ],
      [
        "tweet",
        -11.955838482492602
      ],
      [
        "well",
        -11.956869416441146
      ],
      [
        "oke",
        -11.957344540208641
      ],
      [
        "ves",
        -11.962418269233686
      ],
      [
        "IB",
        -11.96600769630021
      ],
      [
        "46",
        -11.967544299806109
      ],
      [
        "nhăn",
        -11.968933743147574
      ],
      [
        "use",
        -11.972304526362306
      ],
      [
        "She",
        -11.977804666204477
      ],
      [
        "Bru",
        -11.980478139962415
      ],
      [
        "Thú",
        -11.981675712792335
      ],
      [
        "Chil",
        -11.981834331886244
      ],
      [
        "ngươ",
        -11.98226252497141
      ],
      [
        "Newto",
        -11.982450731824622
      ],
      [
        "+",
        -11.984199807735898
      ],
      [
        "Atlant",
        -11.984209161067893
      ],
      [
        "devil",
        -11.984219312266184
      ],
      [
        "Lewi",
        -11.984302008824562
      ],
      [
        "Gandhi",
        -11.984616255176558
      ],
      [
        "click",
        -11.985238212988847
      ],
      [
        "Alexand",
        -11.985858270372285
      ],
      [
        "44",
        -11.988689182241698
      ],
      [
        "Bay",
        -11.990066693454029
      ],
      [
        "ome",
        -11.991372600271204
      ],
      [
        "aza",
        -11.994571042747868
      ],
      [
        "Pop",
        -11.99603899492562
      ],
      [
        "ES",
        -11.997141873083162
      ],
      [
        "Dạ",
        -11.998290782442501
      ],
      [
        "We",
        -12.006450230960265
      ],
      [
        "Cor",
        -12.008549106908504
      ],
      [
        "Yê",
        -12.009239368698333
      ],
      [
        "CP",
        -12.0143437818367
      ],
      [
        "sky",
        -12.014354686480253
      ],
      [
        "electron",
        -12.014502839000812
      ],
      [
        "Jordan",
        -12.014502848543748
      ],
      [
        "Philip",
        -12.014583685779023
      ],
      [
        "Jaz",
        -12.014766993694465
      ],
      [
        "buồ",
        -12.015040854820997
      ],
      [
        "cafe",
        -12.015397981730741
      ],
      [
        "1900",
        -12.015498259794008
      ],
      [
        "per",
        -12.017068900774875
      ],
      [
        "Hoạ",
        -12.020992947942004
      ],
      [
        "bus",
        -12.02161363586896
      ],
      [
        "58",
        -12.021936546589734
      ],
      [
        "Thuậ",
        -12.02363865644522
      ],
      [
        "calo",
        -12.024188214255323
      ],
      [
        "960",
        -12.024349038810282
      ],
      [
        "Ze",
        -12.025748035480685
      ],
      [
        "kiế",
        -12.026184446870328
      ],
      [
        "je",
        -12.027553329913344
      ],
      [
        "Sher",
        -12.0307262754011
      ],
      [
        "Mary",
        -12.032181688779083
      ],
      [
        "bổn",
        -12.032206902395375
      ],
      [
        "nburg",
        -12.034132882107224
      ],
      [
        "pop",
        -12.034777624775272
      ],
      [
        "Red",
        -12.037401932021279
      ],
      [
        "for",
        -12.042963597757744
      ],
      [
        "ngoặ",
        -12.04407117518456
      ],
      [
        "Colomb",
        -12.045752866620616
      ],
      [
        "Disney",
        -12.04575289809078
      ],
      [
        "Somali",
        -12.04575332035576
      ],
      [
        "Clint",
        -12.045857888858407
      ],
      [
        "High",
        -12.04645857394577
      ],
      [
        "RA",
        -12.047199092989485
      ],
      [
        "Sky",
        -12.047778997209207
      ],
      [
        "Win",
        -12.048980365652955
      ],
      [
        "Hill",
        -12.049889323168024
      ],
      [
        "42",
        -12.050602685965467
      ],
      [
        "ake",
        -12.050770996200303
      ],
      [
        "khử",
        -12.052571390059615
      ],
      [
        "Mari",
        -12.055661071565975
      ],
      [
        "spa",
        -12.05603873944768
      ],
      [
        "Sea",
        -12.057357827951606
      ],
      [
        "xẻ",
        -12.058032066234343
      ],
      [
        "sen",
        -12.058753763558862
      ],
      [
        "marat",
        -12.058978258838136
      ],
      [
        "Băng",
        -12.059096296631632
      ],
      [
        "Arg",
        -12.059331526181891
      ],
      [
        "US",
        -12.059434060313826
      ],
      [
        "IM",
        -12.0611200692452
      ],
      [
        "Scott",
        -12.061612722255019
      ],
      [
        "72",
        -12.0618651651846
      ],
      [
        "86",
        -12.065232356655113
      ],
      [
        "ise",
        -12.066820290844849
      ],
      [
        "phàn",
        -12.06690157721065
      ],
      [
        "Star",
        -12.06732151371454
      ],
      [
        "Wil",
        -12.071508431901076
      ],
      [
        "Bell",
        -12.072170954551178
      ],
      [
        "here",
        -12.074617646879354
      ],
      [
        "Columb",
        -12.078010953745133
      ],
      [
        "Jean",
        -12.078018491714339
      ],
      [
        "Leonard",
        -12.07803982244026
      ],
      [
        "Jones",
        -12.07810790571615
      ],
      [
        "Baby",
        -12.078671566478814
      ],
      [
        "Temp",
        -12.079217905458435
      ],
      [
        "usal",
        -12.082590502951248
      ],
      [
        "Nick",
        -12.084334247482813
      ],
      [
        "Han",
        -12.086009305463449
      ],
      [
        "OE",
        -12.087541992209207
      ],
      [
        "Rand",
        -12.089940955901797
      ],
      [
        "Qa",
        -12.092339956996106
      ],
      [
        "rock",
        -12.093081895384607
      ],
      [
        "Giớ",
        -12.093793421812789
      ],
      [
        "axit",
        -12.096405266008183
      ],
      [
        "Trò",
        -12.097901694030053
      ],
      [
        "Julia",
        -12.098328264799676
      ],
      [
        "exa",
        -12.101719788897027
      ],
      [
        "Carol",
        -12.10267102794485
      ],
      [
        "Wei",
        -12.102725613029552
      ],
      [
        "Pas",
        -12.102739400090506
      ],
      [
        "Kín",
        -12.105081909038315
      ],
      [
        "SM",
        -12.105137301308261
      ],
      [
        "MA",
        -12.107527984041258
      ],
      [
        "Mich",
        -12.108282158053004
      ],
      [
        "Dị",
        -12.108565364918869
      ],
      [
        "Dar",
        -12.110624952704416
      ],
      [
        "Tanzania",
        -12.1113442359147
      ],
      [
        "Blue",
        -12.111355840922338
      ],
      [
        "Bosnia",
        -12.111408737820518
      ],
      [
        "Kenne",
        -12.111582515251394
      ],
      [
        "Anders",
        -12.111612970489075
      ],
      [
        "Nathan",
        -12.111918166742639
      ],
      [
        "Parkin",
        -12.113096253420942
      ],
      [
        "Nation",
        -12.113408068814259
      ],
      [
        "openha",
        -12.113499926121143
      ],
      [
        "Johnny",
        -12.114165982072343
      ],
      [
        "kota",
        -12.114479868353195
      ],
      [
        "Ash",
        -12.115403919788223
      ],
      [
        "Toro",
        -12.11677568443127
      ],
      [
        "NG",
        -12.117427073986493
      ],
      [
        "Doug",
        -12.123462568652592
      ],
      [
        "rong",
        -12.126204862060503
      ],
      [
        "war",
        -12.12866406230117
      ],
      [
        "47",
        -12.134784496843723
      ],
      [
        "jo",
        -12.13692115912928
      ],
      [
        "64",
        -12.139087185146726
      ],
      [
        "Ur",
        -12.140152669277843
      ],
      [
        "Dea",
        -12.141140058134875
      ],
      [
        "Ser",
        -12.14372060953222
      ],
      [
        "96",
        -12.143726330586757
      ],
      [
        "Hawai",
        -12.145830772293447
      ],
      [
        "Edward",
        -12.145842582794984
      ],
      [
        "Power",
        -12.145890410760549
      ],
      [
        "iPod",
        -12.14600762478927
      ],
      [
        "Sierr",
        -12.146190464167276
      ],
      [
        "poster",
        -12.146955485049205
      ],
      [
        "Pin",
        -12.147048586854318
      ],
      [
        "Dian",
        -12.147116199111476
      ],
      [
        "Khan",
        -12.14808173340796
      ],
      [
        "Emil",
        -12.149243974848632
      ],
      [
        "Sand",
        -12.14995442850868
      ],
      [
        "Lượ",
        -12.159423895795308
      ],
      [
        "Julian",
        -12.159489428704646
      ],
      [
        "5000",
        -12.159852604170133
      ],
      [
        "Rose",
        -12.16015686552926
      ],
      [
        "ese",
        -12.163148453288038
      ],
      [
        "cher",
        -12.165286606218896
      ],
      [
        "West",
        -12.166885201094882
      ],
      [
        "Port",
        -12.169731349288408
      ],
      [
        "ifer",
        -12.169970295851055
      ],
      [
        "quầ",
        -12.171839736207392
      ],
      [
        "Fre",
        -12.17378099383439
      ],
      [
        "Mill",
        -12.176893491884037
      ],
      [
        "Laur",
        -12.178260140408117
      ],
      [
        "desh",
        -12.178562577811727
      ],
      [
        "arry",
        -12.179709845071272
      ],
      [
        "34",
        -12.18119151136279
      ],
      [
        "Ethiopi",
        -12.181541282835397
      ],
      [
        "America",
        -12.18154128335394
      ],
      [
        "vitamin",
        -12.181542572946423
      ],
      [
        "Sylvi",
        -12.181543128281975
      ],
      [
        "Qatar",
        -12.181543290431739
      ],
      [
        "Berke",
        -12.181544109424536
      ],
      [
        "Susan",
        -12.181555820001625
      ],
      [
        "album",
        -12.181579180181469
      ],
      [
        "EDI",
        -12.181871340906719
      ],
      [
        "Brit",
        -12.18210915908096
      ],
      [
        "Moza",
        -12.18263176849716
      ],
      [
        "chuồn",
        -12.183190760051792
      ],
      [
        "Pri",
        -12.183264630402679
      ],
      [
        "City",
        -12.18419715887772
      ],
      [
        "opera",
        -12.184445331715725
      ],
      [
        "Căn",
        -12.184930235800666
      ],
      [
        "Roy",
        -12.185374380579585
      ],
      [
        "Bert",
        -12.186258956153246
      ],
      [
        "Fer",
        -12.186638556197034
      ],
      [
        "Kal",
        -12.18917158195384
      ],
      [
        "Maya",
        -12.191090392108592
      ],
      [
        "Ăn",
        -12.195731905373584
      ],
      [
        "Bồ",
        -12.197453560305286
      ],
      [
        "AM",
        -12.198428364791024
      ],
      [
        "Yu",
        -12.200788764306738
      ],
      [
        "Thầ",
        -12.201663243162406
      ],
      [
        "umar",
        -12.20333607070477
      ],
      [
        "taxi",
        -12.208192621196957
      ],
      [
        "Est",
        -12.210096532803396
      ],
      [
        "triề",
        -12.211888587890904
      ],
      [
        "130",
        -12.21456074716812
      ],
      [
        "97",
        -12.216109492546128
      ],
      [
        "Mas",
        -12.218262645008219
      ],
      [
        "CAPTCH",
        -12.218578317260413
      ],
      [
        "Julie",
        -12.21857888135742
      ],
      [
        "Benjam",
        -12.218580022537779
      ],
      [
        "Apol",
        -12.218611812992311
      ],
      [
        "Gala",
        -12.219046860016602
      ],
      [
        "Well",
        -12.219164414412393
      ],
      [
        "Ross",
        -12.221163863811581
      ],
      [
        "ilicon",
        -12.221923284265731
      ],
      [
        "Dub",
        -12.221951842830778
      ],
      [
        "Gene",
        -12.222623459760506
      ],
      [
        "lock",
        -12.224739599354638
      ],
      [
        "350",
        -12.225107822525493
      ],
      [
        "quẩ",
        -12.228209091548699
      ],
      [
        "78",
        -12.228771136329929
      ],
      [
        "pper",
        -12.22935526514494
      ],
      [
        "mart",
        -12.232530532702828
      ],
      [
        "Khố",
        -12.232791995962653
      ],
      [
        "999",
        -12.23424026001902
      ],
      [
        "Trạ",
        -12.23461092620202
      ],
      [
        "84",
        -12.236845814206673
      ],
      [
        "sse",
        -12.23817339105992
      ],
      [
        "Muh",
        -12.238282517146233
      ],
      [
        "beria",
        -12.2442088912019
      ],
      [
        "Nhấ",
        -12.244805531625008
      ],
      [
        "140",
        -12.247233620258855
      ],
      [
        "Trắ",
        -12.249187704976444
      ],
      [
        "Will",
        -12.253365975014843
      ],
      [
        "ER",
        -12.25416982990782
      ],
      [
        "Marg",
        -12.254360163945758
      ],
      [
        "Spi",
        -12.256942946486722
      ],
      [
        "pheromone",
        -12.257039855761878
      ],
      [
        "Philade",
        -12.257044047887334
      ],
      [
        "Roger",
        -12.257047592169444
      ],
      [
        "Usha",
        -12.257061941616348
      ],
      [
        "Broad",
        -12.257080903768394
      ],
      [
        "Cameron",
        -12.257215808726677
      ],
      [
        "Shir",
        -12.257482424406854
      ],
      [
        "Zimbab",
        -12.258008899922668
      ],
      [
        "phone",
        -12.25869940413088
      ],
      [
        "Tok",
        -12.261065548917813
      ],
      [
        "Anas",
        -12.262254791879016
      ],
      [
        "Hall",
        -12.262395974292655
      ],
      [
        "BR",
        -12.26282176120258
      ],
      [
        "God",
        -12.26601638737888
      ],
      [
        "off",
        -12.267449991992198
      ],
      [
        "Spu",
        -12.267814615745099
      ],
      [
        "BI",
        -12.267907714545137
      ],
      [
        "loé",
        -12.270524838690832
      ],
      [
        "sburg",
        -12.273576349334464
      ],
      [
        "acid",
        -12.27364951601377
      ],
      [
        "Penn",
        -12.274301950574854
      ],
      [
        "AK",
        -12.282339555199961
      ],
      [
        "AD",
        -12.283194887647896
      ],
      [
        "Linu",
        -12.284724643412762
      ],
      [
        "180",
        -12.292157440569039
      ],
      [
        "fu",
        -12.294007042171557
      ],
      [
        "SS",
        -12.294924162563944
      ],
      [
        "SO",
        -12.295290918888286
      ],
      [
        "Starbuck",
        -12.297039864796085
      ],
      [
        "Hungar",
        -12.29704030606641
      ],
      [
        "Earth",
        -12.297040871528525
      ],
      [
        "Kelly",
        -12.297050417138971
      ],
      [
        "witz",
        -12.297128370168998
      ],
      [
        "Evan",
        -12.297156046436974
      ],
      [
        "Point",
        -12.297216643427035
      ],
      [
        "Carne",
        -12.297250090493728
      ],
      [
        "Bangla",
        -12.297520195511774
      ],
      [
        "Bolt",
        -12.297711363655006
      ],
      [
        "Leon",
        -12.297985372581387
      ],
      [
        "Pol",
        -12.298100452014602
      ],
      [
        "Hav",
        -12.299942424975413
      ],
      [
        "Wor",
        -12.302069748846755
      ],
      [
        "rizon",
        -12.303832745486101
      ],
      [
        "heli",
        -12.304919439748696
      ],
      [
        "eera",
        -12.305043912612843
      ],
      [
        "Hiế",
        -12.305545651314945
      ],
      [
        "Bud",
        -12.306253340227817
      ],
      [
        "Marco",
        -12.309747486375313
      ],
      [
        "160",
        -12.309872757322735
      ],
      [
        "rdy",
        -12.310505466888852
      ],
      [
        "Park",
        -12.312141106682907
      ],
      [
        "suôn",
        -12.315296870095505
      ],
      [
        "Cap",
        -12.319245055103789
      ],
      [
        "Camp",
        -12.319647161966373
      ],
      [
        "vel",
        -12.321832060713657
      ],
      [
        "liza",
        -12.322040951778053
      ],
      [
        "Dàn",
        -12.326409237657462
      ],
      [
        "Dur",
        -12.326493535297598
      ],
      [
        "ew",
        -12.327045790990407
      ],
      [
        "Phố",
        -12.329601843762358
      ],
      [
        "fil",
        -12.332446883117207
      ],
      [
        "900",
        -12.33475318026411
      ],
      [
        "68",
        -12.335559485065177
      ],
      [
        "Rock",
        -12.336047267409818
      ],
      [
        "Harr",
        -12.337750517626176
      ],
      [
        "Khó",
        -12.337817861356344
      ],
      [
        "=",
        -12.338706522388607
      ],
      [
        "Ứ",
        -12.338706522388607
      ],
      [
        "Copernic",
        -12.33870652331849
      ],
      [
        "FOX",
        -12.338706692224108
      ],
      [
        "Jeopa",
        -12.338707148373748
      ],
      [
        "Movem",
        -12.338712940577455
      ],
      [
        "hamburger",
        -12.338716984216175
      ],
      [
        "Evere",
        -12.339063752865327
      ],
      [
        "Rome",
        -12.339076559421263
      ],
      [
        "Berli",
        -12.33920047413778
      ],
      [
        "Alas",
        -12.339602122568035
      ],
      [
        "Trea",
        -12.339700587967581
      ],
      [
        "Iva",
        -12.341133481872385
      ],
      [
        "pago",
        -12.342760107125093
      ],
      [
        "nick",
        -12.343190992350081
      ],
      [
        "Who",
        -12.347510268591993
      ],
      [
        "key",
        -12.348371182665522
      ],
      [
        "Cri",
        -12.348465739316264
      ],
      [
        "Kí",
        -12.35003483256589
      ],
      [
        "attle",
        -12.351068906497606
      ],
      [
        "Boy",
        -12.35165809903061
      ],
      [
        "flu",
        -12.35295265076599
      ],
      [
        "esto",
        -12.357643863501306
      ],
      [
        "Sud",
        -12.357745131068597
      ],
      [
        "late",
        -12.357858428900474
      ],
      [
        "57",
        -12.359389056154992
      ],
      [
        "Ste",
        -12.360876389600092
      ],
      [
        "zle",
        -12.36122918587281
      ],
      [
        "ound",
        -12.361769463997032
      ],
      [
        "Bro",
        -12.362399121895972
      ],
      [
        "Diễ",
        -12.37622477737647
      ],
      [
        "77",
        -12.377282243811237
      ],
      [
        "ridge",
        -12.37891030126727
      ],
      [
        "Nep",
        -12.379485705710948
      ],
      [
        "…",
        -12.382184783258174
      ],
      [
        "Christophe",
        -12.382184861964895
      ],
      [
        "Fried",
        -12.382184883164449
      ],
      [
        "Hawkin",
        -12.382184890201353
      ],
      [
        "Spee",
        -12.382195247851449
      ],
      [
        "Jesu",
        -12.382200088795477
      ],
      [
        "Super",
        -12.382232430961766
      ],
      [
        "Jackson",
        -12.382309040217535
      ],
      [
        "Cair",
        -12.382389008814062
      ],
      [
        "Grand",
        -12.382439084785478
      ],
      [
        "Rick",
        -12.382440525678499
      ],
      [
        "Nair",
        -12.382495727715916
      ],
      [
        "Louis",
        -12.382530479881275
      ],
      [
        "ette",
        -12.38313962414781
      ],
      [
        "Bhut",
        -12.384665609770272
      ],
      [
        "Khí",
        -12.38704198747839
      ],
      [
        "Bio",
        -12.388283160381718
      ],
      [
        "Cher",
        -12.389408801946859
      ],
      [
        "Ver",
        -12.389760014943437
      ],
      [
        "erse",
        -12.393052700294978
      ],
      [
        "Giấ",
        -12.393164747530015
      ],
      [
        "photo",
        -12.393958753145734
      ],
      [
        "SE",
        -12.395623582121548
      ],
      [
        "bad",
        -12.395789693822925
      ],
      [
        "Alan",
        -12.397560701201417
      ],
      [
        "ness",
        -12.39757478366544
      ],
      [
        "umba",
        -12.3975848257568
      ],
      [
        "aylo",
        -12.3982011503558
      ],
      [
        "foot",
        -12.398669682233947
      ],
      [
        "allo",
        -12.403876268992652
      ],
      [
        "afi",
        -12.408633569300328
      ],
      [
        "PH",
        -12.409965618068679
      ],
      [
        "Uni",
        -12.410481095173223
      ],
      [
        "Isla",
        -12.411866108763983
      ],
      [
        "baz",
        -12.416112736341267
      ],
      [
        "Ger",
        -12.417532325809816
      ],
      [
        "mail",
        -12.424317560479498
      ],
      [
        "enber",
        -12.42626206797214
      ],
      [
        "CH",
        -12.427137437339923
      ],
      [
        "Ờ",
        -12.427639328712718
      ],
      [
        "White",
        -12.42764329635768
      ],
      [
        "violin",
        -12.427645999971084
      ],
      [
        "Jess",
        -12.427684076741091
      ],
      [
        "Romo",
        -12.427744226527137
      ],
      [
        "Kiri",
        -12.42783778591469
      ],
      [
        "Roma",
        -12.428123969994289
      ],
      [
        "Dave",
        -12.42836094439185
      ],
      [
        "TH",
        -12.428486521441037
      ],
      [
        "Oak",
        -12.428939669473108
      ],
      [
        "North",
        -12.429435183733434
      ],
      [
        "shop",
        -12.429480823790879
      ],
      [
        "54",
        -12.430858185330038
      ],
      [
        "FD",
        -12.431267736149763
      ],
      [
        "Dick",
        -12.432266659401279
      ],
      [
        "Shar",
        -12.434008100791342
      ],
      [
        "Chia",
        -12.438926320453099
      ],
      [
        "Colli",
        -12.439027275368938
      ],
      [
        "Ir",
        -12.440129873246399
      ],
      [
        "Ore",
        -12.441298379057839
      ],
      [
        "Chad",
        -12.441971959750397
      ],
      [
        "khoé",
        -12.442327743829656
      ],
      [
        "tech",
        -12.442524473339525
      ],
      [
        "190",
        -12.442644100790158
      ],
      [
        "Giê",
        -12.443246026167117
      ],
      [
        "PC",
        -12.446134739045851
      ],
      [
        "iffe",
        -12.447173510958326
      ],
      [
        "Xé",
        -12.450621896678532
      ],
      [
        "Maria",
        -12.452964750060971
      ],
      [
        "Bé",
        -12.456013073736955
      ],
      [
        "125",
        -12.457499475784083
      ],
      [
        "FB",
        -12.457816472804183
      ],
      [
        "Aar",
        -12.458829222427433
      ],
      [
        "LA",
        -12.46442782525494
      ],
      [
        "Woo",
        -12.467465777695491
      ],
      [
        "Guin",
        -12.470677755285967
      ],
      [
        "74",
        -12.474195936391853
      ],
      [
        "Jeff",
        -12.47507703036354
      ],
      [
        ")",
        -12.475258376331766
      ],
      [
        "enzym",
        -12.475258611415432
      ],
      [
        "word",
        -12.47525874875858
      ],
      [
        "Lawr",
        -12.475259126112606
      ],
      [
        "Plato",
        -12.475260017046987
      ],
      [
        "Grace",
        -12.475267013361531
      ],
      [
        "Fran",
        -12.475281069186568
      ],
      [
        "Rachel",
        -12.475350084971886
      ],
      [
        "Jeffer",
        -12.475439908558242
      ],
      [
        "Cuba",
        -12.475745717760898
      ],
      [
        "Clay",
        -12.476223409767304
      ],
      [
        "hove",
        -12.476512369051601
      ],
      [
        "Fox",
        -12.47654520522352
      ],
      [
        "phthal",
        -12.476641447048124
      ],
      [
        "Katr",
        -12.478711756328943
      ],
      [
        "Mama",
        -12.480139305581211
      ],
      [
        "Europ",
        -12.481436306818708
      ],
      [
        "43",
        -12.482348941637312
      ],
      [
        "450",
        -12.483109951406417
      ],
      [
        "Lind",
        -12.48465053397305
      ],
      [
        "prô",
        -12.486161882383918
      ],
      [
        "Pale",
        -12.488416765847301
      ],
      [
        "52",
        -12.490352491370366
      ],
      [
        "pass",
        -12.49068213079915
      ],
      [
        "Chố",
        -12.49504622223373
      ],
      [
        "itus",
        -12.4970431001079
      ],
      [
        "EE",
        -12.497709651688192
      ],
      [
        "SR",
        -12.498353015565208
      ],
      [
        "Cro",
        -12.498663413065671
      ],
      [
        "banj",
        -12.49870731612947
      ],
      [
        "4000",
        -12.501038811602095
      ],
      [
        "Scra",
        -12.502093649934183
      ],
      [
        "Has",
        -12.502161190112107
      ],
      [
        "ase",
        -12.507622356046944
      ],
      [
        "Mong",
        -12.510289273379437
      ],
      [
        "Rot",
        -12.511496789403008
      ],
      [
        "Far",
        -12.514395702884876
      ],
      [
        "hock",
        -12.515159346508273
      ],
      [
        "76",
        -12.516574472946854
      ],
      [
        "05",
        -12.522172523217057
      ],
      [
        "Hunt",
        -12.523233601409038
      ],
      [
        "Inter",
        -12.525230838709009
      ],
      [
        "sandwich",
        -12.525258377465319
      ],
      [
        "eographic",
        -12.52525849392597
      ],
      [
        "Olive",
        -12.525262176151717
      ],
      [
        "McDonald",
        -12.525299609410899
      ],
      [
        "serot",
        -12.525331418573998
      ],
      [
        "State",
        -12.525382644426786
      ],
      [
        "lvani",
        -12.525636840564777
      ],
      [
        "Ryan",
        -12.52570189853132
      ],
      [
        "Murr",
        -12.52571583094157
      ],
      [
        "Peru",
        -12.527916979647316
      ],
      [
        "Rive",
        -12.528283590840545
      ],
      [
        "Tami",
        -12.528428076521088
      ],
      [
        "Kare",
        -12.528859486849521
      ],
      [
        "Fli",
        -12.529751639881221
      ],
      [
        "Monte",
        -12.529866310064264
      ],
      [
        "Bue",
        -12.529933767438404
      ],
      [
        "Medi",
        -12.53135400624147
      ],
      [
        "sion",
        -12.533009360279816
      ],
      [
        "able",
        -12.5335688951627
      ],
      [
        "ouve",
        -12.533644264619552
      ],
      [
        "sterda",
        -12.53427305262311
      ],
      [
        "link",
        -12.535564534246175
      ],
      [
        "scar",
        -12.535939461803324
      ],
      [
        "rrow",
        -12.537194974995286
      ],
      [
        "fer",
        -12.537330576204178
      ],
      [
        "dè",
        -12.538676398190566
      ],
      [
        "Chạ",
        -12.543079037377662
      ],
      [
        "Aur",
        -12.544812627450895
      ],
      [
        "Swa",
        -12.546365366697152
      ],
      [
        "Liber",
        -12.546644354565583
      ],
      [
        "Aye",
        -12.551595975163991
      ],
      [
        "hack",
        -12.551891699214488
      ],
      [
        "Par",
        -12.553971771900144
      ],
      [
        "Frankl",
        -12.554512923818626
      ],
      [
        "raham",
        -12.557040463421355
      ],
      [
        "loã",
        -12.557932826461066
      ],
      [
        "Conne",
        -12.56023464713892
      ],
      [
        "Bel",
        -12.563479572765935
      ],
      [
        "Jami",
        -12.566836382918787
      ],
      [
        "oel",
        -12.569280384867307
      ],
      [
        "AA",
        -12.569635012328854
      ],
      [
        "Mala",
        -12.573970241864892
      ],
      [
        "ope",
        -12.577729491035997
      ],
      [
        "field",
        -12.577884150175604
      ],
      [
        "Mitchell",
        -12.577889966174636
      ],
      [
        "Jacob",
        -12.57789975023086
      ],
      [
        "Walker",
        -12.57791973381539
      ],
      [
        "Mello",
        -12.577926756114639
      ],
      [
        "Archi",
        -12.578089946354511
      ],
      [
        "canxi",
        -12.578213335420877
      ],
      [
        "Denis",
        -12.578216031953781
      ],
      [
        "Sween",
        -12.578272139373997
      ],
      [
        "Craig",
        -12.578357553989463
      ],
      [
        "Mathe",
        -12.578883928722515
      ],
      [
        "Arab",
        -12.579705458153933
      ],
      [
        "stone",
        -12.579716177707855
      ],
      [
        "ID",
        -12.580407510687916
      ],
      [
        "lbert",
        -12.580593520278686
      ],
      [
        "ower",
        -12.580712492577932
      ],
      [
        "Bren",
        -12.582186934912531
      ],
      [
        "00",
        -12.582667038596641
      ],
      [
        "meta",
        -12.582993199783218
      ],
      [
        "euro",
        -12.585808757052082
      ],
      [
        "East",
        -12.5878809023384
      ],
      [
        "daf",
        -12.589367563597213
      ],
      [
        "Tob",
        -12.590056145451573
      ],
      [
        "Mars",
        -12.59068340020488
      ],
      [
        "Home",
        -12.593036847888046
      ],
      [
        "6000",
        -12.59348280812683
      ],
      [
        "Mario",
        -12.593825176685353
      ],
      [
        "bíp",
        -12.594697958830299
      ],
      [
        "xiế",
        -12.59757941151911
      ],
      [
        "hrir",
        -12.598872533153617
      ],
      [
        "inger",
        -12.602019903756643
      ],
      [
        "LH",
        -12.602299312015921
      ],
      [
        "Fib",
        -12.603581166758755
      ],
      [
        "59",
        -12.604166238534194
      ],
      [
        "Cru",
        -12.604400436635668
      ],
      [
        "nitri",
        -12.604840507595807
      ],
      [
        "185",
        -12.606293634844377
      ],
      [
        "rick",
        -12.606823377134495
      ],
      [
        "Harl",
        -12.60874849880656
      ],
      [
        "enne",
        -12.609647872290488
      ],
      [
        "games",
        -12.611963980468056
      ],
      [
        "elind",
        -12.616674408411681
      ],
      [
        "NI",
        -12.61750434733791
      ],
      [
        "enez",
        -12.623344527673314
      ],
      [
        "Ex",
        -12.62455000359174
      ],
      [
        "Jak",
        -12.627571677033846
      ],
      [
        "AL",
        -12.627856453982071
      ],
      [
        "obul",
        -12.630773035370794
      ],
      [
        "RG",
        -12.631747282771085
      ],
      [
        "Ẩ",
        -12.633445510834692
      ],
      [
        "Himalaya",
        -12.633445510922908
      ],
      [
        "Matthew",
        -12.633445844089813
      ],
      [
        "Ukrain",
        -12.633450313173821
      ],
      [
        "Stefan",
        -12.633451849317078
      ],
      [
        "Brenda",
        -12.63349391702596
      ],
      [
        "Gehr",
        -12.633582060226704
      ],
      [
        "Pier",
        -12.633587483093356
      ],
      [
        "Stone",
        -12.633595839963718
      ],
      [
        "Nichol",
        -12.633877348682173
      ],
      [
        "Stir",
        -12.634095469255948
      ],
      [
        "read",
        -12.634116046172425
      ],
      [
        "Cape",
        -12.634717784948323
      ],
      [
        "Ror",
        -12.63483214940701
      ],
      [
        "milim",
        -12.63543738611996
      ],
      [
        "moud",
        -12.63545887095802
      ],
      [
        "Abu",
        -12.637665178401669
      ],
      [
        "Kam",
        -12.637700381153504
      ],
      [
        "Gri",
        -12.637796542096234
      ],
      [
        "67",
        -12.639830144748586
      ],
      [
        "elle",
        -12.64346403193182
      ],
      [
        "matic",
        -12.644047218700592
      ],
      [
        "IP",
        -12.64561838324647
      ],
      [
        "Ark",
        -12.646056492501497
      ],
      [
        "Mille",
        -12.646249571063858
      ],
      [
        "Avi",
        -12.648905978782462
      ],
      [
        "nghẹ",
        -12.652673666147072
      ],
      [
        "OL",
        -12.656102617261691
      ],
      [
        "Jud",
        -12.661535452849128
      ],
      [
        "ander",
        -12.669850043321333
      ],
      [
        "39",
        -12.684352276384416
      ],
      [
        "Andre",
        -12.69226544911597
      ],
      [
        "Chernobyl",
        -12.69226904049456
      ],
      [
        "Bloom",
        -12.69227269950326
      ],
      [
        "Phillip",
        -12.692273207109073
      ],
      [
        "progeri",
        -12.692275631742403
      ],
      [
        "Pepsi",
        -12.692277129911487
      ],
      [
        "Bonnie",
        -12.692282675836536
      ],
      [
        "Pantheon",
        -12.69228282669097
      ],
      [
        "Justi",
        -12.69229290984241
      ],
      [
        "Fellow",
        -12.69229681632073
      ],
      [
        "Norman",
        -12.692319620333718
      ],
      [
        "Full",
        -12.692388037914084
      ],
      [
        "blogger",
        -12.692428015869618
      ],
      [
        "hormone",
        -12.692428055330465
      ],
      [
        "DD",
        -12.6924342571279
      ],
      [
        "Titan",
        -12.692664286855242
      ],
      [
        "Goer",
        -12.692794266860526
      ],
      [
        "Alf",
        -12.69309756839955
      ],
      [
        "PR",
        -12.693785453171827
      ],
      [
        "love",
        -12.693976903435855
      ],
      [
        "Love",
        -12.694140233650641
      ],
      [
        "Gayl",
        -12.694290340471968
      ],
      [
        "Cole",
        -12.69488612202481
      ],
      [
        "ibera",
        -12.695012020697323
      ],
      [
        "MoM",
        -12.696716728242468
      ],
      [
        "Kle",
        -12.701727279325755
      ],
      [
        "med",
        -12.70202537086299
      ],
      [
        "inder",
        -12.702768520831528
      ],
      [
        "Lock",
        -12.70302278625203
      ],
      [
        "fus",
        -12.703716303694067
      ],
      [
        "Lis",
        -12.704051693642663
      ],
      [
        "hire",
        -12.705502583805252
      ],
      [
        "aria",
        -12.70580908967302
      ],
      [
        "AG",
        -12.706411876534876
      ],
      [
        "Michel",
        -12.708097109767392
      ],
      [
        "bee",
        -12.708993398864546
      ],
      [
        "Pia",
        -12.709181405138523
      ],
      [
        "TED201",
        -12.710418744455657
      ],
      [
        "ould",
        -12.711134015669193
      ],
      [
        "Gand",
        -12.711949211312888
      ],
      [
        "ream",
        -12.71217113743002
      ],
      [
        "Tor",
        -12.713216154853974
      ],
      [
        "sex",
        -12.713900804406085
      ],
      [
        "Eco",
        -12.714245618895447
      ],
      [
        "Post",
        -12.716661594252727
      ],
      [
        "lean",
        -12.717382193744164
      ],
      [
        "Nghiệ",
        -12.718021879605645
      ],
      [
        "193",
        -12.718566347251707
      ],
      [
        "Ire",
        -12.72080584433338
      ],
      [
        "89",
        -12.721884872827385
      ],
      [
        "94",
        -12.724077283476042
      ],
      [
        "Tara",
        -12.725276945649025
      ],
      [
        "otter",
        -12.725501743429605
      ],
      [
        "Ros",
        -12.727729548439566
      ],
      [
        "McCa",
        -12.72887192924189
      ],
      [
        "aste",
        -12.730340766221445
      ],
      [
        "Sir",
        -12.73271903591284
      ],
      [
        "rew",
        -12.733289884813397
      ],
      [
        "ition",
        -12.738330685814105
      ],
      [
        "187",
        -12.738372602642288
      ],
      [
        "Pre",
        -12.740005738774737
      ],
      [
        "Tar",
        -12.747343044380978
      ],
      [
        "enter",
        -12.751494754411894
      ],
      [
        "watt",
        -12.752387899906257
      ],
      [
        "Ơ",
        -12.754769040246464
      ],
      [
        "Tennesse",
        -12.754769054125198
      ],
      [
        "Jamaica",
        -12.754769088917827
      ],
      [
        "Univers",
        -12.754771843252676
      ],
      [
        "ookie",
        -12.754773698196509
      ],
      [
        "Intel",
        -12.754778166696523
      ],
      [
        "Meyer",
        -12.75477919771648
      ],
      [
        "Anthon",
        -12.754843964377683
      ],
      [
        "Donald",
        -12.754876526751449
      ],
      [
        "Helen",
        -12.754924150969353
      ],
      [
        "Aust",
        -12.755126216100805
      ],
      [
        "UCL",
        -12.755163058725527
      ],
      [
        "IPA",
        -12.755540596275342
      ],
      [
        "Hanna",
        -12.756484664863468
      ],
      [
        "cello",
        -12.756576521150723
      ],
      [
        "Vide",
        -12.756980485553907
      ],
      [
        "sala",
        -12.757689508874462
      ],
      [
        "Wire",
        -12.759327105986968
      ],
      [
        "360",
        -12.759413831409766
      ],
      [
        "proto",
        -12.760135613437418
      ],
      [
        "Fred",
        -12.760381506424876
      ],
      [
        "byte",
        -12.760466535001465
      ],
      [
        "Nico",
        -12.760510490099534
      ],
      [
        "Hub",
        -12.761321920959173
      ],
      [
        "Dow",
        -12.762610996592002
      ],
      [
        "Mạn",
        -12.764094807006574
      ],
      [
        "Quyế",
        -12.764999128896063
      ],
      [
        "Wood",
        -12.769897187368809
      ],
      [
        "Az",
        -12.770185379471691
      ],
      [
        "Pun",
        -12.771809030919359
      ],
      [
        "raja",
        -12.776657194958455
      ],
      [
        "Mahat",
        -12.779041173581458
      ],
      [
        "Stand",
        -12.797477781304066
      ],
      [
        "Williams",
        -12.800843195575965
      ],
      [
        "Juan",
        -12.803078149234194
      ],
      [
        "mond",
        -12.805653067142305
      ],
      [
        "ilton",
        -12.805908259155085
      ],
      [
        "Trọn",
        -12.808447648411272
      ],
      [
        "assa",
        -12.810801827866834
      ],
      [
        "Alis",
        -12.811458985809107
      ],
      [
        "Cườ",
        -12.814506176630887
      ],
      [
        "Baye",
        -12.819984764182662
      ],
      [
        "ç",
        -12.821435706913139
      ],
      [
        "Ổ",
        -12.821435706913139
      ],
      [
        "Charlotte",
        -12.821435706928128
      ],
      [
        "Hiroshi",
        -12.821435707161504
      ],
      [
        "Cooper",
        -12.82143599357722
      ],
      [
        "Ariel",
        -12.821437477307065
      ],
      [
        "Serge",
        -12.821463557562101
      ],
      [
        "Motor",
        -12.821464806750582
      ],
      [
        "INC",
        -12.821473612097083
      ],
      [
        "Malco",
        -12.821511129940818
      ],
      [
        "Found",
        -12.821518643490004
      ],
      [
        "Dennis",
        -12.821636191287473
      ],
      [
        "gluco",
        -12.821679071168772
      ],
      [
        "water",
        -12.8217436242708
      ],
      [
        "Vượ",
        -12.822007089143991
      ],
      [
        "Robbi",
        -12.82200752911156
      ],
      [
        "Grant",
        -12.822133590649782
      ],
      [
        "polyme",
        -12.82218393006686
      ],
      [
        "TEDTalk",
        -12.82218620350318
      ],
      [
        "Robins",
        -12.822244520072912
      ],
      [
        "Case",
        -12.822530140902838
      ],
      [
        "Moham",
        -12.822714582653088
      ],
      [
        "Brand",
        -12.822725819303693
      ],
      [
        "burn",
        -12.823584065978238
      ],
      [
        "port",
        -12.82480556384131
      ],
      [
        "fur",
        -12.825568853830001
      ],
      [
        "Tele",
        -12.826847638736266
      ],
      [
        "Sie",
        -12.82879998161114
      ],
      [
        "Trice",
        -12.831209756995754
      ],
      [
        "Alto",
        -12.83296670486454
      ],
      [
        "Rod",
        -12.833944563600493
      ],
      [
        "Soph",
        -12.833992070008316
      ],
      [
        "Gall",
        -12.835263594545921
      ],
      [
        "fli",
        -12.8367961054512
      ],
      [
        "horn",
        -12.840494757016613
      ],
      [
        "Acce",
        -12.841254205043539
      ],
      [
        "Ele",
        -12.843140436770655
      ],
      [
        "Max",
        -12.845005392748684
      ],
      [
        "roge",
        -12.853288620720608
      ],
      [
        "AB",
        -12.854011138612979
      ],
      [
        "Phổ",
        -12.85428224409533
      ],
      [
        "amie",
        -12.85708064727257
      ],
      [
        "Gord",
        -12.859164815510095
      ],
      [
        "Tere",
        -12.863666454441384
      ],
      [
        "Ree",
        -12.865284445484988
      ],
      [
        "Yế",
        -12.867995698265386
      ],
      [
        "ezer",
        -12.878612106913161
      ],
      [
        "Euro",
        -12.883566381012848
      ],
      [
        "Alla",
        -12.887556667211268
      ],
      [
        "India",
        -12.892192870554622
      ],
      [
        "burg",
        -12.89250716690184
      ],
      [
        "Odysse",
        -12.89286428583927
      ],
      [
        "Tunisia",
        -12.892864291487754
      ],
      [
        "IKE",
        -12.892865804883726
      ],
      [
        "Russel",
        -12.89286780050818
      ],
      [
        "Pilot",
        -12.892870134871718
      ],
      [
        "Bonnet",
        -12.892870190662936
      ],
      [
        "Jacque",
        -12.89287068565239
      ],
      [
        "CIA",
        -12.892872477618898
      ],
      [
        "Radio",
        -12.892877577671902
      ],
      [
        "Ahmed",
        -12.892883828164173
      ],
      [
        "Prize",
        -12.892884004787609
      ],
      [
        "Color",
        -12.892905968807522
      ],
      [
        "Austral",
        -12.892907525160467
      ],
      [
        "Rebe",
        -12.892919893618785
      ],
      [
        "Centr",
        -12.893036911554802
      ],
      [
        "Indiana",
        -12.893574407939084
      ],
      [
        "Scoo",
        -12.89359629627212
      ],
      [
        "Papu",
        -12.893751639303925
      ],
      [
        "Naj",
        -12.894267222966251
      ],
      [
        "Shah",
        -12.894728288500186
      ],
      [
        "House",
        -12.895719759301954
      ],
      [
        "ddie",
        -12.89674867196515
      ],
      [
        "oogle",
        -12.896922157561866
      ],
      [
        "Pitt",
        -12.896977486860823
      ],
      [
        "Basi",
        -12.897039739277556
      ],
      [
        "1800",
        -12.897810918306789
      ],
      [
        "fon",
        -12.898609700378982
      ],
      [
        "Nor",
        -12.900487667940936
      ],
      [
        "sama",
        -12.902541866161972
      ],
      [
        "atops",
        -12.904248545038712
      ],
      [
        "ahama",
        -12.910683742426722
      ],
      [
        "750",
        -12.91236808272
      ],
      [
        "ARPA",
        -12.912520294768939
      ],
      [
        "Row",
        -12.917202322405386
      ],
      [
        "Rub",
        -12.923970052742913
      ],
      [
        "Anne",
        -12.928354390409716
      ],
      [
        "over",
        -12.9285017482492
      ],
      [
        "Scien",
        -12.933725319874021
      ],
      [
        "manda",
        -12.935498158691239
      ],
      [
        "plas",
        -12.936515405713074
      ],
      [
        "meer",
        -12.947656032115196
      ],
      [
        "Oz",
        -12.960001938777692
      ],
      [
        "Carte",
        -12.964156492678955
      ],
      [
        "Wid",
        -12.968362383125683
      ],
      [
        "ador",
        -12.968682758719792
      ],
      [
        "Hous",
        -12.969679248368628
      ],
      [
        "Massachuset",
        -12.9697873552654
      ],
      [
        "Picasso",
        -12.969787355406972
      ],
      [
        "cocktail",
        -12.969787361246295
      ],
      [
        "Heather",
        -12.969787382115118
      ],
      [
        "Studio",
        -12.969787471991316
      ],
      [
        "Economi",
        -12.96978833278404
      ],
      [
        "Hirsh",
        -12.969788345787164
      ],
      [
        "Gabriel",
        -12.969788800373408
      ],
      [
        "Shaw",
        -12.969789537541772
      ],
      [
        "Georgi",
        -12.969792674300527
      ],
      [
        "Rivers",
        -12.969801073409494
      ],
      [
        "Rhode",
        -12.96980433523514
      ],
      [
        "Valle",
        -12.969884875278346
      ],
      [
        "Huck",
        -12.96997356871578
      ],
      [
        "Curi",
        -12.97005729613319
      ],
      [
        "Guard",
        -12.970062657167507
      ],
      [
        "Wales",
        -12.970162269453308
      ],
      [
        "Marsha",
        -12.970350800178984
      ],
      [
        "Minne",
        -12.970381881694319
      ],
      [
        "osov",
        -12.970531003596758
      ],
      [
        "TEDster",
        -12.971251912165599
      ],
      [
        "Water",
        -12.97137766185514
      ],
      [
        "Photo",
        -12.971546947807324
      ],
      [
        "zman",
        -12.971742100022102
      ],
      [
        "Clark",
        -12.972329767688052
      ],
      [
        "Patric",
        -12.973099091280055
      ],
      [
        "Danny",
        -12.97376606009372
      ],
      [
        "Shee",
        -12.974236903117626
      ],
      [
        "Viki",
        -12.974632416877599
      ],
      [
        "Sina",
        -12.975229780556038
      ],
      [
        "Mali",
        -12.977191412068274
      ],
      [
        "Liz",
        -12.979040225397277
      ],
      [
        "JK",
        -12.979267406765794
      ],
      [
        "Gamb",
        -12.979791930207751
      ],
      [
        "demo",
        -12.980615915379559
      ],
      [
        "Harris",
        -12.981030664666712
      ],
      [
        "Bird",
        -12.98159384449261
      ],
      [
        "Clar",
        -12.981718503932754
      ],
      [
        "owan",
        -12.983471511801712
      ],
      [
        "Pur",
        -12.987773942672513
      ],
      [
        "Shan",
        -12.988472207465952
      ],
      [
        "Bee",
        -13.00508891338172
      ],
      [
        "rove",
        -13.00514214795537
      ],
      [
        "meme",
        -13.006271623223917
      ],
      [
        "Kne",
        -13.020925793573188
      ],
      [
        "head",
        -13.030380159227729
      ],
      [
        "Jani",
        -13.046164099846933
      ],
      [
        "Doll",
        -13.04698752840082
      ],
      [
        "AI",
        -13.04838297128215
      ],
      [
        "365",
        -13.049104837698728
      ],
      [
        "Aw",
        -13.051410523112516
      ],
      [
        "Ê",
        -13.053120688598286
      ],
      [
        "Illinois",
        -13.053120688640515
      ],
      [
        "Roose",
        -13.053120717719844
      ],
      [
        "Ottoman",
        -13.05312076261936
      ],
      [
        "Sisyph",
        -13.053121266683696
      ],
      [
        "Afga",
        -13.053121665722227
      ],
      [
        "Kendal",
        -13.053122326325305
      ],
      [
        "Neuman",
        -13.053124055533251
      ],
      [
        "jihad",
        -13.053125123512203
      ],
      [
        "Brother",
        -13.053127348927203
      ],
      [
        "Geoff",
        -13.05314067494385
      ],
      [
        "Turk",
        -13.053145687298633
      ],
      [
        "rough",
        -13.053155461175276
      ],
      [
        "Achill",
        -13.053167149375712
      ],
      [
        "Perr",
        -13.053174567165
      ],
      [
        "Tweet",
        -13.053185226460846
      ],
      [
        "Owen",
        -13.053193392312588
      ],
      [
        "Nicole",
        -13.053207921684498
      ],
      [
        "icilli",
        -13.053208444154146
      ],
      [
        "Show",
        -13.05323253784044
      ],
      [
        "Barbar",
        -13.05324169588315
      ],
      [
        "uddin",
        -13.053351445241097
      ],
      [
        "wow",
        -13.053363128695219
      ],
      [
        "Turin",
        -13.053377539431791
      ],
      [
        "Sadd",
        -13.053465299646854
      ],
      [
        "Cass",
        -13.053517443644399
      ],
      [
        "Walter",
        -13.05353425395046
      ],
      [
        "Ital",
        -13.053543454242208
      ],
      [
        "dioxi",
        -13.05360119728967
      ],
      [
        "Bandu",
        -13.053737358848378
      ],
      [
        "laze",
        -13.053767718314859
      ],
      [
        "Java",
        -13.053776584401849
      ],
      [
        "Lake",
        -13.053961837654422
      ],
      [
        "wick",
        -13.054115156513255
      ],
      [
        "Glas",
        -13.054219215880185
      ],
      [
        "Galil",
        -13.054268739043058
      ],
      [
        "frie",
        -13.054396642592438
      ],
      [
        "bloo",
        -13.05481904255149
      ],
      [
        "Hadr",
        -13.055457041170161
      ],
      [
        "Zeta",
        -13.055521323845165
      ],
      [
        "blue",
        -13.055547851502173
      ],
      [
        "Jerem",
        -13.055625245208802
      ],
      [
        "Acto",
        -13.055666240846948
      ],
      [
        "cela",
        -13.055838990390908
      ],
      [
        "cocain",
        -13.056257605314578
      ],
      [
        "unders",
        -13.056655899869899
      ],
      [
        "Grou",
        -13.056676991435186
      ],
      [
        "Code",
        -13.056728696137172
      ],
      [
        "Kerr",
        -13.056884556452955
      ],
      [
        "comple",
        -13.059855460132916
      ],
      [
        "Jose",
        -13.06000676137487
      ],
      [
        "enix",
        -13.06088732193013
      ],
      [
        "ffit",
        -13.061626198472911
      ],
      [
        "mega",
        -13.061674066631404
      ],
      [
        "Babb",
        -13.063320535375063
      ],
      [
        "wee",
        -13.065978967718047
      ],
      [
        "Byr",
        -13.079383376293814
      ],
      [
        "sek",
        -13.095068472811716
      ],
      [
        "idro",
        -13.096174508376418
      ],
      [
        "etz",
        -13.102003282455335
      ],
      [
        "arter",
        -13.105676416640947
      ],
      [
        "Fro",
        -13.140917779717572
      ],
      [
        "(",
        -13.144029779507646
      ],
      [
        "​",
        -13.144029779507646
      ],
      [
        "¼",
        -13.144029779507646
      ],
      [
        "Senegal",
        -13.14402978459075
      ],
      [
        "Chryst",
        -13.144029820827438
      ],
      [
        "Jarret",
        -13.144029823391424
      ],
      [
        "Project",
        -13.14402983556921
      ],
      [
        "Clevela",
        -13.1440298456249
      ],
      [
        "Duoling",
        -13.14402986140683
      ],
      [
        "Window",
        -13.14403001703987
      ],
      [
        "NICE",
        -13.144030149176507
      ],
      [
        "Adria",
        -13.144030186073808
      ],
      [
        "Cloud",
        -13.144030788373554
      ],
      [
        "Electro",
        -13.144030941766246
      ],
      [
        "Philippine",
        -13.144031449045174
      ],
      [
        "Kentuck",
        -13.144036016804646
      ],
      [
        "Church",
        -13.144039722263164
      ],
      [
        "Christian",
        -13.144051640812023
      ],
      [
        "Engel",
        -13.144055672938876
      ],
      [
        "Madagas",
        -13.144058056474027
      ],
      [
        "Exxon",
        -13.14406362041505
      ],
      [
        "Glad",
        -13.144071074410775
      ],
      [
        "Khali",
        -13.144074373974792
      ],
      [
        "Hyder",
        -13.14407522323914
      ],
      [
        "Michoac",
        -13.144106780170558
      ],
      [
        "School",
        -13.144110648258835
      ],
      [
        "Gilli",
        -13.144126377163701
      ],
      [
        "Davi",
        -13.144131183996961
      ],
      [
        "lose",
        -13.144173285722292
      ],
      [
        "Nicola",
        -13.144244914624863
      ],
      [
        "Mori",
        -13.144369176016191
      ],
      [
        "Shre",
        -13.14441272958288
      ],
      [
        "Head",
        -13.144487289468893
      ],
      [
        "ISA",
        -13.144544242827584
      ],
      [
        "Aspe",
        -13.144621736435452
      ],
      [
        "Auto",
        -13.144641961861826
      ],
      [
        "Comp",
        -13.144754193403024
      ],
      [
        "Morgan",
        -13.144896824705905
      ],
      [
        "Splas",
        -13.144917805817787
      ],
      [
        "kilô",
        -13.14492781676723
      ],
      [
        "Luri",
        -13.145083469124113
      ],
      [
        "Wiki",
        -13.145395167944972
      ],
      [
        "Perc",
        -13.14541081986895
      ],
      [
        "llage",
        -13.145668747933833
      ],
      [
        "Barto",
        -13.145875323921409
      ],
      [
        "Dro",
        -13.146718864533689
      ],
      [
        "Zip",
        -13.147006486707077
      ],
      [
        "Aria",
        -13.148566525749786
      ],
      [
        "erald",
        -13.148600883266868
      ],
      [
        "Missou",
        -13.148677514887773
      ],
      [
        "Terr",
        -13.150514597026769
      ],
      [
        "Khẩ",
        -13.15984941645254
      ],
      [
        "Miss",
        -13.161125355910439
      ],
      [
        "alde",
        -13.19948496911698
      ],
      [
        "Mall",
        -13.208077027863753
      ],
      [
        "bass",
        -13.212493149077666
      ],
      [
        "roso",
        -13.217642761364901
      ],
      [
        "roll",
        -13.239058180948232
      ],
      [
        "ẵ",
        -13.23919124935258
      ],
      [
        "Ư",
        -13.242678827165836
      ],
      [
        "@",
        -13.24402977950842
      ],
      [
        "Android",
        -13.244029780849575
      ],
      [
        "WikiLeak",
        -13.244029780966278
      ],
      [
        "Buffet",
        -13.24402978159742
      ],
      [
        "awesome",
        -13.244029784750952
      ],
      [
        "Midwest",
        -13.244029810998004
      ],
      [
        "Nikola",
        -13.24402984789122
      ],
      [
        "www",
        -13.24402987944563
      ],
      [
        "Feynman",
        -13.24402988557625
      ],
      [
        "Isabel",
        -13.24402988791703
      ],
      [
        "Trinida",
        -13.244030181910198
      ],
      [
        "Ferris",
        -13.244030659180257
      ],
      [
        "Frederic",
        -13.24403175687712
      ],
      [
        "Knight",
        -13.244035526547753
      ],
      [
        "Murdo",
        -13.244038345003572
      ],
      [
        "Balkan",
        -13.244038866877265
      ],
      [
        "Kurdis",
        -13.244041647992267
      ],
      [
        "Gifford",
        -13.24407430659651
      ],
      [
        "Food",
        -13.244106868193533
      ],
      [
        "istor",
        -13.244108418061213
      ],
      [
        "tanbu",
        -13.244112352472902
      ],
      [
        "ennis",
        -13.244112979018416
      ],
      [
        "Roll",
        -13.244135550486629
      ],
      [
        "Earl",
        -13.244148083640805
      ],
      [
        "Missis",
        -13.244185605272317
      ],
      [
        "Good",
        -13.244237557868722
      ],
      [
        "Play",
        -13.24430187165496
      ],
      [
        "Pear",
        -13.244400711745078
      ],
      [
        "Beck",
        -13.244406935454599
      ],
      [
        "Casa",
        -13.24442402058506
      ],
      [
        "prof",
        -13.244862793081833
      ],
      [
        "Newcast",
        -13.245023684597792
      ],
      [
        "Shack",
        -13.2451141914821
      ],
      [
        "Fabi",
        -13.245310644284567
      ],
      [
        "Carib",
        -13.245375508452561
      ],
      [
        "McKe",
        -13.245987468858612
      ],
      [
        "Vila",
        -13.24603230717544
      ],
      [
        "Zul",
        -13.246149143818254
      ],
      [
        "Hell",
        -13.250220951905705
      ],
      [
        "Beatle",
        -13.254881726792965
      ],
      [
        "Pinke",
        -13.259005572604849
      ],
      [
        "indle",
        -13.259885515653998
      ],
      [
        "serie",
        -13.266410421083506
      ],
      [
        "Heid",
        -13.283627977661471
      ],
      [
        "Carro",
        -13.286026408580778
      ],
      [
        "Diam",
        -13.286456771225735
      ],
      [
        "fell",
        -13.290365460976295
      ],
      [
        "ellow",
        -13.316092576532398
      ],
      [
        "Jans",
        -13.329948145323659
      ],
      [
        "ocola",
        -13.331371200037907
      ],
      [
        "ckel",
        -13.33775469183983
      ],
      [
        "Saf",
        -13.344368198779215
      ],
      [
        "estero",
        -13.352734922414607
      ],
      [
        "organ",
        -13.354519620132496
      ],
      [
        "_",
        -13.355140890622005
      ],
      [
        "Ố",
        -13.355140890622005
      ],
      [
        "̣",
        -13.355140890622005
      ],
      [
        "Schwartz",
        -13.355140890779865
      ],
      [
        "Botswan",
        -13.355140891561206
      ],
      [
        "MOOC",
        -13.35514090036937
      ],
      [
        "Snowde",
        -13.35514090825155
      ],
      [
        "August",
        -13.355140949385092
      ],
      [
        "Hoffman",
        -13.355140972938012
      ],
      [
        "Tijuan",
        -13.355140993885396
      ],
      [
        "Eskimo",
        -13.355141034317452
      ],
      [
        "Prosper",
        -13.355141038675459
      ],
      [
        "Simpson",
        -13.355141075872915
      ],
      [
        "Ridge",
        -13.35514112915829
      ],
      [
        "Sleep",
        -13.35514130275676
      ],
      [
        "Bitcoin",
        -13.355141483283274
      ],
      [
        "Turbo",
        -13.355141514472084
      ],
      [
        "McGoni",
        -13.355141645201964
      ],
      [
        "Gregor",
        -13.355142308323487
      ],
      [
        "Space",
        -13.355142915155394
      ],
      [
        "Elliot",
        -13.355142966854851
      ],
      [
        "gluten",
        -13.355143135526063
      ],
      [
        "XDR",
        -13.355145889644099
      ],
      [
        "Suzan",
        -13.35514889783829
      ],
      [
        "Zuri",
        -13.355150324447616
      ],
      [
        "Hindu",
        -13.3551516592657
      ],
      [
        "Viagra",
        -13.355152308421681
      ],
      [
        "Garden",
        -13.355156541469627
      ],
      [
        "whisk",
        -13.355166247395513
      ],
      [
        "Hazle",
        -13.355211437397692
      ],
      [
        "Skid",
        -13.355227641204195
      ],
      [
        "Tulle",
        -13.355343817838484
      ],
      [
        "Count",
        -13.355363054445284
      ],
      [
        "Mauri",
        -13.35536910971635
      ],
      [
        "koko",
        -13.355426012687822
      ],
      [
        "AID",
        -13.355539488775204
      ],
      [
        "Dust",
        -13.355575854012113
      ],
      [
        "Sally",
        -13.355613103383956
      ],
      [
        "abilit",
        -13.35562892070076
      ],
      [
        "Stalin",
        -13.355647760449155
      ],
      [
        "TNC",
        -13.355664836220669
      ],
      [
        "view",
        -13.355798724860813
      ],
      [
        "Cash",
        -13.355858536184833
      ],
      [
        "Taj",
        -13.35591255015939
      ],
      [
        "Whe",
        -13.356323149135617
      ],
      [
        "inawa",
        -13.356371828275188
      ],
      [
        "Master",
        -13.356434942906176
      ],
      [
        "orse",
        -13.356634555722476
      ],
      [
        "Gulf",
        -13.357160445427445
      ],
      [
        "Theodor",
        -13.357445727448928
      ],
      [
        "Bowl",
        -13.358951459466283
      ],
      [
        "arko",
        -13.359023140583133
      ],
      [
        "Khad",
        -13.360447820072647
      ],
      [
        "onald",
        -13.36219722435484
      ],
      [
        "wif",
        -13.3670116730335
      ],
      [
        "Celi",
        -13.377302217797808
      ],
      [
        "arro",
        -13.381428800197208
      ],
      [
        "unter",
        -13.382686016230807
      ],
      [
        "andel",
        -13.40079839123915
      ],
      [
        "owle",
        -13.467604223595938
      ],
      [
        "ormon",
        -13.4799144223025
      ],
      [
        "Ộ",
        -13.480140890631109
      ],
      [
        "Ì",
        -13.480140890631109
      ],
      [
        "etwork",
        -13.480140890953738
      ],
      [
        "Kuznet",
        -13.480140891171295
      ],
      [
        "Krishna",
        -13.480140891734742
      ],
      [
        "project",
        -13.480140892613598
      ],
      [
        "Bolivia",
        -13.480140895262414
      ],
      [
        "Journal",
        -13.480140895751674
      ],
      [
        "KIPP",
        -13.480140962065892
      ],
      [
        "Silver",
        -13.480140975513788
      ],
      [
        "Gross",
        -13.480140987047516
      ],
      [
        "Bionicle",
        -13.480141073110884
      ],
      [
        "kilomet",
        -13.48014109745688
      ],
      [
        "neutron",
        -13.480141593629986
      ],
      [
        "Democra",
        -13.480141681965637
      ],
      [
        "DIY",
        -13.480141939528558
      ],
      [
        "terawatt",
        -13.480142026910304
      ],
      [
        "Debora",
        -13.480143732271397
      ],
      [
        "Quixot",
        -13.480144065731528
      ],
      [
        "Ahmad",
        -13.480145388209767
      ],
      [
        "Derart",
        -13.480150099764966
      ],
      [
        "ROV",
        -13.48015506304331
      ],
      [
        "Atten",
        -13.480161948070972
      ],
      [
        "Jorge",
        -13.480164448519915
      ],
      [
        "Volta",
        -13.480167476275023
      ],
      [
        "Budape",
        -13.480170752917822
      ],
      [
        "Niels",
        -13.480171701510457
      ],
      [
        "Kirk",
        -13.48018273237015
      ],
      [
        "Life",
        -13.480189900557448
      ],
      [
        "Griffi",
        -13.480190319068834
      ],
      [
        "Atala",
        -13.480191432294907
      ],
      [
        "Orwell",
        -13.480197259769579
      ],
      [
        "eatbox",
        -13.480230744671923
      ],
      [
        "Natal",
        -13.48024058981818
      ],
      [
        "Bernard",
        -13.480251554611302
      ],
      [
        "Wilkins",
        -13.480284192393933
      ],
      [
        "aspar",
        -13.48029253933759
      ],
      [
        "Flore",
        -13.480293532031023
      ],
      [
        "Cous",
        -13.480344941644743
      ],
      [
        "Fear",
        -13.48037176451247
      ],
      [
        "Albani",
        -13.480385342551616
      ],
      [
        "Kamen",
        -13.480438313074025
      ],
      [
        "Dhara",
        -13.480447696677182
      ],
      [
        "ethyl",
        -13.480616859632985
      ],
      [
        "Hatz",
        -13.480628165917608
      ],
      [
        "Enro",
        -13.482682096528595
      ],
      [
        "ourne",
        -13.482733325156435
      ],
      [
        "Jaw",
        -13.484894690224582
      ],
      [
        "Mecha",
        -13.487873637600162
      ],
      [
        "Ess",
        -13.487913217575333
      ],
      [
        "Marcel",
        -13.493453633194902
      ],
      [
        "therin",
        -13.49753980896136
      ],
      [
        "eader",
        -13.502031419741476
      ],
      [
        "Burge",
        -13.512112006939883
      ],
      [
        "Hebr",
        -13.514588479363503
      ],
      [
        "Moro",
        -13.515517212545749
      ],
      [
        "Verme",
        -13.53351977935632
      ],
      [
        "ffen",
        -13.565840756761416
      ],
      [
        "refo",
        -13.568164209016418
      ],
      [
        "Nige",
        -13.570822254035638
      ],
      [
        "arcelo",
        -13.608103498121904
      ],
      [
        "Yugoslav",
        -13.622998033490308
      ],
      [
        "Adventist",
        -13.622998033490616
      ],
      [
        "soundscape",
        -13.622998033490834
      ],
      [
        "ö",
        -13.62299803352821
      ],
      [
        "*",
        -13.622998033528212
      ],
      [
        "Friend",
        -13.622998033873172
      ],
      [
        "Johannes",
        -13.62299804352443
      ],
      [
        "Springs",
        -13.622998055359435
      ],
      [
        "Meadow",
        -13.622998059185566
      ],
      [
        "sworth",
        -13.62299806082283
      ],
      [
        "Morris",
        -13.622998101895632
      ],
      [
        "Merced",
        -13.622998456266993
      ],
      [
        "favela",
        -13.622998686895194
      ],
      [
        "Malthus",
        -13.622998815025811
      ],
      [
        "sulfur",
        -13.622998974830857
      ],
      [
        "free",
        -13.623000066656322
      ],
      [
        "Rodrig",
        -13.623000715007898
      ],
      [
        "Astro",
        -13.623002137245981
      ],
      [
        "Miguel",
        -13.623002218440917
      ],
      [
        "Improv",
        -13.623002555148487
      ],
      [
        "Health",
        -13.62300420339335
      ],
      [
        "Hacker",
        -13.623010442242705
      ],
      [
        "Rosali",
        -13.623010897948099
      ],
      [
        "Colleg",
        -13.623013015549137
      ],
      [
        "Hyper",
        -13.623016644979547
      ],
      [
        "Ecuado",
        -13.623023469929233
      ],
      [
        "uflo",
        -13.62302648592203
      ],
      [
        "Major",
        -13.62303492100379
      ],
      [
        "Toxo",
        -13.62305000752416
      ],
      [
        "Daily",
        -13.623070920385507
      ],
      [
        "Vishn",
        -13.623071367644027
      ],
      [
        "NRK",
        -13.623073704660841
      ],
      [
        "Agar",
        -13.623097366742854
      ],
      [
        "Puer",
        -13.623100904910345
      ],
      [
        "Maasai",
        -13.623122592741426
      ],
      [
        "ishman",
        -13.623127901951491
      ],
      [
        "Every",
        -13.62313677694296
      ],
      [
        "Cornel",
        -13.623276831749607
      ],
      [
        "Swaptre",
        -13.623295240808243
      ],
      [
        "Hydr",
        -13.623313014671524
      ],
      [
        "Lord",
        -13.623705018995455
      ],
      [
        "Hamburg",
        -13.623982745979921
      ],
      [
        "sunf",
        -13.624064417097664
      ],
      [
        "awto",
        -13.625907957531004
      ],
      [
        "feld",
        -13.62638259436618
      ],
      [
        "Assa",
        -13.62639362745266
      ],
      [
        "fla",
        -13.685845857410403
      ],
      [
        "Stor",
        -13.697429917324225
      ],
      [
        "Creative",
        -13.789664700160747
      ],
      [
        "Appalachia",
        -13.789664700165316
      ],
      [
        "ø",
        -13.789664700194876
      ],
      [
        "`",
        -13.78966470019488
      ],
      [
        "Ủ",
        -13.78966470019488
      ],
      [
        "Ạ",
        -13.78966470019488
      ],
      [
        "Pachycephalosaur",
        -13.78966470019488
      ],
      [
        "Polaroid",
        -13.789664700291606
      ],
      [
        "Participa",
        -13.789664707805729
      ],
      [
        "Enrique",
        -13.78966471298097
      ],
      [
        "Sardinia",
        -13.789664714734263
      ],
      [
        "Lamanite",
        -13.789664775541866
      ],
      [
        "Record",
        -13.789664779514439
      ],
      [
        "caffein",
        -13.789664856961187
      ],
      [
        "Dunlap",
        -13.78966488611291
      ],
      [
        "SOLE",
        -13.789665020862152
      ],
      [
        "Caucas",
        -13.789665077525811
      ],
      [
        "Natural",
        -13.789665092739195
      ],
      [
        "Afri",
        -13.789665389314866
      ],
      [
        "bucardo",
        -13.789665560563492
      ],
      [
        "Volvo",
        -13.789666996987703
      ],
      [
        "Barricel",
        -13.789668352198424
      ],
      [
        "megawatt",
        -13.789671470937046
      ],
      [
        "Atlas",
        -13.789671962298453
      ],
      [
        "Wonder",
        -13.789672156745688
      ],
      [
        "Hutchi",
        -13.789673000105033
      ],
      [
        "Bjor",
        -13.789673325566241
      ],
      [
        "Flemi",
        -13.78967550379252
      ],
      [
        "Ausch",
        -13.789677158342618
      ],
      [
        "Fernand",
        -13.789677533181075
      ],
      [
        "Frances",
        -13.789681225865328
      ],
      [
        "Small",
        -13.789681226118123
      ],
      [
        "Carrie",
        -13.789681957455203
      ],
      [
        "Giacome",
        -13.789682759016639
      ],
      [
        "ustaf",
        -13.789688732724457
      ],
      [
        "Square",
        -13.789700385887095
      ],
      [
        "Pallot",
        -13.78972288587417
      ],
      [
        "Ricard",
        -13.78983059370731
      ],
      [
        "Ventur",
        -13.791132919989659
      ],
      [
        "izzo",
        -13.857183646914953
      ],
      [
        "Zimba",
        -13.984334645608499
      ],
      [
        "acebook",
        -13.989615508399826
      ],
      [
        "ü",
        -13.989664700154924
      ],
      [
        "Kymaerica",
        -13.989664700158702
      ],
      [
        "Ế",
        -13.98966470019488
      ],
      [
        "¾",
        -13.98966470019488
      ],
      [
        "©",
        -13.98966470019488
      ],
      [
        "\\",
        -13.98966470019488
      ],
      [
        "Ậ",
        -13.98966470019488
      ],
      [
        "Ắ",
        -13.98966470019488
      ],
      [
        "Negroponte",
        -13.98966470019488
      ],
      [
        "channelrhodopsin",
        -13.98966470019488
      ],
      [
        "Uzbek",
        -13.989664700264324
      ],
      [
        "Paralympic",
        -13.989664700268737
      ],
      [
        "Discover",
        -13.989664706279473
      ],
      [
        "Mountain",
        -13.989664707417498
      ],
      [
        "Zuckerbe",
        -13.98966473098841
      ],
      [
        "LGBT",
        -13.989664740702262
      ],
      [
        "Partners",
        -13.989664874893037
      ],
      [
        "Belshaz",
        -13.989664881712313
      ],
      [
        "xenlulo",
        -13.989664889020277
      ],
      [
        "Castle",
        -13.98966489746865
      ],
      [
        "Benedict",
        -13.989664918497493
      ],
      [
        "Mujahi",
        -13.989664967656577
      ],
      [
        "Armenia",
        -13.989665028820681
      ],
      [
        "Baptist",
        -13.989665059098137
      ],
      [
        "Goose",
        -13.98966523580085
      ],
      [
        "Karolin",
        -13.989666074781208
      ],
      [
        "Ganesh",
        -13.989666663003682
      ],
      [
        "KPI",
        -13.989669058001814
      ],
      [
        "Jehan",
        -13.98967057150102
      ],
      [
        "Benefiel",
        -13.989689407023702
      ],
      [
        "Kafk",
        -13.989700287672449
      ],
      [
        "Wolpe",
        -13.989927438088548
      ],
      [
        "carbohydrat",
        -14.239664700154938
      ],
      [
        "formaldehyde",
        -14.239664700154972
      ],
      [
        "Production",
        -14.239664700167946
      ],
      [
        "",
        -14.23966470019488
      ],
      [
        "Ù",
        -14.23966470019488
      ],
      [
        "อ",
        -14.23966470019488
      ],
      [
        "½",
        -14.23966470019488
      ],
      [
        "exicograph",
        -14.239664700233563
      ],
      [
        "Alessandr",
        -14.239664700277599
      ],
      [
        "Reykjav",
        -14.239664700295021
      ],
      [
        "Humphrey",
        -14.239664700377125
      ],
      [
        "Metropoli",
        -14.239664700517485
      ],
      [
        "Caledonia",
        -14.239664700581102
      ],
      [
        "Resource",
        -14.239664702055396
      ],
      [
        "Krypton",
        -14.23966470210472
      ],
      [
        "ASDF",
        -14.239664702984438
      ],
      [
        "sulfate",
        -14.23966470299201
      ],
      [
        "enschatz",
        -14.239664704203703
      ],
      [
        "Arduino",
        -14.239664712213303
      ],
      [
        "Providenc",
        -14.239664715533351
      ],
      [
        "Citizen",
        -14.239664736272502
      ],
      [
        "Heffer",
        -14.23966473899125
      ],
      [
        "Hawke",
        -14.239664741990252
      ],
      [
        "Flintstone",
        -14.2396647542371
      ],
      [
        "Pleist",
        -14.239664777038424
      ],
      [
        "Pavlov",
        -14.239664809073084
      ],
      [
        "McFadd",
        -14.239664911986537
      ],
      [
        "Wikileak",
        -14.239665039418515
      ],
      [
        "Entrop",
        -14.239665095298129
      ],
      [
        "rchitectur",
        -14.239677850581257
      ],
      [
        "Northwest",
        -14.2396819745764
      ],
      [
        "Steinbe",
        -14.247720239676712
      ],
      [
        "ä",
        -14.572998033488254
      ],
      [
        "Hobsbaw",
        -14.572998033503573
      ],
      [
        "androsten",
        -14.572998033525673
      ],
      [
        "Volkswag",
        -14.57299803352662
      ],
      [
        "Ầ",
        -14.572998033528211
      ],
      [
        "Ệ",
        -14.572998033528211
      ],
      [
        "}",
        -14.572998033528211
      ],
      [
        "Ã",
        -14.572998033528211
      ],
      [
        "Ể",
        -14.572998033528211
      ],
      [
        "̀",
        -14.572998033528211
      ],
      [
        "Ự",
        -14.572998033528211
      ],
      [
        "£",
        -14.572998033528211
      ],
      [
        "~",
        -14.572998033528211
      ],
      [
        "Vitruvian",
        -14.57299803353451
      ],
      [
        "Tyrannosaur",
        -14.57299803386129
      ],
      [
        "Kirsten",
        -14.57299803397177
      ],
      [
        "Magazine",
        -14.572998036127455
      ],
      [
        "Shuffle",
        -14.57299804385113
      ],
      [
        "Ă",
        -14.849325812304636
      ],
      [
        "É",
        -15.072998033488256
      ],
      [
        "Mahishasur",
        -15.072998033489814
      ],
      [
        "²",
        -15.072998033528211
      ],
      [
        "{",
        -15.072998033528211
      ],
      [
        "่",
        -15.072998033528211
      ],
      [
        "ย",
        -15.072998033528211
      ],
      [
        "Ị",
        -15.072998033528211
      ],
      [
        "",
        -15.072998033528211
      ],
      [
        "́",
        -15.072998033528211
      ],
      [
        "ć",
        -15.072998033528211
      ],
      [
        "ë",
        -15.072998033528211
      ],
      [
        "Ó",
        -15.072998033528211
      ],
      [
        "Ọ",
        -15.072998033528211
      ],
      [
        "Ẻ",
        -15.072998033528211
      ],
      [
        "Ử",
        -15.072998033528211
      ],
      [
        "ร",
        -15.072998033528211
      ],
      [
        "®",
        -16.07299803352821
      ],
      [
        "Č",
        -16.07299803352821
      ],
      [
        "Ữ",
        -16.07299803352821
      ],
      [
        "Ĩ",
        -16.07299803352821
      ],
      [
        "Ỵ",
        -16.07299803352821
      ],
      [
        "€",
        -16.07299803352821
      ],
      [
        "ï",
        -16.07299803352821
      ],
      [
        "Ỉ",
        -16.07299803352821
      ],
      [
        "Ť",
        -16.07299803352821
      ],
      [
        "ñ",
        -16.07299803352821
      ],
      [
        "́",
        -16.07299803352821
      ],
      [
        "Ỗ",
        -16.07299803352821
      ],
      [
        "Ụ",
        -16.07299803352821
      ],
      [
        "ｃ",
        -16.07299803352821
      ],
      [
        "Ớ",
        -16.07299803352821
      ],
      [
        "ā",
        -16.07299803352821
      ]
    ],
    "byte_fallback": false
  }
}