#version: 0.2
t h
i n
th e</w>
a n
e d</w>
e r
r e
e n
t i
a r
o n
o r
i n</w>
o u
a n</w>
in g</w>
o n</w>
s t
o f</w>
e r</w>
i t
a l
t o</w>
a t
i l
an d</w>
e s</w>
r o
i c
h a
e a
s a
s i
a l</w>
u r
r a
e c
en t</w>
s t</w>
h e</w>
r i
e l
o m
o l
o r</w>
d a
i s</w>
a t</w>
a ti
a c
T he</w>
a s</w>
d i
e s
da y</w>
v e</w>
e n</w>
t s</w>
u s
e m
p l
er s</w>
u n
f or</w>
l i
l a
c e</w>
o v
f f
ou n
p ro
g h
b e
ha s</w>
w h
c on
i d</w>
a s
i st
i r
a m
l y</w>
i s
on s</w>
d e
th at</w>
o p
a g
l ea
n e
l ed</w>
s u
ti on</w>
o w
si d
t ed</w>
w it
t h</w>
y s</w>
c h
ha ve</w>
er n
wit h</w>
s p
m ent</w>
er e</w>
f or
sa id</w>
ff ic
s e
a d
ati on</w>
it y</w>
m il
e x
i d
w as</w>
at e</w>
p or
a b
a p
b y</w>
sa ys</w>
a k
f ro
c om
fro m</w>
t er</w>
s h
i t</w>
p e
t r
ar y</w>
th e
ar e</w>
ffic i
e d
re sid
p ar
sa y</w>
al s</w>
t w
k il
l o
s e</w>
v i
e st
il l</w>
c i
l d</w>
ov ern
e e
n o
u c
t er
at t
w ere</w>
p o
g overn
h is</w>
i m
mil it
resid ent</w>
o ffici
w ill</w>
c oun
0 0
ea r</w>
i g
k s</w>
b u
i an</w>
p ol
a in
i ti
u l
re s
govern ment</w>
l e
ou t</w>
th er</w>
d s</w>
t ing</w>
u d
M r</w>
I s
a f
d er</w>
I ra
in ist
it s</w>
ic e</w>
pl e</w>
l e</w>
er n</w>
A f
be en</w>
kil led</w>
U n
s ec
i r</w>
b e</w>
tw o</w>
r ou
e ar
i gh
q u
o ple</w>
C h
s o</w>
no t</w>
pe ople</w>
st r
a r</w>
T h
es day</w>
offici als</w>
or e</w>
af ter</w>
in c
ati ons</w>
on al</w>
m e</w>
i c</w>
re c
P resident</w>
f ir
o c
I n
d ed</w>
S t
w or
em b
en ts</w>
att ac
it ed</w>
c h</w>
re por
in ce</w>
m an</w>
en ce</w>
in g
o t
e st</w>
ou ld</w>
at es</w>
m on
e l</w>
on e</w>
t ur
o re
an s</w>
d ing</w>
ou r
e v
tr y</w>
si on</w>
g i
con t
y ear</w>
r ic
ar g
2 00
al so</w>
o o
p er
m ore</w>
ti ons</w>
s ed</w>
s ur
al i
er al</w>
pro v
at ed</w>
Is ra
ist an</w>
la st</w>
el ec
a y</w>
t ri
Un ited</w>
c al
m o
e t</w>
di s
r u
c es</w>
em ent</w>
milit ary</w>
i l</w>
o ther</w>
coun try</w>
m an
ow n</w>
Af gh
wh o</w>
th re
th an</w>
ati onal</w>
inist er</w>
t y</w>
p ri
for m
p ec
w ee
the y</w>
y ing</w>
u b
bu t</w>
om e</w>
g rou
I r
the ir</w>
Ira q</w>
c y</w>
in e</w>
c o
e b
ol d</w>
en t
I n</w>
e p
ha d</w>
a u
n ed</w>
t ra
1 9
on g</w>
i es</w>
a in</w>
ic h</w>
h el
b om
H e</w>
ur ity</w>
an ts</w>
wh ich</w>
e y</w>
g e</w>
m is
re n
iti es</w>
i a</w>
f u
in t
f i
m er
s ou
an t</w>
il e</w>
ne w</w>
Ch in
i z
ac c
al l</w>
k ed</w>
or s</w>
lea st</w>
t ers</w>
ab out</w>
in v
c ri
l ing</w>
S un
d em
T u
f l
g u
on om
P ak
a st</w>
at ur
th is</w>
t ro
th or
M on
th ern</w>
u t</w>
es e</w>
ov er</w>
t o
pol ice</w>
Tu esday</w>
u m
lea r</w>
l ud
ig n</w>
St ates</w>
wee k</w>
s ti
it e</w>
an ce</w>
c ap
d ea
ur s
li on</w>
t al
ec onom
k ing</w>
b o
Th urs
Thurs day</w>
en ti
P al
thre e</w>
s er
Ir an</w>
inc lud
m ed</w>
er ed</w>
p re
est in
for ces</w>
F ri
d ec
us ed</w>
p ea
Ira q
en cy</w>
pl o
M inister</w>
ur ing</w>
Pal estin
b el
Fri day</w>
op s</w>
emb er</w>
u p</w>
s us
an n
se v
Mon day</w>
c al</w>
s ince</w>
ed n
W edn
s ol
Wedn esday</w>
b or
ain st</w>
ag ainst</w>
oun d</w>
ou r</w>
le g
a d</w>
h o
grou p</w>
es s</w>
u t
us e</w>
00 0</w>
m e
us si
i m</w>
l ow
Sun day</w>
n or
h ea
g ra
tro ops</w>
re m
p res
thor ities</w>
p en
0 0</w>
d uc
su p
o il</w>
R ussi
f ac
wh en</w>
f in
com m
A u
w ould</w>
ne w
sec urity</w>
S atur
in to</w>
Iraq i</w>
Satur day</w>
us h</w>
d u
ak e</w>
pec ted</w>
o k
es ti
e w</w>
mon th</w>
al ly</w>
p an
ore ign</w>
mer ic
A meric
e en</w>
Isra el
ter r
fir st</w>
s h</w>
d uring</w>
re gi
an d
uc lear</w>
A n
ern ational</w>
a z
id e</w>
as h
on g
n uclear</w>
a re
d ers</w>
u ro
ear s</w>
attac ks</w>
w ar
ti es</w>
h ar
m s</w>
pro t
m ee
Palestin ian</w>
si g
v e
tw een</w>
E uro
f igh
be tween</w>
Afgh an
Israel i</w>
Afghan istan</w>
v el
ing s</w>
milit ants</w>
wh ile</w>
vi ol
v er
de t
Chin a</w>
cal led</w>
st ate</w>
b er</w>
y ears</w>
h u
an ds</w>
b ec
sol di
c la
it al</w>
b as
B a
m ar
v es</w>
ou s
attac k</w>
A l
ou s</w>
o f
ad e</w>
op er
c ed</w>
tal ks</w>
B ush</w>
w i
c ity</w>
di a</w>
ar re
sp ok
Isra el</w>
S ec
v il
M o
i st</w>
u s</w>
b il
c en
i e
g h</w>
i on</w>
m in
m en</w>
ag e</w>
en d</w>
el y</w>
P ri
sur g
c am
mil lion</w>
prov ince</w>
p s</w>
n ear</w>
p resident</w>
st at
form er</w>
an g
pol iti
s on</w>
ou t
r y</w>
Pak istan</w>
ov er
e z
s ing</w>
m a
v ed</w>
p ed</w>
ro w
s ome</w>
at er</w>
ag re
lea der</w>
w oun
n o</w>
N or
f a
w ar</w>
re lea
e ff
st ed</w>
regi on</w>
ir d</w>
A b
K ore
por t</w>
c ar
d e</w>
v ic
ub li
in ter
Afgh an</w>
wi th
li er</w>
sou thern</w>
Af ric
terr or
v ing</w>
po si
re t
Pri me</w>
m inist
spok es
gh t</w>
M ar
tri es</w>
a ir
e i
f our</w>
er g
re as
li am
S ou
at ing</w>
sid e</w>
includ ing</w>
wh ere</w>
1 0</w>
a y
re sp
repor t</w>
I t</w>
d o
l s</w>
sh i
st ri
cont in
sev eral</w>
o ffic
la m
ch arg
e al
l and</w>
c ould</w>
n ing</w>
o se</w>
sa ying</w>
coun tries</w>
pl ac
da d</w>
M us
t u
st s</w>
w ea
Ba gh
is h</w>
S h
c u
de f
in surg
f t</w>
man y</w>
Euro pe
Bagh dad</w>
f er
c e
el l</w>
be g
O ffici
au thorities</w>
elec tions</w>
soldi ers</w>
B ut</w>
g an
s o
our t</w>
l in
d re
or y</w>
wor ld</w>
B ri
k e</w>
ist s</w>
l arg
h im</w>
oo d</w>
Europe an</w>
f oreign</w>
19 9
a use</w>
v o
Offici als</w>
j o
en eral</w>
contin u
offici al</w>
P ol
est ern</w>
c ent</w>
p ow
par liam
Americ an</w>
g o
s es</w>
th s</w>
D e
for e</w>
igh t</w>
cap ital</w>
ha t</w>
Sou th</w>
spokes man</w>
stat ement</w>
bom b
c ur
an i</w>
bom b</w>
resp on
c as
par t</w>
mo st</w>
elec tion</w>
viol ence</w>
politi cal</w>
re bel
woun ded</w>
ot e</w>
tur e</w>
m emb
t on</w>
d own</w>
ex plo
res s</w>
ann oun
an t
m ade</w>
M a
f ol
i ans</w>
la w
m ak
gan iz
T al
t old</w>
is su
be fore</w>
b le</w>
con c
lea ders</w>
Is lam
rebel s</w>
Nor th</w>
per cent</w>
N ew</w>
u m</w>
str uc
repor ts</w>
W or
re s</w>
econom ic</w>
s s</w>
un der</w>
oc ra
of f</w>
th ers</w>
ac k</w>
posi tion</w>
f re
T ur
a w
ti sh</w>
dis c
i f</w>
ou se</w>
pro gra
h er</w>
com pan
int ernational</w>
p a
fi ve</w>
j ec
ti me</w>
eal th</w>
Bri tish</w>
g ed</w>
ne x
t or</w>
eff or
ab le</w>
bor der</w>
new s</w>
ubli c</w>
an c
ci al</w>
V en
d er
u el
ain ed</w>
ic t</w>
at h</w>
bu il
k ey</w>
y p
c an</w>
u st</w>
P ar
t en
an y</w>
s en
cont ro
d ra
lo w</w>
N A
nex t</w>
de pen
the m</w>
ti c</w>
ez uel
Ven ezuel
ar d</w>
hel d</w>
o thers</w>
memb ers</w>
H am
e g
p r
gh ts</w>
th rou
de vel
G az
N ations</w>
k ers</w>
m y</w>
fol low
re su
bec ause</w>
ex pected</w>
sh o
Russi a</w>
di ed</w>
Wor ld</w>
an ese</w>
Un ion</w>
ic al</w>
m inister</w>
S y
c lo
ag ency</w>
l ate</w>
m p
o ff
hea d</w>
mee ting</w>
J ap
M e
th ere</w>
ma j
inc reas
t ak
st ern</w>
kil ling</w>
fl u</w>
esti g
econom y</w>
figh ting</w>
s ch
id a</w>
r an
ne ar
wea p
ing ton</w>
eb an</w>
Tal eban</w>
be ing</w>
par ty</w>
Th ey</w>
pea ce</w>
d es
e w
im ed</w>
prot est
al leg
ac ti
ig h</w>
si ve</w>
en se</w>
ret ary</w>
depen d
p h
enti al</w>
si x</w>
d en
Gaz a</w>
ra c
A r
T O</w>
at s</w>
W ash
w om
Russi an</w>
pow er</w>
G er
Wash ington</w>
w hat</w>
mis sion</w>
re l
t own</w>
h ed</w>
i b
pro duc
progra m</w>
rec ent</w>
p ing</w>
ea stern</w>
d el
G eneral</w>
inv estig
p resid
or d
Mus li
Sy ri
on d</w>
is m</w>
hel p</w>
b ro
C om
c re
si a</w>
da ys</w>
se t</w>
v ir
fir e</w>
oo k</w>
r ed</w>
r it
nor thern</w>
d ic
an k</w>
o g
relea sed</w>
S ud
In dia</w>
NA TO</w>
throu gh</w>
r ul
op position</w>
weap ons</w>
w estern</w>
e e</w>
sus pected</w>
Pak ist
sti tu
L eb
In t
n um
lo o
an ian</w>
g row
e t
k n
ear ly</w>
Kore a</w>
o p</w>
pl an
C ha
o b
par t
ear lier</w>
grou ps</w>
C ol
c ourt</w>
u p
st ra
il ed</w>
vi si
th ose</w>
ci vil
d on
s el
pol ic
di an</w>
to p</w>
Q a
h ol
ti ve</w>
A ra
a v
n ation</w>
announ ced</w>
v ote</w>
b al</w>
an u
shi p</w>
2 0</w>
insurg ents</w>
il y</w>
B ur
m a</w>
ri ghts</w>
c or
ali tion</w>
c a
u g
de ath</w>
ous ands</w>
h igh</w>
tr an
b an</w>
ie f</w>
tr al</w>
repor ted</w>
are a</w>
b ird</w>
acc used</w>
Pakist ani</w>
g un
sp ec
cri ti
re tur
devel op
l ater</w>
an other</w>
lo c
5 0</w>
h m
w a
en ed</w>
g a
en s</w>
hu man</w>
E g
a id</w>
se par
sec ond</w>
plac e</w>
Qa ida</w>
e m</w>
e ts</w>
f ound</w>
ci l</w>
po s
Sec urity</w>
k et</w>
s on
no w</w>
num ber</w>
w ay</w>
ro ss</w>
Pol ice</w>
p as
Chin ese</w>
sup port</w>
arre sted</w>
s m
t ly</w>
b re
o s
on ly</w>
Eg yp
co alition</w>
ganiz ation</w>
om e
e es</w>
Sec retary</w>
Me an
O r
i f
near ly</w>
C oun
sig ned</w>
our n
D em
Afric an</w>
in j
St ate</w>
ve z</w>
C ong
in depend
parliam ent</w>
m m
id n
l l</w>
S om
t or
v is
at ors</w>
su b
charg es</w>
Mean while</w>
i al</w>
on d
as s
milit ant</w>
t ook</w>
sus pec
A s
d y</w>
or k</w>
i ed</w>
visi t</w>
3 0</w>
fi ed</w>
2 0
F r
re ac
ar ed</w>
ra tion</w>
mon ths</w>
beg an</w>
fu l</w>
W h
n ations</w>
re g
F ren
k ee
con fir
Ham as</w>
R ep
b ia</w>
Int ernational</w>
b l
t ake</w>
pl an</w>
v er</w>
i p
re li
sur e</w>
in a</w>
Au thorities</w>
oper ation</w>
p ric
si ble</w>
erg y</w>
ic ide</w>
ol la
plo y
Fren ch</w>
P ro
p op
ch ief</w>
e h
c ha
por ts</w>
com pl
c ar</w>
Islam ic</w>
t el
in t</w>
di d</w>
ali a</w>
follow ing</w>
C ub
effor ts</w>
k idn
J u
S a
h igh
s y
pea ce
h al
su icide</w>
p ublic</w>
g re
con stitu
re ad
su ch</w>
b us
st or
po sed</w>
inv ol
pric es</w>
f un
z ed</w>
J o
O n</w>
c an
la un
am e</w>
for ce</w>
Ir anian</w>
i or</w>
R e
l ong</w>
ati ve</w>
h ome</w>
al l
ag o</w>
cam e</w>
sh ed</w>
compan y</w>
kidn ap
r an</w>
ev er</w>
en ded</w>
a h</w>
be l</w>
dea d
1 1</w>
m ents</w>
agre ement</w>
disc us
Coun cil</w>
J anu
am ong</w>
kn own</w>
Janu ary</w>
h un
ser v
presid ential</w>
t ea
inj ur
F oreign</w>
G u
sti ll</w>
bas ed</w>
Sh i</w>
E ar
a k</w>
it t
es s
ru p
N ig
ch ed</w>
bil lion</w>
1 5</w>
en d
ch an
ap er</w>
sh ould</w>
th ousands</w>
wor k</w>
cur ren
A n</w>
a ff
m ay</w>
n ational</w>
part ment</w>
N ational</w>
W est</w>
H ouse</w>
maj or</w>
ch il
inc id
Sud an</w>
E U</w>
c ra
pl ans</w>
new sp
resu l
Musli m</w>
ocra tic</w>
om in
m es</w>
comm un
Jap an</w>
C ar
for m</w>
Cha vez</w>
t re
ou gh</w>
Venezuel a</w>
h it</w>
l es</w>
t arg
or d</w>
Col om
wor kers</w>
dea l</w>
si an</w>
si st
as sa
me dia</w>
H a
m ov
at or</w>
ep t
me di
terror ist</w>
ati on
em p
ru n</w>
at ely</w>
il l
dea d</w>
K ur
ti l</w>
di sp
go ti
v en
ti onal</w>
B rit
d o</w>
f am
t ors</w>
Afric a</w>
m ember</w>
pl om
w ell</w>
S en
si s</w>
si ons</w>
id ed</w>
vi sion</w>
In dian</w>
vir us</w>
d ri
er ing</w>
ea se</w>
am a</w>
com e</w>
O l
r e</w>
t t
nor th
mee t</w>
a i
s he</w>
ap prov
A t</w>
un til</w>
pro c
p ast</w>
D ar
in f
le ft</w>
Tur key</w>
f e</w>
h ealth</w>
p e</w>
200 3</w>
form ation</w>
se e
ant i</w>
S er
T eh
m et</w>
ent ly</w>
K ar
a il
l ine</w>
ne igh
b la
In don
can di
Teh ran</w>
Indon e
1 2</w>
E n
i k
w in
is l
b last</w>
ra is
kil ome
so ci
contro l</w>
sch ed
newsp aper</w>
m ea
tra de</w>
B ank</w>
ar ri
ec h
ec t</w>
ne goti
pri son
iz ed</w>
Brit ain</w>
a i</w>
st ar
ro c
wee ks</w>
bil ity</w>
m ake</w>
en g
ar my</w>
ec ted</w>
fu r</w>
De partment</w>
confir med</w>
g lo
re qu
al li
il ity</w>
us ing</w>
ain s</w>
Dar fur</w>
e ther</w>
u tion</w>
or t</w>
ro ad
bo th</w>
grow th</w>
e th
with dra
read y</w>
ad minist
U k
lo cal</w>
det ained</w>
en ding</w>
vic ti
Uk ra
m at
di plom
j ing</w>
ho sp
cen tral</w>
candi d
B ei
h om
t ou
v el</w>
sev en</w>
Fr ance</w>
A g
D ec
S ept
b an
l ic
p ac
u led</w>
Sept ember</w>
con sid
ap pe
or ity</w>
Bur ma</w>
Bei jing</w>
M ex
M inist
P er
s k
Mex ic
f ood</w>
g as</w>
th en</w>
ar s</w>
ac ross</w>
b ac
f ul
an e</w>
agre ed</w>
civil ians</w>
mak ers</w>
i ver
m ir</w>
t ow
di rec
out side</w>
continu e</w>
sy st
Ear lier</w>
Dec ember</w>
th ird</w>
i ev
li g
dem on
C o
d ro
Ch ri
sup pl
G e
o s</w>
pri me</w>
chan ge</w>
Minist ry</w>
e ight</w>
re bel</w>
ea st</w>
S u
p er</w>
S e
d ru
j ust</w>
es ses</w>
Par ty</w>
b ack</w>
n i</w>
al ong</w>
pri son</w>
are as</w>
relea se</w>
Mar ch</w>
sched uled</w>
h op
ar ound</w>
sh ow
rec ei
dec i
ut e</w>
fer ence</w>
glo bal</w>
an cial</w>
dre n</w>
si bility</w>
g en
m ain
an on</w>
sup por
cla imed</w>
Leb anon</w>
sou th</w>
leg al</w>
terror ism</w>
m as
in du
id enti
2 5</w>
J un
y a</w>
con fl
res ol
struc tion</w>
re jec
st op</w>
ur e</w>
ent ary</w>
dre ds</w>
larg est</w>
issu ed</w>
an g</w>
sou th
b ur
n s</w>
r ound</w>
19 8
inv est
conc ern
Syri a</w>
er y</w>
suspec ts</w>
Jo h
T ali
ar ds</w>
st ro
N ov
c l
ac h
4 0</w>
h ic
o m</w>
mo ve</w>
ve hic
offic e</w>
wom an</w>
Tali ban</w>
e vision</w>
g et</w>
t a
ur ric
Y ork</w>
s it
ri s
bus in
chil dren</w>
m ust</w>
em ploy
ed ly</w>
Ju ly</w>
kilome ters</w>
lig ence</w>
O b
u ti
ec tion</w>
da m
la w</w>
vil la
M ay</w>
r un
larg e</w>
c lear</w>
in dic
en ergy</w>
on y</w>
tr ying</w>
sel f</w>
gun men</w>
a m</w>
j ourn
r ing</w>
repor ters</w>
Au str
terr it
L ond
ou d</w>
att emp
protest s</w>
Ger many</w>
separ ate</w>
Lond on</w>
C an
z ens</w>
em s</w>
Wh ite</w>
en ing</w>
fir ed</w>
acti v
C a
u al</w>
ri ed</w>
mis s
B ar
l at
l ess</w>
el ligence</w>
ag es</w>
su mm
c er
s ea
is land</w>
vi ew</w>
Euro pe</w>
Or ganization</w>
i um</w>
ow ever</w>
In ter
fin ancial</w>
c ou
d oc
m ed
deci sion</w>
in formation</w>
dis h</w>
Kore an</w>
incid ent</w>
Ge or
L ast</w>
k o</w>
k er</w>
an a</w>
it ing</w>
ter m</w>
Au gu
sho t</w>
Nig er
F or
in e
al i</w>
di sa
Egyp t</w>
Som alia</w>
victi ms</w>
t est
in ed</w>
vi l</w>
includ e</w>
oper ations</w>
constitu tion</w>
independ ence</w>
discus s</w>
Nov ember</w>
m er</w>
n er</w>
w est</w>
li m
se tt
ex pres
wom en</w>
tel evision</w>
p on
al low
se ar
thre at
offic ers</w>
parliam entary</w>
h old</w>
m ain</w>
par ti
im medi
pos sible</w>
administ ration</w>
a imed</w>
e f</w>
de b
str ict</w>
neigh bor
syst em</w>
E ast</w>
F eb
ti ce</w>
con di
ru ary</w>
fac e</w>
Mo ha
Feb ruary</w>
p ur
por t
uc h</w>
urric ane</w>
es sion</w>
su c
retur n</w>
C en
ser ies</w>
O c
ex per
ed ed</w>
Tur k
buil ding</w>
E l
h ouse</w>
qu ake</w>
ot es</w>
respon sibility</w>
Augu st</w>
K en
u e</w>
in es</w>
em ents</w>
ad es</w>
com man
cri sis</w>
cas e</w>
law makers</w>
s ite</w>
De f
rul ing</w>
peace kee
a st
o u</w>
p ite</w>
p ped</w>
fu g
stri ke</w>
tak en</w>
Jun e</w>
B ra
200 8</w>
I tal
s anc
re fer
com es</w>
def ense</w>
pr o</w>
b ir
v al</w>
ur ged</w>
cal ls</w>
minist ry</w>
Dem ocratic</w>
a head</w>
m or
soldi er</w>
mar ket</w>
cam pa
b as</w>
i ous</w>
z e</w>
al es</w>
ri p</w>
am i</w>
to ber</w>
alleg ed</w>
dead ly</w>
Oc tober</w>
ag ed</w>
confl ict</w>
H ealth</w>
w on</w>
th i
sm all</w>
c ol
g g
j ud
p ers</w>
bel iev
tea m</w>
proc ess</w>
in s</w>
ha r</w>
el l
tri al</w>
fu el</w>
fin al</w>
Ab bas</w>
bre ak</w>
ar ian</w>
di es</w>
cri mes</w>
Venezuel an</w>
ug g
develop ment</w>
Ob ama</w>
A sia</w>
investig ation</w>
Ara b</w>
Def ense</w>
H ar
S ad
f ar
y mp
200 4</w>
ocra cy</w>
O A</w>
em erg
ex t
qu ar
St rip</w>
ho w</w>
Syri an</w>
n am
p ut</w>
r a</w>
w ater</w>
an ding</w>
ea ch</w>
con ference</w>
tur ed</w>
ol og
un der
bomb ings</w>
Ma hm
fre e</w>
P e
V OA</w>
b att
m un
t e</w>
Ol ymp
prison ers</w>
B o
L ib
f e
om ic</w>
ci vil</w>
prot est</w>
Mo s
vo y</w>
criti ci
Cub a</w>
injur ed</w>
withdra w
id d
rem ain</w>
clo se</w>
increas e</w>
ew s</w>
a ir</w>
u l</w>
da m</w>
la h</w>
dru g</w>
sanc tions</w>
Mahm oud</w>
K ash
s s
sa me</w>
op ened</w>
hal f</w>
road side</w>
w an</w>
re f
la r</w>
our s</w>
200 1</w>
approv ed</w>
Th ere</w>
war ned</w>
b s</w>
sa d
ov ered</w>
ter ed</w>
ub lic
sus pen
Kur dish</w>
1 4</w>
S ome</w>
S har
T ai
a h
en tion</w>
ec h</w>
dec l
cas es</w>
ech n
lat est</w>
c ut</w>
o t</w>
w ide</w>
re pres
en ko</w>
al low</w>
co w</w>
summ it</w>
di o</w>
us h
rec ord</w>
ric ul
Palestin ians</w>
6 0</w>
C ourt</w>
p at
ali st</w>
nor th</w>
explo sion</w>
effor t</w>
Turk ish</w>
n e</w>
ci ti
k ets</w>
di strict</w>
Cong ress</w>
1 00</w>
E thi
c ro
an ded</w>
sig n
Joh n</w>
Ethi op
1 3</w>
N 1</w>
r i</w>
produc tion</w>
rup tion</w>
Colom bia</w>
C on
M il
m uch</w>
p ic
wor king</w>
our ces</w>
leg isl
car ried</w>
with out</w>
bomb ing</w>
den ied</w>
R o
b ri
p u
ati ves</w>
wh ether</w>
ad d
ed eral</w>
esti m
bas e</w>
sho w</w>
ord ered</w>
Indone sia</w>
H 5
n ation
s ent</w>
ar med</w>
st an</w>
us es</w>
qu e</w>
int elligence</w>
dem and</w>
dea ths</w>
compan ies</w>
hosp ital</w>
con f
ud e</w>
Jap anese</w>
A t
ic s</w>
con su
id ence</w>
sec ut
to day</w>
cen tur
sen ior</w>
20 10</w>
itt ee</w>
T ha
t ain</w>
v en</w>
st er</w>
al ready</w>
rec ently</w>
mon ey</w>
rem ains</w>
Leb anese</w>
ca used</w>
campa ign</w>
S w
S he</w>
W it
r on
con struction</w>
is h
attac ked</w>
ous ly</w>
Ag ency</w>
Mos cow</w>
M u
f ur
h ear
n esses</w>
bom ber</w>
do es</w>
H5 N1</w>
0 s</w>
cal ling</w>
du e</w>
fa iled</w>
stor m</w>
K h
in fl
pro mis
oc cur
Sa ud
b ian</w>
b oo
s ent
su ff
com ing</w>
sec tor</w>
Ukra ine</w>
Bra z
idd le</w>
1 7</w>
1 8</w>
S p
T w
c ul
g es</w>
m ig
u ation</w>
figh ters</w>
kidnap ped</w>
resul ts</w>
rejec ted</w>
B e
c s</w>
t a</w>
y ed</w>
in ation</w>
sa l</w>
200 6</w>
Sun ni</w>
maj ority</w>
stra in</w>
Saud i</w>
C l
g o</w>
st ud
el d</w>
200 9</w>
pre vi
det ain
hun dreds</w>
Mexic o</w>
A m
M ore</w>
s la
u res</w>
in st
gi ve</w>
issu es</w>
rel ations</w>
tran s
W estern</w>
c el
r ying</w>
w at
it i</w>
ro ad</w>
ci p
sist ance</w>
expres sed</w>
G re
e ted</w>
po in
vic es</w>
acti vi
b al
u d</w>
w ent</w>
ab ility</w>
pri v
cor ruption</w>
d ol
po int</w>
arre st</w>
pop ul
e f
f ra
pro jec
de stro
with in</w>
plac ed</w>
Ger man</w>
eth n
it ted</w>
Americ ans</w>
war d</w>
tak ing</w>
l ands</w>
or ganiz
ic k
be t
serv ice</w>
Kash mir</w>
en sive</w>
ac t</w>
figh t</w>
Rep ublic</w>
sett l
H owever</w>
R ice</w>
protest ers</w>
plan ned</w>
b loc
s c
an k
er t</w>
sp ac
dem ocracy</w>
car rying</w>
if ic
occur red</w>
e p</w>
m ine</w>
ac tion</w>
us tice</w>
con duc
se ized</w>
mak ing</w>
f loo
p ubli
th ough</w>
on ed</w>
al ists</w>
pl ed
dis ease</w>
laun ched</w>
M or
v y</w>
cont rac
buil d</w>
suc c
1 8
A pri
h i
s li
em en</w>
as ked</w>
mil iti
str ong</w>
des pite</w>
Egyp ti
neighbor ing</w>
fur ther</w>
Apri l</w>
U S</w>
n ine</w>
t en</w>
re fug
sp e
polic y</w>
As soci
concern s</w>
Sad dam</w>
Tw o</w>
ethn ic</w>
A hm
B os
b ed</w>
m ul
t ol
ab in
vi de
fu ture</w>
charg ed</w>
b arre
m ing</w>
s w
st re
ex ports</w>
form s</w>
minist ers</w>
increas ed</w>
identi fied</w>
vehic le</w>
critici zed</w>
Tai wan</w>
g eneral</w>
n atur
po st</w>
cap tured</w>
bas sad
ail s</w>
1 6</w>
D P</w>
r ate</w>
ab ul</w>
cal l</w>
ep t</w>
fam ily</w>
abin et</w>
L u
s ha
or ganization</w>
st ation</w>
ro le</w>
civil ian</w>
invol ved</w>
territ ory</w>
D el
en ted</w>
resid ents</w>
par ts</w>
bir ds</w>
c o</w>
su res</w>
200 2</w>
200 7</w>
elec ted</w>
19 7
reli ef</w>
hom es</w>
A d
y ou</w>
lea ding</w>
sit uation</w>
H u
W ar</w>
f o
g er</w>
w an
en ric
or der</w>
ad v
com b
ho st
Ar my</w>
emerg ency</w>
Bos n
pro ve</w>
for ced</w>
ab li
ab duc
tri p</w>
beg in</w>
bac ked</w>
Niger ia</w>
G DP</w>
c ot
c ement</w>
g r
j a
s un
w id
ac coun
tra vel
Ha iti</w>
candid ate</w>
2 00</w>
f ar</w>
li ons</w>
gu e</w>
har ra
cu st
olla h</w>
cra ft</w>
t echn
in ing</w>
pro bl
ear th
An d</w>
bec ame</w>
reli gi
Sp ain</w>
A ri
h ours</w>
ic op
di v
ir i</w>
ex ec
par ties</w>
est abli
str y</w>
du ce</w>
An n
A c
K an
S ev
ur an
lea d</w>
ch ang
200 5</w>
out break</w>
iver s
Egypti an</w>
M iddle</w>
li fe</w>
hel icop
explo ded</w>
assa ss
bla med</w>
probl ems</w>
M s</w>
p ul
v al
al y
ro r</w>
pro f
iz e</w>
comm ents</w>
cen ter</w>
bro ad
uran ium</w>
f oc
z ai</w>
pl ay
li k
tre at
believ ed</w>
bassad or</w>
7 0</w>
B el
S ha
re e</w>
ne l</w>
gu n</w>
issu e</w>
M al
b a
en ces</w>
st ly</w>
ci ties</w>
prov ide</w>
Americ a</w>
and a</w>
har d</w>
air craft</w>
comman der</w>
activi ties</w>
B en
B as
R am
sh ar
mis sing</w>
hea vy</w>
du m</w>
continu ed</w>
pat ro
detain ees</w>
A l</w>
O ne</w>
st ep
regi onal</w>
bec ome</w>
v ice</w>
w e</w>
er ation</w>
con dem
ga th
suppor ters</w>
miss ile</w>
al e</w>
sh or
au l</w>
Mus harra
pr ice</w>
rul e</w>
busin ess</w>
Musharra f</w>
F o
G ul
N ep
re ad</w>
thre at</w>
co ast</w>
Al so</w>
aw ay</w>
K y
b ab
ex ten
bo dies</w>
rais ed</w>
N o</w>
m ur
v ol
w ant</w>
ati c</w>
de ter
Musli ms</w>
Sen ate</w>
demon str
nam ed</w>
centur y</w>
e qu
f il
th ing</w>
ow n
qu otes</w>
terror ists</w>
reac hed</w>
see king</w>
5 00</w>
8 0</w>
T his</w>
c r
il legal</w>
op en</w>
ne tw
sid es</w>
ci es</w>
po or</w>
hu man
lin ked</w>
independ ent</w>
mea sures</w>
arri ved</w>
recei ved</w>
decl ared</w>
Ann an</w>
c anc
u al
z a</w>
en dum</w>
st ren
am es</w>
tri bal</w>
pre me</w>
alleg ations</w>
negoti ations</w>
suppl ies</w>
refer endum</w>
H un
K at
d omin
g ing</w>
t em
ag ricul
cam p</w>
Chri sti
add ress</w>
natur al</w>
stren g
E x
H is</w>
H urricane</w>
f ew</w>
w ants</w>
si ves</w>
rou ght</w>
bo dy</w>
jo int</w>
curren t</w>
D i
sh es</w>
tra vel</w>
ser vices</w>
Cen tral</w>
Gul f</w>
A sian</w>
C ity</w>
F at
H us
T i
t ory</w>
ch all
im port
bu s</w>
ru led</w>
dec ades</w>
fa il
villa ge</w>
Shar on</w>
wan ted</w>
i o</w>
l ars</w>
n omin
in iti
ra dio</w>
con n
sp ea
se en</w>
id ing</w>
le vel</w>
str ic
threat ened</w>
Olymp ic</w>
dol lars</w>
e an</w>
k es</w>
oo l</w>
so on</w>
indu stry</w>
invest ment</w>
spac e</w>
sun ami</w>
earth quake</w>
lik ely</w>
C or
ri ght</w>
ag ain</w>
mo stly</w>
roc ket</w>
ful ly</w>
publi shed</w>
h i</w>
u lar</w>
in d</w>
da har</w>
op e</w>
ul t</w>
pre v
offic er</w>
bre ak
med ical</w>
cel eb
Kan dahar</w>
B ol
B la
H ug
S pan
f led</w>
t ot
ro w</w>
ea t</w>
ri bu
ir e</w>
se in</w>
ad di
ain ing</w>
mon it
elec tr
tri ed</w>
au t
sig n</w>
Al i</w>
Ab u</w>
inter view</w>
off ensive</w>
sear ch</w>
withdraw al</w>
Hug o</w>
c ast</w>
f ell</w>
u ted</w>
ou ght</w>
is hed</w>
ul lah</w>
explo sives</w>
pa ren
disp ute</w>
tow ard</w>
immedi ately</w>
B al
K abul</w>
n on</w>
t sunami</w>
st ing</w>
ad a</w>
mil ar</w>
An g
conc ern</w>
Cub an</w>
olog y</w>
Y u
b le
h ur
pl y</w>
ne t</w>
dec lin
ie ve</w>
hol ding</w>
Som ali</w>
cer em
tol l</w>
Fat ah</w>
M an
re forms</w>
il es</w>
il ities</w>
ch ar
ab ad</w>
ter ror</w>
thor ity</w>
det ails</w>
wa ys</w>
pas sed</w>
attemp t</w>
citi zens</w>
religi ous</w>
0 6</w>
2 6</w>
C am
L ea
P h
h im
com mission</w>
spec ial</w>
commun ity</w>
M ic
S ch
b ill</w>
b ring</w>
c row
er ship</w>
st op
st ates</w>
un g</w>
se ats</w>
vi a</w>
ig n
res cu
tri b
acc id
continu es</w>
Sud anese</w>
grow ing</w>
Kar zai</w>
Su preme</w>
jud ge</w>
ref used</w>
Braz il</w>
b ank</w>
f ederal</w>
g ress</w>
y ers</w>
y et</w>
ra id</w>
ne ed</w>
ch ec
po se</w>
ot ers</w>
sur vi
stri kes</w>
des cri
bro ke</w>
suspec t</w>
deb t</w>
P o
w in</w>
an ces</w>
en ced</w>
la m</w>
ne y</w>
ex p
per son</w>
cla im
cas ual
announ cement</w>
Ahm ad
J er
J ord
P uti
e b</w>
an ti
re pe
ou sted</w>
con voy</w>
lea ve</w>
ex pec
pre par
ver si
mar k</w>
respon se</w>
activ ists</w>
Puti n</w>
L ank
M c
S ri</w>
V i
b i
t est</w>
li ke</w>
co operation</w>
woun ding</w>
Cong o</w>
mas sive</w>
priv ate</w>
I v
O p
S pea
T im
d r
ar ms</w>
ou l
ad ded</w>
oc k</w>
pres sure</w>
vo ted</w>
employ ment</w>
mig r
F i
d ou
h ist
j ad</w>
si milar</w>
pro posed</w>
de l</w>
ch enko</w>
lo st</w>
ci enti
emb ly</w>
og n
separ ati
prev ent</w>
him self</w>
2 1</w>
A z
d ings</w>
f li
n ess</w>
o v</w>
r ina</w>
s ing
ch ing</w>
ch es</w>
sp or
sp read</w>
rec ogn
ann ing</w>
candid ates</w>
demon stra
ta x</w>
popul ation</w>
J ew
K ing</w>
i et</w>
al most</w>
si c</w>
el m
con vic
id s</w>
charg e</w>
journ alists</w>
ine jad</w>
condi tions</w>
Wit nesses</w>
Ahmad inejad</w>
1 9</w>
H ez
T ra
d ate</w>
re form</w>
im prov
tur ned</w>
insurg ent</w>
En ergy</w>
Austr alia</w>
exper ts</w>
Kat rina</w>
C ro
S ing
b or</w>
en cies</w>
sp ar
ali zed</w>
cri min
war ning</w>
retur ned</w>
ass y</w>
Rep ublic
peace ful</w>
indu stri
allow ed</w>
enric h
Jew ish</w>
b ollah</w>
c rac
l or
pro po
pro secut
de ploy
ne eded</w>
le t
emb assy</w>
tur al</w>
ent al</w>
rel ated</w>
vir on
polic emen</w>
star t</w>
ful l</w>
Hez bollah</w>
F in
T hat</w>
Y ush
b en
c le
h ous
p ay</w>
u ally</w>
il and</w>
tr uc
oc cu
ev en</w>
ev idence</w>
shi ps</w>
cro s
netw ork</w>
Hus sein</w>
A I
P y
c olla
f ig
l ack</w>
sh are</w>
hu a</w>
del eg
reg ul
fra ud</w>
Nep al</w>
Yush chenko</w>
2 2</w>
2 4</w>
m med</w>
y ang</w>
er a</w>
st and
oun ded</w>
tra di
ann ual</w>
test s</w>
t e
pro be</w>
com pe
inter im</w>
curren tly</w>
Co ast</w>
Ital y</w>
aly sts</w>
Span ish</w>
casual ties</w>
B er
D ay</w>
b er
d i</w>
h and
k ov
l and
m oun
v ar
re ven
en n
ra in</w>
mil lions</w>
ed uc
str o</w>
det ention</w>
cla shes</w>
spok e</w>
struc ture</w>
Ca stro</w>
tot al</w>
P aul</w>
U g
f y</w>
g ers</w>
r ates</w>
re st</w>
sp ending</w>
se where</w>
Af ter</w>
str ugg
gi ven</w>
mo s
viol ent</w>
gen er
activ ity</w>
parti cip
destro yed</w>
succ ess
assass ination</w>
patro l</w>
o gra
an ia</w>
re duc
ar i</w>
ex change</w>
gi a</w>
form ed</w>
ong yang</w>
ext rem
Py ongyang</w>
B ang
h ood</w>
o w</w>
it arian</w>
at eg
im pl
bu d
bel ieve</w>
respon sible</w>
kee p</w>
Hu man</w>
import ant</w>
Bla ir</w>
propo sal</w>
D uring</w>
L i
N ews</w>
R ob
X in
g ir
h e
i ra
o d</w>
en ough</w>
pro gress</w>
ed s</w>
cal ly</w>
fac ilities</w>
insurg ency</w>
clo sed</w>
diplom atic</w>
Geor gia</w>
batt le</w>
estim ated</w>
vide o</w>
occu p
P ress</w>
f ri
h our</w>
m es
li st</w>
igh ts</w>
Iraq is</w>
struc k</w>
mm ad</w>
A R
g res
o dy</w>
un al</w>
str on
per son
bo ard</w>
bomb s</w>
fre ed</w>
cl er
Spea king</w>
Xin hua</w>
g s</w>
g ood</w>
l ong
p over
li ving</w>
est ed</w>
ent atives</w>
acc ess</w>
gu ards</w>
aw i</w>
Com m
reac h</w>
ris m</w>
I I</w>
R ic
b loo
d om
re t</w>
es cap
kil l</w>
po st
govern ments</w>
pol l</w>
Par is</w>
resu me</w>
off er</w>
alli ance</w>
resol ution</w>
journ alist</w>
S ov
f our
n ight</w>
y an</w>
y oun
al ian</w>
de v
ap e</w>
cont ribu
over y</w>
devel op</w>
plan e</w>
polic ies</w>
mas s</w>
peacekee ping</w>
sign ific
Tha iland</w>
promis ed</w>
cust ody</w>
mes sa
E m
G overn
N ic
b all</w>
f all</w>
oo ds</w>
per i
int on</w>
comm ittee</w>
lin es</w>
sch ool</w>
hop es</w>
Cl inton</w>
enrich ment</w>
Sov iet</w>
A s</w>
M er
Q u
R es
b rought</w>
c abinet</w>
e z</w>
f ish
i ri
l a</w>
p oul
di ff
ir ed</w>
str ong
includ es</w>
air s</w>
mea sure</w>
Austr alian</w>
For mer</w>
Ken ya</w>
peacekee pers</w>
spe ech</w>
Ph il
poul try</w>
S an</w>
W il
b ar
n ame</w>
an y
al ity</w>
pl anning</w>
be h
ga di
if ic</w>
constitu tional</w>
dam age</w>
four th</w>
H er
V ie
a di
c ing</w>
y o</w>
am b
ow ned</w>
ad or</w>
ex pan
gu il
politi ci
inter est</w>
jo in</w>
jo ined</w>
hol i
ga ve</w>
Ital ian</w>
cr ude</w>
2 3</w>
S o
k i</w>
s a</w>
u es</w>
ar ti
ap pro
vi an</w>
pres s</w>
ver y</w>
Ab d
alleg edly</w>
vis ited</w>
high est</w>
alli es</w>
run ning</w>
beh ind</w>
d en</w>
s ales</w>
v ement</w>
z en</w>
pl ant</w>
ag encies</w>
sh ort</w>
200 0</w>
dis mis
tra c
19 6
dem ocratic</w>
cla im</w>
investig ating</w>
high er</w>
sea son</w>
C up</w>
S al
u j
st af
am ent</w>
im posed</w>
fac es</w>
den ies</w>
pas sen
invol vement</w>
cou ra
suspen ded</w>
pled ged</w>
Sev eral</w>
colla p
2 7</w>
e i</w>
en viron
ro se</w>
el s</w>
am bassador</w>
ap paren
low er</w>
fac ility</w>
vel y</w>
fre ed
contro l
Ham id</w>
pac t</w>
Ethiop ia</w>
abduc ted</w>
condem ned</w>
Vie t
P ope</w>
T am
b r
l an
o ted</w>
in cial</w>
li ves</w>
lea ving</w>
Th ousands</w>
tra ding</w>
jo bs</w>
disc overed</w>
laun ch</w>
Indone sian</w>
En g
show s</w>
infl u
conn ection</w>
H elm
M any</w>
R af
S i
c ause</w>
o on</w>
v oters</w>
st ep</w>
it ary</w>
em or
ir man</w>
coun ter
hel ped</w>
ser ved</w>
of ten</w>
Islam abad</w>
Nig er</w>
Ukra in
Bo th</w>
gath ered</w>
R ights</w>
c ism</w>
d ang
y er</w>
an am
al a</w>
ri val</w>
be gun</w>
com ment</w>
sh oo
fam il
inf ected</w>
requ est</w>
mat er
immedi ate</w>
cerem ony</w>
AI D
bud get</w>
dom esti
Helm and</w>
3 00</w>
i y
i e</w>
w il
w el
in su
al ed</w>
ern al</w>
se e</w>
est s</w>
Is lam</w>
and an</w>
develop ing</w>
Colom bian</w>
isl ands</w>
show ed</w>
condi tion</w>
diff er
AID S</w>
3 1</w>
E con
R w
Z im
a sion</w>
d wide</w>
d own
l dwide</w>
s l
sa fe
ur ch</w>
as sistance</w>
tra ining</w>
dem anding</w>
ho st</w>
rem ar
vic tory</w>
Islam ist</w>
Ara bia</w>
targ eted</w>
mov ement</w>
tou ri
appe ared</w>
Moha mmed</w>
bal lo
Associ ated</w>
demonstr ators</w>
human itarian</w>
convic ted</w>
2 8</w>
K o
R om
m ag
o l</w>
r ats</w>
re st
re stric
or ed</w>
ag u
se ts</w>
to g
ann ivers
olla r</w>
helicop ter</w>
versi al</w>
annivers ary</w>
C had</w>
J ustice</w>
V ice</w>
Z ar
b in</w>
f f</w>
s ession</w>
t le</w>
u tive</w>
or ders</w>
al d</w>
si on
su l</w>
govern or</w>
co st</w>
Mo sul</w>
contro versial</w>
north west</w>
Inter net</w>
trib unal</w>
claim s</w>
tog ether</w>
D an
P r
R ev
a u</w>
e v</w>
g an</w>
m ar</w>
n ec
s cienti
u gh
en ds</w>
at ory</w>
ic ity</w>
ol s</w>
un ity</w>
ov o</w>
ag ing</w>
oc rats</w>
ser ious</w>
includ ed</w>
off ered</w>
ph ot
Com mission</w>
Com mun
criti cism</w>
Dem ocrats</w>
barre l</w>
Bosn ian</w>
treat ment</w>
mos que</w>
Zim bab
K u
a th
d ollar</w>
e k</w>
p il
er r
re ti
un i
la di
ne ver</w>
ex port</w>
le y</w>
tri gg
dem ands</w>
bo y
fa v
ran ge</w>
plan es</w>
Mexic an</w>
Inter ior</w>
bet ter</w>
hur t</w>
9 0</w>
H ong</w>
I A</w>
f ore
g ent
h and</w>
s y</w>
on ing</w>
on ce</w>
ha p
ri sing</w>
pl ay</w>
ch ers</w>
sec ret</w>
man u
eff ec
tran si
tor al</w>
ip el
miss iles</w>
previ ous</w>
domesti c</w>
D ut
in d
om s</w>
ir ates</w>
sh el
qu esti
tur ing</w>
prov ided</w>
prov incial</w>
pea l</w>
ut es</w>
cla sh</w>
near by</w>
Can ada</w>
Har iri</w>
previ ously</w>
techn ology</w>
Bol i
person nel</w>
guil ty</w>
famil ies</w>
A h
K os
M ed
h er
m ese</w>
s ources</w>
t an
en tered</w>
am id</w>
de pu
tr ou
sec retary</w>
wor ldwide</w>
ev ent</w>
gi ving</w>
wee k
hea d
def ic
larg ely</w>
Pol and</w>
Bur mese</w>
pop ular</w>
injur ies</w>
north western</w>
mat ch</w>
quar ters</w>
ron t</w>
comb at</w>
foc us</w>
Cro ati
Dut ch</w>
Kos ovo</w>
C ond
K of
e ting</w>
s low
ur y</w>
un employment</w>
su gg
ch em
po t
pol ls</w>
res ources</w>
ing ly</w>
me ters</w>
follow ed</w>
ord in
approv al</w>
direc tor</w>
dro pped</w>
Ca th
suff ered</w>
poin ts</w>
refug ees</w>
broad cast</w>
tem por
chec k
crac k
educ ation</w>
peri od</w>
boy cot
C ri
C IA</w>
G h
b led</w>
h urricane</w>
u ment</w>
ti mes</w>
ic ation</w>
ic ations</w>
us al
ow ed</w>
ab il
oc al</w>
per man
der ing</w>
Ar gent
mur der</w>
descri bed</w>
manu fac
Cond ol
Kof i</w>
a de
f la
m id</w>
n am</w>
p ay
in spec
ic k</w>
ha ving</w>
ra structure</w>
op ening</w>
ab use</w>
ee z
res sed</w>
to o</w>
wea ther</w>
ant anam
Ma o
cre ate</w>
Gu antanam
inf rastructure</w>
rais e</w>
boo st</w>
Be ir
demonstra tions</w>
Republic an</w>
crack down</w>
Guantanam o</w>
C ali
K ong</w>
T ex
T ok
m as</w>
m ental</w>
ti v
at eral</w>
us hed</w>
la des
wh ose</w>
fin d</w>
comm on</w>
disa p
legisl ation</w>
travel ing</w>
chang es</w>
Jer usal
deleg ation</w>
Bang lades
Phil ip
holi day</w>
staf f</w>
Condol eez
Jerusal em</w>
Condoleez za</w>
c ease</w>
n av
t our</w>
in come</w>
al led</w>
sa w</w>
att end</w>
ev ery</w>
cont act</w>
rem ote</w>
dre w</w>
sm ugg
Ser b</w>
Se par
Bar ack</w>
cou p</w>
far m</w>
freed om</w>
control led</w>
Ukrain ian</w>
c are</w>
o ts</w>
r ally</w>
er up
re duce</w>
en coura
ar a</w>
or ies</w>
la bor</w>
ne st
ow l
sh u</w>
qu oted</w>
air o</w>
mak er</w>
reg im
compl et
Sen ator</w>
south eastern</w>
vehic les</w>
Ethiop ian</w>
Mor oc
host ages</w>
Christi an</w>
declin ed</w>
C airo</w>
I f</w>
i ver</w>
for n
le vel
Th ree</w>
inc es</w>
dec ade</w>
dec ided</w>
det on
Mo gadi
air port</w>
go ing</w>
fre qu
progra ms</w>
pop e</w>
itt le</w>
diplom ats</w>
Chri st
hop e</w>
sent enced</w>
Tim es</w>
migr ants</w>
pover ty</w>
Comm ittee</w>
safe ty</w>
Zimbab we</w>
Beir ut</w>
Cali forn
Mogadi shu</w>
1 6
D av
O ce
V ik
c lim
g ri
h on
l in</w>
ar ly</w>
ar ch
ra ids</w>
ri se</w>
id es</w>
com p
le ans</w>
hel ping</w>
dem anded</w>
do ing</w>
do zens</w>
ten sions</w>
dic t
Or leans</w>
fun ds</w>
targ ets</w>
tou rism</w>
direc t</w>
settl ement</w>
youn g</w>
signific ant</w>
depu ty</w>
Californ ia</w>
H I
S A</w>
c our
s end</w>
u ty</w>
in side</w>
ra p
un d
is e</w>
kil l
tur n</w>
dis placed</w>
vil y</w>
vo ting</w>
del iver
cha mp
aff ected</w>
see k</w>
star ted</w>
concern ed</w>
doc um
Cen ter</w>
projec ts</w>
chall eng
Jord an</w>
Tra de</w>
Rob ert</w>
Tex as</w>
E cu
L ocal</w>
S ince</w>
a vo
g ren
l ittle</w>
p ra
s cen
ac qu
un it</w>
ad vis
ex pl
ap peal</w>
ev ac
prov inces</w>
prot ect</w>
fa ir</w>
ten s</w>
cra sh</w>
consid er</w>
electr icity</w>
Lank a</w>
let ter</w>
Viet nam</w>
Cath ol
Philip p
Vik tor</w>
G rou
K ir
M as
R a
T ony</w>
V ladi
a o</w>
g oods</w>
h ot
t i</w>
er ous</w>
st ability</w>
ne eds</w>
ex c
tr u
im prove</w>
tra in</w>
pa id</w>
disp uted</w>
withdra w</w>
pur su
aut onom
messa ge</w>
A no
D ep
c au
m itted</w>
t un
in si
re sig
en voy</w>
or ig
ha z
ur ging</w>
ad en</w>
ab o
our ce</w>
dis rup
pres ence</w>
fac ing</w>
spokes woman</w>
Ma j
law s</w>
buil dings</w>
sch o
cre w</w>
loc ated</w>
mor ning</w>
projec t</w>
addi tional</w>
shoo ting</w>
Oce an</w>
Grou p</w>
Ano ther</w>
P ea
c le</w>
re view</w>
on es</w>
al ing</w>
ea d</w>
ac k
ac h</w>
ad op
mar kets</w>
Mo st</w>
199 5</w>
memb ership</w>
ban ned</w>
gen oc
At omic</w>
Rev ol
perman ent</w>
Vladi mir</w>
J i
N o
R ed</w>
S ar
b ar</w>
l ov
m us
n ings</w>
w r
in ning</w>
re fin
st ations</w>
il i
si onal</w>
di ffic
str ateg
wor st</w>
fi eld</w>
bor n</w>
ut ting</w>
hea vily</w>
oper ating</w>
Ab out</w>
bomb ers</w>
roc kets</w>
suppl y</w>
main ly</w>
militi a</w>
refug ee</w>
step ped</w>
cros sing</w>
fish ing</w>
Tok yo</w>
regim e</w>
genoc ide</w>
1 0
3 5</w>
A k
F lor
P ac
f ront</w>
g round</w>
h y
i z</w>
m ers</w>
p ublic
s ons</w>
t ern
t ings</w>
t ourn
v es
v otes</w>
ti cs</w>
ar ing</w>
st anding</w>
at edly</w>
di stri
pro mp
con serv
arg o</w>
ep h
Au thority</w>
offic es</w>
Rep res
pon ents</w>
organiz ations</w>
stre ets</w>
Fo x</w>
Ang el
Separ ately</w>
nest y</w>
distri bu
1 7
L ab
P E
V ati
i th
m ight</w>
p ipel
s cal
re place</w>
en ter</w>
ti st</w>
it es</w>
po ses</w>
res er
Un der</w>
rec or
fir m</w>
form ally</w>
au thor
mer t</w>
lin ks</w>
clo s
up on</w>
commun ist</w>
resol ve</w>
disa ster</w>
mor t
equ ip
Hun dreds</w>
separati st</w>
spar ked</w>
ben ef
remar ks</w>
Vati can</w>
S ol
d es</w>
g as
u k</w>
at ch</w>
ra ins</w>
li f
Is lands</w>
elec toral</w>
inv asion</w>
199 1</w>
produc ts</w>
resul t</w>
hosp it
poin ted</w>
Del hi</w>
shor t
agricul tural</w>
repe atedly</w>
kill ings</w>
Pac ific</w>
D o
L ati
W az
j ustice</w>
m ist
n ar
s qu
t ain
st and</w>
ra ce</w>
ot ball</w>
rem ov
comm it
posi tive</w>
Ol mert</w>
hom el
quar ter</w>
wat ers</w>
ja il</w>
rescu e</w>
Po st</w>
hist ory</w>
truc k</w>
dismis sed</w>
nec ess
Dep uty</w>
2 9</w>
4 5</w>
a dian</w>
c ent
d a</w>
f iled</w>
i tion</w>
l u
m en
o ing</w>
s ome
re signed</w>
ar ies</w>
st ay</w>
un less</w>
li ve</w>
oun ds</w>
con ver
coun ter</w>
thre ats</w>
ub ar
oper ate</w>
over e
car ry</w>
pr in
presid ency</w>
gre ater</w>
targ et</w>
consid ered</w>
ta x
Can adian</w>
Niger ian</w>
accid ent</w>
cler ic</w>
Tam il</w>
Econ omic</w>
Christ mas</w>
A y
L aden</w>
M ac
M ov
an j
an im
er c
at a</w>
el ed</w>
es pre
pl es</w>
gh out</w>
por ted</w>
ali z
mee tings</w>
do m</w>
shi p
beg inning</w>
so cial</w>
Ha iti
employ ees</w>
exper i
El sewhere</w>
Abd ullah</w>
erup ted</w>
scho ols</w>
tourn ament</w>
Waz iri
C z
I M
i v
i k</w>
s f
t ar
y al</w>
al though</w>
sp ent</w>
ap p
ap ar
qu es
dis ar
tra ffic
199 0s</w>
continu ing</w>
incid ents</w>
north eastern</w>
Per vez</w>
tow ns</w>
lim ited</w>
militi as</w>
fli ghts</w>
Govern ment</w>
defic it</w>
Flor ida</w>
espre ad</w>
Waziri stan</w>
M ad
k a</w>
t in
u ters</w>
an alysts</w>
ag ue</w>
se qu
sh ut</w>
coun cil</w>
atur e</w>
pre ven
regi ons</w>
ei ther</w>
bro ther</w>
cre di
ris k</w>
dam aged</w>
Geor ge</w>
barre ls</w>
wid espread</w>
establi shed</w>
Ram ad
head quarters</w>
avo id</w>
resig nation</w>
Pea ce</w>
scal e</w>
necess ary</w>
A ir
H u</w>
J a
M ubar
R um
b lo
g ran
w rit
er ful</w>
re vi
pl ea
ch ick
por ters</w>
bil ateral</w>
199 9</w>
pow ers</w>
loo king</w>
up coming</w>
Pro secut
dri ver</w>
Moha mmad</w>
conf idence</w>
Associ ation</w>
Lab or</w>
Mov ement</w>
Mubar ak</w>
D on
D am
N a
U z
b ig
g est</w>
h um
k age</w>
n is</w>
s overe
v acc
lea der
rec overy</w>
sur ve
form al</w>
fi f
tro le
min ing</w>
sen ding</w>
throu ghout</w>
kn owl
ob jec
As s
Fr on
cha irman</w>
diplom at</w>
stud y</w>
stud ents</w>
accoun ts</w>
ble w</w>
Sing h</w>
deploy ed</w>
chem ical</w>
check point</w>
leader ship</w>
knowl ed
A E
E r
F ar
O il</w>
V al
c ross</w>
f ear</w>
h an</w>
k en</w>
s ses</w>
w al
th em
in de
er ia</w>
oun ding</w>
bu y</w>
wor th</w>
ric h</w>
cri me</w>
wi fe</w>
dra ft</w>
tor ture</w>
reg ist
kidnap pers</w>
consu mer</w>
play ed</w>
stop ped</w>
hous ing</w>
Uz be
N eth
a ver
m i
p i
v ey</w>
in stitu
er lands</w>
re comm
un ion</w>
pro duce</w>
su st
se a</w>
lo ss</w>
rec ession</w>
elec t</w>
ser ve</w>
leg ally</w>
hu ge</w>
eff ect</w>
199 8</w>
increas ing</w>
develop ed</w>
Re uters</w>
chil d</w>
targ eting</w>
Se a</w>
bri ef
Kh an</w>
Bosn ia</w>
Iv ory</w>
gir l</w>
stron gh
pot ential</w>
PE C</w>
equip ment</w>
sf eld</w>
Rum sfeld</w>
Ass embly</w>
Neth erlands</w>
3 2</w>
J ose</w>
d y
e x</w>
s cor
s ource</w>
v ors</w>
st ock</w>
da ily</w>
le t</w>
prov iding</w>
co sts</w>
acc ord</w>
Au stri
Nor way</w>
jo b</w>
pow erful</w>
criti cal</w>
20 11</w>
mov ing</w>
south western</w>
conduc ted</w>
Lea gue</w>
post pon
apparen tly</w>
Ah med</w>
Mao ist</w>
level s</w>
Ecu ador</w>
Lati n</w>
A p
H ague</w>
M ali
R ec
f al
h owever</w>
n u
p ush</w>
ag ement</w>
sp ort</w>
ab road</w>
lo g
att rac
sur r
comm itted</w>
pan el</w>
arre sts</w>
min ent</w>
fa ther</w>
ay ed</w>
cre ated</w>
win ds</w>
south east</w>
busin esses</w>
Olymp ics</w>
sc and
Ari el</w>
div ided</w>
agricul ture</w>
ogra ph
politici ans</w>
trigg ered</w>
scen e</w>
A ung</w>
B u
D es
F ederal</w>
L aw
b o</w>
g y
o gue</w>
p rac
p irates</w>
v owed</w>
th er
th ous
re new
as si
se l</w>
ed ict</w>
Ch il
wor ked</w>
hea ded</w>
agre e</w>
wa it</w>
vis iting</w>
mov ed</w>
win ner</w>
consid ering</w>
deton ated</w>
trole um</w>
F ed
F ood</w>
I AE
b ra
c y
c ea
c us</w>
i res</w>
k uk</w>
p un
q awi</w>
at ures</w>
ro b
be st</w>
as soci
ex erc
ren t</w>
plo t</w>
pres ent</w>
pac e</w>
allow ing</w>
hi j
shar ply</w>
domin ated</w>
hap pen
Argent ina</w>
Cathol ic</w>
Kir kuk</w>
Haiti an</w>
thous and</w>
IAE A</w>
1 50</w>
G ar
S A
U ru
b it
b and</w>
f er</w>
p raised</w>
ic a</w>
ec e</w>
ec ting</w>
em an</w>
li ght</w>
ab and
Ch en
attac kers</w>
ore s</w>
def end
buil t</w>
sel s</w>
sit es</w>
sea t</w>
doc ument</w>
host age</w>
Bel ar
Mic ha
passen gers</w>
Zar qawi</w>
err ill
Banglades h</w>
HI V</w>
evac u
orig in
pipel ine</w>
fif th</w>
4 00</w>
7 5</w>
H ol
L e
m it
p ical</w>
ro g
sa fe</w>
ac as</w>
di st
un clear</w>
le f
gu ar
hea ds</w>
rem aining</w>
Israel is</w>
ong oing</w>
Mar ines</w>
explo sions</w>
sub st
Car acas</w>
Ben edict</w>
Ti bet
insu la</w>
ugh ter</w>
dict ator</w>
IM F</w>
3 7</w>
K im</w>
b a</w>
c are
f is
g old</w>
g et
i b</w>
n it
t yp
u sa
re b
on ary</w>
or ing</w>
it a</w>
da tion</w>
la y</w>
gh tly</w>
am oun
ex am
sh ore</w>
acc ept</w>
stat us</w>
agre ements</w>
Ab du
reas on</w>
hol y</w>
discus sed</w>
curren cy</w>
commun ities</w>
Per u</w>
villa ges</w>
Sw ed
infl ation</w>
sent ence</w>
Gre ek</w>
Mal ay
streng then</w>
occup ied</w>
dev ast
week ly</w>
Chen ey</w>
A U</w>
H an
R el
S am
s em
s low</w>
w ing</w>
on ds</w>
al ogue</w>
ra d
as cus</w>
de signed</w>
wit nesses</w>
com par
com mer
ter ing</w>
im ports</w>
co ordin
low ing</w>
Al l</w>
anc ell
fun ding</w>
ban ks</w>
dro p</w>
suppor ting</w>
Pe ople</w>
Lib eration</w>
hear t</w>
exec utive</w>
shor tly</w>
escap ed</w>
restric tions</w>
und erg
Repres entatives</w>
Cz ech</w>
Dam ascus</w>
big gest</w>
happen ed</w>
ancell or</w>
B ay</w>
C abinet</w>
J al
f le
g ian</w>
h anded</w>
p ati
t able</w>
on ia</w>
un identified</w>
is ed</w>
com pu
res ort</w>
gi ant</w>
thre w</w>
pec i
gu errill
sus pic
bas sy</w>
Al ex
row n</w>
cu ts</w>
compl eted</w>
hal t</w>
fun eral</w>
bla sts</w>
main t
Mil itary</w>
ivers ity</w>
helicop ters</w>
crow d</w>
survi vors</w>
crimin al</w>
prosecut or</w>
prosecut ors</w>
fig ures</w>
compe ti
Em bassy</w>
dang erous</w>
docum ents</w>
fis cal</w>
Abdu l</w>
5 5</w>
6 00</w>
L a
O sa
R ang
a z</w>
a ying</w>
c oc
e ated</w>
g ar
g ged</w>
k o
m u
m ot
n a</w>
s n
t edly</w>
z en
in o</w>
re construction</w>
ar ily</w>
it ation</w>
ol ine</w>
ac y</w>
ac tions</w>
be t</w>
qu ick
ev er
sur ren
19 4
gu ard</w>
ob serv
part n
fun d</w>
aff airs</w>
cer tain</w>
Wit h</w>
Ky i</w>
fail ure</w>
break s</w>
AR C</w>
counter part</w>
trou bled</w>
tru ce</w>
Micha el</w>
J an</w>
S lov
e y
f at
p h</w>
r gy
s of
th ese</w>
in ion</w>
re stor
ti fied</w>
st abil
di alogue</w>
am bus
de struction</w>
po sted</w>
wor ker</w>
ot a</w>
acc usa
bor ders</w>
gra de</w>
min ority</w>
car to
posi tions</w>
fer red</w>
go al</w>
tran spor
gre at</w>
invol ving</w>
sk i</w>
conduc t</w>
fo rec
Ky rgy
expec t</w>
Commun ist</w>
Dav id</w>
conserv ative</w>
quick ly</w>
H ass
K K</w>
O mar</w>
P KK</w>
T A</w>
U N</w>
b ol
b id</w>
f ought</w>
s il
t op
t ation</w>
y ch</w>
th y</w>
an ced</w>
re public</w>
re search</w>
en sure</w>
st ers</w>
il legally</w>
ur o</w>
em y</w>
as k</w>
bu l
sec tors</w>
Ch ar
wor ds</w>
ing dom</w>
sou ght</w>
iz ing</w>
ser ving</w>
dec line</w>
sev ere</w>
mar ched</w>
car s</w>
inter rog
199 6</w>
tak es</w>
sel ves</w>
sub si
ass embly</w>
kidnap ping</w>
dead line</w>
sk y</w>
recei ve</w>
uti onary</w>
test ed</w>
suc ce
inst ead</w>
chall en
industri al</w>
fig ure</w>
Ji had</w>
Mali ki</w>
Osa ma</w>
F ARC</w>
S cot
p ushed</w>
t ment</w>
re a</w>
pro ble
ow s</w>
se fire</w>
ap prove</w>
ak h
lo sses</w>
ter ms</w>
offici ally</w>
rec ru
ev ents</w>
ma il</w>
tu res</w>
Pol ish</w>
law yer</w>
pas s</w>
Wh en</w>
Su u</w>
main tain</w>
indic ted</w>
threat ening</w>
pur cha
Ken yan</w>
suff ering</w>
mig ration</w>
Ac cor
exten ded</w>
scienti sts</w>
Croati a</w>
complet e</w>
comp ound</w>
gas oline</w>
Don ald</w>
hum ans</w>
cea sefire</w>
proble m</w>
3 6</w>
B C</w>
D ev
H os
P or
T V</w>
T ay
W ith
b ers</w>
j a</w>
j un
p rec
t es</w>
y our</w>
z er
in k</w>
al ism</w>
at omic</w>
el led</w>
ac knowled
pro minent</w>
as su
sp on
mo d
acc uses</w>
fac tions</w>
follow s</w>
del ay</w>
rul es</w>
ca using</w>
Re ports</w>
Ag ricul
dru gs</w>
invest ors</w>
believ es</w>
nation wide</w>
wid ely</w>
ign ers</w>
prepar ing</w>
Ug andan</w>
Pr ince</w>
autonom y</w>
Prosecut ors</w>
lef tist</w>
C ross</w>
F ol
K har
M el
N e
U K</w>
b at
m al
m it</w>
r s</w>
r ang
s old</w>
t ons</w>
it self</w>
at ell
om ing</w>
un d</w>
pro m
pro mo
ab ani</w>
im migrants</w>
Th ose</w>
repor tedly</w>
our i</w>
form ing</w>
au thority</w>
acc use</w>
bo at</w>
over all</w>
def eated</w>
199 4</w>
Tal abani</w>
high ly</w>
show ing</w>
attemp ts</w>
parti cul
floo ding</w>
treat y</w>
spea king</w>
ign ty</w>
tradi tion</w>
Ug anda</w>
long er</w>
strong ly</w>
questi oned</w>
Boli via</w>
nav al</w>
champ ion</w>
challeng es</w>
blo c</w>
sovere ignty</w>
Swed en</w>
Hass an</w>
1 4
C y
D en
G en
O ther</w>
P ent
b ad</w>
s en</w>
ic ally</w>
el op
es peci
em is
la bor
pro sec
op posed</w>
op port
ch er</w>
ch urch</w>
ap pointed</w>
sh ing</w>
no thing</w>
ing ing</w>
ent ative</w>
ep ted</w>
int en
fi re
pre p
so m</w>
199 0</w>
mak es</w>
resu med</w>
depend ent</w>
produc ing</w>
indic ate</w>
ast ers</w>
estim ates</w>
val ue</w>
step s</w>
deter mine</w>
canc er</w>
Ti bet</w>
addi tion</w>
Rw anda</w>
rest ore</w>
diffic ult</w>
chick ens</w>
Dev elop
particul arly</w>
especi ally</w>
3 4</w>
G ames</w>
K az
K hal
M i
V ic
c ir
c ents</w>
c overed</w>
k os</w>
r ated</w>
s pl
u r</w>
u pri
x im
y s
an der</w>
re al</w>
st able</w>
ra ided</w>
ol ese</w>
pro ce
am il
ag on</w>
ain t</w>
Ch ile</w>
mo der
int ended</w>
int ernal</w>
bo y</w>
bel ow</w>
law yers</w>
Par liam
ran som</w>
den oun
av ail
cra shed</w>
Ser bian</w>
198 9</w>
doc tors</w>
nation als</w>
hear ing</w>
Braz il
Am bassador</w>
Am nesty</w>
accoun t</w>
div id
chang ed</w>
fil m</w>
Op position</w>
Fi del</w>
reven ue</w>
extrem ists</w>
touri sts</w>
fore igners</w>
boycot t</w>
Moroc co</w>
deliver y</w>
cau ght</w>
Maj or</w>
them selves</w>
strongh old</w>
Des pite</w>
spon s
Pent agon</w>
B r
B ill</w>
J ean</w>
L at
O PEC</w>
T ri
Y anu
c ru
c over
d in
d or
g ain</w>
i er</w>
l er</w>
s si
s atell
t arian</w>
er ve</w>
it o</w>
sa m
pro per
sid ents</w>
ex tra
im pact</w>
sec ure</w>
co ast
gra m</w>
fac ed</w>
def eat</w>
cas h</w>
run s</w>
territ ories</w>
neighbor hood</w>
col l
ja iled</w>
deter min
fail ing</w>
exp and</w>
dou ble</w>
kov ych</w>
tempor arily</w>
Revol utionary</w>
scor ed</w>
postpon ed</w>
hij ac
With out</w>
prom ote</w>
Develop ment</w>
7 00</w>
D a
F or</w>
M in
N A</w>
R iver</w>
S ur
T ig
W H
d ered</w>
g ames</w>
k el</w>
o a</w>
t y
er ian</w>
re fl
st ar</w>
ol o
es sing</w>
for ward</w>
se x
vi c</w>
overn ight</w>
im migration</w>
sec tarian</w>
Th e
ev a</w>
iz ation</w>
sti de</w>
nor m
new ly</w>
prot ection</w>
Al g
ma y
ph et</w>
retur ning</w>
bl ack</w>
Ser bia</w>
appe ars</w>
tow ards</w>
bur g</w>
For ce</w>
floo ds</w>
contrac t</w>
Ari stide</w>
canc eled</w>
Vi enn
sing le</w>
hous es</w>
strugg le</w>
reduc ed</w>
impl em
Mer kel</w>
collap se</w>
ballo ts</w>
disap pe
tax es</w>
gran ted</w>
plea ded</w>
mu sic</w>
mot or
Fol lowing</w>
Vienn a</w>
3 8</w>
A L
A ce
F P</w>
H av
J am
K ha
a j
i ously</w>
w ealth</w>
z y</w>
th row</w>
th ought</w>
un rest</w>
ov ina</w>
be an</w>
con gres
as sets</w>
op ponents</w>
ex ile</w>
repor ting</w>
man d
mis sion
um b
contin ent</w>
larg er</w>
go sla
et ary</w>
Car ib
assa ult</w>
pac kage</w>
bloc k</w>
Yu gosla
Cam bo
reven ues</w>
success ful</w>
bloo d</w>
br inging</w>
mater ial</w>
fav or</w>
manufac turing</w>
cent ers</w>
aver age</w>
devast ated</w>
commer cial</w>
Yanu kovych</w>
WH O</w>
A ir</w>
B ak
B orders</w>
E rit
F ran
F all
F eb</w>
H igh</w>
M is
T o
i als</w>
s mo
z one</w>
in sur
re conc
st a</w>
al ities</w>
ic h
sa d</w>
ri ot</w>
li est</w>
ap ers</w>
tr a</w>
Ch ancellor</w>
In v
sur ge</w>
me ans</w>
fin ding</w>
viol ations</w>
out put</w>
with drew</w>
fol low</w>
pr e</w>
acti ve</w>
del ayed</w>
investig ate</w>
Int elligence</w>
Pro v
Pro gram</w>
alli ed</w>
road s</w>
mat ter</w>
ach iev
deb ate</w>
Moha med</w>
olog ical</w>
repres entatives</w>
legisl ative</w>
mul ti
stre et</w>
Yu kos</w>
expec ts</w>
Vi ol
recogn ize</w>
Eng land</w>
Dan ish</w>
smugg ling</w>
clim ate</w>
adop ted</w>
app ear</w>
scand al</w>
avail able</w>
Ace h</w>
Carib bean</w>
F und</w>
J ak
Y ear</w>
b eat</w>
c ell</w>
j an</w>
v a</w>
y an
or ial</w>
ou l</w>
al lah</w>
ac ity</w>
sp ir
for cing</w>
se t
att ended</w>
att ending</w>
ear ing</w>
rec overed</w>
co operate</w>
rem ained</w>
sig ns</w>
mar ked</w>
surg ery</w>
fre ez
ten nis</w>
increas ingly</w>
produc er</w>
don ors</w>
hol ds</w>
wa ve</w>
tea ms</w>
resul ted</w>
rais ing</w>
tou m</w>
vide ot
sha res</w>
fo otball</w>
wil ling</w>
reser ves</w>
remov ed</w>
credi t</w>
Tibet an</w>
ambus hed</w>
Khar toum</w>
olo gi
5 2</w>
A N</w>
B ro
E l</w>
G r
J az
M ot
N av
Z eal
d ata</w>
e era</w>
g ame</w>
k h</w>
s man</w>
s ell</w>
s ale</w>
in ated</w>
ti n</w>
ha m
ac ted</w>
em ale</w>
de st</w>
de als</w>
op pose</w>
ag ents</w>
ex ist
ab uses</w>
sh ut
par amil
att ention</w>
ru s</w>
cap acity</w>
pres ented</w>
fin ance</w>
mar ks</w>
Al though</w>
min ers</w>
min utes</w>
cam ps</w>
over wh
Sh ei
NA SA</w>
off ering</w>
victi m</w>
dro ve</w>
recei ving</w>
Ro dri
Mu ha
settl ers</w>
deploy ment</w>
environ mental</w>
Rom an</w>
institu tions</w>
brief ly</w>
renew ed</w>
subst anti
compar ed</w>
Agricul ture</w>
upri sing</w>
Parliam ent</w>
Brazil ian</w>
Fall uj
Zeal and</w>
D u
L os</w>
M ar</w>
O ffic
P an
a il</w>
a vian</w>
b lam
f esti
g e
j um
m id
p ping</w>
y i
en ting</w>
ti on
ti ff</w>
il s</w>
ha m</w>
sa b</w>
un known</w>
op inion</w>
se eded</w>
ad mitted</w>
St ra
ev ening</w>
cont ain</w>
sur vey</w>
int ro
acc using</w>
ser iously</w>
me ter</w>
fin ished</w>
Al li
respon ded</w>
tor n</w>
gre w</w>
read ing</w>
end or
tre ated</w>
Kur ds</w>
dri ven</w>
neigh b
win ning</w>
eng ine
198 0s</w>
organiz ed</w>
Mor ales</w>
sli ghtly</w>
shar ing</w>
Christi ans</w>
nomin ation</w>
survi ved</w>
repe ated</w>
hist or
any one</w>
differ ences</w>
pil gri
abo ve</w>
strateg y</w>
ves sel</w>
promp ted</w>
Jaz eera</w>
6 5</w>
E hu
S il
W ea
a ys</w>
b ot
e h</w>
t ex
x ed</w>
re ly</w>
re fu
ar agu
st ory</w>
it er
ea l</w>
el im
ol e</w>
di e</w>
ag gres
fir ing</w>
In surg
mo on</w>
enti re</w>
pre dic
stat ing</w>
out breaks</w>
199 7</w>
ant ly</w>
ph one</w>
investig ators</w>
vis its</w>
dead liest</w>
Sen eg
win ter</w>
kilome ter</w>
ban king</w>
ach i</w>
villa gers</w>
Geor gian</w>
ext end</w>
batt ling</w>
centur ies</w>
bloc ked</w>
ific ation</w>
Del ta</w>
travel ed</w>
establi sh</w>
broad ca
streng th
monit ors</w>
separati sts</w>
Az iz</w>
improv ed</w>
ira cy</w>
Nic aragu
collap sed</w>
Raf ik</w>
differ ent</w>
effec tive</w>
No bel</w>
Angel es</w>
defend ants</w>
accusa tions</w>
moder ate</w>
Ehu d</w>
3 3</w>
H o
K ath
L ah
N az
P ra
T og
d h
f i</w>
k now</w>
l ac
m ation</w>
m ud
u n</w>
w eb
ar ta</w>
ro ed
ri ver</w>
pl ot
li fer
ow ell</w>
ch ance</w>
ab or
ffici ent</w>
le ar
sec ret
ev ent
au di
ut en
An alysts</w>
do zen</w>
beg ins</w>
Ma ur
sho ot
Wh ile</w>
end a</w>
ill ance</w>
north east</w>
Ser vice</w>
Kar achi</w>
bur ned</w>
For ces</w>
pon tiff</w>
sli des</w>
Bal u
fli ght</w>
stand ards</w>
te en
strugg ling</w>
mag nit
Ku wait</w>
traffic king</w>
surve illance</w>
Fron t</w>
bra him</w>
Jak arta</w>
Falluj ah</w>
0 7</w>
5 3</w>
8 00</w>
I brahim</w>
P at
T or
W atch</w>
c over</w>
f oun
f emale</w>
r o</w>
r in
st on</w>
st ressed</w>
it ors</w>
ri ots</w>
ov a</w>
ap pl
po sing</w>
af ter
mon g</w>
sur ed</w>
ali ze</w>
fl ee
bo dy
dec ide</w>
bel ong
hea ding</w>
An bar</w>
az ine</w>
bas es</w>
law ed</w>
protest ing</w>
polic eman</w>
criti cs</w>
develop ments</w>
pos als</w>
confl ic
sear ching</w>
suspen d</w>
Tha i</w>
conduc ting</w>
gath ering</w>
aut om
Mc C
environ ment</w>
lan tic</w>
influ ence</w>
touri st</w>
ade qu
arch y</w>
hot el</w>
pati ents</w>
Accor ding</w>
Hav ana</w>
Insurg ents</w>
magnit ude</w>
B ern
G oo
H e
H er</w>
M ik
S wit
S erg
a por
e ing</w>
f ast</w>
n or</w>
s oil</w>
in divid
re at
re ver
re au</w>
en jo
ar ity</w>
st er
st age</w>
st aged</w>
ri v
ati vely</w>
un ar</w>
as y
is ol
de ep</w>
ne g
ex pen
Ch ira
Ch urch</w>
wor d</w>
fl ying</w>
me ant</w>
figh ter</w>
cla shed</w>
ret ali
aw a
stra ight</w>
pas sing</w>
Ju n</w>
see ing</w>
prison er</w>
cl u
ris en</w>
pul led</w>
Hun g
Sch roed
Sing apor
tradi tional</w>
stron au
mater ials</w>
Austri a</w>
rad ical</w>
zer land</w>
Viol ence</w>
Balu ch
Swit zerland</w>
Chira c</w>
Schroed er</w>
Singapor e</w>
D is
P re
T el
W ar
a p</w>
b ing</w>
b es</w>
e uro</w>
f el
f at</w>
f ish</w>
i si
s onal</w>
s now</w>
w n</w>
re ment</w>
re vol
on el</w>
ec ts</w>
el sewhere</w>
ac ts</w>
pro posals</w>
ir o</w>
am end
ad ed</w>
com pen
im prison
ear nings</w>
ent ation</w>
um i</w>
ho sti
sig ning</w>
mar king</w>
Sou th
def end</w>
respon d</w>
law i</w>
conc lud
contro ls</w>
ph ys
presid ents</w>
part ner</w>
Re porters</w>
dri ving</w>
negoti ators</w>
allow s</w>
At lantic</w>
Mu sab</w>
promis e</w>
trans ferred</w>
prepar ed</w>
escap e</w>
trac k</w>
Rw andan</w>
phot ograph
gren ade</w>
benef its</w>
commit ment</w>
ques tion</w>
fal ling</w>
get ting</w>
Malay sia</w>
ever y
Kaz akh
may or</w>
intro duc
neighb ors</w>
pilgri ms</w>
secret ly</w>
McC ain</w>
B ul
D oc
J ud
M ug
S pec
S pace</w>
Y emen</w>
b ea
b ly</w>
c utting</w>
d one</w>
e ty</w>
g a</w>
g ained</w>
h ere</w>
m ut
m emor
n er
s al
t esti
t ape</w>
z stan</w>
en i</w>
it or</w>
ra ther</w>
da r</w>
da ughter</w>
es cal
as king</w>
for man
por ation</w>
sh own</w>
ed ing</w>
wor ks</w>
prov ides</w>
cap ture</w>
ho on</w>
fac tion</w>
war s</w>
war ds</w>
Al lawi</w>
inter ests</w>
do gan</w>
Bri g
law maker</w>
loo k</w>
tran sport</w>
Cong olese</w>
sub sequ
stor med</w>
Ear th</w>
sist ant</w>
dri ve</w>
star ting</w>
requ ested</w>
bur ied</w>
sea s</w>
far mers</w>
Pe ter</w>
play er</w>
crow ded</w>
Jord anian</w>
Lank an</w>
spor ts</w>
var ious</w>
lan gu
ili ation</w>
lif ted</w>
Er dogan</w>
Ap r</w>
amoun t</w>
Kyrgy zstan</w>
Cy pri
determin ed</w>
insur ance</w>
Muha mmad</w>
lifer ation</w>
South east</w>
6 4</w>
A q
C yp
H or
L ou
S um
U ri
a stating</w>
c at
e ed</w>
f ed
h ib
h iding</w>
i or
l l
m ach
th an
er o</w>
ar i
ar t</w>
ar ance</w>
on a</w>
sa tion</w>
ra ib</w>
ol a</w>
es sed</w>
pl ed</w>
pl un
is s</w>
ak i</w>
vi ews</w>
att or
po is
po ore
emb ers</w>
mon archy</w>
Afgh ans</w>
pri sons</w>
acc or
ve ter
min es</w>
reas ury</w>
199 3</w>
go t</w>
Wor kers</w>
anc ing</w>
produc ed</w>
sel ling</w>
sub jec
reac h
tel eph
gre ement</w>
all er</w>
appe aled</w>
direc tly</w>
Se oul</w>
resol ved</w>
Sw iss</w>
hi de
mul ti</w>
Lu is</w>
initi al</w>
Fi ve</w>
cros sed</w>
dev astating</w>
expan sion</w>
Sal v
Gh raib</w>
pay ments</w>
Philipp ine</w>
insi sts</w>
clos ely</w>
Jal al</w>
carto ons</w>
satell ite</w>
disappe ared</w>
reconc iliation</w>
plot ting</w>
Baluch istan</w>
Kazakh stan</w>
Cyp rus</w>
1 5
2 50</w>
A N
A sh
A mong</w>
D omin
J ames</w>
P en
S in
S up
f ication</w>
g le</w>
h us
i on
k ingdom</w>
th o
th ir
er b
ti s
ou th</w>
st alled</w>
it ting</w>
al ty</w>
ur i</w>
ra tions</w>
li sh</w>
wh y</w>
wh om</w>
de partment</w>
ab e</w>
sh r
tw ice</w>
lo s</w>
ee p</w>
no ted</w>
iti ons</w>
ul e</w>
res tive</w>
inc enti
co al</w>
19 th</w>
mer ous</w>
ussi ons</w>
pen insula</w>
min ute</w>
gan g</w>
ran ch</w>
rel ation
Ara fat</w>
spec ul
As sad</w>
confir m</w>
Pro phet</w>
bla me</w>
negoti ator</w>
suppor ted</w>
Mil it
sw ept</w>
Lu k
adv oc
Bas ra</w>
monit or</w>
improv ing</w>
amb ush</w>
reti red</w>
Cri tics</w>
Philipp ines</w>
Mac ed
Val ley</w>
inde x</w>
Belar us</w>
Rang oon</w>
observ ers</w>
Por tu
Den mark</w>
Gen eva</w>
spl it</w>
coast al</w>
Tig er</w>
Rodri gu
adequ ate</w>
Uri be</w>
1 20</w>
8 5</w>
B rown</w>
F ree</w>
F uj
L o
M embers</w>
P a
P in
f ate</w>
j us
j ets</w>
l um</w>
m ates</w>
p aper</w>
z ing</w>
ti le</w>
st ands</w>
al le
ri es</w>
el ds</w>
ac ting</w>
us ually</w>
ch oo
por ting</w>
im pose</w>
coun t</w>
pol ling</w>
Ch ief</w>
repor ter</w>
mo ther</w>
dis man
dis sol
man agement</w>
au g
fac tory</w>
are s</w>
Mar ine</w>
air ed</w>
plac es</w>
def ended</w>
del iv
num bers</w>
sm aller</w>
hun ger</w>
ill a</w>
bri ef</w>
hear d</w>
trans fer</w>
pled ge</w>
pul l
human ity</w>
tem per
strong er</w>
passen ger</w>
Eng lish</w>
sugg ested</w>
frequ ent</w>
Sar ko
homel ess</w>
nu merous</w>
guerrill as</w>
shut tle</w>
Shei kh</w>
web site</w>
Sarko zy</w>
A S
B ud
C al
J int
N early</w>
N ouri</w>
P ort</w>
P owell</w>
R ome</w>
W eb</w>
a ide</w>
d ge</w>
e in</w>
e ve</w>
e um</w>
h a</w>
k ept</w>
m ary</w>
o se
p ings</w>
u k
in qu
re build</w>
re sign</w>
on ies</w>
al tern
ea s
ri d</w>
el and</w>
el ines</w>
us sels</w>
pl aying</w>
ff ic</w>
pro p
pro m</w>
de sign
ag er</w>
sp ying</w>
ed y</w>
qu it</w>
Ch en</w>
emb argo</w>
sur pri
ru b
iz umi</w>
acc epted</w>
cri p
sti t
gra ve</w>
comm and</w>
bec oming</w>
inter ior</w>
Gaz prom</w>
off shore</w>
injur y</w>
mov es</w>
proc ed
bac k
bac king</w>
syst ems</w>
Co operation</w>
run off</w>
El ection</w>
vol un
particip ate</w>
wel com
Ko izumi</w>
tempor ary</w>
distribu tion</w>
short ages</w>
Alex ander</w>
acknowled ged</w>
Br ussels</w>
mand u</w>
mission er</w>
set ting</w>
videot ape</w>
Offic e</w>
Kath mandu</w>
uten ant</w>
Mug abe</w>
incenti ves</w>
Rodrigu ez</w>
aug ur
deliv ered</w>
Jint ao</w>
0 th</w>
5 7</w>
5 9</w>
D j
G ates</w>
J ews</w>
K er
K ho
S o</w>
T op</w>
W al
e gra
h or
k ara</w>
t on
t al</w>
v ac
in ate</w>
re pl
en ses</w>
ti c
ti ces</w>
ou ts</w>
st u
st am
st oc
pro bab
ag enda</w>
lea ves</w>
vi ew
sec onds</w>
rec over</w>
tri c</w>
tra pped</w>
dem ic</w>
econom ies</w>
pre h
fin als</w>
har med</w>
over throw</w>
clo sing</w>
weap on</w>
Ar med</w>
Ara bs</w>
loc ked</w>
high way</w>
Jo se
kidnap pings</w>
requ ired</w>
main land</w>
identi fy</w>
Joh n
busin ess
Sad r</w>
consu l
sli de</w>
pul l</w>
play ers</w>
spea ker</w>
declin ing</w>
dou b
sing er</w>
gir ls</w>
mort ar</w>
hospit als</w>
aliz ation</w>
disar m</w>
Ramad i</w>
prac tice</w>
ther hood</w>
guar ant
challen ge</w>
Hos ni</w>
sam ples</w>
Bro therhood</w>
Seneg al</w>
asy lum</w>
Pre val</w>
Doc tors</w>
langu age</w>
hus band</w>
welcom ed</w>
probab ly</w>
5 6</w>
C N
F A</w>
F our</w>
H ut
J ourn
J acqu
K ie
K ib
L ama</w>
M ay
N ab
N ai
R C</w>
T reasury</w>
b ile</w>
c ited</w>
c argo</w>
f all
h ou
k h
k ar</w>
m om
m assa
o ice</w>
p ha
r ating</w>
s k</w>
u ed</w>
v an</w>
z z
in augur
or i</w>
st ea
st em</w>
at ollah</w>
ro ll</w>
ec tions</w>
li ved</w>
su it</w>
ad j
ain ts</w>
res h</w>
qu ali
In formation</w>
gi ves</w>
tra ffic</w>
tro pical</w>
um a</w>
sti mul
bor dering</w>
sup ports</w>
min ary</w>
dra w</w>
ran king</w>
depend ence</w>
rel atives</w>
Com mer
Col onel</w>
loc ation</w>
pos sibility</w>
sub way</w>
reac tor</w>
sy m
Co sta</w>
south west</w>
attemp ted</w>
comman ders</w>
suspen sion</w>
citi zen</w>
Mil ose
Gre ece</w>
settl ements</w>
sc ores</w>
spe ed</w>
adv ance</w>
ba sic</w>
electr on
rescu ed</w>
Fin land</w>
truc ks</w>
hand ling</w>
kov sky</w>
success fully</w>
Her z
shel ter</w>
inspec tors</w>
encoura ge</w>
gren ades</w>
pra yers</w>
sust ained</w>
Law makers</w>
Fed eration</w>
rob i</w>
care er</w>
compu ter</w>
Aq sa</w>
poore st</w>
eas ily</w>
Nai robi</w>
massa c
Milose vic</w>
4 1</w>
B an</w>
C la
G haz
H ours</w>
L ion</w>
T H
T y
a ward</w>
a stronau
c iting</w>
d um
g ar</w>
h ands</w>
i fied</w>
l an</w>
o ch
re p
at em
ha il</w>
sa c
si x
ur a</w>
ri s</w>
di stan</w>
pl ants</w>
li ber
wh ite</w>
con v
de vice</w>
Un iversity</w>
rou te</w>
wor n</w>
per sonal</w>
per forman
pri mary</w>
pres sing</w>
An dre
An kara</w>
stat ements</w>
resp ect</w>
disc ussions</w>
ten ed</w>
eg ovina</w>
laun ching</w>
Kur distan</w>
negoti ate</w>
indic ated</w>
summ er</w>
lim it</w>
sett led</w>
pur poses</w>
Ken ne
refer red</w>
jud ges</w>
far ms</w>
wat ch</w>
Ahm ad</w>
ba il</w>
spea k</w>
monit oring</w>
demonstra tion</w>
extrem ist</w>
So cial</w>
mag azine</w>
frequ ently</w>
clos er</w>
surr ounding</w>
competi tion</w>
stabil ize</w>
inten si
prep are</w>
dor kovsky</w>
The ir</w>
congres sional</w>
Inv estig
Pan ama</w>
Nicaragu a</w>
Maur it
ll ery</w>
stit ute</w>
Kho dorkovsky</w>
Herz egovina</w>
3 9</w>
7 6</w>
B ird</w>
D al
E ight</w>
H ea
Q at
S E</w>
T reat
V er
Z aw
c op
c tic</w>
f resh</w>
i ble</w>
k istan</w>
w a</w>
y e</w>
in mates</w>
an ov</w>
er ies</w>
re placed</w>
en emy</w>
at ami</w>
si m
ra ti
li ft</w>
gh ly</w>
po int
im ages</w>
per ts</w>
mo han</w>
har d
ang ered</w>
politi cs</w>
eal thy</w>
vo ice</w>
respon d
mp tion</w>
rel atively</w>
bro ken</w>
ob t
stra ined</w>
loc k</w>
Dem ocracy</w>
lic k</w>
jud ic
Lib eria</w>
Sw at</w>
Kh atami</w>
bloc k
shar p</w>
streng th</w>
Ex perts</w>
Cor poration</w>
Man mohan</w>
industri es</w>
moun tain
reduc ing</w>
politici an</w>
So ci
arti llery</w>
apparen t</w>
preven ted</w>
Uzbe kistan</w>
underg round</w>
subsi dies</w>
labor atory</w>
denoun ced</w>
spons ored</w>
extra d
Erit rea</w>
festi val</w>
reach ing</w>
teleph one</w>
pull out</w>
Jacqu es</w>
Kie v</w>
Zaw ah
B h
J an
K rem
M ill
M ali</w>
M ullah</w>
T ro
a ur
b low</w>
c li
f lo
g row</w>
i de
l en</w>
l anded</w>
n ative</w>
in king</w>
re z</w>
re un
re move</w>
en th</w>
ti m
ar ation</w>
ur g
ra pe</w>
pro sp
ir y</w>
sh ops</w>
im ported</w>
af tern
ash vil
war r
har m
oper ated</w>
out i</w>
Nor w
reas ons</w>
ay ev</w>
do w</w>
Ar men
visi ons</w>
ca uses</w>
gun fire</w>
confir mation</w>
tea chers</w>
Gu atem
end ra</w>
stro ke</w>
indic ates</w>
ext ernal</w>
Pe troleum</w>
Lib ya</w>
repres entative</w>
ush ing</w>
Sw e
contrac ted</w>
adv anced</w>
prof it</w>
foc used</w>
nomin ee</w>
Republic ans</w>
Ric hard</w>
questi oning</w>
Croati an</w>
hon or</w>
experi enced</w>
Ramad an</w>
suspic ion</w>
restor ed</w>
Alli ance</w>
thir ds</w>
temper atures</w>
fall en</w>
six th</w>
Krem lin</w>
aftern oon</w>
5 4</w>
9 5</w>
A ff
A greement</w>
C O
C ap
G ol
I R
K am
L ie
S us
T an
U S
Z abul</w>
b ru
b ound</w>
d ict</w>
d rought</w>
e ful</w>
f ear
r are</w>
t elec
w ake</w>
z gan</w>
er ce</w>
ti oned</w>
ar ia</w>
ar rang
st e</w>
al ert</w>
il ing</w>
si ze</w>
ri pped</w>
el ing</w>
di stric
un harmed</w>
li gh
con struc
sp reading</w>
ak es</w>
lo ans</w>
att le</w>
ul a</w>
ul ts</w>
le ts</w>
Is mail</w>
oc ca
mo di
mo bile</w>
dis crimin
pri mar
int ern
fi res</w>
bo ats</w>
ash enko</w>
war ming</w>
viol ating</w>
det ected</w>
199 2</w>
De t
del iver</w>
cre ation</w>
Sa har
newsp apers</w>
ill ness</w>
test ing</w>
withdraw ing</w>
sent ences</w>
prof es
ba sis</w>
vol ati
initi ally</w>
regul ations</w>
ber g</w>
impl ement</w>
fri end
Wil li
bar red</w>
reti rement</w>
transi tional</w>
Ay atollah</w>
vacc ine</w>
exerc ise</w>
Uru zgan</w>
sof t</w>
Char les</w>
opport unity</w>
event ually</w>
Serg ei</w>
hosti le</w>
Salv ador</w>
relation ship</w>
Luk ashenko</w>
Jose ph</w>
CN N</w>
Treat y</w>
mountain ous</w>
Aff airs</w>
4 6</w>
4 8</w>
7 3</w>
D ick</w>
E a
G o
G un
H ond
N et
O n
O s
R en
R aul</w>
S qu
S hel
T o</w>
T ens</w>
Y ou
a vi
f ears</w>
g one</w>
s log
t ar</w>
t ations</w>
t een</w>
w all</w>
y n
an o</w>
re v
en cla
ti a</w>
ti tle</w>
al ese</w>
el ig
om as</w>
om mun
di versi
is co</w>
de plo
ex tre
ex tradition</w>
pe troleum</w>
ci a</w>
pol l
Ch ech
attac king</w>
our g</w>
ev ised</w>
sur face</w>
acc ept
um s</w>
pan demic</w>
Ba qu
cen tered</w>
ang s</w>
over seas</w>
ant a</w>
disc lo
Me h
up per</w>
tel evised</w>
Car ol
arri ving</w>
roc k</w>
requ ire</w>
Be fore</w>
bal ance</w>
Ad minist
exec uted</w>
Di rec
celeb rate</w>
Ang ola</w>
accid ents</w>
Op en</w>
fri end</w>
cler ics</w>
contribu ted</w>
Res cu
expan ded</w>
tiv ated</w>
pursu e</w>
recor ds</w>
Chil ean</w>
aband on</w>
prosec ution</w>
hijac ked</w>
Nav y</w>
paramil itary</w>
photograph s</w>
plun ged</w>
attor ney</w>
Commer ce</w>
Dal ai</w>
Qat ar</w>
Bh ut
ashvil i</w>
Swe dish</w>
Lie utenant</w>
distric ts</w>
Willi am</w>
Ea stern</w>
slog ans</w>
4 7</w>
5 8</w>
B ec
E mp
G yan
I l
K unar</w>
M anu
R ez
S t</w>
S im
S cienti
S aint</w>
T en
W ol
b arri
f oo
f ounded</w>
j i</w>
m iddle</w>
r ounds</w>
s cre
s worn</w>
t el</w>
th u
in ary</w>
en tering</w>
ti gh
it h</w>
ro om</w>
ha i</w>
ur ed</w>
ur al</w>
un ve
de v</w>
de aling</w>
su per
su gar</w>
ow ard</w>
se x</w>
sh enko</w>
In du
attac ker</w>
au th
inv ited</w>
gu es</w>
gu lar</w>
sev enth</w>
sol id
comm emor
du ty</w>
An tar
Ba h
ang er</w>
politi cally</w>
row ing</w>
inter c
air strikes</w>
pa ir</w>
eg ian</w>
Bur un
if y</w>
inj uring</w>
Cong res
ass er</w>
20 th</w>
Pro t
compl ex</w>
discus sing</w>
Car los</w>
sist ence</w>
disp utes</w>
ven tion</w>
requ ires</w>
pac ked</w>
consid ers</w>
invest ments</w>
cou ple</w>
citi zen
stud ent</w>
destro y</w>
cust oms</w>
Ram allah</w>
deter ior
initi ative</w>
break away</w>
celeb rations</w>
dr one</w>
fri ends</w>
Govern or</w>
Si x</w>
wil d</w>
rest aur
Dan i
transi tion</w>
nav y</w>
abo ard</w>
hospit alized</w>
homel and</w>
recomm en
promo ting</w>
ty rs</w>
histor ic</w>
Tog o</w>
Mik hail</w>
introduc ed</w>
Jud ge</w>
Brig ades</w>
Bud dh
repl ied</w>
massac re</w>
Kenne dy</w>
Zawah iri</w>
Norw egian</w>
volati le</w>
Gyan endra</w>
citizen ship</w>
B ali</w>
C ur
E TA</w>
F AL
K host</w>
M en
P op
Z am
d red</w>
e igh
g angs</w>
i ons</w>
j et</w>
o x
o ting</w>
p utting</w>
s or
er man</w>
en try</w>
ti ght</w>
at ro
ic ian</w>
ra v
ra m</w>
li minary</w>
be ating</w>
is es</w>
de st
ag ent</w>
est ing</w>
govern ing</w>
fir ms</w>
per mission</w>
ent e</w>
ren oun
Mon etary</w>
cap ita</w>
pre liminary</w>
war planes</w>
viol ation</w>
mar ch</w>
Mar tin</w>
Mar tyrs</w>
air strike</w>
do or</w>
tu al</w>
wea k
explo sive</w>
Me dia</w>
protest ed</w>
cre ating</w>
Cha irman</w>
wa ves</w>
tor ch</w>
sub ur
Re sistance</w>
hun dred</w>
Gu ang
Gu ard</w>
ess or</w>
aff ect</w>
mov ie</w>
appe arance</w>
territ orial</w>
lim its</w>
Bo eing</w>
cro ps</w>
conf ron
priv ati
succ ess</w>
comb ined</w>
exec ution</w>
Bel gi
Bas har</w>
char ter</w>
claim ing</w>
Az erb
cle an</w>
var o</w>
occup ation</w>
bloo dy</w>
Res erve</w>
Ra dio</w>
disrup t</w>
strateg ic</w>
17 th</w>
recor ded</w>
ques tions</w>
regist ered</w>
evacu ated</w>
origin ally</w>
coordin ated</w>
fle w</w>
transpor tation</w>
assu med</w>
emis sions</w>
norm al</w>
achiev ed</w>
shr ine</w>
Maced onia</w>
performan ce</w>
block ade</w>
Emp ire</w>
Buddh ist</w>
FAL SE</w>
Azerb ai
4 4</w>
6 3</w>
A FP</w>
C r
D ub
E mer
G il
L ater</w>
M ul
Z ap
a x
a im
b ook</w>
c enti
e ating</w>
i ang</w>
j ury</w>
r ice</w>
r ural</w>
s wee
u als</w>
in ha
in no
in formed</w>
er i</w>
re r</w>
ar ding</w>
it ems</w>
si bly</w>
ra tive</w>
em ic</w>
pl us</w>
op ium</w>
op poses</w>
ow ing</w>
ow ner</w>
ak ia</w>
ed ings</w>
lo yal</w>
ee l</w>
im ori</w>
coun ted</w>
bu l</w>
sec tion</w>
oc c
In di
mon y</w>
ali ve</w>
co ff
tra ined</w>
int ense</w>
fi elds</w>
Tu t
tro op</w>
gra du
du ties</w>
Al varo</w>
min al</w>
Pri ze</w>
ma p</w>
Nor thern</w>
announ ce</w>
Ma h
sen si
Com missioner</w>
spec ific</w>
compl aints</w>
proc essing</w>
eng aged</w>
appe als</w>
sk ir
Co alition</w>
bir th</w>
campa ig
nam es</w>
Kash m
decl aration</w>
At tor
boo sting</w>
activi st</w>
gr at
gr ant</w>
Sev en</w>
Mal awi</w>
exten sive</w>
own ers</w>
char ac
particip ation</w>
slow ly</w>
Gh ana</w>
ade i</w>
tiv ity</w>
cour ts</w>
expl or
wr ong
public ly</w>
Uzbe k</w>
surr ounded</w>
Uru gu
Scot t</w>
jun ta</w>
Lat via</w>
sex ual</w>
Cambo dia</w>
ham per
substanti al</w>
mud slides</w>
body guards</w>
Goo gle</w>
specul ation</w>
Fuj imori</w>
Hut u</w>
Guatem ala</w>
telec ommun
Chech en</w>
Baqu ba</w>
Scienti sts</w>
Belgi um</w>
A la
F I
F igh
G n
J ack
L ik
N am
R az
S tr
S reb
T ar
U N
a uc
b ag
d ari</w>
e di
f are</w>
f ru
f low</w>
g al</w>
g ency</w>
g ains</w>
j am
p y</w>
v ul
w s</w>
an is</w>
an sw
er ate</w>
re sistance</w>
re gular</w>
en ter
ti cal</w>
ar ities</w>
st a
ic ated</w>
el ess</w>
ati cally</w>
di ver
es ha
pl agu
un able</w>
un covered</w>
con sp
de si
ne u
ap point
pe ti
ci ence</w>
pol io</w>
iti ve</w>
le g</w>
rou ghly</w>
str ing</w>
inc ur
rec asters</w>
emb assi
ric ket</w>
mer ger</w>
tal k</w>
pres sed</w>
pen alty</w>
An ton
min or</w>
Ab k
Kore ans</w>
Mar s</w>
ay a</w>
lin king</w>
clo sure</w>
den y</w>
Pakist anis</w>
don or</w>
Coun tries</w>
Fr anc
eh r</w>
compl ained</w>
gre at
bus y</w>
fun ded</w>
hun t</w>
commun ications</w>
disp er
bur ning</w>
med ic
ine a</w>
col ony</w>
batt les</w>
withdraw n</w>
ah u</w>
pic tures</w>
inst ability</w>
Gre en
floo d</w>
Fo recasters</w>
exten ding</w>
char ity</w>
bi g</w>
recogn ized</w>
cle ared</w>
gener ally</w>
any ahu</w>
amb itions</w>
transi t</w>
boycot ted</w>
16 th</w>
author ized</w>
squ are</w>
apar tment</w>
Mad rid</w>
writ ten</w>
log is
Fed er
Rel ations</w>
surren der</w>
partn ers</w>
Vic ente</w>
proce edings</w>
Alg erian</w>
Prov ince</w>
freez e</w>
blam es</w>
tion ally</w>
Sil va</w>
shoot out</w>
riv als</w>
imprison ed</w>
memor ial</w>
subjec t</w>
Portu gal</w>
Pin och
Kib aki</w>
astronau ts</w>
obt ained</w>
Tan z
primar ily</w>
Net anyahu</w>
elig ible</w>
Direc tor</w>
Emer gency</w>
embassi es</w>
Pinoch et</w>
4 2</w>
4 3</w>
5 1</w>
D RC</w>
H im
I C
I re
M an</w>
M umb
T ou
V il
f ting</w>
f ying</w>
l ers</w>
l ying</w>
m el
m our
n ers</w>
s i</w>
u a</w>
v ers</w>
w earing</w>
y le</w>
an ians</w>
re building</w>
ti vely</w>
il a</w>
ac e</w>
di g
be at
as s</w>
ch ur
for cement</w>
se ed</w>
id ly</w>
por tion</w>
sh op
ed itor</w>
im i</w>
coun ts</w>
ig nor
ain e</w>
Ch echn
In iti
ing be</w>
tur ning</w>
cal m</w>
mo tivated</w>
mo shenko</w>
dis ea
man aged</w>
man date</w>
mis sions</w>
iz es</w>
sol ution</w>
ho p</w>
prot ecting</w>
ve dev</w>
cla ssi
Al ban
bil lions</w>
Sou thern</w>
ay an</w>
do g</w>
tu ally</w>
jo ining</w>
Pol iti
go als</w>
Tur in</w>
disc overy</w>
dra m
depen ds</w>
den ying</w>
investig ated</w>
cre d
plan ted</w>
vis itors</w>
ass ingbe</w>
As sistance</w>
bl ack
Pro test
stor ms</w>
itt ances</w>
assa il
soci ety</w>
arri ve</w>
direc ted</w>
rejec t</w>
Bar adei</w>
El Baradei</w>
legisl ature</w>
consu mers</w>
inst alled</w>
contrac tors</w>
Ac t</w>
prof its</w>
demonstr ated</w>
Di plom
nomin ated</w>
paren ts</w>
Lea ders</w>
crimin als</w>
industri alized</w>
stand off</w>
Ber lin</w>
success or</w>
Ric a</w>
adi c</w>
influ ential</w>
iy ah</w>
phot os</w>
Med vedev</w>
rap idly</w>
Revol ution</w>
Angel a</w>
Rec ep</w>
cy cle</w>
succe ed</w>
Tay yi
Yugosla v</w>
endor sed</w>
conflic ts</w>
Cypri ot</w>
inqu iry</w>
Ghaz ni</w>
Ty moshenko</w>
fear ed</w>
intern ation
Gun men</w>
Hond ur
Squ are</w>
Shel l</w>
accept able</w>
Azerbai jan</w>
occ er</w>
telecommun ications</w>
Gn assingbe</w>
vul ner
Mumb ai</w>
Chechn ya</w>
Tayyi p</w>
1 40</w>
8 8</w>
A vi
B I</w>
C i
E ve</w>
E ag
F el
F ir
G ra
H ill</w>
H oward</w>
I O
I ri
J es
J av
O u
P i
S ic
T R
V ir
W all</w>
b oun
b it</w>
f ic
h ang
l en
m y
m arg
n on
t ell</w>
u el</w>
w age</w>
z ation</w>
an ci
re in
ti me
st an
at or
ro v</w>
si zed</w>
em plo
pl e
un its</w>
un ited</w>
pro spec
de vices</w>
ch e
se y</w>
se iz
ad ver
ab ly</w>
tr and</w>
le ge</w>
Is land</w>
Th omas</w>
St re
tri als</w>
mo tion</w>
dis sidents</w>
man ned</w>
pri or</w>
fi erce</w>
dem ocra
ann ually</w>
ash ed</w>
ang ry</w>
car ri
inter pre
do x</w>
plac ing</w>
increas es</w>
bro k
ga p</w>
pos sibly</w>
20 12</w>
Gu inea</w>
aff ir
fam ous</w>
sched ule</w>
Per sian</w>
dro pping</w>
El ec
pic ked</w>
estim ate</w>
ish ing</w>
Cl ar
destro ying</w>
adv ant
Fo otball</w>
cerem onies</w>
Fin ancial</w>
cle an
compe te</w>
extrem ely</w>
Li thu
messa ges</w>
adi um</w>
br ings</w>
down turn</w>
Zar dari</w>
uni ons</w>
encoura ged</w>
complet ely</w>
cour se</w>
insi sted</w>
experi ence</w>
tin y</w>
preven ting</w>
Bu reau</w>
Gar ang</w>
surren dered</w>
purcha se</w>
prec ed
proper ty</w>
exist ing</w>
predic ted</w>
individ uals</w>
isi ana</w>
conclud ed</w>
Lou isiana</w>
hide out</w>
tho dox</w>
Maurit ania</w>
Tro pical</w>
Burun di</w>
centi meters</w>
sensi tive</w>
Attor ney</w>
Urugu ay</w>
Lik ud</w>
consp iracy</w>
Ire land</w>
assail ants</w>
1 30</w>
6 1</w>
7 2</w>
A BC</w>
D r</w>
E v
G ab
H en
L op
L ag
L ee</w>
M ag
N at
N ow</w>
O per
R u
S mit
T ik
Y oun
Z o
c ated</w>
f ts</w>
g ol
k s
k et
r on</w>
s ound</w>
v ast</w>
w rec
er o
ti ed</w>
ti al</w>
al one</w>
ac io</w>
is hop</w>
de posed</w>
ad ding</w>
ex ce
ex tra</w>
por ter</w>
ap ologi
ak ashvili</w>
lo b
po sts</w>
im pover
iti m
qu es</w>
ent ally</w>
cap able</w>
bo ys</w>
dec reas
fin ally</w>
comm ented</w>
viol ate</w>
air line</w>
liam s</w>
wea k</w>
lin k</w>
vo ic
grow n</w>
ca sting</w>
gun battle</w>
wa iting</w>
Or thodox</w>
sub mitted</w>
kee ping</w>
Sa akashvili</w>
Per es</w>
Chri stop
hop ing</w>
rejec ting</w>
198 8</w>
sear chers</w>
col on
col lea
gg ing</w>
under went</w>
Lib yan</w>
add ressed</w>
bloc king</w>
197 0s</w>
techn ical</w>
celeb rated</w>
Bal k
Iv anov</w>
dr inking</w>
Ber trand</w>
Wil liams</w>
appro pri
autonom ous</w>
mus eum</w>
wr ong</w>
Do zens</w>
aliz ing</w>
Ja af
exerc ises</w>
aband oned</w>
sem i
fle e</w>
maint ained</w>
Slov en
forec asters</w>
cir c
Da ily</w>
To day</w>
ich iro</w>
Gr and</w>
tex tile</w>
belong ing</w>
compen sation</w>
Milit ants</w>
choo se</w>
volun te
egra tion</w>
preh ensive</w>
John son</w>
Manu el</w>
foo t</w>
unve iled</w>
Kashm iri</w>
FI FA</w>
Jack son</w>
Tanz ania</w>
Him al
disea ses</w>
Fir st</w>
Iri sh</w>
Stre et</w>
Lop ez</w>
Smit h</w>
impover ished</w>
Christop her</w>
0 2</w>
A S</w>
A ss</w>
B l
B et
B lack</w>
C A
C el
E qu
G am
H al
H aw
M ur
M and
N ew
O ver</w>
P ublic</w>
S ab
S and
T yp
a iled</w>
b ad
b ic</w>
c ope</w>
e ys</w>
j ur
l o</w>
m ir
m ament</w>
r y
t ough</w>
u tions</w>
v est
w ro
z es</w>
re ve
re lay</w>
en a</w>
or m</w>
it able</w>
ic ip
sa ve</w>
ri t</w>
ol as</w>
un named</w>
un iversity</w>
ir regul
am mun
am nesty</w>
de e
de gre
wit ness</w>
sp a
sp y</w>
kil ls</w>
lo an</w>
att ribu
ear ned</w>
qu ote</w>
St orm</w>
mis m</w>
int eg
leg itim
ho u</w>
pres sion</w>
fin dings</w>
war ded</w>
har sh</w>
mee ts</w>
ve to</w>
hu an</w>
ie f
Ab del</w>
air lin
vo ys</w>
vo ter</w>
go es</w>
cur b</w>
aw are</w>
pa ying</w>
bro ad</w>
ip e</w>
fun c
Re sidents</w>
hun ting</w>
Car roll</w>
inf ection</w>
Per u
gen ous</w>
cl one</w>
quar ter
bri dge</w>
consu late</w>
floo ded</w>
197 9</w>
gr ounds</w>
exten sion</w>
netw or
Lea der</w>
stop ping</w>
moun tain</w>
contribu te</w>
Qu re
Res ear
dang er</w>
wel come</w>
pil ot</w>
effec ts</w>
tan ks</w>
Cri minal</w>
pay ment</w>
Moroc can</w>
pursu ing</w>
disrup ted</w>
refin ery</w>
refin eries</w>
diffic ul
lif ting</w>
Ay man</w>
wal ked</w>
mi xed</w>
pi ece</w>
partn ership</w>
cru cial</w>
Stra w</w>
fel low</w>
testi mony</w>
friend ly</w>
encla ve</w>
Administ ration</w>
Cr ude</w>
Dub ai</w>
Figh ting</w>
plagu ed</w>
Tou rism</w>
internation ally</w>
vulner able</w>
Eag le</w>
Vir g
time table</w>
Tik rit</w>
wro te</w>
irregul arities</w>
ammun ition</w>
0 3</w>
1 st</w>
6 7</w>
B A
B y</w>
B or
B ag
B ash
E R
E id</w>
F a
I m
I stan
J ong</w>
M id
M rs</w>
O bas
S ir
b y
b i</w>
b on</w>
b ought</w>
b rain</w>
h ome
r allied</w>
s occer</w>
t led</w>
t ains</w>
v i</w>
w ood</w>
y ond</w>
th al</w>
in ter</w>
re searchers</w>
en cing</w>
ar do</w>
or ities</w>
ou ch
it ch
al ways</w>
at ra</w>
sa tis
di am
em ed</w>
pl at
pro liferation</w>
be yond</w>
ag ar</w>
ow ns</w>
sp here</w>
ad o</w>
ex porter</w>
ab a</w>
est er
govern mental</w>
im age</w>
sec ular</w>
cont ained</w>
pri ze</w>
ren ica</w>
int egration</w>
war ns</w>
Al b
out going</w>
bomb ed</w>
sen ator</w>
sho ts</w>
Ger hard</w>
Com pan
et ta</w>
plan et</w>
retur ns</w>
As sistant</w>
cha os</w>
high s</w>
chan nel</w>
identi ty</w>
resol ving</w>
198 4</w>
indic tment</w>
attemp ting</w>
ell an</w>
Con ference</w>
Ro yal</w>
hear ings</w>
inst all
Gre at</w>
stre am</w>
fil led</w>
Mic ro
elm ingly</w>
lor ds</w>
deleg ates</w>
gener als</w>
reduc tion</w>
Nic olas</w>
expan ding</w>
arti cle</w>
appro ach</w>
196 7</w>
Rom ania</w>
week end</w>
slow ed</w>
rap id</w>
advis or</w>
hot els</w>
tun nel</w>
hy dro
mort ars</w>
short age</w>
prin ci
anj o</w>
disar mament</w>
gar ia</w>
mod ern</w>
overwh el
overwh elmingly</w>
strength ening</w>
retali ation</w>
amend ment</w>
Bul garia</w>
Spec ial</w>
rub ble</w>
mom ent</w>
electron ic</w>
judic ial</w>
ide a</w>
Carol ina</w>
explor ation</w>
Sreb renica</w>
Sic huan</w>
advant age</w>
Jaaf ari</w>
Istan bul</w>
Obas anjo</w>
7 7</w>
7 8</w>
E d
F BI</w>
G on
H ou
H om
H ak
I y
J ack</w>
K i</w>
K are
M ou
M oun
M ir
N on</w>
R ash
S af
S rin
W TO</w>
b ishop</w>
c lin
f lawed</w>
h itting</w>
j ani</w>
l it
l ess
m enti
p i</w>
p age</w>
p ath</w>
s cra
y m
z i</w>
th ink</w>
in di
in adequate</w>
an es</w>
re struc
ti ves</w>
ar d
on to</w>
st ore</w>
st one</w>
st yle</w>
sa s</w>
sa bot
ra di
ac hed</w>
es sions</w>
un acceptable</w>
con grat
as a</w>
op ti
op tions</w>
lea ds</w>
ch os
sp an</w>
ab sol
resid ence</w>
im mun
ul ated</w>
le p
Ch an
oc au
St ation</w>
wor se</w>
wor ried</w>
our ed</w>
tra g
19 60</w>
gu id
to x
econom ists</w>
pre domin
sev er
me an
me an</w>
rem ittances</w>
war n</w>
cen tr
min im
ma xim
Europe ans</w>
so aring</w>
loo ks</w>
Ara bic</w>
pos s
Dem on
tor ies</w>
tor ious</w>
sub sistence</w>
Colom bo</w>
ail ing</w>
hop ed</w>
Jun ichiro</w>
198 2</w>
disa sters</w>
mor ed</w>
under way</w>
mun icip
ref er</w>
repres ent</w>
pat ri
Con stitu
conf id
Bas e</w>
Nep alese</w>
Ex change</w>
Di y
import ance</w>
trib es
exp ires</w>
Mc Cl
Fin ance</w>
cle aring</w>
ber to</w>
signific antly</w>
Econ om
trou ble</w>
clim bed</w>
champ ion
haz ia</w>
ves sels</w>
mist ake</w>
attrac ted</w>
associ ated</w>
origin al</w>
sem i</w>
coc aine</w>
Slov akia</w>
interrog ation</w>
subsi di
Mi ami</w>
spir it
refu sal</w>
aggres sive</w>
Ho sp
fed er
Pen insula</w>
altern ative</w>
surpri se</w>
inno cent</w>
Nam ib
Abk hazia</w>
Diplom ats</w>
Jav a</w>
brok ered</w>
Lag os</w>
Himal ayan</w>
dee ply</w>
Peru vian</w>
Bash ir</w>
Micro soft</w>
Gon z
Iy ad</w>
chos en</w>
ocau st</w>
4 9</w>
8 1</w>
A si
B ou
B eng
D mit
F ac
H ill
N i
P ear
T a
T om</w>
T aj
a warded</w>
c les</w>
c ricket</w>
d in</w>
e k
f ly</w>
k y</w>
k ind</w>
l or</w>
l us</w>
r allies</w>
s enti
t ren
t ank</w>
u sian</w>
x es</w>
z ona</w>
in i</w>
re di
ti l
ti er</w>
ar m</w>
ou tra
ic an</w>
sa r</w>
si er</w>
ur ban</w>
ri gged</w>
el a</w>
el abor
da tions</w>
un ities</w>
un iver
li sted</w>
con sec
con sen
con sequ
ag ers</w>
su m
sid elines</w>
sp end</w>
for d</w>
se aled</w>
com promise</w>
sh ared</w>
ed i</w>
kil ogra
lo t</w>
lo se</w>
ci pl
im a</w>
res sing</w>
Th ese</w>
cont am
mis sed</w>
int ention</w>
Pak ti
Mon ten
ser vic
prot ec
hu i</w>
cla ss</w>
Al ito</w>
Al berto</w>
ie ty</w>
min d</w>
fa ir
car tel</w>
cu lar</w>
eg ro</w>
ib outi</w>
up set</w>
don ations</w>
gun s</w>
Dem ocra
vis a</w>
bl es</w>
cha ir
Cub ans</w>
aff ili
sist ent</w>
Kar bal
arri val</w>
deci sions</w>
urric anes</w>
doc tor</w>
fug itive</w>
emerg ing</w>
under mine</w>
conf is
At l
boo sted</w>
enric hed</w>
Ari zona</w>
equ al</w>
Ex porting</w>
Cor ps</w>
Cam er
dr il
recogn ition</w>
moun ting</w>
gener ate</w>
Abd ul
insu l
ballo ting</w>
Boli vian</w>
her o
tan ker</w>
slow down</w>
Argent ine</w>
Sol ana</w>
nar row
lu sion</w>
anim al</w>
anim als</w>
Air lines</w>
revi ve</w>
recomm ended</w>
Austri an</w>
Belar usian</w>
Tay lor</w>
proper ly</w>
refl ect</w>
Yugosla via</w>
multi ple</w>
Lah oud</w>
foun der</w>
clu b</w>
than ked</w>
Dj ibouti</w>
pha se</w>
Bah rain</w>
Dani el</w>
chur ches</w>
Politi cal</w>
Jes us</w>
prospec ts</w>
vest ock</w>
reve aled</w>
ief s</w>
Srin agar</w>
indi genous</w>
McCl ellan</w>
spirit ual</w>
Hill ary</w>
consec utive</w>
Monten egro</w>
Karbal a</w>
1 60</w>
8 4</w>
A M
A id</w>
D C</w>
E L
F re
F ro
I N</w>
L au
L ash
N y
N ar
N ation
N ik
P esha
R os
S ul
S ub
W FP</w>
Z h
c a</w>
d op
d ates</w>
d ily</w>
f ill</w>
f ic</w>
f ine</w>
g est
i ther</w>
i ya</w>
i que</w>
l is</w>
l anding</w>
r al</w>
s an
t om
t les</w>
an cy</w>
er ly</w>
re ts</w>
en h
ti cally</w>
or an</w>
st aff
ea sier</w>
da k</w>
di vision</w>
un anim
un preced
ov ers</w>
ov ic</w>
ff s</w>
con dol
am en</w>
de pic
op tion</w>
ex hib
sh oc
tr ust</w>
par ade</w>
no tes</w>
iti me</w>
St ud
ing ent</w>
ev asion</w>
dis cipl
form erly</w>
Ir anians</w>
eb all</w>
cri tic</w>
Sun nis</w>
um ents</w>
sti c</w>
low est</w>
mar ried</w>
cen tri
out lawed</w>
out skir
fa il</w>
Kore as</w>
inter rup
Offici al</w>
so ared</w>
respon ding</w>
tak i</w>
ph a</w>
Col in</w>
tran sm
gun man</w>
gun ned</w>
pas sa
reg arding</w>
tel ls</w>
gre en
invol ves</w>
Re gi
Ser bs</w>
neigh bor</w>
Se an</w>
ach es</w>
employ ed</w>
dam aging</w>
pon ent</w>
deb ris</w>
col lege</w>
far ming</w>
emerg ed</w>
critici zing</w>
Shar if</w>
repres enting</w>
Ro d
Tha ks
sla ugh
18 th</w>
sw ine</w>
Lu x
Ad d
religi on</w>
prof ile</w>
Bel grade</w>
ba b</w>
Cam p</w>
migr ant</w>
land slide</w>
long time</w>
bloo d
contribu tions</w>
Qu etta</w>
gadi er</w>
iy eh</w>
trigg ering</w>
fla g</w>
Mao ists</w>
benef it</w>
squ ad</w>
some times</w>
traffic kers</w>
assi st</w>
Hol ocaust</w>
compu ters</w>
guerrill a</w>
succe eded</w>
emis ph
opport unities</w>
cover age</w>
Alg eria</w>
Mot taki</w>
broadca sts</w>
teen ager</w>
Hung ary</w>
Hung arian</w>
phys ical</w>
subsequ ent</w>
Sup porters</w>
Cal der
design ated</w>
hou se
stimul us</w>
respond ent</w>
warr ant</w>
discrimin ation</w>
deplo y</w>
Antar ctic</w>
Pop ular</w>
atro cities</w>
Anton io</w>
medic ine</w>
mour ning</w>
ple a</w>
appropri ate</w>
circ um
Typ hoon</w>
Qure ia</w>
Compan y</w>
maxim um</w>
municip al</w>
Hosp ital</w>
elabor ate</w>
Pesha war</w>
unpreced ented</w>
outskir ts</w>
Thaks in</w>
0 4</w>
1 1
8 2</w>
B O
B road
B BC</w>
C ape</w>
E R</w>
F al
H el
H ome</w>
H ay
I N
L av
N ag
N uclear</w>
O f</w>
R i
R og
R ita</w>
S an
T er
a side</w>
a stro
d ated</w>
d ry</w>
f ence</w>
f ever</w>
h all</w>
j u
l eng
m em
n y</w>
p um
r ushed</w>
s elected</w>
s ick</w>
w ic
w eb</w>
y ou
z hou</w>
th ings</w>
in ti
in sp
in ess</w>
re vis
re affir
en ly</w>
ar ch</w>
ar ra</w>
ar mored</w>
ou ster</w>
st ret
st ation
st ores</w>
at mo
sa y
si ght</w>
ur ge</w>
ra dic
el lick</w>
da h</w>
da wn</w>
ac compan
es sive</w>
un manned</w>
li vestock</w>
la id</w>
as h</w>
as ser
is ing</w>
ne ither</w>
sp ill</w>
com prehensive</w>
pe i</w>
tr y
lo aded</w>
ul l</w>
igh t
qu ot
Ch i
str ators</w>
str anded</w>
In stitute</w>
St eph
wor k
emb ourg</w>
ev in</w>
arg ued</w>
per cent
sur ing</w>
elec tric</w>
pri ority</w>
fl own</w>
enti ally</w>
fin ed</w>
war nings</w>
war lords</w>
har m</w>
mar ri
mar red</w>
surg ed</w>
woun ds</w>
air ports</w>
Sh in
Sh ang
Bri gadier</w>
law suit</w>
Tal ks</w>
conc ert</w>
dra wn</w>
ran ked</w>
ran ean</w>
ob served</w>
cor rec
reac tors</w>
compl y</w>
hal ted</w>
Car ter</w>
sist ing</w>
requ i
hop eful</w>
ta il</w>
employ ee</w>
bir th
col li
Har ry</w>
Tai pei</w>
repres ents</w>
pic ture</w>
promis es</w>
cul tural</w>
Gre en</w>
ank s
militi amen</w>
foc using</w>
Sha h</w>
Sha bab</w>
vol can
break ing</w>
appro xim
phot ogra
Med iter
promp ting</w>
men ei</w>
some one</w>
typ hoon</w>
fat alities</w>
challen ged</w>
recru iting</w>
mal aria</w>
motor cycle</w>
Kha menei</w>
Wea h</w>
Wea ther</w>
Naz i</w>
flee ing</w>
rever se</w>
isol ation</w>
subsequ ently</w>
accor ds</w>
dissol ved</w>
proced ure</w>
view ed</w>
Nab lus</w>
inaugur ation</w>
Andre s</w>
intensi fied</w>
Investig ators</w>
urg ent</w>
Det ails</w>
poll ution</w>
disclo sed</w>
Bhut to</w>
auth enti
desi re</w>
shop ping</w>
marg in</w>
Lithu ania</w>
Zo ellick</w>
bad ly</w>
Rash id</w>
restruc turing</w>
trag edy</w>
tox ic</w>
Democra t</w>
Lash kar</w>
Lux embourg</w>
atmo sphere</w>
percent age</w>
Mediter ranean</w>
6 2</w>
9 3</w>
9 8</w>
A bu
E st
F il
G ad
I ts</w>
J ones</w>
M at
O k
P R
P l
R oc
T om
T ran
Y us
Y em
Z one</w>
a f</w>
a im</w>
b ourn
c old</w>
h ate</w>
j e
m ath</w>
o d
p pi</w>
r ity</w>
s an</w>
s car
t an</w>
t ress</w>
t eg
t ech</w>
t oms</w>
v ital</w>
z er</w>
th ly</w>
er to</w>
re new</w>
re ward</w>
en tr
ou st</w>
al bu
al ong
at ched</w>
ro of</w>
ha fi</w>
sa cri
si mul
si ssi
ra ge</w>
ec t
el ders</w>
om en</w>
li b
li e</w>
li qu
la den</w>
be ha
be ef</w>
wh ole</w>
as o</w>
su s</w>
ch oice</w>
sp ring</w>
se es</w>
ad s</w>
ad i</w>
ex ist</w>
ex iled</w>
ab ilities</w>
resid ential</w>
vi g
im port</w>
coun ting</w>
ul ent</w>
ear th</w>
St e
tur mo
ev o</w>
per su
mo tive</w>
mis tic</w>
inv ent
cap it
tal ly</w>
pen ding</w>
har dest</w>
viol ated</w>
ver sion</w>
over ing</w>
fa x</w>
car bon</w>
air lines</w>
Sh an</w>
De by</w>
rebel lion</w>
aw a</w>
follow ers</w>
clo thing</w>
mp toms</w>
rel ative</w>
del ays</w>
ord ination</w>
dic ated</w>
tran spa
loc ate</w>
Or ganiz
Ju an</w>
bus es</w>
fun dam
Re id</w>
ess ential</w>
resul ting</w>
inf il
see ks</w>
En viron
mea t</w>
bac ks</w>
bur den</w>
ach ing</w>
med al</w>
disa gre
threat en</w>
threat ens</w>
pur ported</w>
nam ese</w>
olog ists</w>
Pe ter
Lib erian</w>
cro ss
pic k</w>
legisl ators</w>
suff er</w>
detain ee</w>
organiz ers</w>
pled ges</w>
contrac tor</w>
fo ot
abduc tion</w>
cust om
establi shing</w>
val ues</w>
Ben jam
Bol ton</w>
Man ila</w>
rescu ers</w>
anti cip
spar king</w>
hand led</w>
land mark</w>
moun tains</w>
var iety</w>
enn ium</w>
Her ald</w>
Viet namese</w>
Raf ah</w>
counter parts</w>
pot entially</w>
abil a</w>
Banglades hi</w>
Mas s</w>
mist ak
nar row</w>
ship ments</w>
apar t</w>
Fron tier</w>
pun ish</w>
Han iyeh</w>
suspic ious</w>
maint aining</w>
194 9</w>
sil ence</w>
Ne goti
cover ing</w>
implem ented</w>
Jam a
Mis sissi
freez ing</w>
Mot ors</w>
engine ers</w>
strength ened</w>
Lah ore</w>
after math</w>
flee t</w>
cat astro
mach ine</w>
prop elled</w>
stoc ks</w>
business man</w>
Journ al</w>
profes sional</w>
avi ation</w>
Rez a</w>
Indu stri
aim s</w>
Hondur as</w>
seiz ure</w>
Ev o</w>
voic ed</w>
attribu ted</w>
networ ks</w>
overwhel ming</w>
Hom eland</w>
sever ely</w>
Demon strators</w>
Gonz ales</w>
Lav rov</w>
quot as</w>
Shang hai</w>
bourn e</w>
along side</w>
turmo il</w>
Benjam in</w>
Mississi ppi</w>
1 2
1 70</w>
9 00</w>
B at
E M
E mil
F ord</w>
F TA</w>
G al
G bag
H y
K um
L ari
M ol
M ous
N ur
N either</w>
O tt
R on
R ad
R eb
R ah
S m
S ib
T el</w>
Y a
Y ou</w>
Y asser</w>
a a</w>
a el</w>
a ides</w>
c attle</w>
d ney</w>
g ate</w>
k ic
k no
k zai</w>
l y
l uc
m its</w>
m ourn
n in
s ely</w>
u st
w eight</w>
y land</w>
y ard</w>
z ic</w>
in ia</w>
an on
an aly
re hol
re pair</w>
en forcement</w>
st ol
st ac
st ein</w>
al is</w>
at ero</w>
ro y
ro ot</w>
ri gh
ol y</w>
di c</w>
di ag
us ers</w>
li a</w>
pro per</w>
be half</w>
con si
con ven
as tic</w>
as sured</w>
am ing</w>
op ponent</w>
ag anda</w>
su d
su its</w>
sp ot</w>
ex trac
id i</w>
ab using</w>
tr il
est ate</w>
ee t</w>
no sed</w>
no te</w>
ter y</w>
ter min
coun try
bu ying</w>
rou tes</w>
Th anks
oc ean</w>
In dependent</w>
mon soon</w>
mon wealth</w>
mon etary</w>
ev eni</w>
cont ingent</w>
ali ans</w>
co de</w>
fu eled</w>
int ends</w>
bor ne</w>
rem ents</w>
fac t</w>
fin ish</w>
An der
out standing</w>
over come</w>
ma ster
fa ith</w>
air space</w>
Mus eveni</w>
Sh we</w>
Islam ists</w>
Par agu
Sy dney</w>
off enses</w>
Cha dian</w>
ob stac
up surge</w>
spec ies</w>
pos session</w>
if e</w>
laun dering</w>
rup t</w>
tre ating</w>
medi ators</w>
ill ing
soci alist</w>
star ts</w>
eng age</w>
administ rative</w>
lic ense</w>
sk a</w>
Se y
ach ieve</w>
uti ves</w>
dam ages</w>
sett le</w>
parti al</w>
under standing</w>
fe ed</w>
decl are</w>
Con tro
sla ughter</w>
wat ched</w>
contrac ts</w>
natur e</w>
197 4</w>
Ad en</w>
gr and</w>
val ley</w>
Ben in</w>
patro l
Ky o
mur ders</w>
fail s</w>
Bal ad</w>
convic tion</w>
ben e
regul arly</w>
stand ard</w>
Rom anian</w>
scienti st</w>
scienti fic</w>
ordin ary</w>
evac uation</w>
commit ting</w>
lu x
prin cip
revi ew
Law yers</w>
top pled</w>
interrog ators</w>
Mel bourne</w>
din ner</w>
smo ke</w>
blam ing</w>
jum ped</w>
refu ge</w>
isol ated</w>
amend ments</w>
every one</w>
every thing</w>
doub t</w>
May or</w>
extrad ited</w>
bru tal</w>
Sahar a</w>
On ly</w>
Os se
weak ened</w>
Zap atero</w>
wrong doing</w>
peti tion</w>
disper se</w>
Green span</w>
beat en</w>
classi fied</w>
Fel ipe</w>
anci ent</w>
wrec kage</w>
collea gues</w>
volunte ers</w>
legitim ate</w>
Kare n</w>
Moun t</w>
menti oned</w>
absol ute</w>
Diy ala</w>
tribes men</w>
consequ ences</w>
Pakti ka</w>
fair ly</w>
confis cated</w>
hero in</w>
condol ences</w>
passa ge</w>
emisph ere</w>
11 th</w>
you ths</w>
marri age</w>
Gad hafi</w>
Yem eni</w>
beha vi
Gbag bo</w>
Lari jani</w>
kno c
nin th</w>
Thanks giving</w>
Paragu ay</w>
6 9</w>
8 7</w>
8 3</w>
9 2</w>
B P</w>
B om
B us
B lo
B og
C as
D om
E AN</w>
G row
H il
H oo
K ra
K adi
K ingdom</w>
K evin</w>
L ula</w>
M ut
N eg
P la
R at
T ru
V I</w>
V ol
W e</w>
b alli
c ac
d ong</w>
f ow
f ile</w>
g n
h ik
h ealthy</w>
i rez</w>
k es
m ale</w>
n els</w>
p ain
p iracy</w>
s ong
s wa
u re
y outh</w>
th in
in ations</w>
in di</w>
an nex
er ra</w>
en za</w>
ti oning</w>
ar m
st al
al om</w>
il it
ic y</w>
ic als</w>
ic ians</w>
ha iled</w>
ea sing</w>
ur s</w>
el e</w>
ac ad
ac tress</w>
pl ing</w>
pl ays</w>
un ch</w>
la b</w>
ir ing</w>
am bi
de pos
lea f</w>
su b</w>
ch ea
ch ma</w>
sp ot
for tun
se ize</w>
ex posed</w>
ab used</w>
ap point</w>
sh ment</w>
par d
lo ad</w>
no ting</w>
no torious</w>
po p</w>
qu ick</w>
qu akes</w>
Ch all
In acio</w>
wor ship
attac hed</w>
per c
pri ses</w>
tra ins</w>
ren ess</w>
pre ci
sol ar</w>
hea t</w>
duc ks</w>
fac tories</w>
har i</w>
oper ative</w>
car d</w>
Afric ans</w>
ret ail
plac ement</w>
Sh or
fer ing</w>
cur few</w>
Par k</w>
ten se</w>
ten sion</w>
sen ators</w>
off ers</w>
ran ks</w>
produc ers</w>
visi onal</w>
cor respondent</w>
spec ific
ga ther</w>
tor ate</w>
Pro liferation</w>
sy mptoms</w>
peace fully</w>
chan ted</w>
tre e</w>
ven ture</w>
win d
negoti ating</w>
mat ches</w>
Joh ann
parti cular</w>
idd en</w>
Con su
cul led</w>
cul ture</w>
sla in</w>
trans l
fra g
ick en</w>
sha rehol
197 6</w>
assass inated</w>
Bas que</w>
Ram irez</w>
patro ls</w>
domin ant</w>
Cor p</w>
Man agement</w>
crac k</w>
let ters</w>
compe ting</w>
particip ating</w>
Em irates</w>
Her at</w>
influ enza</w>
iy ev</w>
wil d
ballo t</w>
Commun ity</w>
Ku chma</w>
check points</w>
Dav is</w>
tun nels</w>
some thing</w>
conver sion</w>
gran ting</w>
writ ing</w>
prac tices</w>
typ e</w>
Malay sian</w>
coordin ate</w>
coc oa</w>
fat al</w>
transpor ting</w>
forec ast</w>
Scot land</w>
purcha sed</w>
cir cul
Sur vey</w>
smo king</w>
abor tion</w>
audi ence</w>
escal ating</w>
Domin ican</w>
disman tle</w>
AS EAN</w>
prop aganda</w>
TH E</w>
dum ped</w>
Soci alist</w>
Ren e</w>
extre mism</w>
Ten sions</w>
barri er</w>
solid arity</w>
restaur ant</w>
recommen dations</w>
eigh th</w>
renoun ce</w>
subur b</w>
privati zation</w>
hamper ed</w>
appoint ment</w>
ignor ed</w>
dram atically</w>
Protest ers</w>
Avi v</w>
carri er</w>
mir al</w>
Virg inia</w>
Sir leaf</w>
Alb anian</w>
Econom ists</w>
Asi f</w>
Calder on</w>
approxim ately</w>
diag nosed</w>
Ander son</w>
bene ath</w>
Osse tia</w>
behavi or</w>
balli stic</w>
worship pers</w>
specific ally</w>
0 5</w>
1 3
6 0th</w>
9 7</w>
B i
B S</w>
B ac
C er
C iti
D ha
D ay
F it
F lo
G ib
G od</w>
G edi</w>
H ind
J im</w>
K I
K abila</w>
L ate</w>
M arg
M il</w>
M assa
O ra
P u
P ap
R O
R ou
R io</w>
S hui</w>
U p
W est
W omen</w>
Z uma</w>
b ans</w>
d an</w>
d ressed</w>
e u
e over</w>
e uti
e fficient</w>
f ew
g la
g oo
h ill</w>
h ear</w>
h em</w>
i x</w>
k eys</w>
m ans</w>
m idn
o i</w>
p al
p harm
q t
r iles</w>
s ong</w>
s cience</w>
t ear</w>
w ra
w ealthy</w>
y ber</w>
y ah</w>
th r
th rowing</w>
an x
er als</w>
er ial</w>
re open</w>
en ty</w>
ar b
or b
st ance</w>
st ake</w>
st ood</w>
st ones</w>
it aries</w>
at tered</w>
ro t
ro pon
ro yo</w>
ea sed</w>
ra ft</w>
ra mp
ra tified</w>
om berg</w>
ati sti
ac tor</w>
ac compl
ac tually</w>
ac euti
em a</w>
em be
un il
li ghts</w>
pro of</w>
pro visions</w>
de emed</w>
su f</w>
ow er</w>
ch i
ch ol
for um</w>
ad ing</w>
ex ac
id oa</w>
the id</w>
lo sing</w>
po ol</w>
im posing</w>
bu reau</w>
Un der
sec ession</w>
qu ality</w>
rec alled</w>
oc ol</w>
cont ent</w>
per mit</w>
pri est</w>
Mon gol
sol id</w>
fin es</w>
An ti</w>
ver dict</w>
Ba idoa</w>
mar ine</w>
Al an</w>
Mo qt
cam er
fa st
eff er</w>
inter ference</w>
inter views</w>
ret ail</w>
Mar burg</w>
air e</w>
eal ing</w>
wea ken</w>
def ending</w>
ce ga</w>
der ly</w>
resu mption</w>
Ar royo</w>
Ar cega</w>
produc es</w>
del ib
del aying</w>
ord on</w>
Com monwealth</w>
spec i
loc ations</w>
wa i</w>
wa ste</w>
Som alis</w>
ass ess</w>
reac tion</w>
cha e
cha ir</w>
kidn ap</w>
commun ication</w>
Car riles</w>
medi ate</w>
ven ess</w>
dri vers</w>
inf ections</w>
win d</w>
requ ests</w>
tou gh
appe aling</w>
ris ks</w>
Inter fax</w>
expres sing</w>
sear ched</w>
Ken y
refer ring</w>
Pe tro
batt led</w>
sad a</w>
cro p</w>
nation alities</w>
promis ing</w>
boo m</w>
hi ke</w>
tol er
Lu iz</w>
enric h</w>
gr and
exec utives</w>
step ping</w>
Mic hel
Sch effer</w>
chec k</w>
exp ire</w>
exp elled</w>
prepar ations</w>
recogn izes</w>
colla bor
regul ators</w>
Bang ko
ateg ory</w>
impl icated</w>
Wil ma</w>
196 2</w>
shoo t</w>
her self</w>
tan e
sugg es
chem icals</w>
deliver ies</w>
exc ept</w>
disrup ting</w>
Repres entative</w>
ship ping</w>
apar theid</w>
chick en</w>
surve yed</w>
objec tions</w>
regist er</w>
nu tri
defend ant</w>
evacu ate</w>
Hol y</w>
amoun ts</w>
Sam arra</w>
restor ing</w>
Kyrgy z</w>
rang ing</w>
fire fight</w>
prep ares</w>
Tri b
Du jail</w>
foun dation</w>
conflic ting</w>
individ ual</w>
Tel evision</w>
War saw</w>
revol ution</w>
fed eration</w>
accor ding</w>
15 th</w>
proced ures</w>
business men</w>
Journ alists</w>
stea dy</w>
adj our
reun ification</w>
prosp erous</w>
You suf</w>
Meh lis</w>
deterior ating</w>
rav aged</w>
Guang dong</w>
gradu ally</w>
charac ter
incur sion</w>
Franc isco</w>
great est</w>
logis tical</w>
Vil lep
TR U
Oper ation</w>
Sloven ia</w>
plat form</w>
Hou ston</w>
predomin antly</w>
kilogra ms</w>
Atl anta</w>
Lau rent</w>
slaugh tered</w>
station ed</w>
requi rements</w>
birth day</w>
invent ories</w>
foot age</w>
mourn ers</w>
Contro l</w>
lux ury</w>
Blo omberg</w>
Grow th</w>
Neg ropon
cac he</w>
depos its</w>
Hind u</w>
Ora kzai</w>
midn ight</w>
pharm aceuti
Moqt ada</w>
Bangko k</w>
Villep in</w>
Negropon te</w>
6 8</w>
A th
A qu
A PEC</w>
B an
B en</w>
B id
B eth
F oun
G i
G 8</w>
G lo
H i
J en
J ab
K i
K al
K ac
L i</w>
L ight</w>
O man</w>
S ay
T ul
Z eb
a is
a bet
c ub
c ils</w>
d row
f ed</w>
f ans</w>
f lam
f ounding</w>
g aining</w>
h ect
i ers</w>
i ary</w>
m ack</w>
n one</w>
o o</w>
p ushing</w>
r d</w>
t ine</w>
t ask</w>
u f</w>
y en</w>
z yn
th a</w>
th ro
in str
in ating</w>
er men</w>
re y</w>
en coun
ti e</w>
ar ded</w>
ar io</w>
ar bit
st ances</w>
st adium</w>
il o</w>
ro yal</w>
ha ven</w>
si vely</w>
ra mmed</w>
ri oting</w>
el se</w>
om an</w>
ol ds</w>
us ual</w>
la sted</w>
pro hib
wh ales</w>
ir a</w>
de al
de par
de dicated</w>
sid ent</w>
ch i</w>
ch ose</w>
ern ers</w>
ad zic</w>
ap ply</w>
ak er</w>
fro zen</w>
pe di
ed e</w>
tw are</w>
tw ork</w>
vi er</w>
ci g
ee k</w>
le thal</w>
ud ulent</w>
rou tine</w>
qu iet</w>
qu ota</w>
Th an</w>
inc or
rec overing</w>
In c</w>
In dependence</w>
wor sen
mon thly</w>
cont acts</w>
per pe
per mits</w>
sur plus</w>
tri ps</w>
dis gu
man ip
ep id
acc ur
inv est</w>
pre dec
pre dict</w>
dec ree</w>
ho sted</w>
fac tor</w>
ver sy</w>
ver ified</w>
bas eball</w>
mar itime</w>
Mo z
min i
over threw</w>
Mar x
shi eld</w>
depen d</w>
des er
ew al
investig ations</w>
dic k</w>
Cha mp
Col um
tran sac
gun ships</w>
bl own</w>
cha m
high ligh
Gu l</w>
aff ar
tre es</w>
sist er</w>
emp ha
fam ine</w>
Kar adzic</w>
ik a</w>
roc ks</w>
diplom acy</w>
198 6</w>
198 0</w>
exper t</w>
Bo b</w>
suspen ding</w>
repres ented</w>
pu r</w>
Mu th
Kh yber</w>
boo ks</w>
Am man</w>
poin ting</w>
priv ately</w>
fra udulent</w>
organiz ing</w>
bloc ks</w>
spac ewal
Del eg
197 5</w>
197 3</w>
establi shment</w>
chang ing</w>
Sha uk
condem ning</w>
mur dered</w>
fil ms</w>
own ership</w>
canc el</w>
Cor mack</w>
Man ouch
accid entally</w>
Po sada</w>
Mc Cormack</w>
Fin al</w>
youn ger</w>
fish ermen</w>
appro ached</w>
dismis s</w>
Raf ael</w>
Si erra</w>
restric ted</w>
Ku wa
fav or
hap py</w>
effec tively</w>
pra yer</w>
refin ing</w>
10 th</w>
Ak ayev</w>
prin ted</w>
Mac au</w>
pi ec
sust ain
scand als</w>
Chil dren</w>
associ ation</w>
Le on
Le one</w>
Han oi</w>
sn ow
sof tware</w>
bol ster</w>
prec au
inten tions</w>
Khal ed</w>
sex ually</w>
implem enting</w>
implem entation</w>
Cambo dian</w>
Fran k</w>
paramil itaries</w>
substanti ally</w>
elim inate</w>
lac ks</w>
shoot ings</w>
Bern ard</w>
enjo y</w>
expen sive</w>
awa iting</w>
awa reness</w>
stam p</w>
kh an
Hea vy</w>
IR NA</w>
diversi fy</w>
Rescu e</w>
Rescu ers</w>
interc epted</w>
Zam bia</w>
Gil ani</w>
coff ee</w>
answ er</w>
IO C</w>
Elec toral</w>
apologi zed</w>
degre es</w>
difficul ties</w>
ester day</w>
sabot age</w>
Beng al</w>
Fro m</w>
unanim ously</w>
green house</w>
circum stances</w>
reaffir med</w>
accompan ied</w>
Steph en</w>
Organiz ers</w>
Reb els</w>
anon ym
stol en</w>
tril lion</w>
few er</w>
Trib unal</w>
TRU E</w>
Bid en</w>
Foun dation</w>
Kac zyn
predec essor</w>
Shauk at</w>
Manouch ehr</w>
Kaczyn ski</w>
1 10</w>
3 50</w>
7 9</w>
8 6</w>
A se
A tt
A dam</w>
B ad
C o</w>
C old</w>
D ra
D uma</w>
F ern
G M</w>
G ot
H ad
H ash
I ow
J ed
J ill</w>
J aff
K on
K ad
L a</w>
L ar
L ay</w>
L ord</w>
M yan
M itch
M wai</w>
N ev
N ang
R ea
R iy
S po
S anti
S isco</w>
T ung</w>
V oice</w>
W i
W en</w>
X VI</w>
Z en
a j</w>
b id
b ited</w>
b arg
b ann
b ranch</w>
c k</w>
c able</w>
c ites</w>
e ge</w>
f ees</w>
g ro
h at
h oods</w>
l u</w>
l us
n ov
p her</w>
r ator</w>
s er</w>
s men</w>
t ore</w>
t ments</w>
t reason</w>
w at</w>
w illing
y ar</w>
th es</w>
in k
re an</w>
re si
re ated</w>
re opened</w>
en acted</w>
ar sen
on i</w>
on line</w>
or i
or ian</w>
ou n</w>
st ops</w>
ic ate</w>
ha b</w>
ha ir</w>
sa il
si z
ec raft</w>
ri g
ri fl
da cy</w>
ac ks</w>
es burg</w>
us et
un t</w>
un likely</w>
un fair</w>
li vel
la hi</w>
la ure
con centr
am an</w>
is i</w>
de stabilize</w>
ch uset
sp il
ad h</w>
ap ed</w>
ak ar</w>
sh ou
att ers</w>
ul tim
le ve
le hem</w>
sec ured</w>
str icken</w>
emb ar
cont ain
dis play</w>
pri ests</w>
co incid
co operating</w>
au dio</w>
ren cy</w>
fi xed</w>
acc o</w>
acc el
dem ol
cap tain</w>
cap abilities</w>
ann y</w>
rem n
pen sion</w>
fac ilit
pan ic</w>
An at
An di
An drew</w>
are t</w>
har v
det ailed</w>
Ba j
arre sting</w>
out lin
relea sing</w>
inter vention</w>
inter fering</w>
ret e</w>
stri p</w>
De Lay</w>
law suits</w>
struc tural</w>
der ail</w>
sen se</w>
contro versy</w>
dra fting</w>
eg gs</w>
resu ming</w>
sho p</w>
tak eover</w>
des h</w>
alleg ing</w>
ph ic</w>
Ger mans</w>
rul ers</w>
ob serve</w>
don ated</w>
Bur k
sub mit</w>
ass i</w>
Car ol</w>
tre at</w>
candi dacy</w>
ban k
consid er
consid eration</w>
direc tion</w>
Ge ological</w>
bur n</w>
198 7</w>
indic ation</w>
Can al</w>
cer tain
expres s</w>
quar ant
pu ts</w>
nation ality</w>
consu mption</w>
Mu z
Kh in</w>
sla ves</w>
trans mission</w>
wat ch
popul ated</w>
spac ecraft</w>
publi shing</w>
succ ession</w>
Ad miral</w>
Ex ec
nomin ees</w>
conn ected</w>
celeb ration</w>
celeb rating</w>
monit ored</w>
electr ical</w>
Mic h
crow ds</w>
descri bes</w>
spar k</w>
land fall</w>
gres sive</w>
196 0s</w>
freed oms</w>
wel fare</w>
down town</w>
Pr o</w>
ind a</w>
shel ls</w>
Med ical</w>
defic its</w>
manufac tured</w>
fla gs</w>
smugg lers</w>
gri ev
arch ipel
Ecu ad
advis er</w>
Cathol ics</w>
Mas ha
wr ite</w>
Ak bar</w>
recor ding</w>
tar i
Air port</w>
Air bus</w>
writ er</w>
Prosecut or</w>
sovere ign</w>
strongh olds</w>
attrac ting</w>
pun ished</w>
exam ine</w>
Rel ief</w>
maint ains</w>
ey e</w>
Bak iyev</w>
Erit rean</w>
elim inated</w>
lear ned</w>
body guard</w>
compen s
mut ate</w>
Domin ique</w>
Pa ul
stea dily</w>
quali fied</w>
sim ply</w>
Mill er</w>
Mill ennium</w>
Wol f</w>
Congres sional</w>
confron tation</w>
inha bited</w>
auc tion</w>
Ci vil</w>
interpre ter</w>
Gab on</w>
Youn is</w>
ket ball</w>
decreas ed</w>
opti mistic</w>
guid elines</w>
outra ge</w>
Camer oon</w>
narrow ly</w>
dop ing</w>
gest ure</w>
exhib ition</w>
Rod dick</w>
revis ed</w>
Abu ja</w>
entr ance</w>
simul tane
Kyo to</w>
Bog ota</w>
Hoo p</w>
annex ed</w>
spot ted</w>
Shor tly</w>
Johann esburg</w>
Marg aret</w>
Massa chuset
embe zz
unil ateral</w>
Keny ans</w>
Beth lehem</w>
Glo bal</w>
Kuwa iti</w>
piec es</w>
Got ovina</w>
Iow a</w>
Jed dah</w>
Myan mar</w>
Mitch ell</w>
Riy adh</w>
Spo kes
Santi ago</w>
willing ness</w>
rifl es</w>
livel i
laure ate</w>
Massachuset ts</w>
2 75</w>
6 6</w>
9 6</w>
9 9</w>
A le
B is
C re
C ra
C op
C level
E li
E bol
F A
F u
F ed</w>
F ort</w>
F aso</w>
G ran
G ordon</w>
H ur
H ot
H eb
I SA
K oran</w>
M es
M AN</w>
N u
N ine</w>
R A
S on
T enn
W in</w>
Y on
Z u
a g</w>
b il</w>
b lin
b ery</w>
b acco</w>
c af
c eded</w>
c atch</w>
f ea
f ted</w>
f rac
h urricanes</w>
k id
k ov</w>
l i</w>
m ol
m ad</w>
m ention</w>
m ud</w>
m outh</w>
o is</w>
p one</w>
s om
t ents</w>
t acti
u ph
v ania</w>
w ashed</w>
th rown</w>
in formal</w>
an ke</w>
er ts</w>
re public
re patri
en tions</w>
en ge</w>
en cia</w>
ti er
on aire</w>
or dering</w>
st em
st ages</w>
ur red</w>
ra y</w>
ra il
ri d
ri a</w>
el les</w>
el ements</w>
el eph
us e
em ade</w>
pl astic</w>
li es</w>
la sting</w>
ff le</w>
be k</w>
con i</w>
de z</w>
de ep
su l
su n</w>
su r</w>
su fficient</w>
ch ron
ad ults</w>
por tions</w>
ab ol
ap s</w>
ap ol
com mod
com modi
ed om</w>
no tice</w>
po l</w>
coun cils</w>
ig e</w>
iti ous</w>
igh tened</w>
qu ell</w>
qu anti
Ch ry
St u
St an
mon d</w>
mon op
mon ks</w>
tur n
our ing</w>
cont ested</w>
arg ue</w>
per sec
prov oc
dis sident</w>
co on</w>
hel et</w>
acc ep
dem o
to ff</w>
to bacco</w>
cap tivity</w>
econom ist</w>
pea t</w>
gra ded</w>
fin ancing</w>
comm it</w>
ok e</w>
ash ore</w>
are m</w>
are tt
war m</w>
sig ye</w>
Ba y
Ba ha
oper ational</w>
bil ls</w>
bil isi</w>
min orities</w>
over seeing</w>
ma ils</w>
Ab ra
ret ain</w>
lin ois</w>
Ma da
Tur ks</w>
ten ance</w>
ten stein</w>
off en
des per
des cent</w>
ph ones</w>
investig ator</w>
cre ws</w>
rul er</w>
et z</w>
plan ting</w>
Cha m
Cha ud
ob lig
ob tain</w>
up held</w>
spec ified</w>
separ ately</w>
cha in</w>
compl i
compl aint</w>
tel ling</w>
Re fug
discus sion</w>
ess ment</w>
Ser vices</w>
ik istan</w>
ech an
ech tenstein</w>
negoti ated</w>
administ ered</w>
hom emade</w>
Per etz</w>
main tenance</w>
198 5</w>
invest or</w>
Ob rad
Ca uc
Bar re</w>
lat eral</w>
Inter im</w>
pur pose</w>
Lib by</w>
fe atures</w>
Shar m</w>
repres sion</w>
Be sigye</w>
sc ore</w>
floo d
Egypti ans</w>
Ad v
abduc tions</w>
abduc tors</w>
gr ants</w>
ja f</w>
earth quakes</w>
Bel gian</w>
cr ush</w>
Cor rea</w>
Span i
Yu gan
Jer ich
Jer sey</w>
dou bles</w>
sing les</w>
enrich ing</w>
tradi tionally</w>
Ber lus
strugg led</w>
Li echtenstein</w>
he ating</w>
post pone</w>
arti cles</w>
staf a</w>
sion als</w>
fla sh</w>
smugg led</w>
encoura ging</w>
expl ain</w>
Mas ri</w>
Ra j
author izing</w>
commit ments</w>
Ja vier</w>
Na jaf</w>
knowled ge</w>
Far mer</w>
wal ls</w>
attrac t</w>
bit ter</w>
Tibet ans</w>
reb ounded</w>
La os</w>
Rang el</w>
Mi ke</w>
Min sk</w>
Pra desh</w>
lear n</w>
Bern anke</w>
riv ers</w>
Cypri ots</w>
Sum mit</w>
than ks</w>
pois oned</w>
veter an</w>
veter inary</w>
hide outs</w>
Sin ai</w>
Milit ant</w>
jus tified</w>
stoc k
liber ties</w>
cli ent</w>
Kam al</w>
Sus pected</w>
Sahar an</w>
extre me</w>
Il linois</w>
Sim on</w>
Congres sman</w>
Prot ection</w>
dest ination</w>
swee p</w>
Tut sis</w>
Raz a</w>
Str ateg
Initi ative</w>
Alban ians</w>
emplo ys</w>
colon ial</w>
Balk an</w>
jur is
integ rity</w>
feder alism</w>
Namib ia</w>
Dmit ri</w>
Pear son</w>
Taj ikistan</w>
sum mon
contam inated</w>
dril ling</w>
EL N</w>
staff ers</w>
Add is</w>
Broad casting</w>
Est onia</w>
Yus uf</w>
albu m</w>
Emil e</w>
Ott oman</w>
righ tist</w>
consi sts</w>
Kadi ma</w>
ambi que</w>
Bac helet</w>
Day ton</w>
thr one</w>
Tul k
abet es</w>
cub ic</w>
encoun tered</w>
epid emic</w>
Moz ambique</w>
mini bus</w>
Marx ist</w>
Ase fi</w>
remn ants</w>
Burk ina</w>
tari ffs</w>
Clevel and</w>
Ebol a</w>
ISA F</w>
republic s</w>
commodi ties</w>
Obrad or</w>
Jerich o</w>
Berlus coni</w>
0 1</w>
0 9</w>
7 4</w>
9 4</w>
9 th</w>
A so</w>
A ward</w>
B A</w>
B ot
C ru
D ru
E C
E F</w>
E ver
E ach</w>
F ore
H ing
H ub
H emisphere</w>
I dri
J anj
K in
L es
L ev
M O
M y
M un
M be
M ir</w>
M of
M uch</w>
M emor
N ever
O sman</w>
P L
P on
R eh
S O
S id
S uch</w>
S anta</w>
T e
T al</w>
V an</w>
W hat</w>
W inter</w>
Y e
Z el
a ult</w>
a wards</w>
b ic
b ids</w>
c and
c ade</w>
d man</w>
e iro</w>
f it</w>
f le</w>
h in
h id</w>
h ry</w>
k in
m ac
m echan
n ic
n es
n ight
o tic</w>
p it
p ain</w>
p hosp
p ounded</w>
r ounded</w>
s son</w>
s lam
s anj
t ude</w>
u b</w>
u ing</w>
y i</w>
y af</w>
y esterday</w>
in struc
er ad
re stra
re strict</w>
re start</w>
ti p</w>
ti li
ar har</w>
ar ika</w>
on ian</w>
or ly</w>
al co
al ties</w>
at i</w>
ro economic</w>
ha p</w>
ha bil
sa vi</w>
si ties</w>
si ege</w>
ra w</w>
ri ding</w>
el ling</w>
el son</w>
el derly</w>
em i</w>
li e
li sts</w>
li onaire</w>
la v</w>
pro visional</w>
con qu
as e</w>
op posing</w>
ne ys</w>
su preme</w>
ch elles</w>
sp urred</w>
ad d</w>
ex act</w>
ex clu
id er</w>
ap ology</w>
com ponents</w>
pe st</w>
par ked</w>
tw in</w>
est ine</w>
no ti
po orly</w>
im on</w>
res or
Af ar</w>
rou gh</w>
Ch ev
wor ries</w>
ing redi
ric k</w>
per or</w>
per forming</w>
prov ed</w>
tri bu
man ager</w>
man eu
co ach</w>
19 45</w>
int estin
mer ged</w>
inv itation</w>
fl owing</w>
bo l</w>
pre gn
pea k</w>
plo ts</w>
ann e</w>
ho en
me th
me work</w>
me tho
me tal</w>
pres er
sup posed</w>
fac to</w>
are z</w>
war zen
Ba say
spok en</w>
Pri v
over turned</w>
over see</w>
fa ster</w>
Ab aba</w>
inter ven
Mar yland</w>
shi ft</w>
stri fe</w>
def use</w>
fer tili
Bri an</w>
conc lusion</w>
conc rete</w>
aw eed</w>
disc ou
ten ths</w>
den ly</w>
rac ing</w>
bro thers</w>
cor por
cor rupt</w>
spec ify</w>
hm er</w>
pas ses</w>
mm ing</w>
tor tured</w>
reli es</w>
reli ance</w>
Sa o</w>
Jo e</w>
chan ting</w>
assa ul
dri ves</w>
bla ze</w>
win s</w>
win dow</w>
rais es</w>
eng ine</w>
administ rator</w>
Chri s</w>
suppl ied</w>
recei p
bur st</w>
198 1</w>
198 3</w>
Can adi
expres sion</w>
exper im
El len</w>
Bo ard</w>
Tai w
echn ology</w>
repres entation</w>
Con tin
Ro h</w>
bri bes</w>
add ressing</w>
suff ers</w>
stud ying</w>
cel ls</w>
wat er
popul arity</w>
18 0</w>
bassad ors</w>
sha sa</w>
accoun ted</w>
travel ers</w>
pul ling</w>
Mal ta</w>
condem ns</w>
fil m
domin ate</w>
initi atives</w>
Cam pa
Sch warzen
Po or</w>
Cro at</w>
let es</w>
land mine</w>
gener ated</w>
particip ated</w>
Ric ardo</w>
Wil son</w>
arti st</w>
down hill</w>
sl um
remar k</w>
Ko st
fav ored</w>
shel ters</w>
slow ing</w>
challeng ing</w>
advis ed</w>
orig in</w>
adop t</w>
mus ician</w>
public ation</w>
pipel ines</w>
mort g
remov ing</w>
tin ational</w>
inde fin
sust ain</w>
Rec ent</w>
associ ate</w>
dist ur
dist ance</w>
exam ple</w>
bul k</w>
recru its</w>
assu me</w>
labor ers</w>
coll ected</w>
umb ent</w>
Inv est
exist ence</w>
jum p</w>
engine er</w>
tex t</w>
aggres sion</w>
neg ative</w>
isi tion</w>
revol t</w>
sal aries</w>
jus ti
stu dies</w>
extrad ite</w>
Jan eiro</w>
Armen ia</w>
barri ers</w>
restaur ants</w>
recommen dation</w>
inha bit
campaig ning</w>
UN IC
neu tr
Alban ia</w>
ator ship</w>
semi final</w>
airlin er</w>
satis fied</w>
install ations</w>
Mou savi</w>
congrat ulated</w>
confid ent</w>
consen sus</w>
affili ated</w>
transm itted</w>
infil tr
cross ings</w>
custom ers</w>
Jama ica</w>
EM A</w>
Mous sa</w>
Sey chelles</w>
patrol ling</w>
thin ks</w>
13 th</w>
West erners</w>
pal ace</w>
orb iting</w>
atisti cs</w>
Mongol ia</w>
adjour ned</w>
Ath ens</w>
Say yaf</w>
drow ned</w>
hect ares</w>
cig arett
manip ul
Muth arika</w>
Deleg ates</w>
Leon id</w>
Nang arhar</w>
watch dog</w>
archipel ago</w>
kid ney</w>
commod ity</w>
monop oly</w>
Chaud hry</w>
juris dic
Tulk arem</w>
Hing is</w>
Janj aweed</w>
Kin shasa</w>
Mbe ki</w>
Mof az</w>
intestin al</w>
Basay ev</w>
Canadi ans</w>
2 20</w>
3 rd</w>
8 9</w>
8 th</w>
B il
B ish
C ay
D un
D ist
D eb
D ow</w>
D NA</w>
F if
G an
G ood</w>
G lor
H all</w>
H AM
J on
K a
K as
K ag
K idn
L ine</w>
M E
M ig
M ladi
N as
N ah
O ut
O thers</w>
O hi
P P</w>
P un
P att
P lat
P hoen
Q ing
R eg
S R</w>
T uni
T bilisi</w>
U T
U r
W al</w>
a b</w>
b in
b ron
b owl
c ore</w>
c oo
d ub
f ers</w>
f ash
f lock</w>
f eet</w>
g al
g arian</w>
h es</w>
h em
h ide</w>
h idden</w>
i ve</w>
j our
j iang</w>
k in</w>
m o</w>
m p</w>
m u</w>
m atters</w>
n i
n an</w>
o ath</w>
o ples</w>
p a</w>
p he</w>
p ound</w>
p apers</w>
s b
s killed</w>
s kills</w>
t ac
t cy</w>
u ting</w>
v an
w ang</w>
w aging</w>
y n</w>
y es</w>
y at</w>
z o</w>
z ad</w>
th eless</w>
in duc
in fighting</w>
in coming</w>
in nings</w>
re k
re ference</w>
re placement</w>
re peat</w>
re habil
en force</w>
ti an</w>
ti les</w>
ar c
ar chae
on o</w>
or tu
st um
st ealing</w>
it ated</w>
ro l
ro so</w>
sa f
ra il</w>
ec tors</w>
ri oters</w>
el der</w>
om o</w>
ol dest</w>
da s</w>
em ig
un c
un ification</w>
ov an</w>
be i</w>
be ars</w>
wh eat</w>
con s
as ed</w>
de an</w>
de port
de pression</w>
ne t
ne ft</w>
ch o
ch in</w>
ch est
sp are</w>
ex ha
por tra
ab s
ab les</w>
sh ook</w>
sh oul
pe de</w>
the ater</w>
vi ties</w>
att led</w>
govern ors</w>
govern ance</w>
im pea
im migrant</w>
ig ning</w>
bu st</w>
Ch ic
Th ir
ing u
ev ol
cont ains</w>
ub er
co ordination</w>
eb ook</w>
eb erman</w>
ep her
au d</w>
au to</w>
ren ce</w>
inv aded</w>
fl u
cap sized</w>
Pal estine</w>
ser ves</w>
bel ong</w>
ho sts</w>
me tric</w>
rem emb
rem ember</w>
fac tional</w>
uro v</w>
war time</w>
det entions</w>
mar tial</w>
vil le</w>
bil ities</w>
out come</w>
out post</w>
fa ul
car tel
Mar t</w>
Mar k</w>
Mar ie</w>
Mar ino</w>
ei ved</w>
charg ing</w>
Sh imon</w>
fer ring</w>
aw az</w>
pa th
clo thes</w>
tak er</w>
ran k</w>
des ec
des ert</w>
produc t</w>
part ly</w>
av al
Eg eland</w>
separ ated</w>
independ ently</w>
As kar</w>
ip er</w>
Pro duc
Gu ar
Ear ly</w>
rup tcy</w>
mov ements</w>
medi um</w>
emp ty</w>
Sen ior</w>
Ol use
Ag assi</w>
suppl ying</w>
suppor ter</w>
identi ties</w>
rejec ts</w>
sit ting</w>
uti l
Bar roso</w>
med als</w>
ast er</w>
refer ral</w>
Lib er
fe atur
critici ze</w>
ref using</w>
bri d
conf essed</w>
ron es</w>
Mu k
Kh ur
Sp in</w>
Cl ub</w>
inst all</w>
wat ches</w>
popul ations</w>
organiz e</w>
pled ging</w>
contrac tion</w>
sli ght</w>
sha dow</w>
adv ancing</w>
accoun ting</w>
travel s</w>
div ide</w>
Ac c
val ued</w>
ba g</w>
canc ell
Bol dak</w>
Bal tic</w>
hur led</w>
descri be</w>
exp ired</w>
prepar ation</w>
dr ink</w>
dou bled</w>
improv ement</w>
improv ements</w>
Cro ats</w>
ben ch
te or
particip ants</w>
Li eberman</w>
he ightened</w>
long est</w>
Comm and</w>
Nic hol
Qu een</w>
strong est</w>
Raf sanj
Ukrain ians</w>
ath letes</w>
uni forms</w>
hap p
shel ling</w>
tan kers</w>
inspec tions</w>
tiv ation</w>
dict atorship</w>
deliver ing</w>
challeng er</w>
acqu itted</w>
exc essive</w>
10 5</w>
distribu ting</w>
nar rates</w>
ship ment</w>
Ja ap</w>
Na j
Far ah</w>
regist ration</w>
pi on
fal ls</w>
Sam uel</w>
pati ent</w>
194 7</w>
accusa tion</w>
carto on</w>
sil ver</w>
top ple</w>
top ics</w>
Hos sein</w>
mod ern
Ne twork</w>
bat tered</w>
Khal id</w>
Lat ortu
ty coon</w>
congres sman</w>
Fran k
Mis sion</w>
ologi st</w>
event ual</w>
Dis c
Bul garian</w>
Hor se</w>
Sum atra</w>
advoc ates</w>
alle ge</w>
design ate</w>
tic a</w>
consul tations</w>
sim ple</w>
rati fy</w>
respond ents</w>
flo or</w>
warr ants</w>
harm ful</w>
Cap tain</w>
rev eal</w>
tigh ten</w>
Indi ans</w>
edi tion</w>
Feder er</w>
hang ing</w>
democra tically</w>
Mand ela</w>
Resear ch</w>
Bag ram</w>
diam onds</w>
princi ple</w>
clin ic</w>
minim um</w>
Constitu tional</w>
Fac ebook</w>
protec torate</w>
Fre edom</w>
Nation alist</w>
san itation</w>
interrup ted</w>
Rog er</w>
wic kets</w>
volcan o</w>
Roc he</w>
lib eral</w>
Mol d
Ron ald</w>
sud denly</w>
master mind</w>
review ing</w>
Dha ka</w>
goo d
rot ating</w>
chol era</w>
Under secretary</w>
fast est</w>
character ized</w>
Zeb ari</w>
depar ture</w>
khan urov</w>
ori ented</w>
sail ors</w>
Exec utive</w>
Yon hap</w>
stem ming</w>
summon ed</w>
Memor ial</w>
Ye khanurov</w>
slam med</w>
fertili zer</w>
Taiw anese</w>
UNIC EF</w>
jurisdic tion</w>
Glor ia</w>
Kag ame</w>
Mladi c</w>
Ohi o</w>
Phoen ix</w>
cartel s</w>
Oluse gun</w>
Rafsanj ani</w>
Latortu e</w>
0 8</w>
7 1</w>
A D
A G
A w
A mir</w>
B es
B ush
C TV</w>
C ust
C BS</w>
D re
D an</w>
F O
G ore</w>
G ren
G and
H is
H are</w>
H af
H igh
I L
I cel
I tar</w>
J em
L R
L U
L y
L D</w>
L ha
L ub
L ind
N our</w>
N LD</w>
O x
P C</w>
R ay</w>
S C
S k
S lo
S ik
S ales</w>
S ources</w>
T A
T E</w>
T wit
T ass</w>
T adic</w>
U E
U ige</w>
W ali</w>
X inj
Y un
Y ow
Y ous
Z a
Z ah
a ud
a iding</w>
b ling</w>
b ran
d ar
d ly</w>
d ying</w>
d ance</w>
d rones</w>
e gi
f ice</w>
f ake</w>
f ews</w>
g ets</w>
g all
h n</w>
h anding</w>
h emor
k ek</w>
l iter
m i</w>
p el
p ap
p ine</w>
p sy
r at
r ha
s ance</w>
s election</w>
s ang</w>
s lick</w>
t ent</w>
t ling</w>
u ations</w>
v als</w>
w aged</w>
x ing</w>
y cle</w>
z in
th war
in ery</w>
in direct</w>
er ea
er ror</w>
re la
re pri
re form
re inst
en em
en voys</w>
ti ous</w>
ti veness</w>
on able</w>
or ge</w>
or ph
st aging</w>
st ayed</w>
st eep</w>
st eel</w>
ic tion</w>
si t</w>
si ans</w>
si us</w>
ec ho
ri g</w>
ri dic
el ic</w>
om es</w>
ol o</w>
ol der</w>
di r
di es
di visions</w>
di ox
em ate</w>
un a</w>
un certain</w>
un successful</w>
li ties</w>
la ke</w>
pro long
pro phet</w>
be ans</w>
con gress</w>
con voys</w>
ir on</w>
am ed</w>
am bassadors</w>
de ported</w>
op h
ch ancellor</w>
sp ies</w>
ad ou</w>
ex it</w>
ex po
ab i</w>
ak ed</w>
com a</w>
sh ir
sh all</w>
sh ock</w>
ffici ency</w>
ed on</w>
par aly
lo y
att ara</w>
im ov</w>
coun ty</w>
ig ned</w>
pol i</w>
pol ar</w>
res ource</w>
af f</w>
sec rets</w>
rou tin
qu ite</w>
Ch and
inc ide</w>
oc k
St eve</w>
St aff</w>
wor ry</w>
tur key</w>
cont est</w>
cont acted</w>
per formed</w>
sur faced</w>
mo bil
dis ban
man n</w>
man aging</w>
ub a</w>
co tics</w>
co sur</w>
co incide</w>
ep tion</w>
tra ders</w>
hel ps</w>
int ly</w>
gu ese</w>
tro om</w>
bo dan</w>
enti rely</w>
pre ferred</w>
sol e</w>
sol ve</w>
ho t</w>
gra in</w>
pres ents</w>
fin ds</w>
An d
prot ected</w>
Al pha</w>
oper ates</w>
wi ped</w>
Mo h
out lets</w>
fa ith
resp ects</w>
do s</w>
Mus a</w>
Sh er
jo intly</w>
cur fews</w>
jec t</w>
anc he</w>
eg ger</w>
off set</w>
alleg es</w>
Ar ch
ib a</w>
produc tive</w>
produc tivity</w>
Int el</w>
loo ked</w>
et a</w>
ob serving</w>
hol m</w>
Bur ns</w>
gun fight</w>
criti cally</w>
Mean time</w>
if f</w>
ass essment</w>
Sa m</w>
Sa ad</w>
gre en</w>
gre eted</w>
stor age</w>
Re bel</w>
dead lock</w>
hun ters</w>
tea cher</w>
Gu tier
aff ord</w>
medi ator</w>
disp atched</w>
Kar imov</w>
ech es</w>
roc ked</w>
glo b
tou ch</w>
direc tors</w>
gen eration</w>
mas ked</w>
Bar z
lat ter</w>
Augu st
ine ers</w>
sear ches</w>
fug es</w>
ell o</w>
sign ature</w>
bri d</w>
conf ront</w>
Sw az
ish es</w>
ish ment</w>
spe eches</w>
mul tinational</w>
Ad vis
fo iled</w>
comb ination</w>
host ing</w>
pul sion</w>
demonstr ate</w>
chec ks</w>
bi ased</w>
Op ponents</w>
Op inion</w>
Spea ker</w>
Tim e</w>
dr ill</w>
land slides</w>
AR E</w>
person ally</w>
Mer cosur</w>
any thing</w>
appro aching</w>
dismis sal</w>
control ling</w>
Si ad</w>
sl er</w>
uni fied</w>
uni form</w>
uni que</w>
sugg ests</w>
sugg esting</w>
inspec t</w>
inspec tion</w>
cour troom</w>
exc lud
Maj ority</w>
Ak h
hy brid</w>
reser ve</w>
conver t</w>
conver sation</w>
prin ting</w>
disar ming</w>
credi ble</w>
credi bility</w>
wal k</w>
Rec on
cy clone</w>
pun ishment</w>
typ es</w>
devast ation</w>
underg oing</w>
coc a</w>
stabil izing</w>
prosec ute</w>
fire fighters</w>
Tri poli</w>
satell ites</w>
refl ected</w>
norm ally</w>
motor cade</w>
Jam mu</w>
multi party</w>
ge ograph
Stra sb
elim inating</w>
broadca ster</w>
Tog olese</w>
teen agers</w>
imprison ment</w>
Lou is</w>
mach inery</w>
advoc acy</w>
Portu guese</w>
jus tices</w>
disman tling</w>
Ker ry</w>
Wal ter</w>
doub ts</w>
guarant ees</w>
guarant eed</w>
dum p</w>
conv inc
cop per</w>
tim ber</w>
construc ted</w>
occa sion</w>
modi fied</w>
profes sionals</w>
Bec ause</w>
subur bs</w>
coff in</w>
hamper ing</w>
logis tics</w>
Initi al</w>
Ou attara</w>
boun d
semi finals</w>
Cel sius</w>
airlin ers</w>
Resear chers</w>
Bor is</w>
Mid east</w>
home town</w>
champion ship</w>
champion ships</w>
subsidi ary</w>
tren d</w>
chair s</w>
Abdul lahi</w>
centri fuges</w>
blood shed</w>
Nag in</w>
inti mid
od ds</w>
sacri fice</w>
persu ade</w>
fundam ent
mistak enly</w>
Negoti ators</w>
catastro phe</w>
Industri al</w>
12 th</w>
Rah man</w>
kic ked</w>
ly wood</w>
obstac les</w>
Bom b
hik es</w>
stal emate</w>
frag ile</w>
Pu erto</w>
Rou ge</w>
wra pped</w>
delib er
tough er</w>
nutri tion</w>
Jen in</w>
ais sance</w>
flam es</w>
instr uments</w>
affar abad</w>
spacewal k</w>
sustain able</w>
Jaff na</w>
bid ding</w>
bank ruptcy</w>
consider able</w>
Muz affarabad</w>
simultane ous</w>
Hur ri
Heb ron</w>
tacti cs</w>
Chry sler</w>
Baha mas</w>
flood waters</w>
Yugan sk
stock p
Strateg ic</w>
Hub ble</w>
Idri ss</w>
bic ycle</w>
mac roeconomic</w>
exclu sive</w>
metho ds</w>
interven e</w>
Schwarzen egger</w>
mortg age</w>
Bish kek</w>
bin ding</w>
bron ze</w>
fash ion</w>
deport ation</w>
abs ence</w>
Chic ago</w>
Guar dian</w>
Nichol as</w>
Mold ova</w>
Bes lan</w>
Bush ehr</w>
Cust oms</w>
LR A</w>
Lha sa</w>
Slo bodan</w>
Twit ter</w>
Yow eri</w>
hemor rha
reinst ated</w>
enem ies</w>
dies el</w>
expo sure</w>
routin ely</w>
faith ful</w>
Gutier rez</w>
Strasb ourg</w>
1 15</w>
3 0th</w>
4 th</w>
4 50</w>
5 th</w>
6 th</w>
9 1</w>
A re
A da
A us
A li
B am
B ab
B row
B erg
C row
D O
D era</w>
E y
E aster</w>
F M</w>
F is
F ig
F loo
F EMA</w>
G O
I S
I z
I ma
J ar
K it
L ech</w>
L ife</w>
L ower</w>
M B
M ak
M ore
M wan
N in
N est
N asser</w>
N awaz</w>
O EC
P ric
P over
P anam
P revi
R ally</w>
R educ
R eal</w>
R CTV</w>
S cience</w>
T O
T op
T ot
T and
T ah
U R
U l
V inc
V oters</w>
W im
a be
b ear</w>
b ars</w>
b anning</w>
c ous
d il
e ans</w>
e ant</w>
e up</w>
e us</w>
g li
g ment</w>
i p</w>
k ha
k ins</w>
l on</w>
l es
l unch</w>
n d</w>
p ir
r and
s ity</w>
s burg</w>
t z</w>
t um
t rem
t ack
u an</w>
w ed
w ay
w ise</w>
th ri
th us</w>
in form</w>
er ity</w>
er ated</w>
er toff</w>
re pay</w>
re auc
re locate</w>
en e</w>
en ab
en dar</w>
ar o</w>
ar at
ar di
on so</w>
on ium</w>
or ia</w>
ou ri
st om
st ems</w>
st ole</w>
it z</w>
al abad</w>
at orial</w>
il zad</w>
ro bo
ro bust</w>
ic es</w>
ha v
sa ving</w>
si bilities</w>
ra dar</w>
ri fle</w>
ati es</w>
ac o</w>
ac tual</w>
di ans</w>
di abetes</w>
es cor
es pion
un armed</w>
un certain
un specified</w>
la p
la y
la dy</w>
pro claimed</w>
pro bing</w>
gh outi</w>
con spir
con sistent</w>
as sur
as us</w>
am ph
am mar</w>
de sign</w>
op en
lea se</w>
ne f
su ed</w>
ch ment</w>
ch ed
ch est</w>
sp ots</w>
sp ur</w>
se f</w>
ex plan
ex changed</w>
ab ao</w>
ap ped</w>
sh u
sh ell</w>
sh eep</w>
par don
lo sis</w>
no se</w>
po c
im possible</w>
bu reauc
res ched
le a</w>
ud a</w>
Ch ung</w>
Ch ertoff</w>
Th en</w>
inc umbent</w>
In c
In ter</w>
In spec
St adium</w>
mon arch</w>
cont aining</w>
ric h
arg uing</w>
per sons</w>
prov o
tri ple</w>
cal endar</w>
mo del</w>
dis gra
ru gged</w>
pri se</w>
pri vil
19 59</w>
fu eling</w>
mer ge</w>
dea v
bo x</w>
enti als</w>
ser ver</w>
pre mi
ann on</w>
sev ered</w>
ho l</w>
ut onium</w>
gra ves</w>
pres erve</w>
fin alized</w>
du al</w>
Americ as</w>
An war</w>
An dy</w>
An dean</w>
az ir</w>
war heads</w>
war fare</w>
har der</w>
har mon
ve get
cla sses</w>
Al len</w>
Al pine</w>
bil lionaire</w>
over crowded</w>
ez es</w>
row ers</w>
car ries</w>
air ing</w>
resp ec
do ors</w>
shi pped</w>
tu rer</w>
cu n</w>
cu losis</w>
def ected</w>
fer ry</w>
pow ered</w>
Ma ha
Ma har
Tal at</w>
conc essions</w>
aw atra</w>
aw asa</w>
ten ing</w>
dra wing</w>
sho es</w>
Me hm
des cen
ph y</w>
Ar ctic</w>
Ger ard</w>
ord ance</w>
bro ker</w>
don ate</w>
hol e</w>
Ara bian</w>
separ ation</w>
pos ite</w>
sm ashed</w>
if er</w>
if ies</w>
ass emb
20 2</w>
20 20</w>
reg ained</w>
reg ard</w>
reg ards</w>
bl edon</w>
pop py</w>
cha sed</w>
Jo int</w>
laun ches</w>
laun chers</w>
Gu ards</w>
curren cies</w>
Car din
assa ults</w>
Ha di
proc ession</w>
see kers</w>
bla sp
win ners</w>
appe aring</w>
Su n</w>
invest ed</w>
cl an</w>
run ner</w>
Austr alians</w>
Can cun</w>
Bar ghouti</w>
Inter pol</w>
cou ps</w>
med ication</w>
For um</w>
Turk men
comman dos</w>
mor ator
ref uses</w>
ush ered</w>
Ethiop ians</w>
Con nor</w>
Mil lions</w>
nation alize</w>
consu lar</w>
Tha bo</w>
Mu stafa</w>
cul min
cul tivation</w>
Be it</w>
detain ing</w>
cip ation</w>
fra mework</w>
sc ru
tol erate</w>
sw ing</w>
sw ana</w>
197 2</w>
197 8</w>
comb at
cot ton</w>
Ac tion</w>
assass inate</w>
prof essor</w>
broad er</w>
Sha ul</w>
Ben azir</w>
condem nation</w>
mur dering</w>
fail ures</w>
initi ated</w>
Yu lia</w>
declin es</w>
casual ty</w>
expec tations</w>
Tim or</w>
spor adic</w>
mos ques</w>
Li v
contribu tion</w>
peri o
iri t</w>
amb itious</w>
Sal eh</w>
sl alom</w>
fore st</w>
Boli v
sugg est</w>
hon oring</w>
pra y</w>
acqu ired</w>
pursu it</w>
cau tioned</w>
Ji abao</w>
mus ical</w>
distribu te</w>
author ize</w>
Sol di
Sol id
remov al</w>
lu sive</w>
tar ily</w>
preven tion</w>
vacc ination</w>
objec t</w>
objec ts</w>
brief ing</w>
Gar cia</w>
Hol lywood</w>
underg o</w>
La w</w>
194 8</w>
forec lo
bul lets</w>
jun ior</w>
Mel inda</w>
promo tion</w>
promo ted</w>
Khal ilzad</w>
extra ordinary</w>
Mis s
ologi es</w>
yi eld</w>
engine ering</w>
teen age</w>
enjo yed</w>
expen se</w>
fel t</w>
escal ated</w>
Brig ade</w>
veter ans</w>
surpri sed</w>
vac ation</w>
hou sed</w>
sym bol</w>
electron ics</w>
Investig ation</w>
rati fication</w>
judic iary</w>
cli ents</w>
Armen ian</w>
US SR</w>
occa sions</w>
Go ss</w>
scre en</w>
super vis
Indu stry</w>
commemor ate</w>
Cur rent</w>
Men ezes</w>
Mah di</w>
enter prises</w>
great ly</w>
Ou ld</w>
home owners</w>
diam ond</w>
princi ples</w>
Chan ge</w>
univer sities</w>
Ros neft</w>
depic ting</w>
leng thy</w>
insp ired</w>
work force</w>
Shin awatra</w>
photogra ph</w>
authenti city</w>
transpa rency</w>
disagre ements</w>
Peter sburg</w>
Rad ovan</w>
knoc ked</w>
Bus iness</w>
chea per</w>
Chall enge</w>
retail ers</w>
wind ows</w>
sharehol ders</w>
Fit r</w>
Flo res</w>
gla ss</w>
anx i</w>
anonym ity</w>
hat red</w>
Ecuad ore
Hot el</w>
persec ution</w>
demo bil
compli ance</w>
Refug ees</w>
Cauc asus</w>
Bot swana</w>
Zel aya</w>
alco hol</w>
experim ents</w>
Kas uri</w>
dub bed</w>
jour ney</w>
rehabil itation</w>
shoul der</w>
impea chment</w>
uber culosis</w>
happ en</w>
good will</w>
Gand hi</w>
Xinj iang</w>
Arch bishop</w>
August o</w>
Yugansk nef
Ima m</w>
Mwan awasa</w>
OEC D</w>
Pric es</w>
Pover ty</w>
Reduc tion</w>
Tand ja</w>
Wim bledon</w>
espion age</w>
assur ances</w>
Turkmen istan</w>
morator ium</w>
1 35</w>
2 nd</w>
7 50</w>
A K
A T
A P</w>
B uc
B anny</w>
C at
C ant
C ategory</w>
D V
D ag
E ri
E du
E rel
E very</w>
E rek
F ay
G ro
G ri
H E
H as
I l</w>
J ust</w>
K ony</w>
K harra
K iv
L and</w>
L ong</w>
L are
L yn
M Q
M a</w>
N ot</w>
N BA</w>
O range</w>
P O
P A</w>
P et
Q ala</w>
S em
S ali
S now</w>
S aud</w>
T in</w>
T en</w>
T em
U SA</w>
V an
W a
Y ud
Y uri</w>
Z id
a c</w>
a qu
a than</w>
b at</w>
b ay
b ah</w>
b each</w>
b ert</w>
b onds</w>
c ans</w>
c ements</w>
c tica</w>
d u</w>
d it
d owns</w>
e vil</w>
e fficiency</w>
f a</w>
h ired</w>
i ent</w>
j ails</w>
k el
k ne
k new</w>
k land</w>
k ei</w>
k ham</w>
l ement</w>
l unar</w>
l vania</w>
m ad
n essed</w>
o b</w>
o es</w>
p y
p ent</w>
p ig
p ho
r ing
s wit
t ab
t ant</w>
t ably</w>
t uberculosis</w>
u sted</w>
v ation</w>
v ity</w>
v ous</w>
w e
w re
w are
w ings</w>
w ishing</w>
y ne
y ono</w>
in ts</w>
in ov</w>
in aj</w>
an ed</w>
an ity</w>
er ted</w>
er ge</w>
re iter
re sistant</w>
re shu
en g</w>
en der</w>
ti ming</w>
ti tude</w>
ar r
ar ances</w>
on na</w>
or ado</w>
st ag
st ina</w>
st ead</w>
st atistics</w>
it ely</w>
al ling</w>
al tar</w>
at ers</w>
il ica</w>
sa v
sa t</w>
sa in</w>
sa tions</w>
sa iling</w>
si r</w>
si gh
ra ged</w>
ra inf
el ding</w>
ol ate</w>
ac a</w>
es h
es hi
es sion
em erge</w>
pl utonium</w>
un ga</w>
un disclosed</w>
la sh</w>
la shed</w>
la hom
pro vision</w>
pro xim
gh ua</w>
be headed</w>
wh e
wh aling</w>
wh erea
con solid
ist ani</w>
ir responsible</w>
am end</w>
is tic</w>
is ario</w>
de ter</w>
de fin
ne ts</w>
ch ann
ch iefs</w>
sp i
sp irit</w>
for tified</w>
se izing</w>
ad ult</w>
ad emy</w>
ad inaj</w>
mil i
ex iles</w>
ex pulsion</w>
ak a</w>
com for
com pas
sh er</w>
pe l</w>
tr ators</w>
the ft</w>
ed o</w>
ed ge</w>
lo ve</w>
est an</w>
no tified</w>
uc k</w>
att ained</w>
im pas
res urgent</w>
le v</w>
sec ond
Ch al
inc iting</w>
rec ap
In stead</w>
St ock</w>
emb attled</w>
gi fts</w>
arg ument</w>
per ial</w>
per sistent</w>
mo b</w>
mo thers</w>
mo ff</w>
man ner</w>
man agers</w>
pri orities</w>
co is</w>
mis management</w>
ren tial</w>
int ensive</w>
fi x</w>
acc ession</w>
fl ows</w>
gu er
gu est</w>
sti c
sti ff</w>
cap ability</w>
tal ity</w>
enti ties</w>
dec la
me ier</w>
pres sive</w>
pres sured</w>
fac tors</w>
An sar</w>
war ring</w>
har as
prot ocol</w>
ver age</w>
det ect</w>
hu b</w>
bec omes</w>
mar k
mar ines</w>
mar ches</w>
Mo o</w>
Mo hm
Mo ammar</w>
min eral</w>
ang a</w>
over sight</w>
car ds</w>
inter f
inter ested</w>
ret re
Mar ia</w>
air planes</w>
Mus eum</w>
tu ary</w>
def enses</w>
def ectors</w>
Pol isario</w>
cur tail</w>
explo iting</w>
fol ded</w>
anc o</w>
anc ourt</w>
sen ds</w>
near ing</w>
ew hat</w>
den sely</w>
vir tually</w>
et ings</w>
Col orado</w>
up grade</w>
stra pped</w>
av i</w>
cor p
separ ating</w>
pas sport</w>
bre ast</w>
Coun ty</w>
reg ain</w>
reg ret</w>
confir ms</w>
bl ess</w>
Pro gressive</w>
compl ain</w>
Ju li
Sa eb</w>
high ways</w>
high light</w>
sy lvania</w>
tea ch</w>
itt ees</w>
end ured</w>
aff ects</w>
tre aties</w>
emp ire</w>
Sen ators</w>
approv ing</w>
arri ves</w>
star s</w>
eng agement</w>
tou ched</w>
pac k
Per ez</w>
Co st
dro ps</w>
suppl ier</w>
identi fication</w>
sit uations</w>
Ob serv
run way</w>
Can ary</w>
med alist</w>
parti san</w>
deb ted</w>
neighbor hoods</w>
El ections</w>
ast y</w>
mor al</w>
ell a</w>
Har adinaj</w>
Mos que</w>
Con vention</w>
Mil an</w>
Ro ed</w>
infl ows</w>
Tw enty</w>
sla very</w>
trans fers</w>
popul ous</w>
sw ans</w>
Lu ci
ja b</w>
wid ow</w>
div or
exec utions</w>
Ac ademy</w>
bab y</w>
Hun ter</w>
Christi anity</w>
hur ting</w>
Sch ool</w>
Iv an</w>
migr atory</w>
ben zen
regul atory</w>
stand ers</w>
stand ings</w>
hand ful</w>
land locked</w>
reven ge</w>
fish erman</w>
holi days</w>
Eng ineers</w>
Si x
down ward</w>
sl um</w>
restric ting</w>
Zimbab w
Med ina</w>
perman ently</w>
fla me</w>
inspec tor</w>
disap pointed</w>
pra yed</w>
advis ors</w>
exc ell
pursu ed</w>
adop tion</w>
Sar aj
lov ed</w>
10 4</w>
conserv atives</w>
distribu ted</w>
Do g</w>
tax i</w>
experi encing</w>
Mad off</w>
Mad onna</w>
inde xes</w>
guar ded</w>
care taker</w>
bul l
bul let</w>
Scot tish</w>
recru it
zer o</w>
acknowled ge</w>
bat ons</w>
14 8</w>
14 th</w>
Vic tor</w>
proce ed</w>
denoun cing</w>
Tig ers</w>
Fran cois</w>
multi lateral</w>
festi vities</w>
mid st</w>
Ho sh
lear ning</w>
audi t</w>
audi ences</w>
Pat ri
Pat rick</w>
appl ied</w>
after wards</w>
belong ed</w>
autom aker</w>
Serg eant</w>
rever sed</w>
enjo ys</w>
retali ated</w>
Tel es
Spec tor</w>
mut ual</w>
ner vous</w>
pois on</w>
Ash ura</w>
choo sing</w>
disman tled</w>
rub ber</w>
volun tarily</w>
stam ps</w>
view ers</w>
guarant ee</w>
inaugur ated</w>
prosp erity</w>
Armen ians</w>
IR A</w>
arrang ed</w>
construc tive</w>
Det lev</w>
tigh tened</w>
Antar ctica</w>
Zap ati
charac ter</w>
enter tain
diver se</w>
cred entials</w>
adver ti
Clar k</w>
Clar ke</w>
clean ing</w>
lob b
Bet ancourt</w>
Sand ra</w>
func tioning</w>
quarter finals</w>
Hak im</w>
lit er</w>
radi os</w>
mean ing</w>
senti ment</w>
insul ting</w>
Ny unt</w>
Nik kei</w>
enh ance</w>
shoc ks</w>
discipl ine</w>
Hay den</w>
ju ana</w>
leng th</w>
stret ch</w>
correc t</w>
photogra pher</w>
Ok lahom
Environ mental</w>
Nur istan</w>
country side</w>
Rat ko</w>
song s</w>
pard ons</w>
transl ator</w>
camer aman</w>
toler ance</w>
sugges tions</w>
pharmaceuti cal</w>
Aqu ino</w>
Champ ion
cham ber</w>
favor able</w>
Lar sen</w>
bann ers</w>
ultim ately</w>
Anat ol
Andi jan</w>
Spokes man</w>
liveli hood</w>
FA O</w>
som ewhat</w>
rail way</w>
chron ic</w>
turn out</w>
Abra moff</w>
oblig ations</w>
Dru g</w>
Never theless</w>
phosp hate</w>
restra int</w>
resor ts</w>
Chev ron</w>
Priv ate</w>
film maker</w>
Kost elic</w>
inhabit ants</w>
Jon athan</w>
UT C</w>
gal ax
saf ely</w>
epher d</w>
brid ges</w>
Disc overy</w>
Lind say</w>
rat ings</w>
dir ty</w>
prolong ed</w>
disban ded</w>
Barz ani</w>
Swaz iland</w>
deliber ately</w>
Brow n
Panam anian</w>
tack le</w>
hav ens</w>
explan ation</w>
pardon ed</w>
bureauc ra
Hadi tha</w>
scru tiny</w>
Soldi ers</w>
Solid arity</w>
Ecuadore an</w>
Yugansknef teg
Erel i</w>
Erek at</w>
Kharra zi</w>
Kiv u</w>
MQ M</w>
Zid ane</w>
pho to</w>
reiter ated</w>
rainf all</w>
benzen e</w>
Saraj evo</w>
Oklahom a</w>
1 25</w>
1 19</w>
1 23</w>
2 25</w>
2 1st</w>
3 30</w>
3 0s</w>
6 50</w>
7 th</w>
A ut
B ir
B est</w>
B and
B run
C e
C it
C ir
C oc
C row</w>
D e</w>
D A</w>
D R</w>
D ou
D ur
D owner</w>
E man
E uph
F err
G la
G old</w>
H all
H wang</w>
I t
I mm
J us
J im
J enn
K id
K hmer</w>
L ake</w>
L ew
L og
M y</w>
M am
M ach
M DC</w>
N im
N gu
O sl
P F</w>
P el
P ad
P res
P enn
P irates</w>
S aid</w>
S ony</w>
T err
U igh
Y o
Y ala</w>
Y ao</w>
Z al
Z ha
a w</w>
a da
a ah</w>
b on
b and
b ail
b atch</w>
b lowing</w>
b outs</w>
b racing</w>
d run
e tion</w>
e im
f ee</w>
g lac
i h
i h</w>
i ves</w>
i ques</w>
j ew
l ending</w>
l eep</w>
m ired</w>
n ik</w>
o th
p raise</w>
r ants</w>
r ush</w>
s sic</w>
s elect</w>
t ag
t one</w>
t au
t oured</w>
v or
v ent
v ened</w>
w l</w>
w ear</w>
w ford</w>
y ota</w>
z ew
in ame</w>
in comes</w>
in stitute</w>
in appropriate</w>
in nov
in meier</w>
an an
er ings</w>
er son</w>
re ally</w>
re conn
re peal</w>
re consider</w>
re neg
re placing</w>
en sible</w>
or a</w>
or chest
ou tri
st adi
it an</w>
it age</w>
it ol</w>
at an</w>
ro les</w>
ic ted</w>
ha mp
ha bit
ea s</w>
ea sy</w>
ra ped</w>
el e
el low</w>
ac omo</w>
di min
di arr
es c
em e
pl um
pl ant
un i</w>
un resolved</w>
un fairly</w>
un usual</w>
li ps</w>
la ying</w>
la bel
as sisting</w>
as leep</w>
is m
de fied</w>
op ens</w>
op enly</w>
ne ph
ow es</w>
wit nessed</w>
ch ner</w>
for ged</w>
ex ported</w>
id encia</w>
ab senti
ak ers</w>
com missioner</w>
sh attered</w>
pe oples</w>
tr o</w>
ed a</w>
par k</w>
par ades</w>
uc tu
bu t
bu ff
ul tra</w>
res ses</w>
Is k
Un ification</w>
sec uring</w>
sec ession
rou s</w>
qu et</w>
rec ur
oc olate</w>
St an</w>
St ock
ing o</w>
ot t</w>
ev ed</w>
gi ers</w>
gi acomo</w>
cont enti
per form</w>
prov en</w>
mo dest</w>
ru m
ru ins</w>
man age</w>
au r</w>
mis use</w>
fi erc
acc ordance</w>
fl at</w>
fl ow
fl uctu
gu it
to m</w>
to il
to ise</w>
sti r
cap tors</w>
cap tives</w>
tal king</w>
bo oming</w>
enti onal</w>
bel t</w>
bel l</w>
bor ing</w>
bor rowing</w>
ho yono</w>
ut ation</w>
low s</w>
Russi ans</w>
pan da</w>
An th
An im
war ships</w>
har ds</w>
har ass
ver ify</w>
Al onso</w>
Al giers</w>
wi ret
min ed</w>
cam p
out door</w>
ma ster</w>
agre es</w>
fa m</w>
fa ult</w>
inter vened</w>
minist erial</w>
air plane</w>
reas onable</w>
do v</w>
stri king</w>
cu ff
lin ers</w>
Pol ls</w>
De ath</w>
respon sibilities</w>
announ cing</w>
Ma stro
fre eing</w>
progra mming</w>
pa st
Ven us</w>
Par chin</w>
dra fted</w>
pr ince</w>
Sy ed</w>
sch em
weap on
den s</w>
rac ism</w>
del ta</w>
Com man
Com pact</w>
vir al</w>
og g</w>
et ty</w>
ob struc
sel lo</w>
gun battles</w>
Or teg
20 14</w>
reac ted</w>
Wh it
Wh itt
kee ps</w>
bl u
bl an
bl at
pric ed</w>
compl eting</w>
compl etion</w>
Ju l</w>
Ju arez</w>
Sa q
sy n
gre etings</w>
stor ies</w>
invol ve</w>
dead locked</w>
Gu sta
medi ation</w>
ven ue</w>
Ser pent</w>
ik ov</w>
eng aging</w>
glo be</w>
eth ics</w>
tou ch
ban g</w>
sk ating</w>
suppl iers</w>
main stream</w>
cl ar
cl ues</w>
employ ers</w>
Bar cel
cer ti
doc ked</w>
peacekee per</w>
thi wat</w>
Har are</w>
Har court</w>
Har per</w>
Har bin</w>
ext ent</w>
under stand</w>
under mining</w>
Pe tra
fe eling</w>
decl aring</w>
repres sive</w>
sign al</w>
pic king</w>
legisl ator</w>
nation alization</w>
Be k
sla shed</w>
trans formed</w>
trans ferring</w>
wat ching</w>
projec ted</w>
settl er</w>
publi sh</w>
Lu anda</w>
sha ped</w>
sha pe</w>
sha ken</w>
197 1</w>
197 7</w>
gr ounded</w>
techn ologies</w>
techn iques</w>
Ac tiv
ba th
equ ality</w>
fil ing</w>
Ti anan
Cor ruption</w>
break through</w>
celeb rates</w>
Cam p
trib es</w>
accid ental</w>
chec ked</w>
descri bing</w>
Mc Donald</w>
Tra vel
improv ised</w>
Ber mud
hand le</w>
hand over</w>
moun ted</w>
mos qu
Li u</w>
he a</w>
he im</w>
occup ying</w>
Ric an</w>
Ric hards</w>
youn gest</w>
Mer ck</w>
Qu ito</w>
bar ric
any where</w>
arti sts</w>
196 8</w>
coura ge</w>
environ m
Si milar</w>
insu fficient</w>
sl ated</w>
Ko h
Commun ications</w>
reti ring</w>
manufac ture</w>
manufac turer</w>
deton ate</w>
hon ored</w>
docum entary</w>
Kir chner</w>
Mas sou
Mas kha
Ra him</w>
10 3</w>
conserv ation</w>
author itarian</w>
gas car</w>
Do ha</w>
mist reat
nar cotics</w>
conver sations</w>
Haiti ans</w>
vacc ines</w>
institu ted</w>
dy n
Bu en
renew able</w>
assi sted</w>
associ ates</w>
origin ated</w>
dist ant</w>
subst ance</w>
care fully</w>
nit aries</w>
exam ined</w>
Rel atives</w>
Jal alabad</w>
competi tive</w>
observ ances</w>
ey es</w>
fat ality</w>
transpor ted</w>
jun gle</w>
cru el</w>
coll ecting</w>
determin ation</w>
hijac king</w>
Sur iname</w>
To yota</w>
Prov incial</w>
Prov idencia</w>
ge ous</w>
Stra it</w>
endor s
bot tles</w>
predic ts</w>
broadca sting</w>
Nicaragu an</w>
Pat riot</w>
Tor toise</w>
Tor sello</w>
autom o
Goo se</w>
He ights</w>
sal ary</w>
Hor n</w>
Sum mer</w>
attor neys</w>
pois oning</w>
AN C</w>
Maced onian</w>
altern ate</w>
tic ket</w>
stam pede</w>
sym bol
conv ince</w>
hard line</w>
Soci ety</w>
Cap itol</w>
arrang ement</w>
deplo ying</w>
disclo se</w>
Bhut an</w>
Wol fow
Prot ect</w>
deterior ated</w>
sor ship</w>
weak ening</w>
Guang zhou</w>
Indi ana</w>
dig nitaries</w>
dram atic</w>
Mag azine</w>
exce ed</w>
Balk ans</w>
Bet a</w>
CA FTA</w>
Haw ai
degre e</w>
difficul ty</w>
Fa ure</w>
by standers</w>
Hak imi</w>
scra p</w>
congrat ul
confid ential</w>
til la</w>
servic ing</w>
Zh ang</w>
blood less</w>
house hold</w>
house holds</w>
mem o</w>
colli sion</w>
Fil ip
je op
liqu id</w>
Ste inmeier</w>
transpa rent</w>
luc k</w>
termin ation</w>
swa p</w>
arm or</w>
perc eived</w>
Consu mer</w>
Gib r
ramp age</w>
exac erb
Michel le</w>
incor por
perpe trators</w>
accur ate</w>
Colum bia</w>
transac tions</w>
highligh ting</w>
precau tions</w>
Att acks</w>
Zen awi</w>
resi sted</w>
arsen al</w>
concentr ated</w>
leve es</w>
contain ers</w>
harv est</w>
Baj aur</w>
Masha al</w>
compens ate</w>
Paul o</w>
Cra wford</w>
Gran ma</w>
Nu evo</w>
Tenn is</w>
blin d
quanti ties</w>
accep ting</w>
Mada gascar</w>
desper ate</w>
Pon te</w>
tribu te</w>
maneu vers</w>
corpor ate</w>
indefin itely</w>
cigarett es</w>
Cay man</w>
Pun jab</w>
Patt ani</w>
Tuni sia</w>
ni val</w>
exha usted</w>
cancell ation</w>
Icel and</w>
Jem aah</w>
Ox fam</w>
And re</w>
glob alization</w>
Akh tar</w>
Recon struction</w>
cous in</w>
rand om</w>
uncertain ty</w>
disgra ced</w>
Cardin al</w>
Liv ni</w>
Boliv ar</w>
Cant oni</w>
Yud hoyono</w>
kne e</w>
wherea bouts</w>
impas se</w>
Mohm and</w>
interf ere</w>
retre at</w>
Zimbabw ean</w>
excell ent</w>
Eman cipation</w>
Euph rates</w>
Osl o</w>
Penn sylvania</w>
Terr or
oth o</w>
tau ght</w>
reconn aissance</w>
reneg ade</w>
outri ght</w>
diarr hea</w>
neph ew</w>
absenti a</w>
Stock holm</w>
contenti ous</w>
harass ment</w>
Mastro giacomo</w>
Orteg a</w>
Whitt ington</w>
Barcel ona</w>
Activ ists</w>
Tianan men</w>
Bermud a</w>
Maskha dov</w>
mistreat ment</w>
Wolfow itz</w>
1 000</w>
1 14</w>
A be</w>
A del</w>
A rea</w>
A stronau
A verage</w>
B ow
B ing
B ared</w>
B rent</w>
C li
C ote</w>
D D</w>
D in
D ol
D ab
D akar</w>
E le
E duc
F ra
F ew</w>
H ic
H op
H ere</w>
H ab
H iz
H ang</w>
H urricanes</w>
I an</w>
I tur
I vo
J ok
K om
K iri
L im
L eg
M E</w>
M V</w>
M ary</w>
M oo
M az
M ash
M yers</w>
N ad
N ov</w>
N apol
N elson</w>
O ld</w>
O ver
O AS</w>
P rem
P ass
P lan</w>
Q al
R ab
R est
R ud
R au
R ose</w>
R ug
R ail
R ock</w>
R ising</w>
S el
S pe
S ang
S anc
S av
S istani</w>
T B</w>
T ak
T own</w>
T im</w>
T ash
T ata</w>
T rin
T ari
U no
V e
V o
V u
V el
W ars</w>
Y as
Y edi
Z agre
a sts</w>
a thiwat</w>
b un
b li
b ak</w>
c overs</w>
d at
d led</w>
d up</w>
d ating</w>
d life</w>
f ing
f ron
g au
g ross</w>
g aming</w>
h s</w>
h o</w>
h eight</w>
h ind
i ar</w>
i ah</w>
i bility</w>
j e</w>
k ent</w>
l friend</w>
l ull</w>
m util
n ish</w>
n sic</w>
o k</w>
o st
p es
p ages</w>
p oured</w>
r allah</w>
s its</w>
s inc
s and
s wi
s ank</w>
s oph
t ear
t ops</w>
t ina</w>
u ter</w>
u rely</w>
w i</w>
w are</w>
w oo
w ish</w>
w ages</w>
z h
in ability</w>
an ic</w>
an dest
an dez</w>
er re</w>
re vo
re elected</w>
re ality</w>
re places</w>
en ic</w>
en thal</w>
ti cal
ti um</w>
ti cut</w>
ti ger</w>
ti tles</w>
ar ist</w>
st um</w>
al um
al igned</w>
at op</w>
at ories</w>
at egi
il ong
ro sh
ro oted</w>
ic ating</w>
ic enter</w>
ha y</w>
ha ps</w>
ea ble</w>
sa ved</w>
ra b
ra in
ra cial</w>
ra fts</w>
ri gging</w>
el er</w>
om ed</w>
om on</w>
da y
da ble</w>
di g</w>
di est</w>
di tionally</w>
es i</w>
em in
un law
un hurt</w>
un popular</w>
un changed</w>
oun d
pro pose</w>
gh ari</w>
con sor
as ks</w>
as sistant</w>
is k</w>
is tic
de pl
de fi
de port</w>
de part</w>
su e</w>
sid ed</w>
wit z</w>
ch ocolate</w>
ch witz</w>
ern s</w>
sp ra
for th</w>
for ci
se st</w>
ad el
ad ds</w>
ad mit</w>
mil d</w>
ex changes</w>
id eas</w>
ab st
ap sh</w>
ap preci
com edy</w>
sh i</w>
tr un
lo cally</w>
vi sas</w>
est ation</w>
est one</w>
ee m</w>
ee ing</w>
ter n</w>
ter ies</w>
ter med</w>
im p
im minent</w>
ig an</w>
Is fa
Un til</w>
sec t</w>
sec tions</w>
Ch o
Ch ou
Ch em
Ch iefs</w>
inc t</w>
rec all</w>
In dies</w>
In debted</w>
St ag</w>
ot ape</w>
ot echnology</w>
mon ument</w>
tur ns</w>
ev al
gi ance</w>
cont ents</w>
cont ends</w>
cont radic
ric t</w>
arg uments</w>
per f
mo del
dis armed</w>
dis order</w>
dis played</w>
man ship</w>
man bek</w>
co ol
ep icenter</w>
au ster
ren ched</w>
Chin ook</w>
fl ex
fl ush</w>
tro it</w>
Mon te
cap turing</w>
bo arded</w>
Pal ace</w>
pre y</w>
dec or
dec iding</w>
ut a</w>
gra b</w>
gra ft</w>
gra ss</w>
pres crip
fin ances</w>
fin anci
comm uter</w>
and o</w>
ash tra</w>
are l</w>
har bor</w>
viol ates</w>
det ain</w>
hu mili
bas ketball</w>
Ba ath</w>
ous ness</w>
cen s
cen sorship</w>
min erals</w>
ang le</w>
over saw</w>
fa i
relea ses</w>
Ab del
resp ir
resp ected</w>
eal thi
cu it</w>
jo hn</w>
jo bless</w>
parliam ent
De troit</w>
explo itation</w>
ant e</w>
Islam iyah</w>
compan ion</w>
der ailed</w>
buil dup</w>
pr ud
pr one</w>
clo sest</w>
depend ency</w>
Ar n
rel uc
rel ating</w>
investig ative</w>
vir tual</w>
Ara bi
loc als</w>
loc ks</w>
wa ving</w>
pas sports</w>
sm oo
bre ach</w>
os i</w>
if ying</w>
Coun try</w>
tor ia</w>
tor ched</w>
tor rential</w>
As ked</w>
20 s</w>
reg rets</w>
Pro ject</w>
read iness</w>
stor ed</w>
fun dra
hun ter</w>
serv ants</w>
end angered</w>
aff ecting</w>
emp t</w>
Kur manbek</w>
disp o
Brit on</w>
Brit ney</w>
Sen g</w>
Kar ami</w>
En deav
mea sured</w>
arri vals</w>
star vation</w>
roc k
eng ines</w>
lic en
lic enses</w>
sk i
Chri st</w>
resol utions</w>
rejec tion</w>
bur ial</w>
invest ing</w>
cl andest
indic tments</w>
journ alism</w>
Austr o</w>
Ca sa
sea l</w>
disa greement</w>
parti ally</w>
port unity</w>
Bra d</w>
Bo ston</w>
withdraw als</w>
Con serv
Con nec
add resses</w>
nation ally</w>
Mu j
Mu sic</w>
fur t</w>
Kh ali
cul p
Cl em
sla shing</w>
inst ances</w>
sc ope</w>
Mor ris</w>
contrac ting</w>
18 5</w>
sli pped</w>
stre am
adv ice</w>
accoun table</w>
Sha m
Bas esc
exten ds</w>
cr ushed</w>
tem ple</w>
Ex x
Hus sain</w>
Bal uch</w>
crow n</w>
ign ore</w>
Iv orian</w>
Op portunity</w>
Tim o
Fi ji</w>
sing led</w>
Tra ders</w>
te a</w>
Ber tel</w>
hand ic
kov ski</w>
var i
educ ational</w>
gener ating</w>
Rob erts</w>
gir lfriend</w>
bloo diest</w>
post al</w>
contribu ting</w>
contribu tes</w>
Wil dlife</w>
guil ders</w>
holi est</w>
trac king</w>
196 3</w>
br and</w>
dang ers</w>
wel ls</w>
safe guard</w>
Ko z
Rev er
pil ots</w>
her o</w>
fla gged</w>
disap pointing</w>
smugg le</w>
erup tion</w>
nest o</w>
Moroc cans</w>
hon est</w>
hon ors</w>
arch it
HI PC</w>
rap es</w>
acqu isition</w>
exc use</w>
tru th</w>
Maj id</w>
ack ings</w>
mus icians</w>
hy un</w>
equip ped</w>
Sol omon</w>
Do stum</w>
squ ads</w>
tain ted</w>
some where</w>
app arel</w>
Mad uro</w>
Air ways</w>
Na q
big ger</w>
vacc inations</w>
objec ted</w>
objec tive</w>
objec tives</w>
Er nesto</w>
wal king</w>
scor ing</w>
postpon ement</w>
rob bery</w>
Gar den</w>
guar ding</w>
exam ining</w>
commer ce</w>
Alex and
competi tors</w>
sn iper</w>
fat ally</w>
restor ation</w>
Accor ds</w>
Agricul tural</w>
Mel es</w>
bat tery</w>
Cy clone</w>
proce eds</w>
spons or</w>
cover t</w>
coast line</w>
coll ect</w>
coll ection</w>
hijac kers</w>
Min nes
refl ects</w>
disappe arance</w>
Bak u</w>
smo kers</w>
achiev ements</w>
set back</w>
Rodri go</w>
Du la
ge ese</w>
Seneg alese</w>
Naz is</w>
Naz arb
lac ked</w>
appl ication</w>
expen dit
Tel egra
conclud e</w>
Jud ic
bea uty</w>
testi fy</w>
ior a</w>
AN U</w>
Sin iora</w>
advoc ate</w>
Lo han</w>
dissol ve</w>
dissol ution</w>
Ker ik</w>
vac u
vac ation
stu dio</w>
quali fying</w>
Cla shes</w>
rep airs</w>
rep utation</w>
conv entional</w>
intensi fy</w>
cop ies</w>
flo tilla</w>
CO LU
Gol an</w>
arrang ements</w>
construc t</w>
friend ship</w>
rev it
Meh di</w>
Carol yn</w>
Bec kham</w>
scre ening</w>
auth or</w>
Zam bian</w>
swee ping</w>
Tut si</w>
campaig ns</w>
answ ered</w>
neu tral</w>
appoint ments</w>
mel ting</w>
black out</w>
Protest ant</w>
Hondur an</w>
IO N</w>
Pi erre</w>
boun ty</w>
len ders</w>
democra cies</w>
carri ers</w>
Youn g</w>
exce eded</w>
Equ ality</w>
Haw k</w>
Bag apsh</w>
radi o
Chan nel</w>
Constitu tion</w>
Bou cher</w>
Pear l</w>
univer sal</w>
servic emen</w>
chair manship</w>
dril ls</w>
Nar athiwat</w>
Sul eim
tom b</w>
Stud y</w>
Stud ents</w>
centri st</w>
Regi onal</w>
colli ded</w>
sacri fic
Negoti ations</w>
Bat tical
Kum arat
Sib eria</w>
analy sis</w>
conven es</w>
Kra j
fow l</w>
pard on</w>
Up john</w>
exac tly</w>
Hi rosh
thro at</w>
worsen ed</w>
empha sized</w>
Fern andez</w>
barg ain</w>
siz able</w>
shou ting</w>
outlin ed</w>
quarant ine</w>
Mich el</w>
embezz lement</w>
Cre ole</w>
Son ghua</w>
caf e</w>
repatri ated</w>
eleph ants</w>
Spani ard</w>
Ever est</w>
Les otho</w>
night club</w>
ingredi ent</w>
preser ving</w>
slum p</w>
justi fy</w>
neutr ality</w>
Dist rict</w>
Mig uel</w>
Nas rallah</w>
Nah r</w>
Qing hai</w>
bowl er</w>
hem ous</w>
cons ci
flu ids</w>
teor ological</w>
Frank furt</w>
Yous sef</w>
dar k</w>
psy ch
diox ide</w>
convinc ed</w>
Bomb ay</w>
Hurri yat</w>
Aus chwitz</w>
Bam bang</w>
MB US</w>
pir ate</w>
wed ding</w>
stom ach</w>
rich est</w>
Mahar ashtra</w>
Mehm et</w>
blasp hemous</w>
combat ants</w>
Miss ouri</w>
Lare do</w>
ware house</w>
chann els</w>
pack ages</w>
bull do
recruit ment</w>
Hosh yar</w>
Zapati sta</w>
Brown field</w>
Brun ei</w>
Imm ig
Jenn ifer</w>
Pel osi</w>
stadi ums</w>
secession ist</w>
Anth ony</w>
Anim al</w>
weapon ry</w>
Gusta v</w>
Petra eus</w>
Hawai i</w>
Gibr altar</w>
Educ ation</w>
Hic ks</w>
Itur i</w>
Ivo ire</w>
Prem ier</w>
Tash kent</w>
Zagre b</w>
hind ered</w>
soph istic
ategi es</w>
consor tium</w>
Isfa han</w>
auster ity</w>
Arabi ya</w>
clandest ine</w>
Connec ticut</w>
Basesc u</w>
Minnes ota</w>
Nazarb ayev</w>
Telegra ph</w>
COLU MBUS</w>
Battical oa</w>
Kumarat unga</w>
Hirosh ima</w>
1 N1</w>
1 28</w>
2 40</w>
7 37</w>
8 50</w>
A C
A K</w>
A NA
A dri
A vian</w>
A ires</w>
B O</w>
B in</w>
B ut
B each</w>
B lock</w>
C U</w>
C ul
C iting</w>
C NA</w>
C ARE</w>
D A
D w
D F</w>
D er
D ie
D ana</w>
F er
F ame</w>
F ai
F uk
G ur
G en</w>
G as
G hol
G reg
G arri
G he
H on
H illa</w>
H 1N1</w>
J r</w>
J up
J orge</w>
J uba</w>
K id</w>
K ap
K le
K ual
K eys</w>
K CNA</w>
L e</w>
L um
L and
L ima</w>
L ION</w>
M it
M om
M att
M all</w>
N g
N ou
N ancy</w>
O um
P it
P as
P ed
P ash
P residents</w>
P lease</w>
P DV
R ol
R us
R em
R as
R iz
R aw
R yan</w>
S E
S I
S ti
S uc
S eb
S ho
S of
S ee</w>
S ug
S ach
S wan</w>
S PL
T U</w>
T ea
T ol
T un
T our</w>
U A
V a
V anu
W e
W ales</w>
W ind
Y uc
Y ar</w>
Z in
Z ur
a x</w>
a oning</w>
a hari</w>
b ayev</w>
c als</w>
c ut
c ker</w>
c ategory</w>
d der</w>
d ining</w>
d owned</w>
d smen</w>
e on</w>
e tic</w>
f ies</w>
f ications</w>
g en</w>
g ov
g ay</w>
g rip</w>
g amb
h il
h att
i v</w>
i fi
i flu</w>
j ic</w>
j ub
j sters</w>
k e
k is
k ings</w>
k son</w>
k ick</w>
l em
l ord</w>
m al</w>
n urs
n ership</w>
n avi
n ikov</w>
o th</w>
p ist
p ill</w>
p ence</w>
p ful</w>
p neu
s ant</w>
s late</w>
t am
t als</w>
t ty</w>
t ees</w>
t nership</w>
v and
v ocal</w>
v owing</w>
w est
w ound</w>
w rap
w ishes</w>
w ealthi
y ton</w>
y am</w>
th ir</w>
th ouse</w>
in ar</w>
in jec
in os</w>
in discrimin
in ions</w>
in door</w>
in sisting</w>
an dum</w>
er ine</w>
re d
re es</w>
re tri
re cip
re alized</w>
en ever</w>
ar ized</w>
ar ten</w>
ar ming</w>
ar range</w>
on er</w>
on Mo
on ial</w>
or os</w>
or bit</w>
ou f</w>
st ab
st ap
st ress</w>
st eal</w>
st rous</w>
it er</w>
it ani</w>
al an</w>
al located</w>
at u</w>
at ever</w>
ha d
ha ul</w>
ha iling</w>
ea ves
sa v</w>
sa da
si m</w>
si l</w>
si est</w>
si bl
si oned</w>
ur i
ur ges</w>
ra rely</w>
ec ture</w>
el ve</w>
el le</w>
el ev
el ine</w>
el ite</w>
ol es
ol ars</w>
ac ent</w>
ac ru
di gging</w>
di dates</w>
us er</w>
em o
em atic</w>
em peror</w>
un u</w>
un ite</w>
un announced</w>
un constitutional</w>
un authorized</w>
la im</w>
gh es</w>
wh enever</w>
con fin
as p
as signed</w>
am ine</w>
is a</w>
is lav</w>
de er</w>
de po
de gra
lea k</w>
ow ning</w>
ch ant</w>
ern most</w>
sp r
for gi
se eds</w>
se wage</w>
ad ema</w>
mil estone</w>
ex tor
ex porting</w>
ab und
ab ase</w>
ap ak
ap ova</w>
ak ing</w>
com pat
com prises</w>
sh an</w>
pe t</w>
pe tro
ed in</w>
ed it
par king</w>
vi o</w>
vi est</w>
vi ans</w>
no tably</w>
att end
im ag
im pac
im balance</w>
im pressive</w>
milit ancy</w>
ain der</w>
ul in</w>
res ur
res emb
res ili
Is sa
af raid</w>
qu ities</w>
qu ished</w>
Ch e
Ch an</w>
Ch un</w>
str onom
rec ess</w>
In g
In fl
St and
St abil
ing ham</w>
tur ban</w>
ev ich</w>
cont ra
cont ender</w>
per haps</w>
tri be</w>
dis charged</w>
man e</w>
man ded</w>
man itarian</w>
ub s</w>
grou ping</w>
Ir ving</w>
co s</w>
co m</w>
ent um</w>
tra m
tra sh</w>
19 17</w>
19 53</w>
19 30s</w>
hel ia</w>
hel pful</w>
ren tly</w>
int end</w>
iz ers</w>
inv ade</w>
Sun na</w>
fl ared</w>
Mon itor</w>
to s</w>
to y</w>
um pha</w>
tal ked</w>
bo ards</w>
bo arding</w>
pre val
dec ent</w>
ann a</w>
leg end</w>
ut z</w>
ut ely</w>
me a</w>
low ered</w>
hea viest</w>
gra phic</w>
rem ainder</w>
pres ti
pres suring</w>
pen ing</w>
sup er</w>
fin alize</w>
ok o</w>
and ar
and ante</w>
An dor
An dh
az i</w>
ash ing</w>
war m
har a</w>
har ming</w>
har boring</w>
cla mation</w>
bas eless</w>
Ba i
Ba da
Al most</w>
oper atives</w>
Sec ret</w>
Mo ya</w>
out spoken</w>
over sees</w>
Nor dic</w>
fa sting</w>
Ab id
inter viewed</w>
ret ained</w>
ret ains</w>
minist ries</w>
do gs</w>
shi elds</w>
shi fting</w>
contin ental</w>
wea kn
Sh er</w>
Sh alom</w>
Sh annon</w>
Sh epherd</w>
Sh etty</w>
cu b</w>
fer ences</w>
lin ed</w>
lin er</w>
jo ins</w>
Pol icy</w>
Pol yne
ant y
law less</w>
mak eshi
Par ti
Par tnership</w>
NA S
off s</w>
off ense</w>
acti vely</w>
ph ins</w>
rac ks</w>
Ar s
presid ing</w>
vir uses</w>
loo ting</w>
ob ile</w>
ob server</w>
up ward</w>
sel ls</w>
Qa deer</w>
ca ve</w>
wa ited</w>
wa ved</w>
if a</w>
inj unc
sub merged</w>
ass essing</w>
confir ming</w>
bl ues</w>
Pro tests</w>
cha ired</w>
compl icity</w>
Sa ve</w>
can tile</w>
laun cher</w>
aff air</w>
Ha j
mov ies</w>
tt i</w>
inf ant</w>
En forcement</w>
requ iring</w>
eth ical</w>
appe arances</w>
Per ry</w>
sk aya</w>
iev es</w>
Co ordination</w>
Su icide</w>
Se attle</w>
main stay</w>
indic ations</w>
indic ating</w>
Can didates</w>
Bar ry</w>
deb ts</w>
pur port
comman ded</w>
comman ding</w>
col onies</w>
jud gment</w>
Har t</w>
far m
under cover</w>
under stands</w>
mun itions</w>
fe els</w>
critici zes</w>
ref use</w>
Shar apova</w>
Con federation</w>
Mil ink
pu ted</w>
nation alist</w>
conf ession</w>
suff oc
Am r</w>
ethn ically</w>
succ essive</w>
hi p</w>
hi kers</w>
vide os</w>
Lu ther</w>
197 0</w>
Ad um
Hu ghes</w>
Hu manitarian</w>
abduc ting</w>
div iding</w>
Sev an</w>
val u
val id</w>
foc uses</w>
Bel ize</w>
Sha h
Bas ketball</w>
condem n</w>
deter mining</w>
Hun an</w>
Kat sav</w>
domin ance</w>
spea kers</w>
Bla ke</w>
cerem onial</w>
Man hatt
char ities</w>
char tered</w>
char itable</w>
Ph il</w>
stop page</w>
survi ving</w>
Mc Alpine</w>
bi o
Op helia</w>
migr ating</w>
Az ahari</w>
recogn izing</w>
occu r</w>
regul ate</w>
land less</w>
gener ations</w>
Li ke</w>
Li aoning</w>
fri gh
AR T</w>
Comm ittees</w>
post ers</w>
bar bar
appro aches</w>
trac ted</w>
trac ks</w>
196 6</w>
196 9</w>
Sal man</w>
Tam iflu</w>
famil iar</w>
wel comes</w>
mag n
nec k</w>
ath lon</w>
err ors</w>
reti re</w>
fav ors</w>
Med ic
depu ties</w>
boycot ting</w>
ade h</w>
deton ating</w>
arch bishop</w>
comp ounds</w>
cour ses</w>
docum ented</w>
expl ore</w>
expl ained</w>
expl ored</w>
insi st</w>
haz ard
scho ol
public ist</w>
author izes</w>
benef ited</w>
anj in</w>
revi ved</w>
vacc inate</w>
mi dation</w>
institu tion</w>
recomm end</w>
dy nam
Mali k</w>
Chil umpha</w>
bra s</w>
hij ackings</w>
SA N
SA CU</w>
evacu ees</w>
mit age</w>
get ary</w>
reb ound</w>
Han sen</w>
Rel ig
La ura</w>
observ ance</w>
ey ev</w>
stabil ized</w>
ambus hes</w>
interrog ated</w>
recru it</w>
purcha ses</w>
Mel illa</w>
bat i</w>
Mi ers</w>
Vic toria</w>
denoun ce</w>
divid end</w>
Jam al</w>
mission aries</w>
videot aped</w>
exist ed</w>
mid day</w>
mid western</w>
tex tiles</w>
aggres sively</w>
lac king</w>
mud slide</w>
audi otape</w>
Maur iti
appl ying</w>
appl ications</w>
belong s</w>
autom atically</w>
enjo ying</w>
neg l
neg ligence</w>
clu ster</w>
Dis ney</w>
War dak</w>
phys ician</w>
bea sts</w>
escal ation</w>
mach ines</w>
subjec ted</w>
relation ships</w>
crip pled</w>
crip pling</w>
back ground</w>
hor n</w>
John ston</w>
consul ting</w>
May er</w>
mom entum</w>
pha sed</w>
adj acent</w>
astronau t</w>
conv ened</w>
Maurit anian</w>
Ver de</w>
Ver acru
reun ite</w>
Gol dman</w>
Sus ilo</w>
rev ered</w>
encla ves</w>
diversi fied</w>
interc ep
Prot ocol</w>
Cur rently</w>
ax e</w>
campaig ned</w>
wrong ly</w>
Ala ska</w>
Tar o</w>
fru it</w>
diver ted</w>
disper sed</w>
medic ines</w>
Feder line</w>
ignor ing</w>
classi fy</w>
emplo y</w>
seiz ures</w>
Elec tr
Clar kson</w>
Hen in</w>
Mag na</w>
Nat war</w>
apologi ze</w>
decreas e</w>
collea gue</w>
Hal utz</w>
Sab ah</w>
quarter ly</w>
install ation</w>
hydro power</w>
hydro electric</w>
Ed ward</w>
less ness</w>
opti mism</w>
immun ity</w>
guid ance</w>
mean while</w>
poss essing</w>
Namib ian</w>
Fac ility</w>
Nik ol
shoc ked</w>
discipl inary</w>
Ri ot</w>
Ter rit
mem ory</w>
pum p</w>
inti midation</w>
asser tion</w>
Tom my</w>
lib eration</w>
vig il
capit als</w>
Environ ment</w>
anticip ated</w>
catastro phic</w>
Sm all</w>
Sm ith
roy alties</w>
obstac le</w>
princip al</w>
Tru st</w>
song writer</w>
acad emy</w>
acad emic</w>
Chall eng
retail er</w>
sharehol der</w>
wild life</w>
KI M</w>
camer as</w>
collabor ation</w>
sugges tion</w>
pharmaceuti cals</w>
arbit ration</w>
deal t</w>
worsen ing</w>
disgu ised</w>
transac tion</w>
highligh ted</w>
Had ley</w>
Hash emi</w>
shou ted</w>
outlin ing</w>
quarant ined</w>
Mich igan</w>
embezz ling</w>
Eli z
Mes a</w>
mol estation</w>
Stu art</w>
offen sives</w>
Cham bers</w>
Raj apak
Mun ich</w>
Sid di
assaul ted</w>
receip ts</w>
Contin ental</w>
Campa ign</w>
manipul ating</w>
rol led</w>
Thir ty</w>
rememb ered</w>
aval anche</w>
Produc er</w>
featur ing</w>
Khur sh
bench mark</w>
modern ization</w>
Aw ami</w>
FO X</w>
Gren ada</w>
His pan
Ly on</w>
bran ches</w>
reform ist</w>
Moh sen</w>
Are f</w>
Ey adema</w>
Fis cher</w>
Kit ts</w>
More no</w>
Nest or</w>
Previ ously</w>
Top ol</w>
Vinc ent</w>
enab led</w>
resched uled</w>
Inc reas
Inspec tor</w>
provo ked</w>
Maha thir</w>
Edu ardo</w>
mad ra
reshu ffle</w>
sav ings</w>
proxim ity</w>
second ary</w>
Chal abi</w>
decla res</w>
haras sed</w>
corp ses</w>
adverti sing</w>
lobb ying</w>
galax ies</w>
Lew is</w>
Log ar</w>
Mam adou</w>
Zal may</w>
bail out</w>
eme tery</w>
label ed</w>
toil et</w>
Comman der</w>
certi fic
Camp bell</w>
mosqu ito</w>
Massou d</w>
Buen os</w>
jeop ardi
exacerb ated</w>
blind folded</w>
Astronau ts</w>
Cli jsters</w>
Spe ars</w>
dat abase</w>
sinc ere</w>
swi ft</w>
forci bly</w>
prescrip tion</w>
prud ent</w>
Arn old</w>
Exx onMo
Koz ulin</w>
expendit ures</w>
vacu um</w>
sophistic ated</w>
Cul ture</w>
Die go</w>
Fai sal</w>
Garri gues</w>
Jup iter</w>
Kual a</w>
Lum pur</w>
PDV SA</w>
Seb as
Vanu atu</w>
Yuc atan</w>
pneu mon
wrap ping</w>
stap ha</w>
confin ement</w>
Stabil ization</w>
Andh ra</w>
makeshi ft</w>
injunc tion</w>
purport edly</w>
Milink evich</w>
Manhatt an</w>
hazard ous</w>
Veracru z</w>
ExxonMo bil</w>
1 00
3 1st</w>
A B
A Z
A gh
A du
A dol
A ides</w>
A wards</w>
A BA
B y
B re
B ed
B ru
B ad</w>
B ug
C H
C R
C u
C ot
C our
C ent
C ook</w>
C av
C ricket</w>
D ong</w>
D ah
D he
E D
E N
E S</w>
E th
E la
E igh
F L</w>
F ur
F ad
F our
F az
G at
G ere</w>
G had</w>
G ah</w>
G BA
G BO</w>
H R
H 5</w>
H it
H ear
H ous
H indi</w>
I g
I II</w>
J e
J olo</w>
K il
K ri
K un
L t</w>
L u</w>
L an
L ap
L arg
L ut
L ong
L age</w>
L jub
M w
M S</w>
M ec
M ow
M other</w>
M ind
M TV</w>
M esha
N is
N ow
N eb
O L
O x</w>
O reg
O tun
O ax
O pening</w>
P em
P ep
P ret
P reli
P residential</w>
R al
R ub
S c
S ep
S eg
S int</w>
S lam</w>
S peci
T z
T ic
T as
T ree</w>
U tt
U ri</w>
V is
W ay
Y or
Y ak
Y ank
Z he
a hua</w>
a erial</w>
b urs
b ama</w>
b lows</w>
c it
c ep
c ry</w>
d j
d w
d ur
d ants</w>
d hood</w>
d zin
f o</w>
f ab
f red</w>
f eel</w>
g ation</w>
g ry</w>
g les</w>
h ill
h ire</w>
i q</w>
i er
i bu
i dian</w>
i val
i sic</w>
i juana</w>
j o</w>
j ee</w>
k m</w>
k an
k out</w>
k us</w>
k ick
k ids</w>
l ity</w>
l ing
l ung</w>
m n
m ou
m ic
m ate</w>
m my</w>
m aps</w>
n at
n qu
n ic</w>
n ick
o sa
o be
o bel
p t</w>
p rou
p our</w>
p ack</w>
p indi</w>
q i</w>
r ushing</w>
s sa
s cri
s week</w>
s go
s lower</w>
s essions</w>
s cuff
t ted</w>
t et</w>
t aw
t asked</w>
t ool</w>
t ney</w>
t aped</w>
t ouring</w>
u ts</w>
u sive</w>
v om
w ire</w>
w eigh
y ar
y ach
y rov</w>
y ellow</w>
z ers</w>
th ou
th aw</w>
th ieves</w>
in oc
in forman
an as</w>
an ch
er ating</w>
re tro
re vel
re started</w>
en son</w>
en act</w>
ar son</w>
ar ians</w>
ar ov</w>
on en</w>
on ic</w>
on ist</w>
or m
st e
st ated</w>
st ering</w>
st ung</w>
al o</w>
al ore</w>
al erted</w>
al istic</w>
al pindi</w>
ro of
ro oms</w>
ro oting</w>
ic ek</w>
ha l</w>
sa ke</w>
si ph
ur u</w>
ra z
ra ces</w>
ra ging</w>
ec o</w>
ri val
el ings</w>
ati st</w>
ati vity</w>
ac ute</w>
di um</w>
es h</w>
es ity</w>
es enthal</w>
us k</w>
un expected</w>
un condi
un related</w>
un decided</w>
un necessary</w>
un usually</w>
un successfully</w>
un founded</w>
un employed</w>
li p</w>
li fe
la ugh
ov sk</w>
ov akia</w>
pro por
pro clamation</w>
be d
be hea
wh ani</w>
wh atever</w>
con tr
con strained</w>
con vention</w>
con fined</w>
as set</w>
ist er</w>
ir re
am ended</w>
de but</w>
de sig
de hy
op ed</w>
op inions</w>
ag a</w>
ag gra
lea ked</w>
ne st</w>
su ing</w>
ch y</w>
ch anda</w>
sp in
sp ed</w>
for bids</w>
for cements</w>
se ated</w>
se em</w>
se emed</w>
ad m
ad mission</w>
mil l
mil l</w>
ex ists</w>
ex claimed</w>
ex porters</w>
ex hum
ex pedi
id ity</w>
ab ide</w>
ab rup
ap ping</w>
com mo
com posite</w>
sh utting</w>
pe dop
tr um
the w</w>
the dr
the aters</w>
ed din</w>
lo d
lo ads</w>
vi ous</w>
uc a</w>
im porting</w>
coun sel</w>
bu yers</w>
bu siest</w>
iti ves</w>
ul ation</w>
ul ous</w>
le v
Un ity</w>
Un iver
Un employment</w>
qu ad
str ategies</w>
Th an
inc lusion</w>
rec t</w>
oc ates</w>
oc eans</w>
In stitu
In ner</w>
St ar</w>
ot ine</w>
tur ers</w>
tur keys</w>
our d</w>
gi ous</w>
cont ag
ric ks</w>
per form
per mitted</w>
prov al</w>
elec tro
dis ruption</w>
dis plays</w>
dis burs
man i</w>
pri de</w>
co s
ent ina</w>
tra p</w>
19 0</w>
19 29</w>
19 56</w>
mis s</w>
mis sible</w>
acc um
cri ed</w>
cri ses</w>
Sun g</w>
dem arc
Tu val
fl are</w>
fl ouri
gu s</w>
gu ly</w>
gu ided</w>
gu ests</w>
Pak tia</w>
thor n</w>
Mon aco</w>
cap tive</w>
bo dily</w>
pre su
pre mat
sol i
ho o</w>
me tals</w>
sup pression</w>
fac ts</w>
fin anced</w>
Satur n</w>
pan els</w>
pan das</w>
An j
An te</w>
az on</w>
az iz</w>
ash er</w>
are tz</w>
war lord</w>
figh ts</w>
det ail</w>
hu ahua</w>
mar ath
mar chers</w>
mar ijuana</w>
oper a</w>
oper ators</w>
Mo yo</w>
cam ped</w>
cam era</w>
stat eh
out look</w>
over ies</w>
over head</w>
with held</w>
Mar wan</w>
Mar tian</w>
Mar shall</w>
Mar tina</w>
Mar cos</w>
air base</w>
erg er</w>
ay o</w>
stri pped</w>
Sh en
Sh ip
Sh ourd</w>
lin s</w>
vo w</w>
jo y</w>
cur bing</w>
explo de</w>
Ma ul
Ma her</w>
Ma ung</w>
law lessness</w>
struc tures</w>
Wor ldwide</w>
disc overies</w>
Par ach
dra g</w>
dra tion</w>
Venezuel ans</w>
Ham za</w>
Ham di</w>
eg en</w>
pr int</w>
Me k
sch olars</w>
ran g</w>
des erve</w>
alleg ation</w>
den ed</w>
den ne</w>
Ar m
Ar ms</w>
Ar mitage</w>
Com pl
Com bat</w>
rit ual</w>
og lu</w>
et lands</w>
kn ows</w>
up date</w>
up graded</w>
don ating</w>
Qa im</w>
hol ders</w>
ca uc
sm alle
sub marine</w>
As ghari</w>
Fren ch
kee per</w>
pric ing</w>
Pro f
cha se</w>
cha otic</w>
can e</w>
can al</w>
Re yes</w>
hun gry</w>
chan ces</w>
Car nival</w>
Ha ider</w>
medi ated</w>
ill u
ill as</w>
Kur d</w>
Kur ram</w>
inf ec
Kar l</w>
ail ment</w>
bla zes</w>
soci alism</w>
roc ker</w>
alli ances</w>
road blocks</w>
Ag ainst</w>
ban anas</w>
Per ino</w>
sk in</w>
sk ep
sk ull</w>
Co ordin
gen der</w>
bur y</w>
concern ing</w>
cl ubs</w>
uti lities</w>
Can ber
cer tified</w>
sea sonal</w>
For bes</w>
ine quality</w>
disa strous</w>
Moha mad</w>
Turk men</w>
fug itives</w>
gg er</w>
Har denne</w>
far mer</w>
under water</w>
under mined</w>
fe ud</w>
fe ature</w>
fe eding</w>
fe elings</w>
ss ane</w>
ref rain</w>
pat tern</w>
sign als</w>
Ro h
Ro y</w>
Ro whani</w>
nation alists</w>
nation alized</w>
occur s</w>
cul ling</w>
Be at
sla sh</w>
trans formation</w>
trans crip
bal ances</w>
priv acy</w>
dol phins</w>
sc are</w>
sc attered</w>
publi sher</w>
Lu cia</w>
sha ky</w>
Ad ha</w>
Ad nan</w>
Ad ditionally</w>
comb ines</w>
Ac ting</w>
assass inations</w>
Bas ilica</w>
gath erings</w>
Fo x
Nep ali</w>
demonstr ating</w>
equ als</w>
cr ushing</w>
ual ity</w>
Di az</w>
Hus in</w>
nomin ate</w>
conn ect</w>
stric tly</w>
tot ally</w>
Ang ry</w>
Ang lo</w>
ble eding</w>
Sch ul
survi ve</w>
anti quities</w>
bi ological</w>
bi partisan</w>
bi otechnology</w>
Iv o</w>
crac king</w>
Fin nish</w>
AI G</w>
tradi tions</w>
Ber enson</w>
var am</w>
Bang alore</w>
bud getary</w>
Rob erto</w>
he els</w>
post age</w>
Em peror</w>
Nic ob
Mer cantile</w>
Mer idian</w>
bar rage</w>
bar racks</w>
bar ovsk</w>
Her itage</w>
adi r</w>
trac tor</w>
196 5</w>
196 1</w>
coura geous</w>
Si varam</w>
domesti cally</w>
down graded</w>
sl ums</w>
sl ovakia</w>
remar k
restric tive</w>
sion ally</w>
Pr ud
ath le
trigg er</w>
fore stry</w>
effec tiveness</w>
trou bles</w>
Cath erine</w>
Cri mea</w>
disap prove</w>
encoura ges</w>
regim es</w>
pra ying</w>
advis ory</w>
exc ess</w>
cau tion</w>
Sar ah</w>
mus cle</w>
10 2</w>
author ization</w>
gas es</w>
mist reated</w>
some time</w>
conver ted</w>
tax ation</w>
aliz es</w>
Cz echo
iv ers</w>
apar tments</w>
surve ys</w>
attrac tive</w>
Des mond</w>
Law rence</w>
ther ap
ther wise</w>
cy ber</w>
cy cles</w>
cea sed</w>
pun is
rob bed</w>
guar dsmen</w>
subst ances</w>
Han oun</w>
coordin ator</w>
suspic ions</w>
sn ap</w>
Slov ak
sil ent</w>
recru ited</w>
acknowled ges</w>
14 7</w>
labor atories</w>
prosec uted</w>
fire works</w>
Khal is</w>
cir cuit</w>
Tri bal</w>
coll ec
coll ects</w>
ty r
Hav el</w>
Kha barovsk</w>
mand atory</w>
achiev ing</w>
Nav al</w>
Shei k</w>
histor ically</w>
Sil vio</w>
Pra gue</w>
Pra chanda</w>
uten ants</w>
after ward</w>
autom atic</w>
autom akers</w>
He in
He bei</w>
expen ses</w>
retali ate</w>
bea ches</w>
memor andum</w>
reach es</w>
Ash ra
Sup ply</w>
Fuj ian</w>
Lo eb</w>
alle vi
alle giance</w>
inqu ired</w>
Wal id</w>
hor ns</w>
vac ant</w>
tic kets</w>
preh ensible</w>
consul ates</w>
Hut us</w>
Kib o</w>
zz ard</w>
quali fy</w>
stimul ate</w>
sym pa
sym path
Cla ssic</w>
dum ping</w>
rep elled</w>
sac red</w>
rati o</w>
obt aining</w>
Tro ops</w>
ide ology</w>
urg ently</w>
US S</w>
bru tality</w>
ligh ting</w>
occa sionally</w>
Go gh</w>
On ce</w>
super vision</w>
renoun ced</w>
aim ing</w>
Tut u</w>
gradu al</w>
skir mis
Ala bama</w>
Ala ssane</w>
bag s</w>
fru its</w>
enter prise</w>
peti tioned</w>
Vil ks</w>
dig ital</w>
cred itors</w>
Gra mmy</w>
hang ed</w>
rein state</w>
rein forcements</w>
che ered</w>
democra ti
Gab ri
Ru z</w>
Equ atorial</w>
Gam al</w>
Gam bia</w>
Mur ray</w>
New sweek</w>
Sab eri</w>
func tion</w>
func tions</w>
Virg in</w>
Mou stapha</w>
less er</w>
scra m
poss ess</w>
Dmit ry</w>
Ta x</w>
ek ou</w>
sum i</w>
contam ination</w>
Camer on</w>
insul t</w>
narrow ed</w>
Nation alists</w>
Sul tan</w>
tom bs</w>
enh ancing</w>
Regi ons</w>
pum ping</w>
radic als</w>
Chi huahua</w>
volcan ic</w>
scar ed</w>
vig or
persu ading</w>
fundam ental</w>
infil tra
Peter sen</w>
mistak en</w>
Gal an</w>
Ya hoo</w>
luc rative</w>
sud den</w>
extrac tion</w>
master min
princip ality</w>
review ed</w>
Hil ary</w>
Rat ners</w>
fortun es</w>
Citi group</w>
accompl ice</w>
accompl ished</w>
Petro bras</w>
prohib ited</w>
Colum bus</w>
Dra gan</w>
Fern ando</w>
Kad yrov</w>
Rea gan</w>
Wi esenthal</w>
resi st</w>
spil led</w>
leve e</w>
coincid ed</w>
coincid es</w>
accel erating</w>
facilit ate</w>
Fu ad</w>
caf es</w>
fea thers</w>
frac tion</w>
eleph ant</w>
deep er</w>
offen ders</w>
Adv ocates</w>
Spani ards</w>
Reh nqu
nic otine</w>
pit cher</w>
instruc ted</w>
erad ication</w>
lie utenant</w>
lie utenants</w>
pregn ant</w>
meth od</w>
discou rage</w>
assaul ting</w>
receip t</w>
Campa igning</w>
Invest ors</w>
infiltr ated</w>
Fif ty</w>
Plat a</w>
coo ked</w>
archae ologists</w>
evol ved</w>
desec rated</w>
Liber ties</w>
High ly</w>
Lub anga</w>
Sik h</w>
Yun nan</w>
liter ature</w>
thwar t</w>
paraly sis</w>
mobil ize</w>
Advis or</w>
bound aries</w>
intimid ated</w>
Floo ds</w>
Iz mir</w>
Tot al</w>
abe th</w>
lap top</w>
conspir ing</w>
poc kets</w>
veget ables</w>
descen dants</w>
assemb led</w>
perio ds</w>
foreclo sures</w>
Dag estan</w>
Sali m</w>
Van unu</w>
bay eva</w>
pig s</w>
swit ch</w>
stag n
consolid ate</w>
spi ke</w>
compas sion</w>
guer illas</w>
Observ ers</w>
Patri arch</w>
entertain ment</w>
Champion ships</w>
Anatol ia</w>
Ce uta</w>
Gla sgo
Jim my</w>
zew ski</w>
plum me
rum ors</w>
fierc ely</w>
flow ers</w>
blan kets</w>
Bek aa</w>
bath room</w>
environm entally</w>
dyn asty</w>
endors ement</w>
automo tive</w>
incorpor ated</w>
Kiri bati</w>
Pass aro</w>
Qal q
Rau f</w>
Sel f</w>
Tari q</w>
revo ked</w>
Chem ical</w>
perf ect</w>
fai ths</w>
Abdel aziz</w>
respir atory</w>
Sham il</w>
Timo thy</w>
handic rafts</w>
Rever end</w>
archit ect</w>
Dula imi</w>
vacation ing</w>
Suleim an</w>
Kraj icek</w>
bulldo zers</w>
Ghe it</w>
Raw alpindi</w>
gov ern</w>
gamb ling</w>
wealthi est</w>
sibl ings</w>
compat riot</w>
edit orial</w>
Issa c</w>
stronom ers</w>
Infl ation</w>
Stand ard</w>
presti gious</w>
Andor ra</w>
Bai ji</w>
Abid jan</w>
weakn esses</w>
valu able</w>
Relig ious</w>
Mauriti us</w>
Eliz abeth</w>
pneumon ia</w>
Agh a</w>
Adu a</w>
ABA C</w>
Ela ine</w>
Fur ther</w>
GBA GBO</w>
Larg e</w>
Mesha al</w>
Oreg on</w>
Otun bayeva</w>
Oax aca</w>
Pem ex</w>
Preli minary</w>
Zhe jiang</w>
cit rus</w>
nick el</w>
osa urs</w>
obel isk</w>
life time</w>
behea dings</w>
dehy dration</w>
aggra v
abrup tly</w>
thedr al</w>
electro cu
Tuval u</w>
premat urely</w>
stateh ood</w>
smalle st</w>
Canber ra</w>
Czecho slovakia</w>
sympath izers</w>
Rehnqu ist</w>
Glasgo w</w>
0 6
1 13</w>
2 70</w>
2 3rd</w>
2 7th</w>
3 25</w>
5 0s</w>
7 0s</w>
8 0s</w>
A P
A x
A D</w>
B on
B it
B oo
B au
B arre
B eh
B anda</w>
B oko</w>
C E
C lo
C ann
C owell</w>
C rocker</w>
D E
D or
D at
D ad
D ak
D ar</w>
D har
D aw
D enn
D rav
D ogg</w>
E k
E D</w>
E C</w>
E ide</w>
E uro</w>
F am
F att
F oc
F amil
F ull</w>
F asher</w>
G all
G ran</w>
G anj
G len
H O
H ud
H um
H arri
I D
I do
J ac
J ann
J eff
K O
K r
K w
K ou
K ab
K ite</w>
K ut
K and
K wan</w>
K ot</w>
K haz
K ouch
L as</w>
L ov
L ud
L az
L iver
L ef
L ight
M uel
M ining</w>
M anger</w>
N 2</w>
N an
N ation</w>
N ing
N arg
N SA</w>
N ature</w>
N BC</w>
N GO
N FL</w>
O D
O M
O N
O d
O g
O h
P er</w>
P il
P ur
P ul
P ok
P resu
P ak</w>
P ron
P ick
P az</w>
P PP</w>
Q azi</w>
R ed
R avi</w>
S M</w>
S ea
S ci
S no
S port</w>
S ei
S ind
S ayed</w>
S IN</w>
S eeing</w>
T r
T s
T ati
T ab
T our
T are
T ang
T omas</w>
T echnology</w>
T itan</w>
T usk</w>
U t
U p</w>
V ar
V az
V anc
W u</w>
W id
W ood</w>
W rit
W ah
W ei</w>
W TA</w>
W eek</w>
Y i</w>
Y ass
Y outh</w>
a sa
a is</w>
a us
a bel</w>
a thing</w>
b u</w>
b ow
b its</w>
b au
b yp
b idden</w>
b ricks</w>
c on</w>
c at</w>
c ow
c ord
c ool</w>
d v
d al</w>
d le</w>
e an
e at
e ties</w>
e ums</w>
f ame</w>
f ours</w>
f earing</w>
f gang</w>
f encing</w>
g l
g i</w>
g ul
g ic</w>
g ot
g ments</w>
g ems</w>
h eal
h ida</w>
h emisphere</w>
i g</w>
i ration</w>
i ot</w>
j i
j er
j on</w>
j ed
j az
k ing
k itch
k adir</w>
l er
l ullah</w>
m ales</w>
n a
n y
n ea
n om
n un
n ul
n aked</w>
p in
p in</w>
p an</w>
p es</w>
p ts</w>
p ter</w>
p ian</w>
p its</w>
p ala</w>
p aint</w>
p raising</w>
p ouring</w>
r ary</w>
r ance</w>
s m</w>
s mil
s sed</w>
s mar
s ort</w>
s lot</w>
t ary</w>
t all</w>
t land</w>
t ability</w>
u z</w>
u x</w>
u dad</w>
u ki</w>
v a
v o</w>
v in</w>
v able</w>
v ast
v ault</w>
w is
x i</w>
x ite</w>
y u</w>
y our
y ards</w>
z on</w>
z ones</w>
th off</w>
th less</w>
in ded</w>
in sti
in conc
in um</w>
in tru
an e
an z</w>
an ing</w>
an try</w>
er ance</w>
er ships</w>
er sen</w>
re b</w>
re l</w>
re in</w>
re ne
re lin
re vision</w>
re sting</w>
re structure</w>
re opening</w>
re settlement</w>
re wards</w>
re settled</w>
en ers</w>
en demic</w>
ti k
ti ps</w>
ti sts</w>
ti res</w>
ti re</w>
ti ghtly</w>
ar ts</w>
ar ro</w>
ar ova</w>
on ov</w>
or o</w>
or ful</w>
or ah</w>
ou m</w>
ou ver</w>
st ery</w>
st anti
st ander</w>
st ays</w>
it enti
it ful</w>
al ee</w>
al do</w>
al titude</w>
at ri
at tering</w>
il le</w>
ro de</w>
ro ver</w>
ro ots</w>
ic i
ic it</w>
ic ic</w>
ha z</w>
ha rest</w>
ha bits</w>
ea u</w>
sa i</w>
sa u</w>
sa fer</w>
si os</w>
si Co</w>
ra ced</w>
ra ping</w>
ra ska</w>
ec os
ri k</w>
ri ders</w>
ri de</w>
ri ses</w>
ri ka</w>
el ded</w>
el ement</w>
el ry</w>
el iction</w>
om a</w>
ol erance</w>
da man</w>
ac id</w>
ac her</w>
ac commo
di ves</w>
di stor
es a</w>
es sible</w>
es see</w>
em entary</w>
pl ead</w>
un e</w>
un lea
un ting</w>
un official</w>
un earth
un cle</w>
un inhabited</w>
li st
li ma</w>
la v
la me</w>
ov en</w>
pro gressive</w>
gh reb</w>
be er</w>
be tra
con ve
con sist
con uts</w>
as on</w>
as sign
ir s</w>
ir in</w>
am s</w>
is se</w>
de pressed</w>
op er</w>
op ho
ag g
ag o
ne yland</w>
su d</w>
sid ers</w>
wit t</w>
ch ore
ch ho
ch ings</w>
sp ate</w>
sp ear
for ce
for ging</w>
se di
se um</w>
se ems</w>
se ini</w>
se ism
ad y</w>
ad ze</w>
ex patri
ex changing</w>
id ers</w>
por k</w>
ab ja</w>
ab sor
ap o
ap es</w>
ap pers</w>
ap pointing</w>
ak at
fro ze</w>
com mon
com pri
com mis
com andante</w>
com alee</w>
sh ov
the ory</w>
ed an</w>
resid ency</w>
lo ts</w>
lo ose</w>
vi rap
ci c</w>
ci an</w>
ci st</w>
ci ans</w>
ee ks</w>
ee han</w>
no m</w>
uc ks</w>
po ised</w>
govern ed</w>
im ura</w>
im pressed</w>
im pedi
im perial</w>
ig at</w>
ig no</w>
ig ner</w>
bu ys</w>
pol led</w>
ul y
ul ing</w>
res cent</w>
ud din</w>
af ist</w>
qu arre
qu isition</w>
Ch ol
str ated</w>
str ang
Th ird</w>
inc h</w>
rec laim</w>
fir m
St arb
wor sen</w>
mon t</w>
mon a</w>
mon ds</w>
ev iction</w>
gi ft</w>
cont em
per ing</w>
per si
sur passed</w>
ali en
ali ke</w>
prov es</w>
prov oke</w>
tri o</w>
dis sent</w>
dis content</w>
dis qualified</w>
man hunt</w>
man slaughter</w>
co stly</w>
co des</w>
tra ces</w>
19 1</w>
19 10</w>
19 40</w>
19 18</w>
19 37</w>
mis tice</w>
ren ov
fu n</w>
fu els</w>
mer cy</w>
mer ely</w>
mer chant</w>
iz ations</w>
acc red
acc essible</w>
inv a
Tu be</w>
fl ed
fl att
fl owed</w>
gu ide</w>
thor ough</w>
Mon t
cap s</w>
tal ons</w>
bo xes</w>
enti ty</w>
enti tled</w>
Pal acio</w>
ser m
pre conditions</w>
Fri st</w>
bel ls</w>
ann i</w>
ann er</w>
ann ul
bor rowers</w>
leg end
leg ality</w>
ho g</w>
ho ax</w>
me als</w>
pres cri
pres sures</w>
pen alties</w>
duc k</w>
sup press</w>
sup pressing</w>
new est</w>
du z</w>
du st</w>
pan ic
An gu
An daman</w>
az zi</w>
war ship</w>
ver ifi
cla mp
cla ss
Al v
Al kh
Al arc
of t</w>
wi ves</w>
Sec ond</w>
Mo ore</w>
Mo she</w>
min i</w>
min us</w>
min ster</w>
Pri stina</w>
surg ing</w>
ang el
out ages</w>
out dated</w>
out cry</w>
over came</w>
over run</w>
over loaded</w>
ez er</w>
vic al</w>
vic torious</w>
inter continental</w>
with stand</w>
posi tioned</w>
spokes men</w>
spokes person</w>
Mar c</w>
Mar in
Mar io</w>
Mar itime</w>
ay ud</w>
do ses</w>
Mus sa</w>
tu be</w>
Bagh lan</w>
Sh al
Sh il
Sh anxi</w>
Sh eehan</w>
def ensive</w>
so u</w>
so oner</w>
lin ing</w>
continu ously</w>
cur ta
cas ino</w>
Ma an</w>
Ma sters</w>
Ma ghreb</w>
mak eup</w>
conc ent
fre ely</w>
compan ions</w>
pa ve</w>
pa ved</w>
pa ving</w>
der eliction</w>
dra gged</w>
dra ws</w>
depen ding</w>
Ham m</w>
resu mes</w>
clo sures</w>
Me i</w>
ran sac
ran kings</w>
protest er</w>
ph en
ph il
ph ra
ph ia</w>
den ial</w>
rel la</w>
ib and</w>
del im
presid ed</w>
ord in</w>
Com bs</w>
Com prehensive</w>
Int el
et t</w>
ob esity</w>
part ments</w>
Col om</w>
Col lege</w>
up dated</w>
up swing</w>
stra tion</w>
stra ins</w>
stra yed</w>
Qa eda</w>
hol ed</w>
hol der</w>
hol dings</w>
av eral</w>
cor n</w>
cor poration</w>
gun shot</w>
gun point</w>
spec t
hm ents</w>
bre aches</w>
bre athing</w>
independ ents</w>
tor turing</w>
bl ank</w>
bl ue</w>
Pro gress</w>
Pro di</w>
eh i</w>
compl ied</w>
compl aining</w>
Sa de
high lights</w>
hal ting</w>
read ings</w>
Re y
tea ching</w>
tea chings</w>
end ang
aff a
aff or
chil dhood</w>
Car la</w>
Colom b
Ha id
Ha ving</w>
Ha aretz</w>
ill on</w>
ill nesses</w>
Kur t</w>
disp atch</w>
fam ed</w>
tt a</w>
proc esses</w>
inf lam
Kar ni</w>
ail ments</w>
En ter
road block</w>
pac king</w>
Minist ers</w>
Per th</w>
sk y
sk ul
sk ies</w>
sk ier</w>
bac ter
bac kers</w>
ful filled</w>
ful fill</w>
tow n
tow er</w>
Co l</w>
dro me</w>
suppl ement</w>
Su k
Su per
recei ves</w>
bur ns</w>
Nov akat
ach kov</w>
ta hida</w>
uti ful</w>
indic ators</w>
journ al</w>
Can averal</w>
Bar ak</w>
cer pts</w>
cer vical</w>
med ics</w>
med ications</w>
ine fficient</w>
disa bled</w>
disa dv
expres ses</w>
pur a</w>
port fol
El l
comman do</w>
Bra m
sanc tuary</w>
col or</w>
col orful</w>
ugg ish</w>
far ther</w>
quar tet</w>
nam ing</w>
fe ud
ss a</w>
ah edin</w>
sign aled</w>
sign atures</w>
Con oc
Mil iband</w>
Ro za</w>
bri bery</w>
ron e
Kh anna</w>
infl ated</w>
infl icted</w>
occur ring</w>
sent encing</w>
Tw elve</w>
Am ur</w>
cel i</w>
cip ants</w>
bal ls</w>
fra me</w>
Mor gan</w>
18 21</w>
18 63</w>
18 98</w>
sw im
sw im</w>
sha d
sha h</w>
Del aware</w>
Hu bei</w>
wid ening</w>
techn ological</w>
techn ician</w>
Ac quisition</w>
Kan o</w>
pul ls</w>
prof it
prof itable</w>
Sha dow</w>
Sha anxi</w>
Mal aria</w>
Mal dives</w>
Ben net
Ben igno</w>
Bas eball</w>
Ram on</w>
mur der
equ ally</w>
fil ibu
Di sa
Di am
Hus se
spea ks</w>
break up</w>
tot aling</w>
paren t</w>
char iot</w>
survi val</w>
Po ham
exp elling</w>
Ahmad i</w>
Jer ry</w>
anti s</w>
Mc Car
Vi ox
dr in
dr on</w>
Fi re
Az har</w>
Az eri</w>
spor ting</w>
spor tation</w>
convic tions</w>
Tra ian</w>
Sing er</w>
propo ses</w>
cle arly</w>
compe ted</w>
kov ar</w>
strugg les</w>
particip ates</w>
ogra pher</w>
Li ve</w>
he in
he ated</w>
he il</w>
ira tions</w>
long standing</w>
Ric o</w>
Nic k</w>
Phil ip</w>
Phil lips</w>
Phil adel
arti fic
Sal a
Sal afist</w>
influ enced</w>
mater i
differ ence</w>
sl ee
Ko sumi</w>
Dan ilo</w>
Pr in
fav oring</w>
fore igner</w>
Ah ron
her jee</w>
head scar
manufac turers</w>
disap point
16 5</w>
16 2</w>
advis ing</w>
hot ly</w>
exc ep
cau tious</w>
resig nations</w>
disrup tions</w>
No ordin</w>
mus eums</w>
refin ed</w>
hy gi
public ations</w>
promp t</w>
promp tly</w>
reser v
reser ved</w>
reser vo
short fall</w>
short falls</w>
Lati f</w>
mist ook</w>
conver ting</w>
tar iff</w>
app ings</w>
Mad ra
Air borne</w>
blo gger</w>
writ ers</w>
revi ving</w>
plea sed</w>
Er kin
Far id</w>
Far da</w>
Val encia</w>
wal kout</w>
them e</w>
Uzbe ks</w>
aver aged</w>
aver aging</w>
brief ed</w>
Ap ple</w>
fal tering</w>
ograph ic</w>
Bu il
prac ti
Chil d</w>
hij ack</w>
evacu ating</w>
Le ft</w>
exam ination</w>
coordin ating</w>
gar den</w>
sn atched</w>
194 1</w>
partn erships</w>
purcha sing</w>
Hos seini</w>
Por ter</w>
assu ming</w>
Den is</w>
Khal af</w>
proce eded</w>
Brazil ians</w>
spons ors</w>
cru ci
cru ise</w>
Da oud</w>
Min ority</w>
Sur ayud</w>
refl ection</w>
sex uality</w>
The in</w>
may ors</w>
motor cycles</w>
mand ated</w>
umb rella</w>
Cambo dians</w>
Bak er</w>
To iba</w>
reconc ile</w>
achiev ement</w>
Gr anda</w>
Mot or</w>
shut down</w>
Offic ers</w>
Alli ed</w>
Alli ot</w>
histor ical</w>
Wea ver</w>
bot tom</w>
predic ting</w>
web sites</w>
after shock</w>
He ilong
He witt</w>
awa it</w>
Dis neyland</w>
Tel erate</w>
revol utionary</w>
hosti lities</w>
conclud es</w>
phys ically</w>
photograph ed</w>
introduc tion</w>
bea ch
bea utiful</w>
testi fied</w>
Hor iz
cat ches</w>
teleph oned</w>
shr ink</w>
Lo ve</w>
Lo dge</w>
Pa ula</w>
AS S</w>
Dj am
Ker ekou</w>
Wal chho
hor ri
stu died</w>
mom ents</w>
stimul ant</w>
TH AK
rep airing</w>
liber ty</w>
performan ces</w>
Hea ther</w>
Hea throw</w>
hard ware</w>
Jan et</w>
cli ff</w>
flo ating</w>
prosp ered</w>
CO N
Cap ital</w>
arrang ing</w>
intern ally</w>
Os thoff</w>
Ren ault</w>
diversi fication</w>
poll uted</w>
Meh sud</w>
Bec ket
Wol fgang</w>
tigh ter</w>
commemor ates</w>
commemor ating</w>
Men em</w>
renoun ces</w>
grat eful</w>
Raz uri</w>
Str ong</w>
fru strated</w>
fru stration</w>
diver sity</w>
incur sions</w>
Abk haz</w>
Green land</w>
IC RC</w>
dig it</w>
beat ings</w>
cred ited</w>
Ci udad</w>
Pi erce</w>
my ard</w>
non permanent</w>
emplo ying</w>
ple tion</w>
che on</w>
che ering</w>
adver tis
interpre ted</w>
Lithu anian</w>
Nat anz</w>
Nat sios</w>
Oper ations</w>
gol den</w>
Bl anco</w>
Cel eb
Hal abja</w>
Mand elson</w>
jur ors</w>
quarter final</w>
networ king</w>
ER T
Mid west</w>
by stander</w>
Saf in</w>
Saf ina</w>
Saf arova</w>
lit ers</w>
less en</w>
scra pped</w>
predomin ately</w>
poss essions</w>
subsidi zed</w>
tren ds</w>
redi t</w>
outra ged</w>
consen ted</w>
kilogra m</w>
Atl antis</w>
Sub sequ
Sub comandante</w>
unanim ous</w>
exhib it</w>
Stud ent</w>
Regi on</w>
Add ressing</w>
Fal kland</w>
IN G</w>
San to</w>
Ter je</w>
Pl achkov</w>
Tran sportation</w>
albu ms</w>
custom er</w>
anticip ation</w>
Industri es</w>
Kum ble</w>
Rad ical</w>
analy st</w>
roy alist</w>
extrac ted</w>
patrol led</w>
knoc king</w>
Cas pian</w>
Mut tahida</w>
Tru mp</w>
Vol cker</w>
pain ful</w>
fortun e</w>
fortun ately</w>
preci ous</w>
wild fires</w>
circul ated</w>
circul ating</w>
Bi g</w>
Gib bs</w>
Pap ua</w>
ramp ant</w>
delib erate</w>
grand son</w>
Ban dar</w>
Ki ir</w>
incor rect</w>
deser ted</w>
favor ite</w>
precau tion</w>
Nev is</w>
bann er</w>
siz eable</w>
spil ls</w>
ultim ate</w>
embar ra
embar ked</w>
accel erate</w>
griev ing</w>
griev ances</w>
compens ated</w>
Paul son</w>
liveli hoods</w>
Bis sau</w>
RA V
Tenn essee</w>
Zu lima</w>
blin d</w>
rid dled</w>
sul tan</w>
abol ished</w>
quanti ty</w>
provoc ative</w>
accep ts</w>
Les lie</w>
Lev y</w>
SO ME</w>
mechan ism</w>
noti ced</w>
ingredi ents</w>
distur bed</w>
Invest ment</w>
Deb orah</w>
Gan guly</w>
Kidn appers</w>
Kidn appings</w>
Out side</w>
Out going</w>
van ished</w>
induc ed</w>
cho ices</w>
Thir teen</w>
desec ration</w>
featur ed</w>
Muk herjee</w>
Acc ra</w>
bench marks</w>
Sik hs</w>
pel ted</w>
pap acy</w>
zin c</w>
thwar ted</w>
repri manded</w>
orph ans</w>
ridic ulous</w>
shir t</w>
shir ts</w>
Chand rika</w>
mobil ized</w>
geograph ic</w>
bound ary</w>
fundament alism</w>
stockp ile</w>
stockp iles</w>
hemorrha gic</w>
Ada ms</w>
Crow ds</w>
Tah a</w>
trem end
escor ted</w>
open ness</w>
respec tive</w>
demobil ized</w>
Buc harest</w>
py th
wre ath</w>
sigh ting</w>
recap tured</w>
stic ks</w>
Cost ner</w>
divor ce</w>
Teles cope</w>
bureaucra cy</w>
Yugansknefteg az</w>
Aut onom
Ferr ari</w>
It alians</w>
Kid wa</w>
Mach imura</w>
Zha o</w>
band its</w>
orchest rated</w>
hamp er</w>
habit ats</w>
ele ton</w>
plant ation</w>
buff er</w>
Isk andar
recur rent</w>
guit arist</w>
stir red</w>
schem e</w>
touch down</w>
barric ades</w>
Terror ism</w>
Bing u</w>
Ele ven</w>
Lim ited</w>
Moo die</w>
Sang in</w>
Trin comalee</w>
Uno cal</w>
Vo j
Vu kovar</w>
Yedi ot</w>
bun ker</w>
tear gas</w>
unlaw ful</w>
defi ance</w>
flex ibility</w>
decor ations</w>
financi ally</w>
parliament arians</w>
fundra ising</w>
dispo sal</w>
licen sing</w>
Conserv ative</w>
Clem entina</w>
Alexand ria</w>
Judic iary</w>
consci ousness</w>
Dw yer</w>
Fuk uda</w>
Ped ro</w>
Sach s</w>
SPL A</w>
Tun celi</w>
UA E</w>
Wind ows</w>
pist ol</w>
tam pering</w>
indiscrimin ately</w>
asp irations</w>
depo t</w>
petro chemical</w>
attend ance</w>
impac ted</w>
resili ent</w>
Parti cipants</w>
Adum im</w>
barbar ic</w>
Medic are</w>
dynam ic</w>
Territ ory</w>
Khursh eed</w>
Bug ti</w>
Eth nic</w>
Faz lullah</w>
HR W</w>
Hit ler</w>
Ig or</w>
Kun duz</w>
Ljub icic</w>
Mec ca</w>
Nis san</w>
Now ak</w>
Neb raska</w>
Pep siCo</w>
Pret oria</w>
Ral ston</w>
Speci alist</w>
Utt ar</w>
dw ell
fab ric
kick backs</w>
mic ro
prou d</w>
scuff led</w>
vom iting</w>
raz or</w>
contr ary</w>
adm ium</w>
pedop h
Univer sal</w>
quad ru
contag ious</w>
perform ers</w>
demarc ation</w>
marath on</w>
French man</w>
infec tious</w>
Coordin ator</w>
transcrip ts</w>
Nicob ar</w>
Prud ential</w>
therap y</w>
Slovak s</w>
Ashra f</w>
Barre t
Cann es</w>
Denn is</w>
Drav id</w>
Fam ily</w>
Famil ies</w>
Ganj i</w>
Ido l</w>
Jac ob</w>
Jann ati</w>
Kouch ner</w>
Liver pool</w>
Light ning</w>
Muel ler</w>
Narg is</w>
NGO s</w>
Presu tti</w>
Pron k</w>
Pick ens</w>
Sno op</w>
Sind h</w>
Tati ana</w>
Tour e</w>
Ut ah</w>
Vanc ouver</w>
Yass in</w>
aus pic
bau xite</w>
eat en</w>
got ten</w>
jaz z</w>
kitch en</w>
intru sion</w>
itenti ary</w>
ecos y
unearth ed</w>
conve yed</w>
virap ine</w>
Starb ucks</w>
legend ary</w>
Alkh anov</w>
Alarc on</w>
curta iled</w>
disadv ant
Bennet t</w>
Poham ba</w>
Viox x</w>
Philadel phia</w>
disappoint ment</w>
Erkin bayev</w>
Heilong jiang</w>
Walchho fer</w>
THAK SIN</w>
Becket t</w>
Iskandar iyah</w>
1 11</w>
1 12</w>
1 06</w>
1 29</w>
1 45</w>
1 32</w>
2 60</w>
3 20</w>
3 70</w>
3 37</w>
4 7
4 30</w>
4 54</w>
5 50</w>
7 47</w>
8 0th</w>
A L</w>
A uc
A mer
A mar
A head</w>
A dam
A mer</w>
A mor
A sada
B U
B ha
B un
B ap
B rem
B har
B out
B ack</w>
B ell
C P
C C</w>
C in
C at</w>
C ob
C lim
C HI
C DC</w>
C emetery</w>
D y
D o</w>
D on</w>
D im
D ul
D ir</w>
D ong
D uel
D urban</w>
D PR
E S
E c
E N</w>
E V</w>
E ff
E ch
E sp
E del
E ven</w>
E CO
E bad
F C</w>
F le
F ar</w>
F red</w>
F ah
F ish
F uel</w>
F DA</w>
F illon</w>
G A</w>
G as</w>
G ong</w>
G hu
G amb
H ist
H it</w>
H ain
H az
H ei
H og
H alli
H AR
H mong</w>
I G
I f
I B</w>
I C</w>
I sa
I les</w>
I ber
I zz
J in
J ol
J af
J ay</w>
J um
J aw
J ank
J hang
J ason</w>
K e
K I</w>
K A</w>
K ey</w>
K nes
K FC</w>
L E
L T
L S</w>
L ess</w>
L end
L ara</w>
L akes</w>
L eta</w>
L ady</w>
M ez
M aine</w>
M IN
M IL
N H
N O
N ot
N am</w>
N uj
N ativity</w>
O O
O z
O be
O sh</w>
O SC
P s</w>
P ic
P ut
P har
P ul</w>
P ublic
P act</w>
P lu
P anj
P reaching</w>
P ass</w>
P aso</w>
Q ari</w>
R E
R S
R T
R e</w>
R an
R on</w>
R ay
R hy
R ini</w>
R affar
R ivers</w>
R affa
S T
S U
S W
S l
S it
S op
S pr
S et
S overe
S onia</w>
S cand
T S
T elec
T ome</w>
T ong</w>
T sunami</w>
T sang</w>
U h
U C</w>
V as
V ah
W el
W es
W ater</w>
W ik
W ang</w>
W AS</w>
Y our</w>
Y az
Y ah
Y uri
Z i
Z ab
Z ia</w>
Z et
Z ion
Z ANU</w>
a o
a sted</w>
b ha
b is</w>
b es
b ons</w>
b ak
b one</w>
b ands</w>
b ond</w>
b ols</w>
b bled</w>
b ye</w>
b akar</w>
b erger</w>
c ation</w>
c ence</w>
c rit
c rying</w>
c ateg
c admium</w>
d d</w>
d on</w>
d rou
e ons</w>
e uro
e ged</w>
e ful
e tia</w>
e sar</w>
f al</w>
f om
f ati
f old</w>
f end</w>
f ran
f os
f ences</w>
f laws</w>
f itting</w>
f locks</w>
g er
g am
g ence</w>
g ates</w>
g ling</w>
g ens</w>
g arri
g orge</w>
h it
h are</w>
h ates</w>
h oo
h ine</w>
h iring</w>
i an
i ents</w>
j u</w>
j ar
j ol
j and
j et
k en
k ar
k mat
k ko</w>
k hur
k ez</w>
l un
l ves</w>
l end</w>
l aration</w>
m am
m ent
m um
m ouse</w>
n ie</w>
n ier</w>
n erve</w>
n die</w>
o e</w>
o ever</w>
o journalist</w>
o therwise</w>
o Phillips</w>
p on</w>
p ip
p ains</w>
p ounding</w>
p raises</w>
r in</w>
r ill</w>
r ily</w>
s in
s no
s emb
s ants</w>
s ings</w>
s ca
s ban
s wan</w>
s sas</w>
s lep
s culp
t ee
t ying</w>
t age</w>
t reas
t less</w>
t earing</w>
t reasury</w>
t apped</w>
u pro
v ent</w>
v or</w>
v esti
w o</w>
w on
w al</w>
w ol
w ary</w>
w rac
w ali</w>
w ished</w>
w ira</w>
w etlands</w>
y on</w>
y ful</w>
y ana</w>
y uan</w>
y gens</w>
z ations</w>
z ny</w>
z oo</w>
th in</w>
th ered</w>
th ood</w>
th igh</w>
th ank</w>
th west</w>
th ick</w>
th care</w>
th inking</w>
in ser
in security</w>
in her
in directly</w>
in famous</w>
an no
an ism</w>
an ao</w>
an shah</w>
er e
er t
er ra
er as</w>
er mo</w>
er iff</w>
re n</w>
re strain</w>
re za</w>
re settle</w>
re distribute</w>
re puted</w>
en on</w>
en ary</w>
en ef
en thu
en orm
ti s</w>
ti ble</w>
ti red</w>
ti mat
ti sla
ti cism</w>
ti dal</w>
ar ose</w>
ar ists</w>
on ous</w>
on ya</w>
on ach</w>
or al</w>
ou e</w>
ou los</w>
st al</w>
st ine</w>
st ant</w>
st all</w>
st ered</w>
st akes</w>
it ly</w>
it ate</w>
it em</w>
it kov
al on</w>
al ter</w>
al armed</w>
al arm</w>
al oft</w>
at er
at ly</w>
at oes</w>
il i</w>
il in</w>
il er</w>
il legitimate</w>
ro z</w>
ro gue</w>
ro via</w>
ic z</w>
ic hi</w>
ha w
ha ble</w>
ha mm
ea ger</w>
ea gles</w>
sa ti
sa il</w>
sa iled</w>
sa khur
si mistic</w>
ur ities</w>
ur ry</w>
ra t</w>
ra p</w>
ri l</w>
ri st</w>
ri que</w>
ri gs</w>
ri oted</w>
ri ghtly</w>
el i
el sa</w>
el dest</w>
el gus</w>
om i</w>
ol an</w>
ol ive</w>
da i</w>
da di</w>
da ugh
da pest</w>
da ssa
ati ble</w>
ac tors</w>
ac ao</w>
di er</w>
di ving</w>
di yah</w>
es on</w>
es el
es so</w>
es man</w>
em ics</w>
pl ight</w>
un ci
un used</w>
un ning</w>
un reported</w>
un expec
un even</w>
un safe</w>
un stable</w>
un determined</w>
un sealed</w>
un justified</w>
li ghtly</w>
la im
ov ich</w>
ff e</w>
pro b
pro p</w>
pro bes</w>
pro portion</w>
gh is</w>
gh man</w>
be side</w>
be heading</w>
wh ale</w>
wh oles
wh oever</w>
con form</w>
con ferred</w>
con stitute</w>
con soli
con stant</w>
as ey</w>
as suring</w>
am is</w>
is er</w>
is ms</w>
is eyev</w>
is zewski</w>
de p
de en</w>
de pri
de voted</w>
de signs</w>
de faul
de pletion</w>
ag ogue</w>
lea ks</w>
ne edy</w>
su m</w>
su it
su al</w>
ow ice</w>
ow ingly</w>
ch ess</w>
sp am</w>
sp ree</w>
for bidden</w>
ad er</w>
ad just</w>
ad ines</w>
ad here</w>
mil li
ex t</w>
ex tr
ex ert</w>
ex pel</w>
ex termination</w>
ex cerpts</w>
id el
id eal</w>
por ary</w>
por no
ab ated</w>
ab domin
ab usive</w>
ap pea
ap preh
com ra
com ic</w>
sh ee
sh man</w>
sh rap
sh rin
sh anty
sh eriff</w>
tr um</w>
the tic</w>
ed ine</w>
ed onia</w>
par ole</w>
par alle
lo ok
lo oters</w>
lo gging</w>
lo ading</w>
est er</w>
no on</w>
no ise</w>
ter ly</w>
ter res</w>
ter minal</w>
po sting</w>
im am</w>
im properly</w>
im proper</w>
im ier
im balances</w>
ig a</w>
bu yer</w>
iti s</w>
ul es</w>
ul timat
ul arists</w>
le st</w>
le en</w>
ud ed</w>
ud es</w>
inist a</w>
Un identified</w>
Un like</w>
Un ions</w>
Un fortunately</w>
ear n</w>
ear marked</w>
qu ez</w>
Ch o</w>
Ch ur
Ch ang</w>
Ch eek</w>
str ana</w>
Th ough</w>
inc ite</w>
rec k
oc key</w>
In de
St ar
St al
St eel</w>
wor ship</w>
emb race</w>
attac h</w>
ot nik</w>
mon k</w>
tur bul
ore r</w>
ev al</w>
ev ict</w>
ev ina</w>
ev angel
gi o</w>
cont acting</w>
cont esting</w>
arg ues</w>
ali k
ali ens</w>
elec ting</w>
cal cul
dis on</w>
dis ma
dis count</w>
dis counted</w>
dis placing</w>
dis satisfied</w>
ub iszewski</w>
co ins</w>
co aches</w>
co stum
co conuts</w>
ent reated</w>
ent renched</w>
tra ded</w>
19 50</w>
19 32</w>
19 55</w>
19 39</w>
19 54</w>
19 58</w>
19 50s</w>
mis es</w>
ren amed</w>
fu sion</w>
fu ge</w>
int ent</w>
int olerance</w>
fi x
fi ery</w>
fi xing</w>
sou r</w>
sou p</w>
iz za</w>
inv al
dem ar
Tu are
Tu eni</w>
fl our</w>
fl urry</w>
gu l</w>
Mon de</w>
Mon tre
Mon ument</w>
Mon rovia</w>
to ols</w>
sti cally</w>
sti ck</w>
econom ics</w>
econom ically</w>
pre cip
pre acher</w>
Fri ends</w>
dec ides</w>
bel le</w>
bel ief</w>
bel iefs</w>
ann u</w>
sol ic
sol em
sol ely</w>
sol utions</w>
bor row
bor row</w>
leg acy</w>
ut tle</w>
low ering</w>
gra y</w>
rem inded</w>
pres enting</w>
pen itentiary</w>
sup pressed</w>
fac turing</w>
fin ishing</w>
and ans</w>
and ong</w>
An n</w>
An ti
An il</w>
An ders</w>
An ton</w>
An til
An abel</w>
An cic</w>
An fal</w>
ong a</w>
war t</w>
war mer</w>
prot ects</w>
prot ein</w>
ve ered</w>
ver bal</w>
cla d</w>
Ba ja</w>
mar ching</w>
mar ket
Al ston</w>
oper ator</w>
wi elding</w>
arre n</w>
Mo on</w>
Mo iseyev</w>
ie g
min ded</w>
Pri son</w>
ang o</w>
out age</w>
out lines</w>
out siders</w>
over turn</w>
ma them
Nor thwest</w>
fa ults</w>
eff ig
Ab yan</w>
Ab oul</w>
car maker</w>
car din
car bons</w>
vic a</w>
vic tories</w>
inter view
with holding</w>
Mar di</w>
ei kh</w>
Bagh dadi</w>
Sh i
Sh andong</w>
def en
def am
def unc
so ar</w>
lin eup</w>
Bri sban
continu ous</w>
Pol itkov
bomb ard
cur e</w>
Ma o</w>
Ma x</w>
Ma ale</w>
Ma arten</w>
issu ing</w>
conc eal
conc ede</w>
conc erts</w>
Wor ks</w>
Tur k</w>
disc re
disc over</w>
disc redit</w>
pa ys</w>
anc a</w>
anc est
der abad</w>
Par ts</w>
Par ties</w>
Par kin
ten der</w>
ten ure</w>
ten dered</w>
ten berg</w>
sen ate</w>
dra w
dra stically</w>
eg g</w>
eg es</w>
Sy stems</w>
Sy monds</w>
mp se</w>
Me teorological</w>
tak a</w>
tak ers</w>
sch ka</w>
des p
ew ay</w>
ph in</w>
den as</w>
Ar ound</w>
Ar chae
rel ying</w>
rel ics</w>
ib ar</w>
Syri ans</w>
Com oros</w>
og ic</w>
og enic</w>
rul ings</w>
et ti</w>
et amine</w>
kn owingly</w>
Cha co</w>
up scale</w>
up dates</w>
stra w</w>
don ation</w>
sel ler</w>
polic y
cor al</w>
spec tac
loc ating</w>
son ian</w>
bre ached</w>
sub po
sub marines</w>
ass essed</w>
As lam</w>
As wat</w>
Wh o</w>
reg ard
bl ess
bl essing</w>
bl acks</w>
bl anca</w>
reli able</w>
reli eve</w>
reli eved</w>
Pro visional</w>
compl icated</w>
tel es
Ju da
Ju vent
constitu ency</w>
constitu encies</w>
fun n
fun erals</w>
Jo s</w>
Jo aqu
Jo schka</w>
Re form</w>
tea mm
Gu yana</w>
Gu terres</w>
aff lu
Car mona</w>
Car denas</w>
tre ats</w>
Ha q</w>
Ha as</w>
Ha ifa</w>
Ha dassa
medi eval</w>
tt e</w>
proc essed</w>
Kar ra
Kar im</w>
Kar lov
Kar nat
bla sted</w>
Indone sians</w>
soci eties</w>
mea l</w>
mea suring</w>
requ esting</w>
eth eless</w>
hom o
hom icide</w>
tou ching</w>
Ag ca</w>
Dec laration</w>
ban kers</w>
sk et
sk eleton</w>
bac ker</w>
tow ers</w>
syst ematic</w>
Su laim
hop eful
mas ks</w>
identi fying</w>
bur gh</w>
bur ton</w>
cl ans</w>
cl ergy</w>
cl oud</w>
run ners</w>
Bar th
Bar no</w>
Bar inov</w>
Bar nier</w>
sea shore</w>
deb ating</w>
Moha mud</w>
Turk i</w>
El li
El ton</w>
ast ero
Bra sil
Bra vo</w>
Bra tisla
sanc tioned</w>
refer ees</w>
col der</w>
believ ers</w>
ell en
Har bor</w>
olog ically</w>
under secretary</w>
under lying</w>
Bo de</w>
Bo dman</w>
Lib eral</w>
withdraw s</w>
Shar i
Shar ia</w>
ush a</w>
ush etia</w>
Con feder
Mil ls</w>
Ro ad</w>
Ro que</w>
Ro hmer</w>
H5 N2</w>
Sw allow</w>
Wit ty</w>
Mu q
Kh an
cul es</w>
Be i</w>
Am b
Am in</w>
Am azon</w>
sla v</w>
sla ve</w>
inst alling</w>
trans form</w>
trans plant</w>
bal anced</w>
popul arly</w>
ef lik
destro yer</w>
organiz er</w>
ank le</w>
succ um
18 30</w>
18 65</w>
sli m</w>
spe ed
spe eding</w>
Ahm et</w>
sha ft</w>
Del p</w>
Del ay</w>
Hu say
Hu ygens</w>
fo g</w>
fo ol
adv ances</w>
comb ating</w>
gr ud
gr ounding</w>
gr ound
sun ny</w>
wid er</w>
wid en</w>
techn ically</w>
religi ons</w>
div ides</w>
exec uting</w>
establi shes</w>
Ann a</w>
Ann ual</w>
Kan sas</w>
aly st</w>
prof ession</w>
prof iling</w>
treat ments</w>
Sha k
Sha ik
Mal ay</w>
Ram da</w>
shor ter</w>
shor tened</w>
equ ival
fil med</w>
cr yp
human e</w>
canc elled</w>
domin ation</w>
Di vision</w>
Ti anjin</w>
nomin ations</w>
initi ate</w>
Cor por
prev ents</w>
celeb rity</w>
Bla zy</w>
Span ta</w>
tot aled</w>
aut ocratic</w>
Ang el</w>
Ang olan</w>
Yu an</w>
char red</w>
Cam illa</w>
Lea ding</w>
Ph ys
Ph nom</w>
survi vor</w>
bi e</w>
bi as</w>
bi ograph
bi athlon</w>
Az iz
Az imi</w>
sing ing</w>
crac ked</w>
let ting</w>
Fin cher</w>
deleg ations</w>
stand by</w>
Ber ri</w>
hand les</w>
land mines</w>
moun t</w>
educ ated</w>
gener ous</w>
reduc tions</w>
impl ic
cler k</w>
Ric hard
Qu e
Qu ar
bar a</w>
Her sh</w>
Her cules</w>
expan sion
So y
So on</w>
So chi</w>
trac t</w>
196 4</w>
Sal va</w>
Sal ehi</w>
Tam ils</w>
br ands</w>
counter fe
counter productive</w>
down played</w>
sl uggish</w>
Rev en
phot ojournalist</w>
ath i</w>
pil ing</w>
fore sts</w>
fore ver</w>
fore nsic</w>
ind jic</w>
shel led</w>
shel tering</w>
Boli vians</w>
tan ate</w>
week long</w>
Cri mean</w>
Gh an
inspec ted</w>
Banglades his</w>
Separ atist</w>
frequ ency</w>
16 6</w>
16 7</w>
clim b</w>
gri d</w>
gri m</w>
gri ef</w>
comp elled</w>
comp atible</w>
cour thouse</w>
und ated</w>
champ ions</w>
docum entation</w>
avo ided</w>
scen ario</w>
acqu ire</w>
acqu iring</w>
advis ers</w>
exc eption</w>
tun a</w>
insi ght</w>
adop oulos</w>
Sar an</w>
mus sen</w>
refin ers</w>
10 1</w>
10 1st</w>
Ak ih
Ak itani</w>
hy po
17 1</w>
Sol heim</w>
mist re
mist akes</w>
nar rated</w>
squ ee
tax pay
ship yard</w>
Ja ved</w>
revi ews</w>
Dam rey</w>
Na uru</w>
fif ths</w>
inde ed</w>
regist ering</w>
mi x</w>
mi rac
brief ings</w>
postpon ing</w>
Ap pe
Rec ently</w>
nu n</w>
Bu dapest</w>
ther e
renew ing</w>
renew al</w>
bra wl</w>
SA TU</w>
aband oning</w>
evacu ations</w>
mit ting</w>
dist inc
dist ress</w>
dist ances</w>
lef tists</w>
typ ho
typ ical</w>
exam s</w>
compar ing</w>
compar able</w>
underg one</w>
Alex ei</w>
competi tiveness</w>
La ghman</w>
gar n
gar ment</w>
sn ea
194 4</w>
stabil ization</w>
forec asts</w>
Char m</w>
interrog ations</w>
succe eds</w>
succe eding</w>
Accor d</w>
Ne virapine</w>
bat sman</w>
bat teries</w>
mal nutrition</w>
14 1</w>
Den ver</w>
Gen e
upri sings</w>
Lat vian</w>
Tri pura</w>
sam pling</w>
Da im
Min as</w>
Min utes</w>
motor ists</w>
AL I</w>
AL OM
Jam eson</w>
Bak ri</w>
Fran ces</w>
insur ed</w>
Gr ill</w>
Gr ant</w>
Nav arro</w>
ham mer
jum bo</w>
yi elded</w>
tion ist</w>
intro duce</w>
endor se</w>
histor ian</w>
pilgri m
Sil van</w>
broadca sters</w>
Pra sad</w>
Tor onto</w>
flee ts</w>
autom obile</w>
adequ ately</w>
Goo d
He kmat
Mik ati</w>
Mik heil</w>
rever sal</w>
asy uk</w>
isol ate</w>
Dis ease</w>
War ning</w>
fel ony</w>
hosti lity</w>
phys icians</w>
escal ate</w>
plun ge</w>
plun ging</w>
pois onous</w>
poore r</w>
Salv ad
Pen h</w>
Sup er</w>
tis sue</w>
shr ines</w>
specul ate</w>
advoc ating</w>
Pa strana</w>
Pin era</w>
temper ature</w>
Cal edonia</w>
altern atives</w>
back lash</w>
Dj indjic</w>
Ker ala</w>
hor se
consul t</w>
doub ling</w>
Nab ih</w>
adj i</w>
adj ust
sym bols</w>
Cla ss</w>
Ghaz i</w>
liber alize</w>
liber alization</w>
Andre i</w>
Hea vily</w>
cop y</w>
sim pl
reun ited</w>
CO SATU</w>
Kam pala</w>
Sus anne</w>
bru tally</w>
occa sional</w>
primar ies</w>
Os car</w>
You si
You Tube</w>
Administ rative</w>
Il ls</w>
Manu facturing</w>
Rez ko</w>
scre ens</w>
commemor ation</w>
commemor ations</w>
Dani elle</w>
Cur tain</w>
Cur acao</w>
sor ry</w>
rav ine</w>
confron ted</w>
confron ting</w>
confron tations</w>
privati zations</w>
Gil bert</w>
Mul ti
Mul len</w>
Mul tan</w>
inno cence</w>
Mah ee</w>
Mah inda</w>
Str onach</w>
Sreb otnik</w>
Tar asyuk</w>
fru itful</w>
jam s</w>
sta b</w>
sta ple</w>
diver t</w>
Franc is</w>
mour n</w>
dig n
cred its</w>
black ma
Avi ation</w>
Gra s</w>
Gra mm
Gra ham</w>
Pi us</w>
my r</w>
my th</w>
marg in
rein forced</w>
prospec t</w>
affir med</w>
clean ed</w>
clean er</w>
clean up</w>
Hen an</w>
Hen ry</w>
Ru egen</w>
Zo o</w>
wrec k</w>
ero ded</w>
exce eding</w>
lob by
voic es</w>
volunte er</w>
CA R</w>
Gam sakhur
Haw ass</w>
Mur un
New sp
Sand inista</w>
spa rency</w>
integ rated</w>
BA KI
Fa ther</w>
Im ad</w>
Im perial</w>
satis factory</w>
hydro carbons</w>
overwhel med</w>
Mir an</w>
Mir anshah</w>
clin ics</w>
menti oning</w>
immun izations</w>
minim ize</w>
Ni as</w>
Ni emin
tren ch</w>
til ity</w>
protec tive</w>
affili ates</w>
Abdul kadir</w>
Sub sistence</w>
Zh vania</w>
gest ures</w>
enh anced</w>
shoc king</w>
transm it</w>
Fal un</w>
Hel sin
Hay at</w>
Ri val</w>
Rog ge</w>
San ch
ju ven
wic z</w>
insp ire</w>
revis e</w>
stret ched</w>
accompan ying</w>
asser t</w>
Shin zo</w>
correc tly</w>
authenti cated</w>
Abu bakar</w>
Mat thew</w>
Tran sport</w>
Tran sparency</w>
scar ce</w>
liqu or</w>
Ste ele</w>
Ste wart</w>
cross fire</w>
Hy derabad</w>
Mol ina</w>
Mous sa
Nur sultan</w>
Ott awa</w>
Rah lves</w>
conven e</w>
country man</w>
Hil lah</w>
Tru th</w>
swa m</w>
arm ies</w>
Consu late</w>
circul ation</w>
Cer em
Cer kez</w>
Citi zens</w>
Citi zen</w>
Fit z
Pap adopoulos</w>
Rou ghly</w>
Up on</w>
goo se</w>
chi atri
speci alists</w>
grand mother</w>
Michel e</w>
Ban ks</w>
arbit rary</w>
deal ings</w>
cham bers</w>
empha si
sustain ability</w>
snow fall</w>
anonym ous</w>
Bad ghis</w>
Kad una</w>
Nev ada</w>
Rea der</w>
Wi elgus</w>
Zen g</w>
arsen als</w>
concentr ate</w>
contain er</w>
demol ished</w>
demol ition</w>
Anat oly</w>
Ecuad orian</w>
Masha ie</w>
Ale jand
Bis hara</w>
Fu ture</w>
rid den</w>
abol ition</w>
apol is</w>
Stu dies</w>
provoc ation</w>
Bay elsa</w>
Cru z</w>
MO HAM
My ung</w>
Reh man</w>
hin der</w>
mechan ical</w>
nic kn
erad icate</w>
conqu est</w>
conqu ered</w>
pregn ancy</w>
meth amph
discou raging</w>
indefin ite</w>
distur b
justi fication</w>
cigarett e</w>
Dun kin</w>
Fif teen</w>
ME D</w>
Ur du</w>
bowl ers</w>
coo king</w>
tac tic</w>
stum ps</w>
emig ration</w>
emig rants</w>
evol ution</w>
rememb rance</w>
path ogenic</w>
util ity</w>
Muk asey</w>
teor ologists</w>
Naj ib</w>
Dre am
Gren adines</w>
His panic</w>
Sk ubiszewski</w>
UE FA</w>
Za idi</w>
Zah ir</w>
loy alists</w>
loy alty</w>
exclud e</w>
intimid ate</w>
hemorrha ge</w>
Berg er</w>
Crow ley</w>
Nin ev
TO S</w>
gli mpse</w>
way i</w>
robo t</w>
robo tic</w>
open er</w>
poc ket</w>
privil eged</w>
privil eges</w>
respec tively</w>
perio dic</w>
foreclo sure</w>
Cat al
Eri k</w>
Eri c</w>
Gro zny</w>
Gri ff
Has an</w>
Lyn ndie</w>
PO P</w>
Sem iti
Tem ple</w>
py ra
ring leader</w>
whe el
comfor t</w>
stic king</w>
mark eting</w>
Juli an</w>
Luci e</w>
Luci o</w>
Six ty</w>
Teles ur</w>
bureaucra tic</w>
Yugansknefteg as</w>
Bir ds</w>
Cir que</w>
Dou ste</w>
Hall ums</w>
Jus tin</w>
Ngu yen</w>
Pad illa</w>
Uigh ur</w>
Uigh urs</w>
drun k</w>
glac ier</w>
jew elry</w>
vent ures</w>
innov ation</w>
obstruc ting</w>
Whit man</w>
blu ep
blat t</w>
Travel ers</w>
congratul ate</w>
Filip inos</w>
Din ara</w>
Dol phin</w>
Jok onya</w>
Leg isl
Maz ar</w>
Nad al</w>
Over all</w>
Rud d</w>
Sanc tuary</w>
Ve ter
bli zzard</w>
fing er
gau ge</w>
mutil ated</w>
ost i</w>
pes simistic</w>
woo den</w>
alum inum</w>
rain y</w>
day light</w>
appreci ation</w>
imp unity</w>
Chou d
eval u
model ed</w>
cool ing</w>
Monte video</w>
reluc tant</w>
smoo th</w>
ski ing</w>
Casa blanca</w>
revit alize</w>
radio active</w>
sacrific es</w>
psych ological</w>
Immig ration</w>
ANA NA</w>
Ng wira</w>
Rem ittances</w>
Ras mussen</w>
Sti ll</w>
Sug ar</w>
Tol edo</w>
nurs es</w>
west ward</w>
retri eved</w>
recip ients</w>
eaves dropping</w>
forgi veness</w>
Ing ushetia</w>
preval ence</w>
Polyne sian</w>
Ars had</w>
farm land</w>
suffoc ation</w>
magn ate</w>
SAN TOS</w>
intercep tor</w>
Nikol ai</w>
Smith sonian</w>
Challeng er</w>
Rajapak se</w>
madra ssas</w>
jeopardi ze</w>
Sebas tian</w>
Cour ts</w>
Four teen</w>
Gat lin</w>
Hous ing</w>
Mow lam</w>
Mind anao</w>
Way ne</w>
ling ering</w>
thou ghts</w>
informan ts</w>
mill ennium</w>
Maul ana</w>
Mek ong</w>
Gabri ele</w>
scram bling</w>
electrocu ted</w>
06 8
Ax um</w>
Bau er</w>
Dak ota</w>
Daw ei</w>
Kr z
Og aden</w>
Sci ences</w>
Var ious</w>
Vaz quez</w>
Wah eed</w>
asa ki</w>
cord oned</w>
heal thcare</w>
jer di</w>
king pin</w>
ny der</w>
nun s</w>
nul li
your self</w>
rene ged</w>
relin quished</w>
tik har</w>
accommo date</w>
lav ish</w>
expatri ate</w>
common ly</w>
commis sioned</w>
accred itation</w>
fled gling</w>
flatt ened</w>
Angu illa</w>
verifi able</w>
clamp down</w>
Alv arez</w>
concent ration</w>
ransac ked</w>
Intel ogic</w>
spect ators</w>
Rey na</w>
Haid ari</w>
Enter tain
bacter ia</w>
Conoc oPhillips</w>
profit ability</w>
Husse inov</w>
McCar tney</w>
Fire fighters</w>
hein ous</w>
Sala am</w>
reservo ir</w>
Madra zo</w>
Buil ding</w>
Djam ena</w>
advertis ements</w>
RAV ALOM
tremend ous</w>
pyth on</w>
Voj islav</w>
auspic es</w>
Auc kland</w>
Amor im</w>
Asada bad</w>
Brem er</w>
Bout eflik
Clim ate</w>
Duel fer</w>
[...]
