{"<s>":0,"[PAD]":1,"</s>":2,"[UNK]":3,"[MASK]":4,"#":5,"%":6,"&":7,"'":8,"(":9,")":10,"+":11,",":12,"-":13,".":14,"/":15,"0":16,"1":17,"2":18,"3":19,"4":20,"5":21,"6":22,"7":23,"8":24,"9":25,":":26,"?":27,"@":28,"A":29,"B":30,"C":31,"D":32,"E":33,"F":34,"G":35,"H":36,"I":37,"J":38,"K":39,"L":40,"M":41,"N":42,"O":43,"P":44,"Q":45,"R":46,"S":47,"T":48,"U":49,"V":50,"W":51,"X":52,"Y":53,"Z":54,"[":55,"]":56,"_":57,"`":58,"a":59,"b":60,"c":61,"d":62,"e":63,"f":64,"g":65,"h":66,"i":67,"j":68,"k":69,"l":70,"m":71,"n":72,"o":73,"p":74,"q":75,"r":76,"s":77,"t":78,"u":79,"v":80,"w":81,"x":82,"y":83,"z":84,"~":85,"°":86,"é":87,"ë":88,"ö":89,"ü":90,"t</w>":91,"s</w>":92,"d</w>":93,"e</w>":94,"n</w>":95,"k</w>":96,"y</w>":97,"m</w>":98,"r</w>":99,"o</w>":100,"i</w>":101,"g</w>":102,"h</w>":103,"a</w>":104,"B</w>":105,"b</w>":106,"P</w>":107,"l</w>":108,"f</w>":109,"M</w>":110,"p</w>":111,"w</w>":112,"q</w>":113,"G</w>":114,"c</w>":115,"5</w>":116,"6</w>":117,"N</w>":118,"I</w>":119,"1</w>":120,"D</w>":121,"z</w>":122,"0</w>":123,"2</w>":124,"E</w>":125,"v</w>":126,"x</w>":127,"4</w>":128,"7</w>":129,"S</w>":130,"J</w>":131,"L</w>":132,"3</w>":133,"u</w>":134,"C</w>":135,"A</w>":136,"W</w>":137,"Y</w>":138,"T</w>":139,"j</w>":140,"F</w>":141,"`</w>":142,"R</w>":143,"9</w>":144,"H</w>":145,"O</w>":146,"K</w>":147,"V</w>":148,"8</w>":149,"U</w>":150,"[</w>":151,"(</w>":152,"é</w>":153,"&</w>":154,"]</w>":155,"#</w>":156,"Z</w>":157,"+</w>":158,"X</w>":159,")</w>":160,",</w>":161,":</w>":162,"Q</w>":163,"~</w>":164,"@</w>":165,"-</w>":166,"%</w>":167,".</w>":168,"_</w>":169,"'</w>":170,"?</w>":171,"/</w>":172,"th":173,"in":174,"the</w>":175,"an":176,"ed</w>":177,"er":178,"re":179,"en":180,"ti":181,"ar":182,"on":183,"or":184,"in</w>":185,"ou":186,"an</w>":187,"ing</w>":188,"on</w>":189,"st":190,"of</w>":191,"er</w>":192,"it":193,"al":194,"to</w>":195,"at":196,"il":197,"and</w>":198,"es</w>":199,"ro":200,"ic":201,"ha":202,"ea":203,"sa":204,"si":205,"al</w>":206,"ur":207,"ra":208,"ec":209,"ent</w>":210,"st</w>":211,"he</w>":212,"ri":213,"el":214,"om":215,"ol":216,"or</w>":217,"da":218,"is</w>":219,"at</w>":220,"ati":221,"ac":222,"The</w>":223,"as</w>":224,"di":225,"es":226,"day</w>":227,"ve</w>":228,"en</w>":229,"ts</w>":230,"us":231,"em":232,"pl":233,"ers</w>":234,"un":235,"for</w>":236,"li":237,"la":238,"ce</w>":239,"ov":240,"ff":241,"oun":242,"pro":243,"gh":244,"be":245,"has</w>":246,"wh":247,"con":248,"id</w>":249,"as":250,"ist":251,"ir":252,"am":253,"ly</w>":254,"is":255,"ons</w>":256,"de":257,"that</w>":258,"op":259,"ag":260,"lea":261,"ne":262,"led</w>":263,"su":264,"tion</w>":265,"ow":266,"sid":267,"ted</w>":268,"wit":269,"th</w>":270,"ys</w>":271,"ch":272,"have</w>":273,"ern":274,"with</w>":275,"sp":276,"ment</w>":277,"ere</w>":278,"for":279,"said</w>":280,"ffic":281,"se":282,"ad":283,"ation</w>":284,"ity</w>":285,"mil":286,"ex":287,"id":288,"was</w>":289,"ate</w>":290,"por":291,"ab":292,"ap":293,"by</w>":294,"says</w>":295,"ak":296,"fro":297,"com":298,"from</w>":299,"ter</w>":300,"sh":301,"it</w>":302,"pe":303,"tr":304,"ary</w>":305,"the":306,"are</w>":307,"ffici":308,"ed":309,"resid":310,"par":311,"say</w>":312,"als</w>":313,"tw":314,"kil":315,"lo":316,"se</w>":317,"vi":318,"est":319,"ill</w>":320,"ci":321,"ld</w>":322,"overn":323,"ee":324,"no":325,"uc":326,"ter":327,"att":328,"were</w>":329,"po":330,"govern":331,"his</w>":332,"im":333,"milit":334,"resident</w>":335,"offici":336,"will</w>":337,"coun":338,"00":339,"ear</w>":340,"ig":341,"ks</w>":342,"bu":343,"ian</w>":344,"pol":345,"ain":346,"iti":347,"ul":348,"res":349,"government</w>":350,"le":351,"out</w>":352,"ther</w>":353,"ds</w>":354,"ting</w>":355,"ud":356,"Mr</w>":357,"Is":358,"af":359,"der</w>":360,"Ira":361,"inist":362,"its</w>":363,"ice</w>":364,"ple</w>":365,"le</w>":366,"ern</w>":367,"Af":368,"been</w>":369,"killed</w>":370,"Un":371,"sec":372,"ir</w>":373,"be</w>":374,"two</w>":375,"rou":376,"ear":377,"igh":378,"qu":379,"ople</w>":380,"Ch":381,"so</w>":382,"not</w>":383,"people</w>":384,"str":385,"ar</w>":386,"Th":387,"esday</w>":388,"officials</w>":389,"ore</w>":390,"after</w>":391,"inc":392,"ations</w>":393,"onal</w>":394,"me</w>":395,"ic</w>":396,"rec":397,"President</w>":398,"fir":399,"oc":400,"In":401,"ded</w>":402,"St":403,"wor":404,"emb":405,"ents</w>":406,"attac":407,"ited</w>":408,"ch</w>":409,"repor":410,"ince</w>":411,"man</w>":412,"ence</w>":413,"ing":414,"ot":415,"est</w>":416,"ould</w>":417,"ates</w>":418,"mon":419,"el</w>":420,"one</w>":421,"tur":422,"ore":423,"ans</w>":424,"ding</w>":425,"our":426,"ev":427,"try</w>":428,"sion</w>":429,"gi":430,"cont":431,"year</w>":432,"ric":433,"arg":434,"200":435,"also</w>":436,"oo":437,"per":438,"more</w>":439,"tions</w>":440,"sed</w>":441,"sur":442,"ali":443,"eral</w>":444,"prov":445,"ated</w>":446,"Isra":447,"istan</w>":448,"last</w>":449,"elec":450,"ay</w>":451,"tri":452,"United</w>":453,"cal":454,"mo":455,"et</w>":456,"dis":457,"ru":458,"ces</w>":459,"ement</w>":460,"military</w>":461,"il</w>":462,"other</w>":463,"country</w>":464,"man":465,"own</w>":466,"Afgh":467,"who</w>":468,"thre":469,"than</w>":470,"ational</w>":471,"inister</w>":472,"ty</w>":473,"pri":474,"form":475,"pec":476,"wee":477,"they</w>":478,"ying</w>":479,"ub":480,"but</w>":481,"ome</w>":482,"grou":483,"Ir":484,"their</w>":485,"Iraq</w>":486,"cy</w>":487,"ine</w>":488,"co":489,"eb":490,"old</w>":491,"ent":492,"In</w>":493,"ep":494,"had</w>":495,"au":496,"ned</w>":497,"tra":498,"19":499,"ong</w>":500,"ies</w>":501,"ain</w>":502,"ich</w>":503,"hel":504,"bom":505,"He</w>":506,"urity</w>":507,"ants</w>":508,"which</w>":509,"ey</w>":510,"ge</w>":511,"mis":512,"ren":513,"ities</w>":514,"ia</w>":515,"fu":516,"int":517,"fi":518,"mer":519,"sou":520,"ant</w>":521,"ile</w>":522,"new</w>":523,"Chin":524,"iz":525,"acc":526,"all</w>":527,"ked</w>":528,"ors</w>":529,"least</w>":530,"ters</w>":531,"about</w>":532,"inv":533,"cri":534,"ling</w>":535,"Sun":536,"dem":537,"Tu":538,"fl":539,"gu":540,"onom":541,"Pak":542,"ast</w>":543,"atur":544,"this</w>":545,"tro":546,"thor":547,"Mon":548,"thern</w>":549,"ut</w>":550,"ese</w>":551,"over</w>":552,"to":553,"police</w>":554,"Tuesday</w>":555,"um":556,"lear</w>":557,"lud":558,"ign</w>":559,"States</w>":560,"week</w>":561,"sti":562,"ite</w>":563,"ance</w>":564,"cap":565,"dea":566,"urs":567,"lion</w>":568,"tal":569,"econom":570,"king</w>":571,"bo":572,"Thurs":573,"Thursday</w>":574,"enti":575,"Pal":576,"three</w>":577,"ser":578,"Iran</w>":579,"includ":580,"med</w>":581,"ered</w>":582,"pre":583,"estin":584,"forces</w>":585,"Fri":586,"dec":587,"used</w>":588,"pea":589,"Iraq":590,"ency</w>":591,"plo":592,"Minister</w>":593,"uring</w>":594,"Palestin":595,"bel":596,"Friday</w>":597,"ops</w>":598,"ember</w>":599,"up</w>":600,"sus":601,"ann":602,"sev":603,"Monday</w>":604,"cal</w>":605,"since</w>":606,"edn":607,"Wedn":608,"sol":609,"Wednesday</w>":610,"bor":611,"ainst</w>":612,"against</w>":613,"ound</w>":614,"our</w>":615,"leg":616,"ad</w>":617,"ho":618,"group</w>":619,"ess</w>":620,"ut":621,"use</w>":622,"000</w>":623,"me":624,"ussi":625,"im</w>":626,"low":627,"Sunday</w>":628,"nor":629,"hea":630,"gra":631,"troops</w>":632,"rem":633,"pres":634,"thorities</w>":635,"pen":636,"00</w>":637,"duc":638,"sup":639,"oil</w>":640,"Russi":641,"fac":642,"when</w>":643,"fin":644,"comm":645,"Au":646,"would</w>":647,"new":648,"security</w>":649,"Satur":650,"into</w>":651,"Iraqi</w>":652,"Saturday</w>":653,"ush</w>":654,"du":655,"ake</w>":656,"pected</w>":657,"ok":658,"esti":659,"ew</w>":660,"month</w>":661,"ally</w>":662,"pan":663,"oreign</w>":664,"meric":665,"Americ":666,"een</w>":667,"Israel":668,"terr":669,"first</w>":670,"sh</w>":671,"during</w>":672,"regi":673,"and":674,"uclear</w>":675,"An":676,"ernational</w>":677,"az":678,"ide</w>":679,"ash":680,"ong":681,"nuclear</w>":682,"are":683,"ders</w>":684,"uro":685,"ears</w>":686,"attacks</w>":687,"war":688,"ties</w>":689,"har":690,"ms</w>":691,"prot":692,"mee":693,"Palestinian</w>":694,"sig":695,"ve":696,"tween</w>":697,"Euro":698,"figh":699,"between</w>":700,"Afghan":701,"Israeli</w>":702,"Afghanistan</w>":703,"vel":704,"ings</w>":705,"militants</w>":706,"while</w>":707,"viol":708,"ver":709,"det":710,"China</w>":711,"called</w>":712,"state</w>":713,"ber</w>":714,"years</w>":715,"hu":716,"ands</w>":717,"bec":718,"soldi":719,"cla":720,"ital</w>":721,"bas":722,"Ba":723,"mar":724,"ves</w>":725,"ous":726,"attack</w>":727,"Al":728,"ous</w>":729,"of":730,"ade</w>":731,"oper":732,"ced</w>":733,"talks</w>":734,"Bush</w>":735,"wi":736,"city</w>":737,"dia</w>":738,"arre":739,"spok":740,"Israel</w>":741,"Sec":742,"vil":743,"Mo":744,"ist</w>":745,"us</w>":746,"bil":747,"cen":748,"ie":749,"gh</w>":750,"ion</w>":751,"min":752,"men</w>":753,"age</w>":754,"end</w>":755,"ely</w>":756,"Pri":757,"surg":758,"cam":759,"million</w>":760,"province</w>":761,"ps</w>":762,"near</w>":763,"president</w>":764,"stat":765,"former</w>":766,"ang":767,"politi":768,"son</w>":769,"out":770,"ry</w>":771,"Pakistan</w>":772,"over":773,"ez":774,"sing</w>":775,"ma":776,"ved</w>":777,"ped</w>":778,"row":779,"some</w>":780,"ater</w>":781,"agre":782,"leader</w>":783,"woun":784,"no</w>":785,"Nor":786,"fa":787,"war</w>":788,"relea":789,"eff":790,"sted</w>":791,"region</w>":792,"ird</w>":793,"Ab":794,"Kore":795,"port</w>":796,"car":797,"de</w>":798,"vic":799,"ubli":800,"inter":801,"Afghan</w>":802,"with":803,"lier</w>":804,"southern</w>":805,"Afric":806,"terror":807,"ving</w>":808,"posi":809,"ret":810,"Prime</w>":811,"minist":812,"spokes":813,"ght</w>":814,"Mar":815,"tries</w>":816,"air":817,"ei":818,"four</w>":819,"erg":820,"reas":821,"liam":822,"Sou":823,"ating</w>":824,"side</w>":825,"including</w>":826,"where</w>":827,"10</w>":828,"ay":829,"resp":830,"report</w>":831,"It</w>":832,"do":833,"ls</w>":834,"shi":835,"stri":836,"contin":837,"several</w>":838,"offic":839,"lam":840,"charg":841,"eal":842,"land</w>":843,"could</w>":844,"ning</w>":845,"ose</w>":846,"saying</w>":847,"countries</w>":848,"plac":849,"dad</w>":850,"Mus":851,"tu":852,"sts</w>":853,"wea":854,"Bagh":855,"ish</w>":856,"Sh":857,"cu":858,"def":859,"insurg":860,"ft</w>":861,"many</w>":862,"Europe":863,"Baghdad</w>":864,"fer":865,"ce":866,"ell</w>":867,"beg":868,"Offici":869,"authorities</w>":870,"elections</w>":871,"soldiers</w>":872,"But</w>":873,"gan":874,"so":875,"ourt</w>":876,"lin":877,"dre":878,"ory</w>":879,"world</w>":880,"Bri":881,"ke</w>":882,"ists</w>":883,"larg":884,"him</w>":885,"ood</w>":886,"European</w>":887,"foreign</w>":888,"199":889,"ause</w>":890,"vo":891,"Officials</w>":892,"jo":893,"eneral</w>":894,"continu":895,"official</w>":896,"Pol":897,"estern</w>":898,"cent</w>":899,"pow":900,"parliam":901,"American</w>":902,"go":903,"ses</w>":904,"ths</w>":905,"De":906,"fore</w>":907,"ight</w>":908,"capital</w>":909,"hat</w>":910,"South</w>":911,"spokesman</w>":912,"statement</w>":913,"bomb":914,"cur":915,"ani</w>":916,"bomb</w>":917,"respon":918,"cas":919,"part</w>":920,"most</w>":921,"election</w>":922,"violence</w>":923,"political</w>":924,"rebel":925,"wounded</w>":926,"ote</w>":927,"ture</w>":928,"memb":929,"ton</w>":930,"down</w>":931,"explo":932,"ress</w>":933,"announ":934,"ant":935,"made</w>":936,"Ma":937,"fol":938,"ians</w>":939,"law":940,"mak":941,"ganiz":942,"Tal":943,"told</w>":944,"issu":945,"before</w>":946,"ble</w>":947,"conc":948,"leaders</w>":949,"Islam":950,"rebels</w>":951,"North</w>":952,"percent</w>":953,"New</w>":954,"um</w>":955,"struc":956,"reports</w>":957,"Wor":958,"res</w>":959,"economic</w>":960,"ss</w>":961,"under</w>":962,"ocra":963,"off</w>":964,"thers</w>":965,"ack</w>":966,"position</w>":967,"fre":968,"Tur":969,"aw":970,"tish</w>":971,"disc":972,"if</w>":973,"ouse</w>":974,"progra":975,"her</w>":976,"compan":977,"international</w>":978,"pa":979,"five</w>":980,"jec":981,"time</w>":982,"ealth</w>":983,"British</w>":984,"ged</w>":985,"nex":986,"tor</w>":987,"effor":988,"able</w>":989,"border</w>":990,"news</w>":991,"ublic</w>":992,"anc":993,"cial</w>":994,"Ven":995,"der":996,"uel":997,"ained</w>":998,"ict</w>":999,"ath</w>":1000,"buil":1001,"key</w>":1002,"yp":1003,"can</w>":1004,"ust</w>":1005,"Par":1006,"ten":1007,"any</w>":1008,"sen":1009,"contro":1010,"dra":1011,"low</w>":1012,"NA":1013,"next</w>":1014,"depen":1015,"them</w>":1016,"tic</w>":1017,"ezuel":1018,"Venezuel":1019,"ard</w>":1020,"held</w>":1021,"others</w>":1022,"members</w>":1023,"Ham":1024,"eg":1025,"pr":1026,"ghts</w>":1027,"throu":1028,"devel":1029,"Gaz":1030,"Nations</w>":1031,"kers</w>":1032,"my</w>":1033,"follow":1034,"resu":1035,"because</w>":1036,"expected</w>":1037,"sho":1038,"Russia</w>":1039,"died</w>":1040,"World</w>":1041,"anese</w>":1042,"Union</w>":1043,"ical</w>":1044,"minister</w>":1045,"Sy":1046,"clo":1047,"agency</w>":1048,"late</w>":1049,"mp":1050,"off":1051,"head</w>":1052,"meeting</w>":1053,"Jap":1054,"Me":1055,"there</w>":1056,"maj":1057,"increas":1058,"tak":1059,"stern</w>":1060,"killing</w>":1061,"flu</w>":1062,"estig":1063,"economy</w>":1064,"fighting</w>":1065,"sch":1066,"ida</w>":1067,"ran":1068,"near":1069,"weap":1070,"ington</w>":1071,"eban</w>":1072,"Taleban</w>":1073,"being</w>":1074,"party</w>":1075,"They</w>":1076,"peace</w>":1077,"des":1078,"ew":1079,"imed</w>":1080,"protest":1081,"alleg":1082,"acti":1083,"igh</w>":1084,"sive</w>":1085,"ense</w>":1086,"retary</w>":1087,"depend":1088,"ph":1089,"ential</w>":1090,"six</w>":1091,"den":1092,"Gaza</w>":1093,"rac":1094,"Ar":1095,"TO</w>":1096,"ats</w>":1097,"Wash":1098,"wom":1099,"Russian</w>":1100,"power</w>":1101,"Ger":1102,"Washington</w>":1103,"what</w>":1104,"mission</w>":1105,"rel":1106,"town</w>":1107,"hed</w>":1108,"ib":1109,"produc":1110,"program</w>":1111,"recent</w>":1112,"ping</w>":1113,"eastern</w>":1114,"del":1115,"General</w>":1116,"investig":1117,"presid":1118,"ord":1119,"Musli":1120,"Syri":1121,"ond</w>":1122,"ism</w>":1123,"help</w>":1124,"bro":1125,"Com":1126,"cre":1127,"sia</w>":1128,"days</w>":1129,"set</w>":1130,"vir":1131,"fire</w>":1132,"ook</w>":1133,"red</w>":1134,"rit":1135,"northern</w>":1136,"dic":1137,"ank</w>":1138,"og":1139,"released</w>":1140,"Sud":1141,"India</w>":1142,"NATO</w>":1143,"through</w>":1144,"rul":1145,"opposition</w>":1146,"weapons</w>":1147,"western</w>":1148,"ee</w>":1149,"suspected</w>":1150,"Pakist":1151,"stitu":1152,"Leb":1153,"Int":1154,"num":1155,"loo":1156,"anian</w>":1157,"grow":1158,"et":1159,"kn":1160,"early</w>":1161,"Korea</w>":1162,"op</w>":1163,"plan":1164,"Cha":1165,"ob":1166,"part":1167,"earlier</w>":1168,"groups</w>":1169,"Col":1170,"court</w>":1171,"up":1172,"stra":1173,"iled</w>":1174,"visi":1175,"those</w>":1176,"civil":1177,"don":1178,"sel":1179,"polic":1180,"dian</w>":1181,"top</w>":1182,"Qa":1183,"hol":1184,"tive</w>":1185,"Ara":1186,"av":1187,"nation</w>":1188,"announced</w>":1189,"vote</w>":1190,"bal</w>":1191,"anu":1192,"ship</w>":1193,"20</w>":1194,"insurgents</w>":1195,"ily</w>":1196,"Bur":1197,"ma</w>":1198,"rights</w>":1199,"cor":1200,"alition</w>":1201,"ca":1202,"ug":1203,"death</w>":1204,"ousands</w>":1205,"high</w>":1206,"tran":1207,"ban</w>":1208,"ief</w>":1209,"tral</w>":1210,"reported</w>":1211,"area</w>":1212,"bird</w>":1213,"accused</w>":1214,"Pakistani</w>":1215,"gun":1216,"spec":1217,"criti":1218,"retur":1219,"develop":1220,"later</w>":1221,"another</w>":1222,"loc":1223,"50</w>":1224,"hm":1225,"wa":1226,"ened</w>":1227,"ga":1228,"ens</w>":1229,"human</w>":1230,"Eg":1231,"aid</w>":1232,"separ":1233,"second</w>":1234,"place</w>":1235,"Qaida</w>":1236,"em</w>":1237,"ets</w>":1238,"found</w>":1239,"cil</w>":1240,"pos":1241,"Security</w>":1242,"ket</w>":1243,"son":1244,"now</w>":1245,"number</w>":1246,"way</w>":1247,"ross</w>":1248,"Police</w>":1249,"pas":1250,"Chinese</w>":1251,"support</w>":1252,"arrested</w>":1253,"sm":1254,"tly</w>":1255,"bre":1256,"os":1257,"only</w>":1258,"Egyp":1259,"coalition</w>":1260,"ganization</w>":1261,"ome":1262,"ees</w>":1263,"Secretary</w>":1264,"Mean":1265,"Or":1266,"if":1267,"nearly</w>":1268,"Coun":1269,"signed</w>":1270,"ourn":1271,"Dem":1272,"African</w>":1273,"inj":1274,"State</w>":1275,"vez</w>":1276,"Cong":1277,"independ":1278,"parliament</w>":1279,"mm":1280,"idn":1281,"ll</w>":1282,"Som":1283,"tor":1284,"vis":1285,"ators</w>":1286,"sub":1287,"charges</w>":1288,"Meanwhile</w>":1289,"ial</w>":1290,"ond":1291,"ass":1292,"militant</w>":1293,"took</w>":1294,"suspec":1295,"As":1296,"dy</w>":1297,"ork</w>":1298,"ied</w>":1299,"visit</w>":1300,"30</w>":1301,"fied</w>":1302,"20":1303,"Fr":1304,"reac":1305,"ared</w>":1306,"ration</w>":1307,"months</w>":1308,"began</w>":1309,"ful</w>":1310,"Wh":1311,"nations</w>":1312,"reg":1313,"Fren":1314,"kee":1315,"confir":1316,"Hamas</w>":1317,"Rep":1318,"bia</w>":1319,"International</w>":1320,"bl":1321,"take</w>":1322,"plan</w>":1323,"ver</w>":1324,"ip":1325,"reli":1326,"sure</w>":1327,"ina</w>":1328,"Authorities</w>":1329,"operation</w>":1330,"pric":1331,"sible</w>":1332,"ergy</w>":1333,"icide</w>":1334,"olla":1335,"ploy":1336,"French</w>":1337,"Pro":1338,"pop":1339,"chief</w>":1340,"eh":1341,"cha":1342,"ports</w>":1343,"compl":1344,"car</w>":1345,"Islamic</w>":1346,"tel":1347,"int</w>":1348,"did</w>":1349,"alia</w>":1350,"following</w>":1351,"Cub":1352,"efforts</w>":1353,"kidn":1354,"Ju":1355,"Sa":1356,"high":1357,"sy":1358,"peace":1359,"hal":1360,"suicide</w>":1361,"public</w>":1362,"gre":1363,"constitu":1364,"read":1365,"such</w>":1366,"bus":1367,"stor":1368,"posed</w>":1369,"invol":1370,"prices</w>":1371,"fun":1372,"zed</w>":1373,"Jo":1374,"On</w>":1375,"can":1376,"laun":1377,"ame</w>":1378,"force</w>":1379,"Iranian</w>":1380,"ior</w>":1381,"Re":1382,"long</w>":1383,"ative</w>":1384,"home</w>":1385,"all":1386,"ago</w>":1387,"came</w>":1388,"shed</w>":1389,"company</w>":1390,"kidnap":1391,"ran</w>":1392,"ever</w>":1393,"ended</w>":1394,"ah</w>":1395,"bel</w>":1396,"dead":1397,"11</w>":1398,"ments</w>":1399,"agreement</w>":1400,"discus":1401,"Council</w>":1402,"Janu":1403,"among</w>":1404,"known</w>":1405,"January</w>":1406,"hun":1407,"serv":1408,"presidential</w>":1409,"tea":1410,"injur":1411,"Foreign</w>":1412,"Gu":1413,"still</w>":1414,"based</w>":1415,"Shi</w>":1416,"Ear":1417,"ak</w>":1418,"itt":1419,"ess":1420,"rup":1421,"Nig":1422,"ched</w>":1423,"billion</w>":1424,"15</w>":1425,"end":1426,"chan":1427,"aper</w>":1428,"should</w>":1429,"thousands</w>":1430,"work</w>":1431,"curren":1432,"An</w>":1433,"aff":1434,"may</w>":1435,"national</w>":1436,"partment</w>":1437,"National</w>":1438,"West</w>":1439,"House</w>":1440,"major</w>":1441,"chil":1442,"incid":1443,"Sudan</w>":1444,"EU</w>":1445,"cra":1446,"plans</w>":1447,"newsp":1448,"resul":1449,"Muslim</w>":1450,"ocratic</w>":1451,"omin":1452,"mes</w>":1453,"commun":1454,"Japan</w>":1455,"Car":1456,"form</w>":1457,"Chavez</w>":1458,"tre":1459,"ough</w>":1460,"Venezuela</w>":1461,"hit</w>":1462,"les</w>":1463,"targ":1464,"ord</w>":1465,"Colom":1466,"workers</w>":1467,"deal</w>":1468,"sian</w>":1469,"sist":1470,"assa":1471,"media</w>":1472,"Ha":1473,"mov":1474,"ator</w>":1475,"ept":1476,"medi":1477,"terrorist</w>":1478,"ation":1479,"emp":1480,"run</w>":1481,"ately</w>":1482,"ill":1483,"dead</w>":1484,"Kur":1485,"til</w>":1486,"disp":1487,"goti":1488,"ven":1489,"tional</w>":1490,"Brit":1491,"do</w>":1492,"fam":1493,"tors</w>":1494,"Africa</w>":1495,"member</w>":1496,"plom":1497,"well</w>":1498,"Sen":1499,"sis</w>":1500,"sions</w>":1501,"ided</w>":1502,"vision</w>":1503,"Indian</w>":1504,"virus</w>":1505,"dri":1506,"ering</w>":1507,"ease</w>":1508,"ama</w>":1509,"come</w>":1510,"Ol":1511,"re</w>":1512,"tt":1513,"north":1514,"meet</w>":1515,"ai":1516,"she</w>":1517,"approv":1518,"At</w>":1519,"until</w>":1520,"proc":1521,"past</w>":1522,"Dar":1523,"inf":1524,"left</w>":1525,"Turkey</w>":1526,"fe</w>":1527,"health</w>":1528,"pe</w>":1529,"2003</w>":1530,"formation</w>":1531,"see":1532,"anti</w>":1533,"Ser":1534,"Teh":1535,"met</w>":1536,"ently</w>":1537,"Kar":1538,"ail":1539,"line</w>":1540,"neigh":1541,"bla":1542,"Indon":1543,"candi":1544,"Tehran</w>":1545,"Indone":1546,"12</w>":1547,"En":1548,"ik":1549,"win":1550,"isl":1551,"blast</w>":1552,"rais":1553,"kilome":1554,"soci":1555,"control</w>":1556,"sched":1557,"newspaper</w>":1558,"mea":1559,"trade</w>":1560,"Bank</w>":1561,"arri":1562,"ech":1563,"ect</w>":1564,"negoti":1565,"prison":1566,"ized</w>":1567,"Britain</w>":1568,"ai</w>":1569,"star":1570,"roc":1571,"weeks</w>":1572,"bility</w>":1573,"make</w>":1574,"eng":1575,"army</w>":1576,"ected</w>":1577,"fur</w>":1578,"Department</w>":1579,"confirmed</w>":1580,"glo":1581,"requ":1582,"alli":1583,"ility</w>":1584,"using</w>":1585,"ains</w>":1586,"Darfur</w>":1587,"ether</w>":1588,"ution</w>":1589,"ort</w>":1590,"road":1591,"both</w>":1592,"growth</w>":1593,"eth":1594,"withdra":1595,"ready</w>":1596,"administ":1597,"Uk":1598,"local</w>":1599,"detained</w>":1600,"ending</w>":1601,"victi":1602,"Ukra":1603,"mat":1604,"diplom":1605,"jing</w>":1606,"hosp":1607,"central</w>":1608,"candid":1609,"Bei":1610,"hom":1611,"tou":1612,"vel</w>":1613,"seven</w>":1614,"France</w>":1615,"Ag":1616,"Dec":1617,"Sept":1618,"ban":1619,"lic":1620,"pac":1621,"uled</w>":1622,"September</w>":1623,"consid":1624,"appe":1625,"ority</w>":1626,"Burma</w>":1627,"Beijing</w>":1628,"Mex":1629,"Minist":1630,"Per":1631,"sk":1632,"Mexic":1633,"food</w>":1634,"gas</w>":1635,"then</w>":1636,"ars</w>":1637,"across</w>":1638,"bac":1639,"ful":1640,"ane</w>":1641,"agreed</w>":1642,"civilians</w>":1643,"makers</w>":1644,"iver":1645,"mir</w>":1646,"tow":1647,"direc":1648,"outside</w>":1649,"continue</w>":1650,"syst":1651,"Earlier</w>":1652,"December</w>":1653,"third</w>":1654,"iev":1655,"lig":1656,"demon":1657,"Co":1658,"dro":1659,"Chri":1660,"suppl":1661,"Ge":1662,"os</w>":1663,"prime</w>":1664,"change</w>":1665,"Ministry</w>":1666,"eight</w>":1667,"rebel</w>":1668,"east</w>":1669,"Su":1670,"per</w>":1671,"Se":1672,"dru":1673,"just</w>":1674,"esses</w>":1675,"Party</w>":1676,"back</w>":1677,"ni</w>":1678,"along</w>":1679,"prison</w>":1680,"areas</w>":1681,"release</w>":1682,"March</w>":1683,"scheduled</w>":1684,"hop":1685,"around</w>":1686,"show":1687,"recei":1688,"deci":1689,"ute</w>":1690,"ference</w>":1691,"global</w>":1692,"ancial</w>":1693,"dren</w>":1694,"sibility</w>":1695,"gen":1696,"main":1697,"anon</w>":1698,"suppor":1699,"claimed</w>":1700,"Lebanon</w>":1701,"south</w>":1702,"legal</w>":1703,"terrorism</w>":1704,"mas":1705,"indu":1706,"identi":1707,"25</w>":1708,"Jun":1709,"ya</w>":1710,"confl":1711,"resol":1712,"struction</w>":1713,"rejec":1714,"stop</w>":1715,"ure</w>":1716,"entary</w>":1717,"dreds</w>":1718,"largest</w>":1719,"issued</w>":1720,"ang</w>":1721,"south":1722,"bur":1723,"ns</w>":1724,"round</w>":1725,"198":1726,"invest":1727,"concern":1728,"Syria</w>":1729,"ery</w>":1730,"suspects</w>":1731,"Joh":1732,"Tali":1733,"ards</w>":1734,"stro":1735,"Nov":1736,"cl":1737,"ach":1738,"40</w>":1739,"hic":1740,"om</w>":1741,"move</w>":1742,"vehic":1743,"office</w>":1744,"woman</w>":1745,"Taliban</w>":1746,"evision</w>":1747,"get</w>":1748,"ta":1749,"urric":1750,"York</w>":1751,"sit":1752,"ris":1753,"busin":1754,"children</w>":1755,"must</w>":1756,"employ":1757,"edly</w>":1758,"July</w>":1759,"kilometers</w>":1760,"ligence</w>":1761,"Ob":1762,"uti":1763,"ection</w>":1764,"dam":1765,"law</w>":1766,"villa":1767,"May</w>":1768,"run":1769,"large</w>":1770,"clear</w>":1771,"indic":1772,"energy</w>":1773,"ony</w>":1774,"trying</w>":1775,"self</w>":1776,"gunmen</w>":1777,"am</w>":1778,"journ":1779,"ring</w>":1780,"reporters</w>":1781,"Austr":1782,"territ":1783,"Lond":1784,"oud</w>":1785,"attemp":1786,"protests</w>":1787,"Germany</w>":1788,"separate</w>":1789,"London</w>":1790,"Can":1791,"zens</w>":1792,"ems</w>":1793,"White</w>":1794,"ening</w>":1795,"fired</w>":1796,"activ":1797,"Ca":1798,"ual</w>":1799,"ried</w>":1800,"miss":1801,"Bar":1802,"lat":1803,"less</w>":1804,"elligence</w>":1805,"ages</w>":1806,"summ":1807,"cer":1808,"sea":1809,"island</w>":1810,"view</w>":1811,"Europe</w>":1812,"Organization</w>":1813,"ium</w>":1814,"owever</w>":1815,"Inter":1816,"financial</w>":1817,"cou":1818,"doc":1819,"med":1820,"decision</w>":1821,"information</w>":1822,"dish</w>":1823,"Korean</w>":1824,"incident</w>":1825,"Geor":1826,"Last</w>":1827,"ko</w>":1828,"ker</w>":1829,"ana</w>":1830,"iting</w>":1831,"term</w>":1832,"Augu":1833,"shot</w>":1834,"Niger":1835,"For":1836,"ine":1837,"ali</w>":1838,"disa":1839,"Egypt</w>":1840,"Somalia</w>":1841,"victims</w>":1842,"test":1843,"ined</w>":1844,"vil</w>":1845,"include</w>":1846,"operations</w>":1847,"constitution</w>":1848,"independence</w>":1849,"discuss</w>":1850,"November</w>":1851,"mer</w>":1852,"ner</w>":1853,"west</w>":1854,"lim":1855,"sett":1856,"expres":1857,"women</w>":1858,"television</w>":1859,"pon":1860,"allow":1861,"sear":1862,"threat":1863,"officers</w>":1864,"parliamentary</w>":1865,"hold</w>":1866,"main</w>":1867,"parti":1868,"immedi":1869,"possible</w>":1870,"administration</w>":1871,"aimed</w>":1872,"ef</w>":1873,"deb":1874,"strict</w>":1875,"neighbor":1876,"system</w>":1877,"East</w>":1878,"Feb":1879,"tice</w>":1880,"condi":1881,"ruary</w>":1882,"face</w>":1883,"Moha":1884,"February</w>":1885,"pur":1886,"port":1887,"uch</w>":1888,"urricane</w>":1889,"ession</w>":1890,"suc":1891,"return</w>":1892,"Cen":1893,"series</w>":1894,"Oc":1895,"exper":1896,"eded</w>":1897,"Turk":1898,"building</w>":1899,"El":1900,"house</w>":1901,"quake</w>":1902,"otes</w>":1903,"responsibility</w>":1904,"August</w>":1905,"Ken":1906,"ue</w>":1907,"ines</w>":1908,"ements</w>":1909,"ades</w>":1910,"comman":1911,"crisis</w>":1912,"case</w>":1913,"lawmakers</w>":1914,"site</w>":1915,"Def":1916,"ruling</w>":1917,"peacekee":1918,"ast":1919,"ou</w>":1920,"pite</w>":1921,"pped</w>":1922,"fug":1923,"strike</w>":1924,"taken</w>":1925,"June</w>":1926,"Bra":1927,"2008</w>":1928,"Ital":1929,"sanc":1930,"refer":1931,"comes</w>":1932,"defense</w>":1933,"pro</w>":1934,"bir":1935,"val</w>":1936,"urged</w>":1937,"calls</w>":1938,"ministry</w>":1939,"Democratic</w>":1940,"ahead</w>":1941,"mor":1942,"soldier</w>":1943,"market</w>":1944,"campa":1945,"bas</w>":1946,"ious</w>":1947,"ze</w>":1948,"ales</w>":1949,"rip</w>":1950,"ami</w>":1951,"tober</w>":1952,"alleged</w>":1953,"deadly</w>":1954,"October</w>":1955,"aged</w>":1956,"conflict</w>":1957,"Health</w>":1958,"won</w>":1959,"thi":1960,"small</w>":1961,"col":1962,"gg":1963,"jud":1964,"pers</w>":1965,"believ":1966,"team</w>":1967,"process</w>":1968,"ins</w>":1969,"har</w>":1970,"ell":1971,"trial</w>":1972,"fuel</w>":1973,"final</w>":1974,"Abbas</w>":1975,"break</w>":1976,"arian</w>":1977,"dies</w>":1978,"crimes</w>":1979,"Venezuelan</w>":1980,"ugg":1981,"development</w>":1982,"Obama</w>":1983,"Asia</w>":1984,"investigation</w>":1985,"Arab</w>":1986,"Defense</w>":1987,"Har":1988,"Sad":1989,"far":1990,"ymp":1991,"2004</w>":1992,"ocracy</w>":1993,"OA</w>":1994,"emerg":1995,"ext":1996,"quar":1997,"Strip</w>":1998,"how</w>":1999,"Syrian</w>":2000,"nam":2001,"put</w>":2002,"ra</w>":2003,"water</w>":2004,"anding</w>":2005,"each</w>":2006,"conference</w>":2007,"tured</w>":2008,"olog":2009,"under":2010,"bombings</w>":2011,"Mahm":2012,"free</w>":2013,"Pe":2014,"VOA</w>":2015,"batt":2016,"mun":2017,"te</w>":2018,"Olymp":2019,"prisoners</w>":2020,"Bo":2021,"Lib":2022,"fe":2023,"omic</w>":2024,"civil</w>":2025,"protest</w>":2026,"Mos":2027,"voy</w>":2028,"critici":2029,"Cuba</w>":2030,"injured</w>":2031,"withdraw":2032,"idd":2033,"remain</w>":2034,"close</w>":2035,"increase</w>":2036,"ews</w>":2037,"air</w>":2038,"ul</w>":2039,"dam</w>":2040,"lah</w>":2041,"drug</w>":2042,"sanctions</w>":2043,"Mahmoud</w>":2044,"Kash":2045,"ss":2046,"same</w>":2047,"opened</w>":2048,"half</w>":2049,"roadside</w>":2050,"wan</w>":2051,"ref":2052,"lar</w>":2053,"ours</w>":2054,"2001</w>":2055,"approved</w>":2056,"There</w>":2057,"warned</w>":2058,"bs</w>":2059,"sad":2060,"overed</w>":2061,"tered</w>":2062,"ublic":2063,"suspen":2064,"Kurdish</w>":2065,"14</w>":2066,"Some</w>":2067,"Shar":2068,"Tai":2069,"ah":2070,"ention</w>":2071,"ech</w>":2072,"decl":2073,"cases</w>":2074,"echn":2075,"latest</w>":2076,"cut</w>":2077,"ot</w>":2078,"wide</w>":2079,"repres":2080,"enko</w>":2081,"allow</w>":2082,"cow</w>":2083,"summit</w>":2084,"dio</w>":2085,"ush":2086,"record</w>":2087,"ricul":2088,"Palestinians</w>":2089,"60</w>":2090,"Court</w>":2091,"pat":2092,"alist</w>":2093,"north</w>":2094,"explosion</w>":2095,"effort</w>":2096,"Turkish</w>":2097,"ne</w>":2098,"citi":2099,"kets</w>":2100,"district</w>":2101,"Congress</w>":2102,"100</w>":2103,"Ethi":2104,"cro":2105,"anded</w>":2106,"sign":2107,"John</w>":2108,"Ethiop":2109,"13</w>":2110,"N1</w>":2111,"ri</w>":2112,"production</w>":2113,"ruption</w>":2114,"Colombia</w>":2115,"Con":2116,"Mil":2117,"much</w>":2118,"pic":2119,"working</w>":2120,"ources</w>":2121,"legisl":2122,"carried</w>":2123,"without</w>":2124,"bombing</w>":2125,"denied</w>":2126,"Ro":2127,"bri":2128,"pu":2129,"atives</w>":2130,"whether</w>":2131,"add":2132,"ederal</w>":2133,"estim":2134,"base</w>":2135,"show</w>":2136,"ordered</w>":2137,"Indonesia</w>":2138,"H5":2139,"nation":2140,"sent</w>":2141,"armed</w>":2142,"stan</w>":2143,"uses</w>":2144,"que</w>":2145,"intelligence</w>":2146,"demand</w>":2147,"deaths</w>":2148,"companies</w>":2149,"hospital</w>":2150,"conf":2151,"ude</w>":2152,"Japanese</w>":2153,"At":2154,"ics</w>":2155,"consu":2156,"idence</w>":2157,"secut":2158,"today</w>":2159,"centur":2160,"senior</w>":2161,"2010</w>":2162,"ittee</w>":2163,"Tha":2164,"tain</w>":2165,"ven</w>":2166,"ster</w>":2167,"already</w>":2168,"recently</w>":2169,"money</w>":2170,"remains</w>":2171,"Lebanese</w>":2172,"caused</w>":2173,"campaign</w>":2174,"Sw":2175,"She</w>":2176,"Wit":2177,"ron":2178,"construction</w>":2179,"ish":2180,"attacked</w>":2181,"ously</w>":2182,"Agency</w>":2183,"Moscow</w>":2184,"Mu":2185,"fur":2186,"hear":2187,"nesses</w>":2188,"bomber</w>":2189,"does</w>":2190,"H5N1</w>":2191,"0s</w>":2192,"calling</w>":2193,"due</w>":2194,"failed</w>":2195,"storm</w>":2196,"Kh":2197,"infl":2198,"promis":2199,"occur":2200,"Saud":2201,"bian</w>":2202,"boo":2203,"sent":2204,"suff":2205,"coming</w>":2206,"sector</w>":2207,"Ukraine</w>":2208,"Braz":2209,"iddle</w>":2210,"17</w>":2211,"18</w>":2212,"Sp":2213,"Tw":2214,"cul":2215,"ges</w>":2216,"mig":2217,"uation</w>":2218,"fighters</w>":2219,"kidnapped</w>":2220,"results</w>":2221,"rejected</w>":2222,"Be":2223,"cs</w>":2224,"ta</w>":2225,"yed</w>":2226,"ination</w>":2227,"sal</w>":2228,"2006</w>":2229,"Sunni</w>":2230,"majority</w>":2231,"strain</w>":2232,"Saudi</w>":2233,"Cl":2234,"go</w>":2235,"stud":2236,"eld</w>":2237,"2009</w>":2238,"previ":2239,"detain":2240,"hundreds</w>":2241,"Mexico</w>":2242,"Am":2243,"More</w>":2244,"sla":2245,"ures</w>":2246,"inst":2247,"give</w>":2248,"issues</w>":2249,"relations</w>":2250,"trans":2251,"Western</w>":2252,"cel":2253,"rying</w>":2254,"wat":2255,"iti</w>":2256,"road</w>":2257,"cip":2258,"sistance</w>":2259,"expressed</w>":2260,"Gre":2261,"eted</w>":2262,"poin":2263,"vices</w>":2264,"activi":2265,"bal":2266,"ud</w>":2267,"went</w>":2268,"ability</w>":2269,"priv":2270,"corruption</w>":2271,"dol":2272,"point</w>":2273,"arrest</w>":2274,"popul":2275,"ef":2276,"fra":2277,"projec":2278,"destro":2279,"within</w>":2280,"placed</w>":2281,"German</w>":2282,"ethn":2283,"itted</w>":2284,"Americans</w>":2285,"ward</w>":2286,"taking</w>":2287,"lands</w>":2288,"organiz":2289,"ick":2290,"bet":2291,"service</w>":2292,"Kashmir</w>":2293,"ensive</w>":2294,"act</w>":2295,"fight</w>":2296,"Republic</w>":2297,"settl":2298,"However</w>":2299,"Rice</w>":2300,"protesters</w>":2301,"planned</w>":2302,"bloc":2303,"sc":2304,"ank":2305,"ert</w>":2306,"spac":2307,"democracy</w>":2308,"carrying</w>":2309,"ific":2310,"occurred</w>":2311,"ep</w>":2312,"mine</w>":2313,"action</w>":2314,"ustice</w>":2315,"conduc":2316,"seized</w>":2317,"making</w>":2318,"floo":2319,"publi":2320,"though</w>":2321,"oned</w>":2322,"alists</w>":2323,"pled":2324,"disease</w>":2325,"launched</w>":2326,"Mor":2327,"vy</w>":2328,"contrac":2329,"build</w>":2330,"succ":2331,"18":2332,"Apri":2333,"hi":2334,"sli":2335,"emen</w>":2336,"asked</w>":2337,"militi":2338,"strong</w>":2339,"despite</w>":2340,"Egypti":2341,"neighboring</w>":2342,"further</w>":2343,"April</w>":2344,"US</w>":2345,"nine</w>":2346,"ten</w>":2347,"refug":2348,"spe":2349,"policy</w>":2350,"Associ":2351,"concerns</w>":2352,"Saddam</w>":2353,"Two</w>":2354,"ethnic</w>":2355,"Ahm":2356,"Bos":2357,"bed</w>":2358,"mul":2359,"tol":2360,"abin":2361,"vide":2362,"future</w>":2363,"charged</w>":2364,"barre":2365,"ming</w>":2366,"sw":2367,"stre":2368,"exports</w>":2369,"forms</w>":2370,"ministers</w>":2371,"increased</w>":2372,"identified</w>":2373,"vehicle</w>":2374,"criticized</w>":2375,"Taiwan</w>":2376,"general</w>":2377,"natur":2378,"post</w>":2379,"captured</w>":2380,"bassad":2381,"ails</w>":2382,"16</w>":2383,"DP</w>":2384,"rate</w>":2385,"abul</w>":2386,"call</w>":2387,"ept</w>":2388,"family</w>":2389,"abinet</w>":2390,"Lu":2391,"sha":2392,"organization</w>":2393,"station</w>":2394,"role</w>":2395,"civilian</w>":2396,"involved</w>":2397,"territory</w>":2398,"Del":2399,"ented</w>":2400,"residents</w>":2401,"parts</w>":2402,"birds</w>":2403,"co</w>":2404,"sures</w>":2405,"2002</w>":2406,"2007</w>":2407,"elected</w>":2408,"197":2409,"relief</w>":2410,"homes</w>":2411,"Ad":2412,"you</w>":2413,"leading</w>":2414,"situation</w>":2415,"Hu":2416,"War</w>":2417,"fo":2418,"ger</w>":2419,"wan":2420,"enric":2421,"order</w>":2422,"adv":2423,"comb":2424,"host":2425,"Army</w>":2426,"emergency</w>":2427,"Bosn":2428,"prove</w>":2429,"forced</w>":2430,"abli":2431,"abduc":2432,"trip</w>":2433,"begin</w>":2434,"backed</w>":2435,"Nigeria</w>":2436,"GDP</w>":2437,"cot":2438,"cement</w>":2439,"gr":2440,"ja":2441,"sun":2442,"wid":2443,"accoun":2444,"travel":2445,"Haiti</w>":2446,"candidate</w>":2447,"200</w>":2448,"far</w>":2449,"lions</w>":2450,"gue</w>":2451,"harra":2452,"cust":2453,"ollah</w>":2454,"craft</w>":2455,"techn":2456,"ining</w>":2457,"probl":2458,"earth":2459,"And</w>":2460,"became</w>":2461,"religi":2462,"Spain</w>":2463,"Ari":2464,"hours</w>":2465,"icop":2466,"div":2467,"iri</w>":2468,"exec":2469,"parties</w>":2470,"establi":2471,"stry</w>":2472,"duce</w>":2473,"Ann":2474,"Ac":2475,"Kan":2476,"Sev":2477,"uran":2478,"lead</w>":2479,"chang":2480,"2005</w>":2481,"outbreak</w>":2482,"ivers":2483,"Egyptian</w>":2484,"Middle</w>":2485,"life</w>":2486,"helicop":2487,"exploded</w>":2488,"assass":2489,"blamed</w>":2490,"problems</w>":2491,"Ms</w>":2492,"pul":2493,"val":2494,"aly":2495,"ror</w>":2496,"prof":2497,"ize</w>":2498,"comments</w>":2499,"center</w>":2500,"broad":2501,"uranium</w>":2502,"foc":2503,"zai</w>":2504,"play":2505,"lik":2506,"treat":2507,"believed</w>":2508,"bassador</w>":2509,"70</w>":2510,"Bel":2511,"Sha":2512,"ree</w>":2513,"nel</w>":2514,"gun</w>":2515,"issue</w>":2516,"Mal":2517,"ba":2518,"ences</w>":2519,"stly</w>":2520,"cities</w>":2521,"provide</w>":2522,"America</w>":2523,"anda</w>":2524,"hard</w>":2525,"aircraft</w>":2526,"commander</w>":2527,"activities</w>":2528,"Ben":2529,"Bas":2530,"Ram":2531,"shar":2532,"missing</w>":2533,"heavy</w>":2534,"dum</w>":2535,"continued</w>":2536,"patro":2537,"detainees</w>":2538,"Al</w>":2539,"One</w>":2540,"step":2541,"regional</w>":2542,"become</w>":2543,"vice</w>":2544,"we</w>":2545,"eration</w>":2546,"condem":2547,"gath":2548,"supporters</w>":2549,"missile</w>":2550,"ale</w>":2551,"shor":2552,"aul</w>":2553,"Musharra":2554,"price</w>":2555,"rule</w>":2556,"business</w>":2557,"Musharraf</w>":2558,"Fo":2559,"Gul":2560,"Nep":2561,"read</w>":2562,"threat</w>":2563,"coast</w>":2564,"Also</w>":2565,"away</w>":2566,"Ky":2567,"bab":2568,"exten":2569,"bodies</w>":2570,"raised</w>":2571,"No</w>":2572,"mur":2573,"vol":2574,"want</w>":2575,"atic</w>":2576,"deter":2577,"Muslims</w>":2578,"Senate</w>":2579,"demonstr":2580,"named</w>":2581,"century</w>":2582,"equ":2583,"fil":2584,"thing</w>":2585,"own":2586,"quotes</w>":2587,"terrorists</w>":2588,"reached</w>":2589,"seeking</w>":2590,"500</w>":2591,"80</w>":2592,"This</w>":2593,"cr":2594,"illegal</w>":2595,"open</w>":2596,"netw":2597,"sides</w>":2598,"cies</w>":2599,"poor</w>":2600,"human":2601,"linked</w>":2602,"independent</w>":2603,"measures</w>":2604,"arrived</w>":2605,"received</w>":2606,"declared</w>":2607,"Annan</w>":2608,"canc":2609,"ual":2610,"za</w>":2611,"endum</w>":2612,"stren":2613,"ames</w>":2614,"tribal</w>":2615,"preme</w>":2616,"allegations</w>":2617,"negotiations</w>":2618,"supplies</w>":2619,"referendum</w>":2620,"Hun":2621,"Kat":2622,"domin":2623,"ging</w>":2624,"tem":2625,"agricul":2626,"camp</w>":2627,"Christi":2628,"address</w>":2629,"natural</w>":2630,"streng":2631,"Ex":2632,"His</w>":2633,"Hurricane</w>":2634,"few</w>":2635,"wants</w>":2636,"sives</w>":2637,"rought</w>":2638,"body</w>":2639,"joint</w>":2640,"current</w>":2641,"Di":2642,"shes</w>":2643,"travel</w>":2644,"services</w>":2645,"Central</w>":2646,"Gulf</w>":2647,"Asian</w>":2648,"City</w>":2649,"Fat":2650,"Hus":2651,"Ti":2652,"tory</w>":2653,"chall":2654,"import":2655,"bus</w>":2656,"ruled</w>":2657,"decades</w>":2658,"fail":2659,"village</w>":2660,"Sharon</w>":2661,"wanted</w>":2662,"io</w>":2663,"lars</w>":2664,"nomin":2665,"initi":2666,"radio</w>":2667,"conn":2668,"spea":2669,"seen</w>":2670,"iding</w>":2671,"level</w>":2672,"stric":2673,"threatened</w>":2674,"Olympic</w>":2675,"dollars</w>":2676,"ean</w>":2677,"kes</w>":2678,"ool</w>":2679,"soon</w>":2680,"industry</w>":2681,"investment</w>":2682,"space</w>":2683,"sunami</w>":2684,"earthquake</w>":2685,"likely</w>":2686,"Cor":2687,"right</w>":2688,"again</w>":2689,"mostly</w>":2690,"rocket</w>":2691,"fully</w>":2692,"published</w>":2693,"hi</w>":2694,"ular</w>":2695,"ind</w>":2696,"dahar</w>":2697,"ope</w>":2698,"ult</w>":2699,"prev":2700,"officer</w>":2701,"break":2702,"medical</w>":2703,"celeb":2704,"Kandahar</w>":2705,"Bol":2706,"Bla":2707,"Hug":2708,"Span":2709,"fled</w>":2710,"tot":2711,"row</w>":2712,"eat</w>":2713,"ribu":2714,"ire</w>":2715,"sein</w>":2716,"addi":2717,"aining</w>":2718,"monit":2719,"electr":2720,"tried</w>":2721,"aut":2722,"sign</w>":2723,"Ali</w>":2724,"Abu</w>":2725,"interview</w>":2726,"offensive</w>":2727,"search</w>":2728,"withdrawal</w>":2729,"Hugo</w>":2730,"cast</w>":2731,"fell</w>":2732,"uted</w>":2733,"ought</w>":2734,"ished</w>":2735,"ullah</w>":2736,"explosives</w>":2737,"paren":2738,"dispute</w>":2739,"toward</w>":2740,"immediately</w>":2741,"Bal":2742,"Kabul</w>":2743,"non</w>":2744,"tsunami</w>":2745,"sting</w>":2746,"ada</w>":2747,"milar</w>":2748,"Ang":2749,"concern</w>":2750,"Cuban</w>":2751,"ology</w>":2752,"Yu":2753,"ble":2754,"hur":2755,"ply</w>":2756,"net</w>":2757,"declin":2758,"ieve</w>":2759,"holding</w>":2760,"Somali</w>":2761,"cerem":2762,"toll</w>":2763,"Fatah</w>":2764,"Man":2765,"reforms</w>":2766,"iles</w>":2767,"ilities</w>":2768,"char":2769,"abad</w>":2770,"terror</w>":2771,"thority</w>":2772,"details</w>":2773,"ways</w>":2774,"passed</w>":2775,"attempt</w>":2776,"citizens</w>":2777,"religious</w>":2778,"06</w>":2779,"26</w>":2780,"Cam":2781,"Lea":2782,"Ph":2783,"him":2784,"commission</w>":2785,"special</w>":2786,"community</w>":2787,"Mic":2788,"Sch":2789,"bill</w>":2790,"bring</w>":2791,"crow":2792,"ership</w>":2793,"stop":2794,"states</w>":2795,"ung</w>":2796,"seats</w>":2797,"via</w>":2798,"ign":2799,"rescu":2800,"trib":2801,"accid":2802,"continues</w>":2803,"Sudanese</w>":2804,"growing</w>":2805,"Karzai</w>":2806,"Supreme</w>":2807,"judge</w>":2808,"refused</w>":2809,"Brazil</w>":2810,"bank</w>":2811,"federal</w>":2812,"gress</w>":2813,"yers</w>":2814,"yet</w>":2815,"raid</w>":2816,"need</w>":2817,"chec":2818,"pose</w>":2819,"oters</w>":2820,"survi":2821,"strikes</w>":2822,"descri":2823,"broke</w>":2824,"suspect</w>":2825,"debt</w>":2826,"Po":2827,"win</w>":2828,"ances</w>":2829,"enced</w>":2830,"lam</w>":2831,"ney</w>":2832,"exp":2833,"person</w>":2834,"claim":2835,"casual":2836,"announcement</w>":2837,"Ahmad":2838,"Jer":2839,"Jord":2840,"Puti":2841,"eb</w>":2842,"anti":2843,"repe":2844,"ousted</w>":2845,"convoy</w>":2846,"leave</w>":2847,"expec":2848,"prepar":2849,"versi":2850,"mark</w>":2851,"response</w>":2852,"activists</w>":2853,"Putin</w>":2854,"Lank":2855,"Mc":2856,"Sri</w>":2857,"Vi":2858,"bi":2859,"test</w>":2860,"like</w>":2861,"cooperation</w>":2862,"wounding</w>":2863,"Congo</w>":2864,"massive</w>":2865,"private</w>":2866,"Iv":2867,"Op":2868,"Spea":2869,"Tim":2870,"dr":2871,"arms</w>":2872,"oul":2873,"added</w>":2874,"ock</w>":2875,"pressure</w>":2876,"voted</w>":2877,"employment</w>":2878,"migr":2879,"Fi":2880,"dou":2881,"hist":2882,"jad</w>":2883,"similar</w>":2884,"proposed</w>":2885,"del</w>":2886,"chenko</w>":2887,"lost</w>":2888,"cienti":2889,"embly</w>":2890,"ogn":2891,"separati":2892,"prevent</w>":2893,"himself</w>":2894,"21</w>":2895,"Az":2896,"dings</w>":2897,"fli":2898,"ness</w>":2899,"ov</w>":2900,"rina</w>":2901,"sing":2902,"ching</w>":2903,"ches</w>":2904,"spor":2905,"spread</w>":2906,"recogn":2907,"anning</w>":2908,"candidates</w>":2909,"demonstra":2910,"tax</w>":2911,"population</w>":2912,"Jew":2913,"King</w>":2914,"iet</w>":2915,"almost</w>":2916,"sic</w>":2917,"elm":2918,"convic":2919,"ids</w>":2920,"charge</w>":2921,"journalists</w>":2922,"inejad</w>":2923,"conditions</w>":2924,"Witnesses</w>":2925,"Ahmadinejad</w>":2926,"19</w>":2927,"Hez":2928,"Tra":2929,"date</w>":2930,"reform</w>":2931,"improv":2932,"turned</w>":2933,"insurgent</w>":2934,"Energy</w>":2935,"Australia</w>":2936,"experts</w>":2937,"Katrina</w>":2938,"Cro":2939,"Sing":2940,"bor</w>":2941,"encies</w>":2942,"spar":2943,"alized</w>":2944,"crimin":2945,"warning</w>":2946,"returned</w>":2947,"assy</w>":2948,"Republic":2949,"peaceful</w>":2950,"industri":2951,"allowed</w>":2952,"enrich":2953,"Jewish</w>":2954,"bollah</w>":2955,"crac":2956,"lor":2957,"propo":2958,"prosecut":2959,"deploy":2960,"needed</w>":2961,"let":2962,"embassy</w>":2963,"tural</w>":2964,"ental</w>":2965,"related</w>":2966,"viron":2967,"policemen</w>":2968,"start</w>":2969,"full</w>":2970,"Hezbollah</w>":2971,"Fin":2972,"That</w>":2973,"Yush":2974,"ben":2975,"cle":2976,"hous":2977,"pay</w>":2978,"ually</w>":2979,"iland</w>":2980,"truc":2981,"occu":2982,"even</w>":2983,"evidence</w>":2984,"ships</w>":2985,"cros":2986,"network</w>":2987,"Hussein</w>":2988,"AI":2989,"Py":2990,"colla":2991,"fig":2992,"lack</w>":2993,"share</w>":2994,"hua</w>":2995,"deleg":2996,"regul":2997,"fraud</w>":2998,"Nepal</w>":2999,"Yushchenko</w>":3000,"22</w>":3001,"24</w>":3002,"mmed</w>":3003,"yang</w>":3004,"era</w>":3005,"stand":3006,"ounded</w>":3007,"tradi":3008,"annual</w>":3009,"tests</w>":3010,"te":3011,"probe</w>":3012,"compe":3013,"interim</w>":3014,"currently</w>":3015,"Coast</w>":3016,"Italy</w>":3017,"alysts</w>":3018,"Spanish</w>":3019,"casualties</w>":3020,"Ber":3021,"Day</w>":3022,"ber":3023,"di</w>":3024,"hand":3025,"kov":3026,"land":3027,"moun":3028,"var":3029,"reven":3030,"enn":3031,"rain</w>":3032,"millions</w>":3033,"educ":3034,"stro</w>":3035,"detention</w>":3036,"clashes</w>":3037,"spoke</w>":3038,"structure</w>":3039,"Castro</w>":3040,"total</w>":3041,"Paul</w>":3042,"Ug":3043,"fy</w>":3044,"gers</w>":3045,"rates</w>":3046,"rest</w>":3047,"spending</w>":3048,"sewhere</w>":3049,"After</w>":3050,"strugg":3051,"given</w>":3052,"mos":3053,"violent</w>":3054,"gener":3055,"activity</w>":3056,"particip":3057,"destroyed</w>":3058,"success":3059,"assassination</w>":3060,"patrol</w>":3061,"ogra":3062,"ania</w>":3063,"reduc":3064,"ari</w>":3065,"exchange</w>":3066,"gia</w>":3067,"formed</w>":3068,"ongyang</w>":3069,"extrem":3070,"Pyongyang</w>":3071,"Bang":3072,"hood</w>":3073,"ow</w>":3074,"itarian</w>":3075,"ateg":3076,"impl":3077,"bud":3078,"believe</w>":3079,"responsible</w>":3080,"keep</w>":3081,"Human</w>":3082,"important</w>":3083,"Blair</w>":3084,"proposal</w>":3085,"During</w>":3086,"Li":3087,"News</w>":3088,"Rob":3089,"Xin":3090,"gir":3091,"he":3092,"ira":3093,"od</w>":3094,"enough</w>":3095,"progress</w>":3096,"eds</w>":3097,"cally</w>":3098,"facilities</w>":3099,"insurgency</w>":3100,"closed</w>":3101,"diplomatic</w>":3102,"Georgia</w>":3103,"battle</w>":3104,"estimated</w>":3105,"video</w>":3106,"occup":3107,"Press</w>":3108,"fri":3109,"hour</w>":3110,"mes":3111,"list</w>":3112,"ights</w>":3113,"Iraqis</w>":3114,"struck</w>":3115,"mmad</w>":3116,"AR":3117,"gres":3118,"ody</w>":3119,"unal</w>":3120,"stron":3121,"person":3122,"board</w>":3123,"bombs</w>":3124,"freed</w>":3125,"cler":3126,"Speaking</w>":3127,"Xinhua</w>":3128,"gs</w>":3129,"good</w>":3130,"long":3131,"pover":3132,"living</w>":3133,"ested</w>":3134,"entatives</w>":3135,"access</w>":3136,"guards</w>":3137,"awi</w>":3138,"Comm":3139,"reach</w>":3140,"rism</w>":3141,"II</w>":3142,"Ric":3143,"bloo":3144,"dom":3145,"ret</w>":3146,"escap":3147,"kill</w>":3148,"post":3149,"governments</w>":3150,"poll</w>":3151,"Paris</w>":3152,"resume</w>":3153,"offer</w>":3154,"alliance</w>":3155,"resolution</w>":3156,"journalist</w>":3157,"Sov":3158,"four":3159,"night</w>":3160,"yan</w>":3161,"youn":3162,"alian</w>":3163,"dev":3164,"ape</w>":3165,"contribu":3166,"overy</w>":3167,"develop</w>":3168,"plane</w>":3169,"policies</w>":3170,"mass</w>":3171,"peacekeeping</w>":3172,"signific":3173,"Thailand</w>":3174,"promised</w>":3175,"custody</w>":3176,"messa":3177,"Em":3178,"Govern":3179,"Nic":3180,"ball</w>":3181,"fall</w>":3182,"oods</w>":3183,"peri":3184,"inton</w>":3185,"committee</w>":3186,"lines</w>":3187,"school</w>":3188,"hopes</w>":3189,"Clinton</w>":3190,"enrichment</w>":3191,"Soviet</w>":3192,"As</w>":3193,"Mer":3194,"Qu":3195,"Res":3196,"brought</w>":3197,"cabinet</w>":3198,"ez</w>":3199,"fish":3200,"iri":3201,"la</w>":3202,"poul":3203,"diff":3204,"ired</w>":3205,"strong":3206,"includes</w>":3207,"airs</w>":3208,"measure</w>":3209,"Australian</w>":3210,"Former</w>":3211,"Kenya</w>":3212,"peacekeepers</w>":3213,"speech</w>":3214,"Phil":3215,"poultry</w>":3216,"San</w>":3217,"Wil":3218,"bar":3219,"name</w>":3220,"any":3221,"ality</w>":3222,"planning</w>":3223,"beh":3224,"gadi":3225,"ific</w>":3226,"constitutional</w>":3227,"damage</w>":3228,"fourth</w>":3229,"Her":3230,"Vie":3231,"adi":3232,"cing</w>":3233,"yo</w>":3234,"amb":3235,"owned</w>":3236,"ador</w>":3237,"expan":3238,"guil":3239,"politici":3240,"interest</w>":3241,"join</w>":3242,"joined</w>":3243,"holi":3244,"gave</w>":3245,"Italian</w>":3246,"crude</w>":3247,"23</w>":3248,"So":3249,"ki</w>":3250,"sa</w>":3251,"ues</w>":3252,"arti":3253,"appro":3254,"vian</w>":3255,"press</w>":3256,"very</w>":3257,"Abd":3258,"allegedly</w>":3259,"visited</w>":3260,"highest</w>":3261,"allies</w>":3262,"running</w>":3263,"behind</w>":3264,"den</w>":3265,"sales</w>":3266,"vement</w>":3267,"zen</w>":3268,"plant</w>":3269,"agencies</w>":3270,"short</w>":3271,"2000</w>":3272,"dismis":3273,"trac":3274,"196":3275,"democratic</w>":3276,"claim</w>":3277,"investigating</w>":3278,"higher</w>":3279,"season</w>":3280,"Cup</w>":3281,"Sal":3282,"uj":3283,"staf":3284,"ament</w>":3285,"imposed</w>":3286,"faces</w>":3287,"denies</w>":3288,"passen":3289,"involvement</w>":3290,"coura":3291,"suspended</w>":3292,"pledged</w>":3293,"Several</w>":3294,"collap":3295,"27</w>":3296,"ei</w>":3297,"environ":3298,"rose</w>":3299,"els</w>":3300,"ambassador</w>":3301,"apparen":3302,"lower</w>":3303,"facility</w>":3304,"vely</w>":3305,"freed":3306,"control":3307,"Hamid</w>":3308,"pact</w>":3309,"Ethiopia</w>":3310,"abducted</w>":3311,"condemned</w>":3312,"Viet":3313,"Pope</w>":3314,"Tam":3315,"br":3316,"lan":3317,"oted</w>":3318,"incial</w>":3319,"lives</w>":3320,"leaving</w>":3321,"Thousands</w>":3322,"trading</w>":3323,"jobs</w>":3324,"discovered</w>":3325,"launch</w>":3326,"Indonesian</w>":3327,"Eng":3328,"shows</w>":3329,"influ":3330,"connection</w>":3331,"Helm":3332,"Many</w>":3333,"Raf":3334,"Si":3335,"cause</w>":3336,"oon</w>":3337,"voters</w>":3338,"step</w>":3339,"itary</w>":3340,"emor":3341,"irman</w>":3342,"counter":3343,"helped</w>":3344,"served</w>":3345,"often</w>":3346,"Islamabad</w>":3347,"Niger</w>":3348,"Ukrain":3349,"Both</w>":3350,"gathered</w>":3351,"Rights</w>":3352,"cism</w>":3353,"dang":3354,"yer</w>":3355,"anam":3356,"ala</w>":3357,"rival</w>":3358,"begun</w>":3359,"comment</w>":3360,"shoo":3361,"famil":3362,"infected</w>":3363,"request</w>":3364,"mater":3365,"immediate</w>":3366,"ceremony</w>":3367,"AID":3368,"budget</w>":3369,"domesti":3370,"Helmand</w>":3371,"300</w>":3372,"iy":3373,"ie</w>":3374,"wil":3375,"wel":3376,"insu":3377,"aled</w>":3378,"ernal</w>":3379,"see</w>":3380,"ests</w>":3381,"Islam</w>":3382,"andan</w>":3383,"developing</w>":3384,"Colombian</w>":3385,"islands</w>":3386,"showed</w>":3387,"condition</w>":3388,"differ":3389,"AIDS</w>":3390,"31</w>":3391,"Econ":3392,"Rw":3393,"Zim":3394,"asion</w>":3395,"dwide</w>":3396,"down":3397,"ldwide</w>":3398,"sl":3399,"safe":3400,"urch</w>":3401,"assistance</w>":3402,"training</w>":3403,"demanding</w>":3404,"host</w>":3405,"remar":3406,"victory</w>":3407,"Islamist</w>":3408,"Arabia</w>":3409,"targeted</w>":3410,"movement</w>":3411,"touri":3412,"appeared</w>":3413,"Mohammed</w>":3414,"ballo":3415,"Associated</w>":3416,"demonstrators</w>":3417,"humanitarian</w>":3418,"convicted</w>":3419,"28</w>":3420,"Ko":3421,"Rom":3422,"mag":3423,"ol</w>":3424,"rats</w>":3425,"rest":3426,"restric":3427,"ored</w>":3428,"agu":3429,"sets</w>":3430,"tog":3431,"annivers":3432,"ollar</w>":3433,"helicopter</w>":3434,"versial</w>":3435,"anniversary</w>":3436,"Chad</w>":3437,"Justice</w>":3438,"Vice</w>":3439,"Zar":3440,"bin</w>":3441,"ff</w>":3442,"session</w>":3443,"tle</w>":3444,"utive</w>":3445,"orders</w>":3446,"ald</w>":3447,"sion":3448,"sul</w>":3449,"governor</w>":3450,"cost</w>":3451,"Mosul</w>":3452,"controversial</w>":3453,"northwest</w>":3454,"Internet</w>":3455,"tribunal</w>":3456,"claims</w>":3457,"together</w>":3458,"Dan":3459,"Pr":3460,"Rev":3461,"au</w>":3462,"ev</w>":3463,"gan</w>":3464,"mar</w>":3465,"nec":3466,"scienti":3467,"ugh":3468,"ends</w>":3469,"atory</w>":3470,"icity</w>":3471,"ols</w>":3472,"unity</w>":3473,"ovo</w>":3474,"aging</w>":3475,"ocrats</w>":3476,"serious</w>":3477,"included</w>":3478,"offered</w>":3479,"phot":3480,"Commission</w>":3481,"Commun":3482,"criticism</w>":3483,"Democrats</w>":3484,"barrel</w>":3485,"Bosnian</w>":3486,"treatment</w>":3487,"mosque</w>":3488,"Zimbab":3489,"Ku":3490,"ath":3491,"dollar</w>":3492,"ek</w>":3493,"pil":3494,"err":3495,"reti":3496,"uni":3497,"ladi":3498,"never</w>":3499,"export</w>":3500,"ley</w>":3501,"trigg":3502,"demands</w>":3503,"boy":3504,"fav":3505,"range</w>":3506,"planes</w>":3507,"Mexican</w>":3508,"Interior</w>":3509,"better</w>":3510,"hurt</w>":3511,"90</w>":3512,"Hong</w>":3513,"IA</w>":3514,"fore":3515,"gent":3516,"hand</w>":3517,"sy</w>":3518,"oning</w>":3519,"once</w>":3520,"hap":3521,"rising</w>":3522,"play</w>":3523,"chers</w>":3524,"secret</w>":3525,"manu":3526,"effec":3527,"transi":3528,"toral</w>":3529,"ipel":3530,"missiles</w>":3531,"previous</w>":3532,"domestic</w>":3533,"Dut":3534,"ind":3535,"oms</w>":3536,"irates</w>":3537,"shel":3538,"questi":3539,"turing</w>":3540,"provided</w>":3541,"provincial</w>":3542,"peal</w>":3543,"utes</w>":3544,"clash</w>":3545,"nearby</w>":3546,"Canada</w>":3547,"Hariri</w>":3548,"previously</w>":3549,"technology</w>":3550,"Boli":3551,"personnel</w>":3552,"guilty</w>":3553,"families</w>":3554,"Ah":3555,"Kos":3556,"Med":3557,"her":3558,"mese</w>":3559,"sources</w>":3560,"tan":3561,"entered</w>":3562,"amid</w>":3563,"depu":3564,"trou":3565,"secretary</w>":3566,"worldwide</w>":3567,"event</w>":3568,"giving</w>":3569,"week":3570,"head":3571,"defic":3572,"largely</w>":3573,"Poland</w>":3574,"Burmese</w>":3575,"popular</w>":3576,"injuries</w>":3577,"northwestern</w>":3578,"match</w>":3579,"quarters</w>":3580,"ront</w>":3581,"combat</w>":3582,"focus</w>":3583,"Croati":3584,"Dutch</w>":3585,"Kosovo</w>":3586,"Cond":3587,"Kof":3588,"eting</w>":3589,"slow":3590,"ury</w>":3591,"unemployment</w>":3592,"sugg":3593,"chem":3594,"pot":3595,"polls</w>":3596,"resources</w>":3597,"ingly</w>":3598,"meters</w>":3599,"followed</w>":3600,"ordin":3601,"approval</w>":3602,"director</w>":3603,"dropped</w>":3604,"Cath":3605,"suffered</w>":3606,"points</w>":3607,"refugees</w>":3608,"broadcast</w>":3609,"tempor":3610,"check":3611,"crack":3612,"education</w>":3613,"period</w>":3614,"boycot":3615,"Cri":3616,"CIA</w>":3617,"Gh":3618,"bled</w>":3619,"hurricane</w>":3620,"ument</w>":3621,"times</w>":3622,"ication</w>":3623,"ications</w>":3624,"usal":3625,"owed</w>":3626,"abil":3627,"ocal</w>":3628,"perman":3629,"dering</w>":3630,"Argent":3631,"murder</w>":3632,"described</w>":3633,"manufac":3634,"Condol":3635,"Kofi</w>":3636,"ade":3637,"fla":3638,"mid</w>":3639,"nam</w>":3640,"pay":3641,"inspec":3642,"ick</w>":3643,"having</w>":3644,"rastructure</w>":3645,"opening</w>":3646,"abuse</w>":3647,"eez":3648,"ressed</w>":3649,"too</w>":3650,"weather</w>":3651,"antanam":3652,"Mao":3653,"create</w>":3654,"Guantanam":3655,"infrastructure</w>":3656,"raise</w>":3657,"boost</w>":3658,"Beir":3659,"demonstrations</w>":3660,"Republican</w>":3661,"crackdown</w>":3662,"Guantanamo</w>":3663,"Cali":3664,"Kong</w>":3665,"Tex":3666,"Tok":3667,"mas</w>":3668,"mental</w>":3669,"tiv":3670,"ateral</w>":3671,"ushed</w>":3672,"lades":3673,"whose</w>":3674,"find</w>":3675,"common</w>":3676,"disap":3677,"legislation</w>":3678,"traveling</w>":3679,"changes</w>":3680,"Jerusal":3681,"delegation</w>":3682,"Banglades":3683,"Philip":3684,"holiday</w>":3685,"staff</w>":3686,"Condoleez":3687,"Jerusalem</w>":3688,"Condoleezza</w>":3689,"cease</w>":3690,"nav":3691,"tour</w>":3692,"income</w>":3693,"alled</w>":3694,"saw</w>":3695,"attend</w>":3696,"every</w>":3697,"contact</w>":3698,"remote</w>":3699,"drew</w>":3700,"smugg":3701,"Serb</w>":3702,"Separ":3703,"Barack</w>":3704,"coup</w>":3705,"farm</w>":3706,"freedom</w>":3707,"controlled</w>":3708,"Ukrainian</w>":3709,"care</w>":3710,"ots</w>":3711,"rally</w>":3712,"erup":3713,"reduce</w>":3714,"encoura":3715,"ara</w>":3716,"ories</w>":3717,"labor</w>":3718,"nest":3719,"owl":3720,"shu</w>":3721,"quoted</w>":3722,"airo</w>":3723,"maker</w>":3724,"regim":3725,"complet":3726,"Senator</w>":3727,"southeastern</w>":3728,"vehicles</w>":3729,"Ethiopian</w>":3730,"Moroc":3731,"hostages</w>":3732,"Christian</w>":3733,"declined</w>":3734,"Cairo</w>":3735,"If</w>":3736,"iver</w>":3737,"forn":3738,"level":3739,"Three</w>":3740,"inces</w>":3741,"decade</w>":3742,"decided</w>":3743,"deton":3744,"Mogadi":3745,"airport</w>":3746,"going</w>":3747,"frequ":3748,"programs</w>":3749,"pope</w>":3750,"ittle</w>":3751,"diplomats</w>":3752,"Christ":3753,"hope</w>":3754,"sentenced</w>":3755,"Times</w>":3756,"migrants</w>":3757,"poverty</w>":3758,"Committee</w>":3759,"safety</w>":3760,"Zimbabwe</w>":3761,"Beirut</w>":3762,"Californ":3763,"Mogadishu</w>":3764,"16":3765,"Dav":3766,"Oce":3767,"Vik":3768,"clim":3769,"gri":3770,"hon":3771,"lin</w>":3772,"arly</w>":3773,"arch":3774,"raids</w>":3775,"rise</w>":3776,"ides</w>":3777,"comp":3778,"leans</w>":3779,"helping</w>":3780,"demanded</w>":3781,"doing</w>":3782,"dozens</w>":3783,"tensions</w>":3784,"dict":3785,"Orleans</w>":3786,"funds</w>":3787,"targets</w>":3788,"tourism</w>":3789,"direct</w>":3790,"settlement</w>":3791,"young</w>":3792,"significant</w>":3793,"deputy</w>":3794,"California</w>":3795,"HI":3796,"SA</w>":3797,"cour":3798,"send</w>":3799,"uty</w>":3800,"inside</w>":3801,"rap":3802,"und":3803,"ise</w>":3804,"kill":3805,"turn</w>":3806,"displaced</w>":3807,"vily</w>":3808,"voting</w>":3809,"deliver":3810,"champ":3811,"affected</w>":3812,"seek</w>":3813,"started</w>":3814,"concerned</w>":3815,"docum":3816,"Center</w>":3817,"projects</w>":3818,"challeng":3819,"Jordan</w>":3820,"Trade</w>":3821,"Robert</w>":3822,"Texas</w>":3823,"Ecu":3824,"Local</w>":3825,"Since</w>":3826,"avo":3827,"gren":3828,"little</w>":3829,"pra":3830,"scen":3831,"acqu":3832,"unit</w>":3833,"advis":3834,"expl":3835,"appeal</w>":3836,"evac":3837,"provinces</w>":3838,"protect</w>":3839,"fair</w>":3840,"tens</w>":3841,"crash</w>":3842,"consider</w>":3843,"electricity</w>":3844,"Lanka</w>":3845,"letter</w>":3846,"Vietnam</w>":3847,"Cathol":3848,"Philipp":3849,"Viktor</w>":3850,"Grou":3851,"Kir":3852,"Mas":3853,"Ra":3854,"Tony</w>":3855,"Vladi":3856,"ao</w>":3857,"goods</w>":3858,"hot":3859,"ti</w>":3860,"erous</w>":3861,"stability</w>":3862,"needs</w>":3863,"exc":3864,"tru":3865,"improve</w>":3866,"train</w>":3867,"paid</w>":3868,"disputed</w>":3869,"withdraw</w>":3870,"pursu":3871,"autonom":3872,"message</w>":3873,"Ano":3874,"Dep":3875,"cau":3876,"mitted</w>":3877,"tun":3878,"insi":3879,"resig":3880,"envoy</w>":3881,"orig":3882,"haz":3883,"urging</w>":3884,"aden</w>":3885,"abo":3886,"ource</w>":3887,"disrup":3888,"presence</w>":3889,"facing</w>":3890,"spokeswoman</w>":3891,"Maj":3892,"laws</w>":3893,"buildings</w>":3894,"scho":3895,"crew</w>":3896,"located</w>":3897,"morning</w>":3898,"project</w>":3899,"additional</w>":3900,"shooting</w>":3901,"Ocean</w>":3902,"Group</w>":3903,"Another</w>":3904,"Pea":3905,"cle</w>":3906,"review</w>":3907,"ones</w>":3908,"aling</w>":3909,"ead</w>":3910,"ack":3911,"ach</w>":3912,"adop":3913,"markets</w>":3914,"Most</w>":3915,"1995</w>":3916,"membership</w>":3917,"banned</w>":3918,"genoc":3919,"Atomic</w>":3920,"Revol":3921,"permanent</w>":3922,"Vladimir</w>":3923,"Ji":3924,"No":3925,"Red</w>":3926,"Sar":3927,"bar</w>":3928,"lov":3929,"mus":3930,"nings</w>":3931,"wr":3932,"inning</w>":3933,"refin":3934,"stations</w>":3935,"ili":3936,"sional</w>":3937,"diffic":3938,"strateg":3939,"worst</w>":3940,"field</w>":3941,"born</w>":3942,"utting</w>":3943,"heavily</w>":3944,"operating</w>":3945,"About</w>":3946,"bombers</w>":3947,"rockets</w>":3948,"supply</w>":3949,"mainly</w>":3950,"militia</w>":3951,"refugee</w>":3952,"stepped</w>":3953,"crossing</w>":3954,"fishing</w>":3955,"Tokyo</w>":3956,"regime</w>":3957,"genocide</w>":3958,"10":3959,"35</w>":3960,"Ak":3961,"Flor":3962,"Pac":3963,"front</w>":3964,"ground</w>":3965,"hy":3966,"iz</w>":3967,"mers</w>":3968,"public":3969,"sons</w>":3970,"tern":3971,"tings</w>":3972,"tourn":3973,"ves":3974,"votes</w>":3975,"tics</w>":3976,"aring</w>":3977,"standing</w>":3978,"atedly</w>":3979,"distri":3980,"promp":3981,"conserv":3982,"argo</w>":3983,"eph":3984,"Authority</w>":3985,"offices</w>":3986,"Repres":3987,"ponents</w>":3988,"organizations</w>":3989,"streets</w>":3990,"Fox</w>":3991,"Angel":3992,"Separately</w>":3993,"nesty</w>":3994,"distribu":3995,"17":3996,"Lab":3997,"PE":3998,"Vati":3999,"ith":4000,"might</w>":4001,"pipel":4002,"scal":4003,"replace</w>":4004,"enter</w>":4005,"tist</w>":4006,"ites</w>":4007,"poses</w>":4008,"reser":4009,"Under</w>":4010,"recor":4011,"firm</w>":4012,"formally</w>":4013,"author":4014,"mert</w>":4015,"links</w>":4016,"clos":4017,"upon</w>":4018,"communist</w>":4019,"resolve</w>":4020,"disaster</w>":4021,"mort":4022,"equip":4023,"Hundreds</w>":4024,"separatist</w>":4025,"sparked</w>":4026,"benef":4027,"remarks</w>":4028,"Vatican</w>":4029,"Sol":4030,"des</w>":4031,"gas":4032,"uk</w>":4033,"atch</w>":4034,"rains</w>":4035,"lif":4036,"Islands</w>":4037,"electoral</w>":4038,"invasion</w>":4039,"1991</w>":4040,"products</w>":4041,"result</w>":4042,"hospit":4043,"pointed</w>":4044,"Delhi</w>":4045,"short":4046,"agricultural</w>":4047,"repeatedly</w>":4048,"killings</w>":4049,"Pacific</w>":4050,"Do":4051,"Lati":4052,"Waz":4053,"justice</w>":4054,"mist":4055,"nar":4056,"squ":4057,"tain":4058,"stand</w>":4059,"race</w>":4060,"otball</w>":4061,"remov":4062,"commit":4063,"positive</w>":4064,"Olmert</w>":4065,"homel":4066,"quarter</w>":4067,"waters</w>":4068,"jail</w>":4069,"rescue</w>":4070,"Post</w>":4071,"history</w>":4072,"truck</w>":4073,"dismissed</w>":4074,"necess":4075,"Deputy</w>":4076,"29</w>":4077,"45</w>":4078,"adian</w>":4079,"cent":4080,"da</w>":4081,"filed</w>":4082,"ition</w>":4083,"lu":4084,"men":4085,"oing</w>":4086,"some":4087,"resigned</w>":4088,"aries</w>":4089,"stay</w>":4090,"unless</w>":4091,"live</w>":4092,"ounds</w>":4093,"conver":4094,"counter</w>":4095,"threats</w>":4096,"ubar":4097,"operate</w>":4098,"overe":4099,"carry</w>":4100,"prin":4101,"presidency</w>":4102,"greater</w>":4103,"target</w>":4104,"considered</w>":4105,"tax":4106,"Canadian</w>":4107,"Nigerian</w>":4108,"accident</w>":4109,"cleric</w>":4110,"Tamil</w>":4111,"Economic</w>":4112,"Christmas</w>":4113,"Ay":4114,"Laden</w>":4115,"Mac":4116,"Mov":4117,"anj":4118,"anim":4119,"erc":4120,"ata</w>":4121,"eled</w>":4122,"espre":4123,"ples</w>":4124,"ghout</w>":4125,"ported</w>":4126,"aliz":4127,"meetings</w>":4128,"dom</w>":4129,"ship":4130,"beginning</w>":4131,"social</w>":4132,"Haiti":4133,"employees</w>":4134,"experi":4135,"Elsewhere</w>":4136,"Abdullah</w>":4137,"erupted</w>":4138,"schools</w>":4139,"tournament</w>":4140,"Waziri":4141,"Cz":4142,"IM":4143,"iv":4144,"ik</w>":4145,"sf":4146,"tar":4147,"yal</w>":4148,"although</w>":4149,"spent</w>":4150,"app":4151,"apar":4152,"ques":4153,"disar":4154,"traffic":4155,"1990s</w>":4156,"continuing</w>":4157,"incidents</w>":4158,"northeastern</w>":4159,"Pervez</w>":4160,"towns</w>":4161,"limited</w>":4162,"militias</w>":4163,"flights</w>":4164,"Government</w>":4165,"deficit</w>":4166,"Florida</w>":4167,"espread</w>":4168,"Waziristan</w>":4169,"Mad":4170,"ka</w>":4171,"tin":4172,"uters</w>":4173,"analysts</w>":4174,"ague</w>":4175,"sequ":4176,"shut</w>":4177,"council</w>":4178,"ature</w>":4179,"preven":4180,"regions</w>":4181,"either</w>":4182,"brother</w>":4183,"credi":4184,"risk</w>":4185,"damaged</w>":4186,"George</w>":4187,"barrels</w>":4188,"widespread</w>":4189,"established</w>":4190,"Ramad":4191,"headquarters</w>":4192,"avoid</w>":4193,"resignation</w>":4194,"Peace</w>":4195,"scale</w>":4196,"necessary</w>":4197,"Air":4198,"Hu</w>":4199,"Ja":4200,"Mubar":4201,"Rum":4202,"blo":4203,"gran":4204,"writ":4205,"erful</w>":4206,"revi":4207,"plea":4208,"chick":4209,"porters</w>":4210,"bilateral</w>":4211,"1999</w>":4212,"powers</w>":4213,"looking</w>":4214,"upcoming</w>":4215,"Prosecut":4216,"driver</w>":4217,"Mohammad</w>":4218,"confidence</w>":4219,"Association</w>":4220,"Labor</w>":4221,"Movement</w>":4222,"Mubarak</w>":4223,"Don":4224,"Dam":4225,"Na":4226,"Uz":4227,"big":4228,"gest</w>":4229,"hum":4230,"kage</w>":4231,"nis</w>":4232,"sovere":4233,"vacc":4234,"leader":4235,"recovery</w>":4236,"surve":4237,"formal</w>":4238,"fif":4239,"trole":4240,"mining</w>":4241,"sending</w>":4242,"throughout</w>":4243,"knowl":4244,"objec":4245,"Ass":4246,"Fron":4247,"chairman</w>":4248,"diplomat</w>":4249,"study</w>":4250,"students</w>":4251,"accounts</w>":4252,"blew</w>":4253,"Singh</w>":4254,"deployed</w>":4255,"chemical</w>":4256,"checkpoint</w>":4257,"leadership</w>":4258,"knowled":4259,"AE":4260,"Er":4261,"Far":4262,"Oil</w>":4263,"Val":4264,"cross</w>":4265,"fear</w>":4266,"han</w>":4267,"ken</w>":4268,"sses</w>":4269,"wal":4270,"them":4271,"inde":4272,"eria</w>":4273,"ounding</w>":4274,"buy</w>":4275,"worth</w>":4276,"rich</w>":4277,"crime</w>":4278,"wife</w>":4279,"draft</w>":4280,"torture</w>":4281,"regist":4282,"kidnappers</w>":4283,"consumer</w>":4284,"played</w>":4285,"stopped</w>":4286,"housing</w>":4287,"Uzbe":4288,"Neth":4289,"aver":4290,"mi":4291,"pi":4292,"vey</w>":4293,"institu":4294,"erlands</w>":4295,"recomm":4296,"union</w>":4297,"produce</w>":4298,"sust":4299,"sea</w>":4300,"loss</w>":4301,"recession</w>":4302,"elect</w>":4303,"serve</w>":4304,"legally</w>":4305,"huge</w>":4306,"effect</w>":4307,"1998</w>":4308,"increasing</w>":4309,"developed</w>":4310,"Reuters</w>":4311,"child</w>":4312,"targeting</w>":4313,"Sea</w>":4314,"brief":4315,"Khan</w>":4316,"Bosnia</w>":4317,"Ivory</w>":4318,"girl</w>":4319,"strongh":4320,"potential</w>":4321,"PEC</w>":4322,"equipment</w>":4323,"sfeld</w>":4324,"Rumsfeld</w>":4325,"Assembly</w>":4326,"Netherlands</w>":4327,"32</w>":4328,"Jose</w>":4329,"dy":4330,"ex</w>":4331,"scor":4332,"source</w>":4333,"vors</w>":4334,"stock</w>":4335,"daily</w>":4336,"let</w>":4337,"providing</w>":4338,"costs</w>":4339,"accord</w>":4340,"Austri":4341,"Norway</w>":4342,"job</w>":4343,"powerful</w>":4344,"critical</w>":4345,"2011</w>":4346,"moving</w>":4347,"southwestern</w>":4348,"conducted</w>":4349,"League</w>":4350,"postpon":4351,"apparently</w>":4352,"Ahmed</w>":4353,"Maoist</w>":4354,"levels</w>":4355,"Ecuador</w>":4356,"Latin</w>":4357,"Ap":4358,"Hague</w>":4359,"Mali":4360,"Rec":4361,"fal":4362,"however</w>":4363,"nu":4364,"push</w>":4365,"agement</w>":4366,"sport</w>":4367,"abroad</w>":4368,"log":4369,"attrac":4370,"surr":4371,"committed</w>":4372,"panel</w>":4373,"arrests</w>":4374,"minent</w>":4375,"father</w>":4376,"ayed</w>":4377,"created</w>":4378,"winds</w>":4379,"southeast</w>":4380,"businesses</w>":4381,"Olympics</w>":4382,"scand":4383,"Ariel</w>":4384,"divided</w>":4385,"agriculture</w>":4386,"ograph":4387,"politicians</w>":4388,"triggered</w>":4389,"scene</w>":4390,"Aung</w>":4391,"Bu":4392,"Des":4393,"Federal</w>":4394,"Law":4395,"bo</w>":4396,"gy":4397,"ogue</w>":4398,"prac":4399,"pirates</w>":4400,"vowed</w>":4401,"ther":4402,"thous":4403,"renew":4404,"assi":4405,"sel</w>":4406,"edict</w>":4407,"Chil":4408,"worked</w>":4409,"headed</w>":4410,"agree</w>":4411,"wait</w>":4412,"visiting</w>":4413,"moved</w>":4414,"winner</w>":4415,"considering</w>":4416,"detonated</w>":4417,"troleum</w>":4418,"Fed":4419,"Food</w>":4420,"IAE":4421,"bra":4422,"cy":4423,"cea":4424,"cus</w>":4425,"ires</w>":4426,"kuk</w>":4427,"pun":4428,"qawi</w>":4429,"atures</w>":4430,"rob":4431,"best</w>":4432,"associ":4433,"exerc":4434,"rent</w>":4435,"plot</w>":4436,"present</w>":4437,"pace</w>":4438,"allowing</w>":4439,"hij":4440,"sharply</w>":4441,"dominated</w>":4442,"happen":4443,"Argentina</w>":4444,"Catholic</w>":4445,"Kirkuk</w>":4446,"Haitian</w>":4447,"thousand</w>":4448,"IAEA</w>":4449,"150</w>":4450,"Gar":4451,"SA":4452,"Uru":4453,"bit":4454,"band</w>":4455,"fer</w>":4456,"praised</w>":4457,"ica</w>":4458,"ece</w>":4459,"ecting</w>":4460,"eman</w>":4461,"light</w>":4462,"aband":4463,"Chen":4464,"attackers</w>":4465,"ores</w>":4466,"defend":4467,"built</w>":4468,"sels</w>":4469,"sites</w>":4470,"seat</w>":4471,"document</w>":4472,"hostage</w>":4473,"Belar":4474,"Micha":4475,"passengers</w>":4476,"Zarqawi</w>":4477,"errill":4478,"Bangladesh</w>":4479,"HIV</w>":4480,"evacu":4481,"origin":4482,"pipeline</w>":4483,"fifth</w>":4484,"400</w>":4485,"75</w>":4486,"Hol":4487,"Le":4488,"mit":4489,"pical</w>":4490,"rog":4491,"safe</w>":4492,"acas</w>":4493,"dist":4494,"unclear</w>":4495,"lef":4496,"guar":4497,"heads</w>":4498,"remaining</w>":4499,"Israelis</w>":4500,"ongoing</w>":4501,"Marines</w>":4502,"explosions</w>":4503,"subst":4504,"Caracas</w>":4505,"Benedict</w>":4506,"Tibet":4507,"insula</w>":4508,"ughter</w>":4509,"dictator</w>":4510,"IMF</w>":4511,"37</w>":4512,"Kim</w>":4513,"ba</w>":4514,"care":4515,"fis":4516,"gold</w>":4517,"get":4518,"ib</w>":4519,"nit":4520,"typ":4521,"usa":4522,"reb":4523,"onary</w>":4524,"oring</w>":4525,"ita</w>":4526,"dation</w>":4527,"lay</w>":4528,"ghtly</w>":4529,"amoun":4530,"exam":4531,"shore</w>":4532,"accept</w>":4533,"status</w>":4534,"agreements</w>":4535,"Abdu":4536,"reason</w>":4537,"holy</w>":4538,"discussed</w>":4539,"currency</w>":4540,"communities</w>":4541,"Peru</w>":4542,"villages</w>":4543,"Swed":4544,"inflation</w>":4545,"sentence</w>":4546,"Greek</w>":4547,"Malay":4548,"strengthen</w>":4549,"occupied</w>":4550,"devast":4551,"weekly</w>":4552,"Cheney</w>":4553,"AU</w>":4554,"Han":4555,"Rel":4556,"Sam":4557,"sem":4558,"slow</w>":4559,"wing</w>":4560,"onds</w>":4561,"alogue</w>":4562,"rad":4563,"ascus</w>":4564,"designed</w>":4565,"witnesses</w>":4566,"compar":4567,"commer":4568,"tering</w>":4569,"imports</w>":4570,"coordin":4571,"lowing</w>":4572,"All</w>":4573,"ancell":4574,"funding</w>":4575,"banks</w>":4576,"drop</w>":4577,"supporting</w>":4578,"People</w>":4579,"Liberation</w>":4580,"heart</w>":4581,"executive</w>":4582,"shortly</w>":4583,"escaped</w>":4584,"restrictions</w>":4585,"underg":4586,"Representatives</w>":4587,"Czech</w>":4588,"Damascus</w>":4589,"biggest</w>":4590,"happened</w>":4591,"ancellor</w>":4592,"Bay</w>":4593,"Cabinet</w>":4594,"Jal":4595,"fle":4596,"gian</w>":4597,"handed</w>":4598,"pati":4599,"table</w>":4600,"onia</w>":4601,"unidentified</w>":4602,"ised</w>":4603,"compu":4604,"resort</w>":4605,"giant</w>":4606,"threw</w>":4607,"peci":4608,"guerrill":4609,"suspic":4610,"bassy</w>":4611,"Alex":4612,"rown</w>":4613,"cuts</w>":4614,"completed</w>":4615,"halt</w>":4616,"funeral</w>":4617,"blasts</w>":4618,"maint":4619,"Military</w>":4620,"iversity</w>":4621,"helicopters</w>":4622,"crowd</w>":4623,"survivors</w>":4624,"criminal</w>":4625,"prosecutor</w>":4626,"prosecutors</w>":4627,"figures</w>":4628,"competi":4629,"Embassy</w>":4630,"dangerous</w>":4631,"documents</w>":4632,"fiscal</w>":4633,"Abdul</w>":4634,"55</w>":4635,"600</w>":4636,"La":4637,"Osa":4638,"Rang":4639,"az</w>":4640,"aying</w>":4641,"coc":4642,"eated</w>":4643,"gar":4644,"gged</w>":4645,"ko":4646,"mu":4647,"mot":4648,"na</w>":4649,"sn":4650,"tedly</w>":4651,"zen":4652,"ino</w>":4653,"reconstruction</w>":4654,"arily</w>":4655,"itation</w>":4656,"oline</w>":4657,"acy</w>":4658,"actions</w>":4659,"bet</w>":4660,"quick":4661,"ever":4662,"surren":4663,"194":4664,"guard</w>":4665,"observ":4666,"partn":4667,"fund</w>":4668,"affairs</w>":4669,"certain</w>":4670,"With</w>":4671,"Kyi</w>":4672,"failure</w>":4673,"breaks</w>":4674,"ARC</w>":4675,"counterpart</w>":4676,"troubled</w>":4677,"truce</w>":4678,"Michael</w>":4679,"Jan</w>":4680,"Slov":4681,"ey":4682,"fat":4683,"ph</w>":4684,"rgy":4685,"sof":4686,"these</w>":4687,"inion</w>":4688,"restor":4689,"tified</w>":4690,"stabil":4691,"dialogue</w>":4692,"ambus":4693,"destruction</w>":4694,"posted</w>":4695,"worker</w>":4696,"ota</w>":4697,"accusa":4698,"borders</w>":4699,"grade</w>":4700,"minority</w>":4701,"carto":4702,"positions</w>":4703,"ferred</w>":4704,"goal</w>":4705,"transpor":4706,"great</w>":4707,"involving</w>":4708,"ski</w>":4709,"conduct</w>":4710,"forec":4711,"Kyrgy":4712,"expect</w>":4713,"Communist</w>":4714,"David</w>":4715,"conservative</w>":4716,"quickly</w>":4717,"Hass":4718,"KK</w>":4719,"Omar</w>":4720,"PKK</w>":4721,"TA</w>":4722,"UN</w>":4723,"bol":4724,"bid</w>":4725,"fought</w>":4726,"sil":4727,"top":4728,"tation</w>":4729,"ych</w>":4730,"thy</w>":4731,"anced</w>":4732,"republic</w>":4733,"research</w>":4734,"ensure</w>":4735,"sters</w>":4736,"illegally</w>":4737,"uro</w>":4738,"emy</w>":4739,"ask</w>":4740,"bul":4741,"sectors</w>":4742,"Char":4743,"words</w>":4744,"ingdom</w>":4745,"sought</w>":4746,"izing</w>":4747,"serving</w>":4748,"decline</w>":4749,"severe</w>":4750,"marched</w>":4751,"cars</w>":4752,"interrog":4753,"1996</w>":4754,"takes</w>":4755,"selves</w>":4756,"subsi":4757,"assembly</w>":4758,"kidnapping</w>":4759,"deadline</w>":4760,"sky</w>":4761,"receive</w>":4762,"utionary</w>":4763,"tested</w>":4764,"succe":4765,"instead</w>":4766,"challen":4767,"industrial</w>":4768,"figure</w>":4769,"Jihad</w>":4770,"Maliki</w>":4771,"Osama</w>":4772,"FARC</w>":4773,"Scot":4774,"pushed</w>":4775,"tment</w>":4776,"rea</w>":4777,"proble":4778,"ows</w>":4779,"sefire</w>":4780,"approve</w>":4781,"akh":4782,"losses</w>":4783,"terms</w>":4784,"officially</w>":4785,"recru":4786,"events</w>":4787,"mail</w>":4788,"tures</w>":4789,"Polish</w>":4790,"lawyer</w>":4791,"pass</w>":4792,"When</w>":4793,"Suu</w>":4794,"maintain</w>":4795,"indicted</w>":4796,"threatening</w>":4797,"purcha":4798,"Kenyan</w>":4799,"suffering</w>":4800,"migration</w>":4801,"Accor":4802,"extended</w>":4803,"scientists</w>":4804,"Croatia</w>":4805,"complete</w>":4806,"compound</w>":4807,"gasoline</w>":4808,"Donald</w>":4809,"humans</w>":4810,"ceasefire</w>":4811,"problem</w>":4812,"36</w>":4813,"BC</w>":4814,"Dev":4815,"Hos":4816,"Por":4817,"TV</w>":4818,"Tay":4819,"With":4820,"bers</w>":4821,"ja</w>":4822,"jun":4823,"prec":4824,"tes</w>":4825,"your</w>":4826,"zer":4827,"ink</w>":4828,"alism</w>":4829,"atomic</w>":4830,"elled</w>":4831,"acknowled":4832,"prominent</w>":4833,"assu":4834,"spon":4835,"mod":4836,"accuses</w>":4837,"factions</w>":4838,"follows</w>":4839,"delay</w>":4840,"rules</w>":4841,"causing</w>":4842,"Reports</w>":4843,"Agricul":4844,"drugs</w>":4845,"investors</w>":4846,"believes</w>":4847,"nationwide</w>":4848,"widely</w>":4849,"igners</w>":4850,"preparing</w>":4851,"Ugandan</w>":4852,"Prince</w>":4853,"autonomy</w>":4854,"Prosecutors</w>":4855,"leftist</w>":4856,"Cross</w>":4857,"Fol":4858,"Khar":4859,"Mel":4860,"Ne":4861,"UK</w>":4862,"bat":4863,"mal":4864,"mit</w>":4865,"rs</w>":4866,"rang":4867,"sold</w>":4868,"tons</w>":4869,"itself</w>":4870,"atell":4871,"oming</w>":4872,"und</w>":4873,"prom":4874,"promo":4875,"abani</w>":4876,"immigrants</w>":4877,"Those</w>":4878,"reportedly</w>":4879,"ouri</w>":4880,"forming</w>":4881,"authority</w>":4882,"accuse</w>":4883,"boat</w>":4884,"overall</w>":4885,"defeated</w>":4886,"1994</w>":4887,"Talabani</w>":4888,"highly</w>":4889,"showing</w>":4890,"attempts</w>":4891,"particul":4892,"flooding</w>":4893,"treaty</w>":4894,"speaking</w>":4895,"ignty</w>":4896,"tradition</w>":4897,"Uganda</w>":4898,"longer</w>":4899,"strongly</w>":4900,"questioned</w>":4901,"Bolivia</w>":4902,"naval</w>":4903,"champion</w>":4904,"challenges</w>":4905,"bloc</w>":4906,"sovereignty</w>":4907,"Sweden</w>":4908,"Hassan</w>":4909,"14":4910,"Cy":4911,"Den":4912,"Gen":4913,"Other</w>":4914,"Pent":4915,"bad</w>":4916,"sen</w>":4917,"ically</w>":4918,"elop":4919,"especi":4920,"emis":4921,"labor":4922,"prosec":4923,"opposed</w>":4924,"opport":4925,"cher</w>":4926,"church</w>":4927,"appointed</w>":4928,"shing</w>":4929,"nothing</w>":4930,"inging</w>":4931,"entative</w>":4932,"epted</w>":4933,"inten":4934,"fire":4935,"prep":4936,"som</w>":4937,"1990</w>":4938,"makes</w>":4939,"resumed</w>":4940,"dependent</w>":4941,"producing</w>":4942,"indicate</w>":4943,"asters</w>":4944,"estimates</w>":4945,"value</w>":4946,"steps</w>":4947,"determine</w>":4948,"cancer</w>":4949,"Tibet</w>":4950,"addition</w>":4951,"Rwanda</w>":4952,"restore</w>":4953,"difficult</w>":4954,"chickens</w>":4955,"Develop":4956,"particularly</w>":4957,"especially</w>":4958,"34</w>":4959,"Games</w>":4960,"Kaz":4961,"Khal":4962,"Mi":4963,"Vic":4964,"cir":4965,"cents</w>":4966,"covered</w>":4967,"kos</w>":4968,"rated</w>":4969,"spl":4970,"ur</w>":4971,"upri":4972,"xim":4973,"ys":4974,"ander</w>":4975,"real</w>":4976,"stable</w>":4977,"raided</w>":4978,"olese</w>":4979,"proce":4980,"amil":4981,"agon</w>":4982,"aint</w>":4983,"Chile</w>":4984,"moder":4985,"intended</w>":4986,"internal</w>":4987,"boy</w>":4988,"below</w>":4989,"lawyers</w>":4990,"Parliam":4991,"ransom</w>":4992,"denoun":4993,"avail":4994,"crashed</w>":4995,"Serbian</w>":4996,"1989</w>":4997,"doctors</w>":4998,"nationals</w>":4999,"hearing</w>":5000,"Brazil":5001,"Ambassador</w>":5002,"Amnesty</w>":5003,"account</w>":5004,"divid":5005,"changed</w>":5006,"film</w>":5007,"Opposition</w>":5008,"Fidel</w>":5009,"revenue</w>":5010,"extremists</w>":5011,"tourists</w>":5012,"foreigners</w>":5013,"boycott</w>":5014,"Morocco</w>":5015,"delivery</w>":5016,"caught</w>":5017,"Major</w>":5018,"themselves</w>":5019,"stronghold</w>":5020,"Despite</w>":5021,"spons":5022,"Pentagon</w>":5023,"Br":5024,"Bill</w>":5025,"Jean</w>":5026,"Lat":5027,"OPEC</w>":5028,"Tri":5029,"Yanu":5030,"cru":5031,"cover":5032,"din":5033,"dor":5034,"gain</w>":5035,"ier</w>":5036,"ler</w>":5037,"ssi":5038,"satell":5039,"tarian</w>":5040,"erve</w>":5041,"ito</w>":5042,"sam":5043,"proper":5044,"sidents</w>":5045,"extra":5046,"impact</w>":5047,"secure</w>":5048,"coast":5049,"gram</w>":5050,"faced</w>":5051,"defeat</w>":5052,"cash</w>":5053,"runs</w>":5054,"territories</w>":5055,"neighborhood</w>":5056,"coll":5057,"jailed</w>":5058,"determin":5059,"failing</w>":5060,"expand</w>":5061,"double</w>":5062,"kovych</w>":5063,"temporarily</w>":5064,"Revolutionary</w>":5065,"scored</w>":5066,"postponed</w>":5067,"hijac":5068,"Without</w>":5069,"promote</w>":5070,"Development</w>":5071,"700</w>":5072,"Da":5073,"For</w>":5074,"Min":5075,"NA</w>":5076,"River</w>":5077,"Sur":5078,"Tig":5079,"WH":5080,"dered</w>":5081,"games</w>":5082,"kel</w>":5083,"oa</w>":5084,"ty":5085,"erian</w>":5086,"refl":5087,"star</w>":5088,"olo":5089,"essing</w>":5090,"forward</w>":5091,"sex":5092,"vic</w>":5093,"overnight</w>":5094,"immigration</w>":5095,"sectarian</w>":5096,"The":5097,"eva</w>":5098,"ization</w>":5099,"stide</w>":5100,"norm":5101,"newly</w>":5102,"protection</w>":5103,"Alg":5104,"may":5105,"phet</w>":5106,"returning</w>":5107,"black</w>":5108,"Serbia</w>":5109,"appears</w>":5110,"towards</w>":5111,"burg</w>":5112,"Force</w>":5113,"floods</w>":5114,"contract</w>":5115,"Aristide</w>":5116,"canceled</w>":5117,"Vienn":5118,"single</w>":5119,"houses</w>":5120,"struggle</w>":5121,"reduced</w>":5122,"implem":5123,"Merkel</w>":5124,"collapse</w>":5125,"ballots</w>":5126,"disappe":5127,"taxes</w>":5128,"granted</w>":5129,"pleaded</w>":5130,"music</w>":5131,"motor":5132,"Following</w>":5133,"Vienna</w>":5134,"38</w>":5135,"AL":5136,"Ace":5137,"FP</w>":5138,"Hav":5139,"Jam":5140,"Kha":5141,"aj":5142,"iously</w>":5143,"wealth</w>":5144,"zy</w>":5145,"throw</w>":5146,"thought</w>":5147,"unrest</w>":5148,"ovina</w>":5149,"bean</w>":5150,"congres":5151,"assets</w>":5152,"opponents</w>":5153,"exile</w>":5154,"reporting</w>":5155,"mand":5156,"mission":5157,"umb":5158,"continent</w>":5159,"larger</w>":5160,"gosla":5161,"etary</w>":5162,"Carib":5163,"assault</w>":5164,"package</w>":5165,"block</w>":5166,"Yugosla":5167,"Cambo":5168,"revenues</w>":5169,"successful</w>":5170,"blood</w>":5171,"bringing</w>":5172,"material</w>":5173,"favor</w>":5174,"manufacturing</w>":5175,"centers</w>":5176,"average</w>":5177,"devastated</w>":5178,"commercial</w>":5179,"Yanukovych</w>":5180,"WHO</w>":5181,"Air</w>":5182,"Bak":5183,"Borders</w>":5184,"Erit":5185,"Fran":5186,"Fall":5187,"Feb</w>":5188,"High</w>":5189,"Mis":5190,"To":5191,"ials</w>":5192,"smo":5193,"zone</w>":5194,"insur":5195,"reconc":5196,"sta</w>":5197,"alities</w>":5198,"ich":5199,"sad</w>":5200,"riot</w>":5201,"liest</w>":5202,"apers</w>":5203,"tra</w>":5204,"Chancellor</w>":5205,"Inv":5206,"surge</w>":5207,"means</w>":5208,"finding</w>":5209,"violations</w>":5210,"output</w>":5211,"withdrew</w>":5212,"follow</w>":5213,"pre</w>":5214,"active</w>":5215,"delayed</w>":5216,"investigate</w>":5217,"Intelligence</w>":5218,"Prov":5219,"Program</w>":5220,"allied</w>":5221,"roads</w>":5222,"matter</w>":5223,"achiev":5224,"debate</w>":5225,"Mohamed</w>":5226,"ological</w>":5227,"representatives</w>":5228,"legislative</w>":5229,"multi":5230,"street</w>":5231,"Yukos</w>":5232,"expects</w>":5233,"Viol":5234,"recognize</w>":5235,"England</w>":5236,"Danish</w>":5237,"smuggling</w>":5238,"climate</w>":5239,"adopted</w>":5240,"appear</w>":5241,"scandal</w>":5242,"available</w>":5243,"Aceh</w>":5244,"Caribbean</w>":5245,"Fund</w>":5246,"Jak":5247,"Year</w>":5248,"beat</w>":5249,"cell</w>":5250,"jan</w>":5251,"va</w>":5252,"yan":5253,"orial</w>":5254,"oul</w>":5255,"allah</w>":5256,"acity</w>":5257,"spir":5258,"forcing</w>":5259,"set":5260,"attended</w>":5261,"attending</w>":5262,"earing</w>":5263,"recovered</w>":5264,"cooperate</w>":5265,"remained</w>":5266,"signs</w>":5267,"marked</w>":5268,"surgery</w>":5269,"freez":5270,"tennis</w>":5271,"increasingly</w>":5272,"producer</w>":5273,"donors</w>":5274,"holds</w>":5275,"wave</w>":5276,"teams</w>":5277,"resulted</w>":5278,"raising</w>":5279,"toum</w>":5280,"videot":5281,"shares</w>":5282,"football</w>":5283,"willing</w>":5284,"reserves</w>":5285,"removed</w>":5286,"credit</w>":5287,"Tibetan</w>":5288,"ambushed</w>":5289,"Khartoum</w>":5290,"ologi":5291,"52</w>":5292,"AN</w>":5293,"Bro":5294,"El</w>":5295,"Gr":5296,"Jaz":5297,"Mot":5298,"Nav":5299,"Zeal":5300,"data</w>":5301,"eera</w>":5302,"game</w>":5303,"kh</w>":5304,"sman</w>":5305,"sell</w>":5306,"sale</w>":5307,"inated</w>":5308,"tin</w>":5309,"ham":5310,"acted</w>":5311,"emale</w>":5312,"dest</w>":5313,"deals</w>":5314,"oppose</w>":5315,"agents</w>":5316,"exist":5317,"abuses</w>":5318,"shut":5319,"paramil":5320,"attention</w>":5321,"rus</w>":5322,"capacity</w>":5323,"presented</w>":5324,"finance</w>":5325,"marks</w>":5326,"Although</w>":5327,"miners</w>":5328,"minutes</w>":5329,"camps</w>":5330,"overwh":5331,"Shei":5332,"NASA</w>":5333,"offering</w>":5334,"victim</w>":5335,"drove</w>":5336,"receiving</w>":5337,"Rodri":5338,"Muha":5339,"settlers</w>":5340,"deployment</w>":5341,"environmental</w>":5342,"Roman</w>":5343,"institutions</w>":5344,"briefly</w>":5345,"renewed</w>":5346,"substanti":5347,"compared</w>":5348,"Agriculture</w>":5349,"uprising</w>":5350,"Parliament</w>":5351,"Brazilian</w>":5352,"Falluj":5353,"Zealand</w>":5354,"Du":5355,"Los</w>":5356,"Mar</w>":5357,"Offic":5358,"Pan":5359,"ail</w>":5360,"avian</w>":5361,"blam":5362,"festi":5363,"ge":5364,"jum":5365,"mid":5366,"pping</w>":5367,"yi":5368,"enting</w>":5369,"tion":5370,"tiff</w>":5371,"ils</w>":5372,"ham</w>":5373,"sab</w>":5374,"unknown</w>":5375,"opinion</w>":5376,"seeded</w>":5377,"admitted</w>":5378,"Stra":5379,"evening</w>":5380,"contain</w>":5381,"survey</w>":5382,"intro":5383,"accusing</w>":5384,"seriously</w>":5385,"meter</w>":5386,"finished</w>":5387,"Alli":5388,"responded</w>":5389,"torn</w>":5390,"grew</w>":5391,"reading</w>":5392,"endor":5393,"treated</w>":5394,"Kurds</w>":5395,"driven</w>":5396,"neighb":5397,"winning</w>":5398,"engine":5399,"1980s</w>":5400,"organized</w>":5401,"Morales</w>":5402,"slightly</w>":5403,"sharing</w>":5404,"Christians</w>":5405,"nomination</w>":5406,"survived</w>":5407,"repeated</w>":5408,"histor":5409,"anyone</w>":5410,"differences</w>":5411,"pilgri":5412,"above</w>":5413,"strategy</w>":5414,"vessel</w>":5415,"prompted</w>":5416,"Jazeera</w>":5417,"65</w>":5418,"Ehu":5419,"Sil":5420,"Wea":5421,"ays</w>":5422,"bot":5423,"eh</w>":5424,"tex":5425,"xed</w>":5426,"rely</w>":5427,"refu":5428,"aragu":5429,"story</w>":5430,"iter":5431,"eal</w>":5432,"elim":5433,"ole</w>":5434,"die</w>":5435,"aggres":5436,"firing</w>":5437,"Insurg":5438,"moon</w>":5439,"entire</w>":5440,"predic":5441,"stating</w>":5442,"outbreaks</w>":5443,"1997</w>":5444,"antly</w>":5445,"phone</w>":5446,"investigators</w>":5447,"visits</w>":5448,"deadliest</w>":5449,"Seneg":5450,"winter</w>":5451,"kilometer</w>":5452,"banking</w>":5453,"achi</w>":5454,"villagers</w>":5455,"Georgian</w>":5456,"extend</w>":5457,"battling</w>":5458,"centuries</w>":5459,"blocked</w>":5460,"ification</w>":5461,"Delta</w>":5462,"traveled</w>":5463,"establish</w>":5464,"broadca":5465,"strength":5466,"monitors</w>":5467,"separatists</w>":5468,"Aziz</w>":5469,"improved</w>":5470,"iracy</w>":5471,"Nicaragu":5472,"collapsed</w>":5473,"Rafik</w>":5474,"different</w>":5475,"effective</w>":5476,"Nobel</w>":5477,"Angeles</w>":5478,"defendants</w>":5479,"accusations</w>":5480,"moderate</w>":5481,"Ehud</w>":5482,"33</w>":5483,"Ho":5484,"Kath":5485,"Lah":5486,"Naz":5487,"Pra":5488,"Tog":5489,"dh":5490,"fi</w>":5491,"know</w>":5492,"lac":5493,"mation</w>":5494,"mud":5495,"un</w>":5496,"web":5497,"arta</w>":5498,"roed":5499,"river</w>":5500,"plot":5501,"lifer":5502,"owell</w>":5503,"chance</w>":5504,"abor":5505,"fficient</w>":5506,"lear":5507,"secret":5508,"event":5509,"audi":5510,"uten":5511,"Analysts</w>":5512,"dozen</w>":5513,"begins</w>":5514,"Maur":5515,"shoot":5516,"While</w>":5517,"enda</w>":5518,"illance</w>":5519,"northeast</w>":5520,"Service</w>":5521,"Karachi</w>":5522,"burned</w>":5523,"Forces</w>":5524,"pontiff</w>":5525,"slides</w>":5526,"Balu":5527,"flight</w>":5528,"standards</w>":5529,"teen":5530,"struggling</w>":5531,"magnit":5532,"Kuwait</w>":5533,"trafficking</w>":5534,"surveillance</w>":5535,"Front</w>":5536,"brahim</w>":5537,"Jakarta</w>":5538,"Fallujah</w>":5539,"07</w>":5540,"53</w>":5541,"800</w>":5542,"Ibrahim</w>":5543,"Pat":5544,"Tor":5545,"Watch</w>":5546,"cover</w>":5547,"foun":5548,"female</w>":5549,"ro</w>":5550,"rin":5551,"ston</w>":5552,"stressed</w>":5553,"itors</w>":5554,"riots</w>":5555,"ova</w>":5556,"appl":5557,"posing</w>":5558,"after":5559,"mong</w>":5560,"sured</w>":5561,"alize</w>":5562,"flee":5563,"body":5564,"decide</w>":5565,"belong":5566,"heading</w>":5567,"Anbar</w>":5568,"azine</w>":5569,"bases</w>":5570,"lawed</w>":5571,"protesting</w>":5572,"policeman</w>":5573,"critics</w>":5574,"developments</w>":5575,"posals</w>":5576,"conflic":5577,"searching</w>":5578,"suspend</w>":5579,"Thai</w>":5580,"conducting</w>":5581,"gathering</w>":5582,"autom":5583,"McC":5584,"environment</w>":5585,"lantic</w>":5586,"influence</w>":5587,"tourist</w>":5588,"adequ":5589,"archy</w>":5590,"hotel</w>":5591,"patients</w>":5592,"According</w>":5593,"Havana</w>":5594,"Insurgents</w>":5595,"magnitude</w>":5596,"Bern":5597,"Goo":5598,"He":5599,"Her</w>":5600,"Mik":5601,"Swit":5602,"Serg":5603,"apor":5604,"eing</w>":5605,"fast</w>":5606,"nor</w>":5607,"soil</w>":5608,"individ":5609,"reat":5610,"rever":5611,"reau</w>":5612,"enjo":5613,"arity</w>":5614,"ster":5615,"stage</w>":5616,"staged</w>":5617,"riv":5618,"atively</w>":5619,"unar</w>":5620,"asy":5621,"isol":5622,"deep</w>":5623,"neg":5624,"expen":5625,"Chira":5626,"Church</w>":5627,"word</w>":5628,"flying</w>":5629,"meant</w>":5630,"fighter</w>":5631,"clashed</w>":5632,"retali":5633,"awa":5634,"straight</w>":5635,"passing</w>":5636,"Jun</w>":5637,"seeing</w>":5638,"prisoner</w>":5639,"clu":5640,"risen</w>":5641,"pulled</w>":5642,"Hung":5643,"Schroed":5644,"Singapor":5645,"traditional</w>":5646,"stronau":5647,"materials</w>":5648,"Austria</w>":5649,"radical</w>":5650,"zerland</w>":5651,"Violence</w>":5652,"Baluch":5653,"Switzerland</w>":5654,"Chirac</w>":5655,"Schroeder</w>":5656,"Singapore</w>":5657,"Dis":5658,"Pre":5659,"Tel":5660,"War":5661,"ap</w>":5662,"bing</w>":5663,"bes</w>":5664,"euro</w>":5665,"fel":5666,"fat</w>":5667,"fish</w>":5668,"isi":5669,"sonal</w>":5670,"snow</w>":5671,"wn</w>":5672,"rement</w>":5673,"revol":5674,"onel</w>":5675,"ects</w>":5676,"elsewhere</w>":5677,"acts</w>":5678,"proposals</w>":5679,"iro</w>":5680,"amend":5681,"aded</w>":5682,"compen":5683,"imprison":5684,"earnings</w>":5685,"entation</w>":5686,"umi</w>":5687,"hosti":5688,"signing</w>":5689,"marking</w>":5690,"South":5691,"defend</w>":5692,"respond</w>":5693,"lawi</w>":5694,"conclud":5695,"controls</w>":5696,"phys":5697,"presidents</w>":5698,"partner</w>":5699,"Reporters</w>":5700,"driving</w>":5701,"negotiators</w>":5702,"allows</w>":5703,"Atlantic</w>":5704,"Musab</w>":5705,"promise</w>":5706,"transferred</w>":5707,"prepared</w>":5708,"escape</w>":5709,"track</w>":5710,"Rwandan</w>":5711,"photograph":5712,"grenade</w>":5713,"benefits</w>":5714,"commitment</w>":5715,"question</w>":5716,"falling</w>":5717,"getting</w>":5718,"Malaysia</w>":5719,"every":5720,"Kazakh":5721,"mayor</w>":5722,"introduc":5723,"neighbors</w>":5724,"pilgrims</w>":5725,"secretly</w>":5726,"McCain</w>":5727,"Bul":5728,"Doc":5729,"Jud":5730,"Mug":5731,"Spec":5732,"Space</w>":5733,"Yemen</w>":5734,"bea":5735,"bly</w>":5736,"cutting</w>":5737,"done</w>":5738,"ety</w>":5739,"ga</w>":5740,"gained</w>":5741,"here</w>":5742,"mut":5743,"memor":5744,"ner":5745,"sal":5746,"testi":5747,"tape</w>":5748,"zstan</w>":5749,"eni</w>":5750,"itor</w>":5751,"rather</w>":5752,"dar</w>":5753,"daughter</w>":5754,"escal":5755,"asking</w>":5756,"forman":5757,"poration</w>":5758,"shown</w>":5759,"eding</w>":5760,"works</w>":5761,"provides</w>":5762,"capture</w>":5763,"hoon</w>":5764,"faction</w>":5765,"wars</w>":5766,"wards</w>":5767,"Allawi</w>":5768,"interests</w>":5769,"dogan</w>":5770,"Brig":5771,"lawmaker</w>":5772,"look</w>":5773,"transport</w>":5774,"Congolese</w>":5775,"subsequ":5776,"stormed</w>":5777,"Earth</w>":5778,"sistant</w>":5779,"drive</w>":5780,"starting</w>":5781,"requested</w>":5782,"buried</w>":5783,"seas</w>":5784,"farmers</w>":5785,"Peter</w>":5786,"player</w>":5787,"crowded</w>":5788,"Jordanian</w>":5789,"Lankan</w>":5790,"sports</w>":5791,"various</w>":5792,"langu":5793,"iliation</w>":5794,"lifted</w>":5795,"Erdogan</w>":5796,"Apr</w>":5797,"amount</w>":5798,"Kyrgyzstan</w>":5799,"Cypri":5800,"determined</w>":5801,"insurance</w>":5802,"Muhammad</w>":5803,"liferation</w>":5804,"Southeast</w>":5805,"64</w>":5806,"Aq":5807,"Cyp":5808,"Hor":5809,"Lou":5810,"Sum":5811,"Uri":5812,"astating</w>":5813,"cat":5814,"eed</w>":5815,"fed":5816,"hib":5817,"hiding</w>":5818,"ior":5819,"ll":5820,"mach":5821,"than":5822,"ero</w>":5823,"ari":5824,"art</w>":5825,"arance</w>":5826,"ona</w>":5827,"sation</w>":5828,"raib</w>":5829,"ola</w>":5830,"essed</w>":5831,"pled</w>":5832,"plun":5833,"iss</w>":5834,"aki</w>":5835,"views</w>":5836,"attor":5837,"pois":5838,"poore":5839,"embers</w>":5840,"monarchy</w>":5841,"Afghans</w>":5842,"prisons</w>":5843,"accor":5844,"veter":5845,"mines</w>":5846,"reasury</w>":5847,"1993</w>":5848,"got</w>":5849,"Workers</w>":5850,"ancing</w>":5851,"produced</w>":5852,"selling</w>":5853,"subjec":5854,"reach":5855,"teleph":5856,"greement</w>":5857,"aller</w>":5858,"appealed</w>":5859,"directly</w>":5860,"Seoul</w>":5861,"resolved</w>":5862,"Swiss</w>":5863,"hide":5864,"multi</w>":5865,"Luis</w>":5866,"initial</w>":5867,"Five</w>":5868,"crossed</w>":5869,"devastating</w>":5870,"expansion</w>":5871,"Salv":5872,"Ghraib</w>":5873,"payments</w>":5874,"Philippine</w>":5875,"insists</w>":5876,"closely</w>":5877,"Jalal</w>":5878,"cartoons</w>":5879,"satellite</w>":5880,"disappeared</w>":5881,"reconciliation</w>":5882,"plotting</w>":5883,"Baluchistan</w>":5884,"Kazakhstan</w>":5885,"Cyprus</w>":5886,"15":5887,"250</w>":5888,"AN":5889,"Ash":5890,"Among</w>":5891,"Domin":5892,"James</w>":5893,"Pen":5894,"Sin":5895,"Sup":5896,"fication</w>":5897,"gle</w>":5898,"hus":5899,"ion":5900,"kingdom</w>":5901,"tho":5902,"thir":5903,"erb":5904,"tis":5905,"outh</w>":5906,"stalled</w>":5907,"itting</w>":5908,"alty</w>":5909,"uri</w>":5910,"rations</w>":5911,"lish</w>":5912,"why</w>":5913,"whom</w>":5914,"department</w>":5915,"abe</w>":5916,"shr":5917,"twice</w>":5918,"los</w>":5919,"eep</w>":5920,"noted</w>":5921,"itions</w>":5922,"ule</w>":5923,"restive</w>":5924,"incenti":5925,"coal</w>":5926,"19th</w>":5927,"merous</w>":5928,"ussions</w>":5929,"peninsula</w>":5930,"minute</w>":5931,"gang</w>":5932,"ranch</w>":5933,"relation":5934,"Arafat</w>":5935,"specul":5936,"Assad</w>":5937,"confirm</w>":5938,"Prophet</w>":5939,"blame</w>":5940,"negotiator</w>":5941,"supported</w>":5942,"Milit":5943,"swept</w>":5944,"Luk":5945,"advoc":5946,"Basra</w>":5947,"monitor</w>":5948,"improving</w>":5949,"ambush</w>":5950,"retired</w>":5951,"Critics</w>":5952,"Philippines</w>":5953,"Maced":5954,"Valley</w>":5955,"index</w>":5956,"Belarus</w>":5957,"Rangoon</w>":5958,"observers</w>":5959,"Portu":5960,"Denmark</w>":5961,"Geneva</w>":5962,"split</w>":5963,"coastal</w>":5964,"Tiger</w>":5965,"Rodrigu":5966,"adequate</w>":5967,"Uribe</w>":5968,"120</w>":5969,"85</w>":5970,"Brown</w>":5971,"Free</w>":5972,"Fuj":5973,"Lo":5974,"Members</w>":5975,"Pa":5976,"Pin":5977,"fate</w>":5978,"jus":5979,"jets</w>":5980,"lum</w>":5981,"mates</w>":5982,"paper</w>":5983,"zing</w>":5984,"tile</w>":5985,"stands</w>":5986,"alle":5987,"ries</w>":5988,"elds</w>":5989,"acting</w>":5990,"usually</w>":5991,"choo":5992,"porting</w>":5993,"impose</w>":5994,"count</w>":5995,"polling</w>":5996,"Chief</w>":5997,"reporter</w>":5998,"mother</w>":5999,"disman":6000,"dissol":6001,"management</w>":6002,"aug":6003,"factory</w>":6004,"ares</w>":6005,"Marine</w>":6006,"aired</w>":6007,"places</w>":6008,"defended</w>":6009,"deliv":6010,"numbers</w>":6011,"smaller</w>":6012,"hunger</w>":6013,"illa</w>":6014,"brief</w>":6015,"heard</w>":6016,"transfer</w>":6017,"pledge</w>":6018,"pull":6019,"humanity</w>":6020,"temper":6021,"stronger</w>":6022,"passenger</w>":6023,"English</w>":6024,"suggested</w>":6025,"frequent</w>":6026,"Sarko":6027,"homeless</w>":6028,"numerous</w>":6029,"guerrillas</w>":6030,"shuttle</w>":6031,"Sheikh</w>":6032,"website</w>":6033,"Sarkozy</w>":6034,"AS":6035,"Bud":6036,"Cal":6037,"Jint":6038,"Nearly</w>":6039,"Nouri</w>":6040,"Port</w>":6041,"Powell</w>":6042,"Rome</w>":6043,"Web</w>":6044,"aide</w>":6045,"dge</w>":6046,"ein</w>":6047,"eve</w>":6048,"eum</w>":6049,"ha</w>":6050,"kept</w>":6051,"mary</w>":6052,"ose":6053,"pings</w>":6054,"uk":6055,"inqu":6056,"rebuild</w>":6057,"resign</w>":6058,"onies</w>":6059,"altern":6060,"eas":6061,"rid</w>":6062,"eland</w>":6063,"elines</w>":6064,"ussels</w>":6065,"playing</w>":6066,"ffic</w>":6067,"prop":6068,"prom</w>":6069,"design":6070,"ager</w>":6071,"spying</w>":6072,"edy</w>":6073,"quit</w>":6074,"Chen</w>":6075,"embargo</w>":6076,"surpri":6077,"rub":6078,"izumi</w>":6079,"accepted</w>":6080,"crip":6081,"stit":6082,"grave</w>":6083,"command</w>":6084,"becoming</w>":6085,"interior</w>":6086,"Gazprom</w>":6087,"offshore</w>":6088,"injury</w>":6089,"moves</w>":6090,"proced":6091,"back":6092,"backing</w>":6093,"systems</w>":6094,"Cooperation</w>":6095,"runoff</w>":6096,"Election</w>":6097,"volun":6098,"participate</w>":6099,"welcom":6100,"Koizumi</w>":6101,"temporary</w>":6102,"distribution</w>":6103,"shortages</w>":6104,"Alexander</w>":6105,"acknowledged</w>":6106,"Brussels</w>":6107,"mandu</w>":6108,"missioner</w>":6109,"setting</w>":6110,"videotape</w>":6111,"Office</w>":6112,"Kathmandu</w>":6113,"utenant</w>":6114,"Mugabe</w>":6115,"incentives</w>":6116,"Rodriguez</w>":6117,"augur":6118,"delivered</w>":6119,"Jintao</w>":6120,"0th</w>":6121,"57</w>":6122,"59</w>":6123,"Dj":6124,"Gates</w>":6125,"Jews</w>":6126,"Ker":6127,"Kho":6128,"So</w>":6129,"Top</w>":6130,"Wal":6131,"egra":6132,"hor":6133,"kara</w>":6134,"ton":6135,"tal</w>":6136,"vac":6137,"inate</w>":6138,"repl":6139,"enses</w>":6140,"tic":6141,"tices</w>":6142,"outs</w>":6143,"stu":6144,"stam":6145,"stoc":6146,"probab":6147,"agenda</w>":6148,"leaves</w>":6149,"view":6150,"seconds</w>":6151,"recover</w>":6152,"tric</w>":6153,"trapped</w>":6154,"demic</w>":6155,"economies</w>":6156,"preh":6157,"finals</w>":6158,"harmed</w>":6159,"overthrow</w>":6160,"closing</w>":6161,"weapon</w>":6162,"Armed</w>":6163,"Arabs</w>":6164,"locked</w>":6165,"highway</w>":6166,"Jose":6167,"kidnappings</w>":6168,"required</w>":6169,"mainland</w>":6170,"identify</w>":6171,"John":6172,"business":6173,"Sadr</w>":6174,"consul":6175,"slide</w>":6176,"pull</w>":6177,"players</w>":6178,"speaker</w>":6179,"declining</w>":6180,"doub":6181,"singer</w>":6182,"girls</w>":6183,"mortar</w>":6184,"hospitals</w>":6185,"alization</w>":6186,"disarm</w>":6187,"Ramadi</w>":6188,"practice</w>":6189,"therhood</w>":6190,"guarant":6191,"challenge</w>":6192,"Hosni</w>":6193,"samples</w>":6194,"Brotherhood</w>":6195,"Senegal</w>":6196,"asylum</w>":6197,"Preval</w>":6198,"Doctors</w>":6199,"language</w>":6200,"husband</w>":6201,"welcomed</w>":6202,"probably</w>":6203,"56</w>":6204,"CN":6205,"FA</w>":6206,"Four</w>":6207,"Hut":6208,"Journ":6209,"Jacqu":6210,"Kie":6211,"Kib":6212,"Lama</w>":6213,"May":6214,"Nab":6215,"Nai":6216,"RC</w>":6217,"Treasury</w>":6218,"bile</w>":6219,"cited</w>":6220,"cargo</w>":6221,"fall":6222,"hou":6223,"kh":6224,"kar</w>":6225,"mom":6226,"massa":6227,"oice</w>":6228,"pha":6229,"rating</w>":6230,"sk</w>":6231,"ued</w>":6232,"van</w>":6233,"zz":6234,"inaugur":6235,"ori</w>":6236,"stea":6237,"stem</w>":6238,"atollah</w>":6239,"roll</w>":6240,"ections</w>":6241,"lived</w>":6242,"suit</w>":6243,"adj":6244,"aints</w>":6245,"resh</w>":6246,"quali":6247,"Information</w>":6248,"gives</w>":6249,"traffic</w>":6250,"tropical</w>":6251,"uma</w>":6252,"stimul":6253,"bordering</w>":6254,"supports</w>":6255,"minary</w>":6256,"draw</w>":6257,"ranking</w>":6258,"dependence</w>":6259,"relatives</w>":6260,"Commer":6261,"Colonel</w>":6262,"location</w>":6263,"possibility</w>":6264,"subway</w>":6265,"reactor</w>":6266,"sym":6267,"Costa</w>":6268,"southwest</w>":6269,"attempted</w>":6270,"commanders</w>":6271,"suspension</w>":6272,"citizen</w>":6273,"Milose":6274,"Greece</w>":6275,"settlements</w>":6276,"scores</w>":6277,"speed</w>":6278,"advance</w>":6279,"basic</w>":6280,"electron":6281,"rescued</w>":6282,"Finland</w>":6283,"trucks</w>":6284,"handling</w>":6285,"kovsky</w>":6286,"successfully</w>":6287,"Herz":6288,"shelter</w>":6289,"inspectors</w>":6290,"encourage</w>":6291,"grenades</w>":6292,"prayers</w>":6293,"sustained</w>":6294,"Lawmakers</w>":6295,"Federation</w>":6296,"robi</w>":6297,"career</w>":6298,"computer</w>":6299,"Aqsa</w>":6300,"poorest</w>":6301,"easily</w>":6302,"Nairobi</w>":6303,"massac":6304,"Milosevic</w>":6305,"41</w>":6306,"Ban</w>":6307,"Cla":6308,"Ghaz":6309,"Hours</w>":6310,"Lion</w>":6311,"TH":6312,"Ty":6313,"award</w>":6314,"astronau":6315,"citing</w>":6316,"dum":6317,"gar</w>":6318,"hands</w>":6319,"ified</w>":6320,"lan</w>":6321,"och":6322,"rep":6323,"atem":6324,"hail</w>":6325,"sac":6326,"six":6327,"ura</w>":6328,"ris</w>":6329,"distan</w>":6330,"plants</w>":6331,"liber":6332,"white</w>":6333,"conv":6334,"device</w>":6335,"University</w>":6336,"route</w>":6337,"worn</w>":6338,"personal</w>":6339,"performan":6340,"primary</w>":6341,"pressing</w>":6342,"Andre":6343,"Ankara</w>":6344,"statements</w>":6345,"respect</w>":6346,"discussions</w>":6347,"tened</w>":6348,"egovina</w>":6349,"launching</w>":6350,"Kurdistan</w>":6351,"negotiate</w>":6352,"indicated</w>":6353,"summer</w>":6354,"limit</w>":6355,"settled</w>":6356,"purposes</w>":6357,"Kenne":6358,"referred</w>":6359,"judges</w>":6360,"farms</w>":6361,"watch</w>":6362,"Ahmad</w>":6363,"bail</w>":6364,"speak</w>":6365,"monitoring</w>":6366,"demonstration</w>":6367,"extremist</w>":6368,"Social</w>":6369,"magazine</w>":6370,"frequently</w>":6371,"closer</w>":6372,"surrounding</w>":6373,"competition</w>":6374,"stabilize</w>":6375,"intensi":6376,"prepare</w>":6377,"dorkovsky</w>":6378,"Their</w>":6379,"congressional</w>":6380,"Investig":6381,"Panama</w>":6382,"Nicaragua</w>":6383,"Maurit":6384,"llery</w>":6385,"stitute</w>":6386,"Khodorkovsky</w>":6387,"Herzegovina</w>":6388,"39</w>":6389,"76</w>":6390,"Bird</w>":6391,"Dal":6392,"Eight</w>":6393,"Hea":6394,"Qat":6395,"SE</w>":6396,"Treat":6397,"Ver":6398,"Zaw":6399,"cop":6400,"ctic</w>":6401,"fresh</w>":6402,"ible</w>":6403,"kistan</w>":6404,"wa</w>":6405,"ye</w>":6406,"inmates</w>":6407,"anov</w>":6408,"eries</w>":6409,"replaced</w>":6410,"enemy</w>":6411,"atami</w>":6412,"sim":6413,"rati":6414,"lift</w>":6415,"ghly</w>":6416,"point":6417,"images</w>":6418,"perts</w>":6419,"mohan</w>":6420,"hard":6421,"angered</w>":6422,"politics</w>":6423,"ealthy</w>":6424,"voice</w>":6425,"respond":6426,"mption</w>":6427,"relatively</w>":6428,"broken</w>":6429,"obt":6430,"strained</w>":6431,"lock</w>":6432,"Democracy</w>":6433,"lick</w>":6434,"judic":6435,"Liberia</w>":6436,"Swat</w>":6437,"Khatami</w>":6438,"block":6439,"sharp</w>":6440,"strength</w>":6441,"Experts</w>":6442,"Corporation</w>":6443,"Manmohan</w>":6444,"industries</w>":6445,"mountain":6446,"reducing</w>":6447,"politician</w>":6448,"Soci":6449,"artillery</w>":6450,"apparent</w>":6451,"prevented</w>":6452,"Uzbekistan</w>":6453,"underground</w>":6454,"subsidies</w>":6455,"laboratory</w>":6456,"denounced</w>":6457,"sponsored</w>":6458,"extrad":6459,"Eritrea</w>":6460,"festival</w>":6461,"reaching</w>":6462,"telephone</w>":6463,"pullout</w>":6464,"Jacques</w>":6465,"Kiev</w>":6466,"Zawah":6467,"Bh":6468,"Jan":6469,"Krem":6470,"Mill":6471,"Mali</w>":6472,"Mullah</w>":6473,"Tro":6474,"aur":6475,"blow</w>":6476,"cli":6477,"flo":6478,"grow</w>":6479,"ide":6480,"len</w>":6481,"landed</w>":6482,"native</w>":6483,"inking</w>":6484,"rez</w>":6485,"reun":6486,"remove</w>":6487,"enth</w>":6488,"tim":6489,"aration</w>":6490,"urg":6491,"rape</w>":6492,"prosp":6493,"iry</w>":6494,"shops</w>":6495,"imported</w>":6496,"aftern":6497,"ashvil":6498,"warr":6499,"harm":6500,"operated</w>":6501,"outi</w>":6502,"Norw":6503,"reasons</w>":6504,"ayev</w>":6505,"dow</w>":6506,"Armen":6507,"visions</w>":6508,"causes</w>":6509,"gunfire</w>":6510,"confirmation</w>":6511,"teachers</w>":6512,"Guatem":6513,"endra</w>":6514,"stroke</w>":6515,"indicates</w>":6516,"external</w>":6517,"Petroleum</w>":6518,"Libya</w>":6519,"representative</w>":6520,"ushing</w>":6521,"Swe":6522,"contracted</w>":6523,"advanced</w>":6524,"profit</w>":6525,"focused</w>":6526,"nominee</w>":6527,"Republicans</w>":6528,"Richard</w>":6529,"questioning</w>":6530,"Croatian</w>":6531,"honor</w>":6532,"experienced</w>":6533,"Ramadan</w>":6534,"suspicion</w>":6535,"restored</w>":6536,"Alliance</w>":6537,"thirds</w>":6538,"temperatures</w>":6539,"fallen</w>":6540,"sixth</w>":6541,"Kremlin</w>":6542,"afternoon</w>":6543,"54</w>":6544,"95</w>":6545,"Aff":6546,"Agreement</w>":6547,"CO":6548,"Cap":6549,"Gol":6550,"IR":6551,"Kam":6552,"Lie":6553,"Sus":6554,"Tan":6555,"US":6556,"Zabul</w>":6557,"bru":6558,"bound</w>":6559,"dict</w>":6560,"drought</w>":6561,"eful</w>":6562,"fear":6563,"rare</w>":6564,"telec":6565,"wake</w>":6566,"zgan</w>":6567,"erce</w>":6568,"tioned</w>":6569,"aria</w>":6570,"arrang":6571,"ste</w>":6572,"alert</w>":6573,"iling</w>":6574,"size</w>":6575,"ripped</w>":6576,"eling</w>":6577,"distric":6578,"unharmed</w>":6579,"ligh":6580,"construc":6581,"spreading</w>":6582,"akes</w>":6583,"loans</w>":6584,"attle</w>":6585,"ula</w>":6586,"ults</w>":6587,"lets</w>":6588,"Ismail</w>":6589,"occa":6590,"modi":6591,"mobile</w>":6592,"discrimin":6593,"primar":6594,"intern":6595,"fires</w>":6596,"boats</w>":6597,"ashenko</w>":6598,"warming</w>":6599,"violating</w>":6600,"detected</w>":6601,"1992</w>":6602,"Det":6603,"deliver</w>":6604,"creation</w>":6605,"Sahar":6606,"newspapers</w>":6607,"illness</w>":6608,"testing</w>":6609,"withdrawing</w>":6610,"sentences</w>":6611,"profes":6612,"basis</w>":6613,"volati":6614,"initially</w>":6615,"regulations</w>":6616,"berg</w>":6617,"implement</w>":6618,"friend":6619,"Willi":6620,"barred</w>":6621,"retirement</w>":6622,"transitional</w>":6623,"Ayatollah</w>":6624,"vaccine</w>":6625,"exercise</w>":6626,"Uruzgan</w>":6627,"soft</w>":6628,"Charles</w>":6629,"opportunity</w>":6630,"eventually</w>":6631,"Sergei</w>":6632,"hostile</w>":6633,"Salvador</w>":6634,"relationship</w>":6635,"Lukashenko</w>":6636,"Joseph</w>":6637,"CNN</w>":6638,"Treaty</w>":6639,"mountainous</w>":6640,"Affairs</w>":6641,"46</w>":6642,"48</w>":6643,"73</w>":6644,"Dick</w>":6645,"Ea":6646,"Go":6647,"Gun":6648,"Hond":6649,"Net":6650,"On":6651,"Os":6652,"Ren":6653,"Raul</w>":6654,"Squ":6655,"Shel":6656,"To</w>":6657,"Tens</w>":6658,"You":6659,"avi":6660,"fears</w>":6661,"gone</w>":6662,"slog":6663,"tar</w>":6664,"tations</w>":6665,"teen</w>":6666,"wall</w>":6667,"yn":6668,"ano</w>":6669,"rev":6670,"encla":6671,"tia</w>":6672,"title</w>":6673,"alese</w>":6674,"elig":6675,"omas</w>":6676,"ommun":6677,"diversi":6678,"isco</w>":6679,"deplo":6680,"extre":6681,"extradition</w>":6682,"petroleum</w>":6683,"cia</w>":6684,"poll":6685,"Chech":6686,"attacking</w>":6687,"ourg</w>":6688,"evised</w>":6689,"surface</w>":6690,"accept":6691,"ums</w>":6692,"pandemic</w>":6693,"Baqu":6694,"centered</w>":6695,"angs</w>":6696,"overseas</w>":6697,"anta</w>":6698,"disclo":6699,"Meh":6700,"upper</w>":6701,"televised</w>":6702,"Carol":6703,"arriving</w>":6704,"rock</w>":6705,"require</w>":6706,"Before</w>":6707,"balance</w>":6708,"Administ":6709,"executed</w>":6710,"Direc":6711,"celebrate</w>":6712,"Angola</w>":6713,"accidents</w>":6714,"Open</w>":6715,"friend</w>":6716,"clerics</w>":6717,"contributed</w>":6718,"Rescu":6719,"expanded</w>":6720,"tivated</w>":6721,"pursue</w>":6722,"records</w>":6723,"Chilean</w>":6724,"abandon</w>":6725,"prosecution</w>":6726,"hijacked</w>":6727,"Navy</w>":6728,"paramilitary</w>":6729,"photographs</w>":6730,"plunged</w>":6731,"attorney</w>":6732,"Commerce</w>":6733,"Dalai</w>":6734,"Qatar</w>":6735,"Bhut":6736,"ashvili</w>":6737,"Swedish</w>":6738,"Lieutenant</w>":6739,"districts</w>":6740,"William</w>":6741,"Eastern</w>":6742,"slogans</w>":6743,"47</w>":6744,"58</w>":6745,"Bec":6746,"Emp":6747,"Gyan":6748,"Il":6749,"Kunar</w>":6750,"Manu":6751,"Rez":6752,"St</w>":6753,"Sim":6754,"Scienti":6755,"Saint</w>":6756,"Ten":6757,"Wol":6758,"barri":6759,"foo":6760,"founded</w>":6761,"ji</w>":6762,"middle</w>":6763,"rounds</w>":6764,"scre":6765,"sworn</w>":6766,"tel</w>":6767,"thu":6768,"inary</w>":6769,"entering</w>":6770,"tigh":6771,"ith</w>":6772,"room</w>":6773,"hai</w>":6774,"ured</w>":6775,"ural</w>":6776,"unve":6777,"dev</w>":6778,"dealing</w>":6779,"super":6780,"sugar</w>":6781,"oward</w>":6782,"sex</w>":6783,"shenko</w>":6784,"Indu":6785,"attacker</w>":6786,"auth":6787,"invited</w>":6788,"gues</w>":6789,"gular</w>":6790,"seventh</w>":6791,"solid":6792,"commemor":6793,"duty</w>":6794,"Antar":6795,"Bah":6796,"anger</w>":6797,"politically</w>":6798,"rowing</w>":6799,"interc":6800,"airstrikes</w>":6801,"pair</w>":6802,"egian</w>":6803,"Burun":6804,"ify</w>":6805,"injuring</w>":6806,"Congres":6807,"asser</w>":6808,"20th</w>":6809,"Prot":6810,"complex</w>":6811,"discussing</w>":6812,"Carlos</w>":6813,"sistence</w>":6814,"disputes</w>":6815,"vention</w>":6816,"requires</w>":6817,"packed</w>":6818,"considers</w>":6819,"investments</w>":6820,"couple</w>":6821,"citizen":6822,"student</w>":6823,"destroy</w>":6824,"customs</w>":6825,"Ramallah</w>":6826,"deterior":6827,"initiative</w>":6828,"breakaway</w>":6829,"celebrations</w>":6830,"drone</w>":6831,"friends</w>":6832,"Governor</w>":6833,"Six</w>":6834,"wild</w>":6835,"restaur":6836,"Dani":6837,"transition</w>":6838,"navy</w>":6839,"aboard</w>":6840,"hospitalized</w>":6841,"homeland</w>":6842,"recommen":6843,"promoting</w>":6844,"tyrs</w>":6845,"historic</w>":6846,"Togo</w>":6847,"Mikhail</w>":6848,"introduced</w>":6849,"Judge</w>":6850,"Brigades</w>":6851,"Buddh":6852,"replied</w>":6853,"massacre</w>":6854,"Kennedy</w>":6855,"Zawahiri</w>":6856,"Norwegian</w>":6857,"volatile</w>":6858,"Gyanendra</w>":6859,"citizenship</w>":6860,"Bali</w>":6861,"Cur":6862,"ETA</w>":6863,"FAL":6864,"Khost</w>":6865,"Men":6866,"Pop":6867,"Zam":6868,"dred</w>":6869,"eigh":6870,"gangs</w>":6871,"ions</w>":6872,"jet</w>":6873,"ox":6874,"oting</w>":6875,"putting</w>":6876,"sor":6877,"erman</w>":6878,"entry</w>":6879,"tight</w>":6880,"atro":6881,"ician</w>":6882,"rav":6883,"ram</w>":6884,"liminary</w>":6885,"beating</w>":6886,"ises</w>":6887,"dest":6888,"agent</w>":6889,"esting</w>":6890,"governing</w>":6891,"firms</w>":6892,"permission</w>":6893,"ente</w>":6894,"renoun":6895,"Monetary</w>":6896,"capita</w>":6897,"preliminary</w>":6898,"warplanes</w>":6899,"violation</w>":6900,"march</w>":6901,"Martin</w>":6902,"Martyrs</w>":6903,"airstrike</w>":6904,"door</w>":6905,"tual</w>":6906,"weak":6907,"explosive</w>":6908,"Media</w>":6909,"protested</w>":6910,"creating</w>":6911,"Chairman</w>":6912,"waves</w>":6913,"torch</w>":6914,"subur":6915,"Resistance</w>":6916,"hundred</w>":6917,"Guang":6918,"Guard</w>":6919,"essor</w>":6920,"affect</w>":6921,"movie</w>":6922,"appearance</w>":6923,"territorial</w>":6924,"limits</w>":6925,"Boeing</w>":6926,"crops</w>":6927,"confron":6928,"privati":6929,"success</w>":6930,"combined</w>":6931,"execution</w>":6932,"Belgi":6933,"Bashar</w>":6934,"charter</w>":6935,"claiming</w>":6936,"Azerb":6937,"clean</w>":6938,"varo</w>":6939,"occupation</w>":6940,"bloody</w>":6941,"Reserve</w>":6942,"Radio</w>":6943,"disrupt</w>":6944,"strategic</w>":6945,"17th</w>":6946,"recorded</w>":6947,"questions</w>":6948,"registered</w>":6949,"evacuated</w>":6950,"originally</w>":6951,"coordinated</w>":6952,"flew</w>":6953,"transportation</w>":6954,"assumed</w>":6955,"emissions</w>":6956,"normal</w>":6957,"achieved</w>":6958,"shrine</w>":6959,"Macedonia</w>":6960,"performance</w>":6961,"blockade</w>":6962,"Empire</w>":6963,"Buddhist</w>":6964,"FALSE</w>":6965,"Azerbai":6966,"44</w>":6967,"63</w>":6968,"AFP</w>":6969,"Cr":6970,"Dub":6971,"Emer":6972,"Gil":6973,"Later</w>":6974,"Mul":6975,"Zap":6976,"ax":6977,"aim":6978,"book</w>":6979,"centi":6980,"eating</w>":6981,"iang</w>":6982,"jury</w>":6983,"rice</w>":6984,"rural</w>":6985,"swee":6986,"uals</w>":6987,"inha":6988,"inno":6989,"informed</w>":6990,"eri</w>":6991,"rer</w>":6992,"arding</w>":6993,"items</w>":6994,"sibly</w>":6995,"rative</w>":6996,"emic</w>":6997,"plus</w>":6998,"opium</w>":6999,"opposes</w>":7000,"owing</w>":7001,"owner</w>":7002,"akia</w>":7003,"edings</w>":7004,"loyal</w>":7005,"eel</w>":7006,"imori</w>":7007,"counted</w>":7008,"bul</w>":7009,"section</w>":7010,"occ":7011,"Indi":7012,"mony</w>":7013,"alive</w>":7014,"coff":7015,"trained</w>":7016,"intense</w>":7017,"fields</w>":7018,"Tut":7019,"troop</w>":7020,"gradu":7021,"duties</w>":7022,"Alvaro</w>":7023,"minal</w>":7024,"Prize</w>":7025,"map</w>":7026,"Northern</w>":7027,"announce</w>":7028,"Mah":7029,"sensi":7030,"Commissioner</w>":7031,"specific</w>":7032,"complaints</w>":7033,"processing</w>":7034,"engaged</w>":7035,"appeals</w>":7036,"skir":7037,"Coalition</w>":7038,"birth</w>":7039,"campaig":7040,"names</w>":7041,"Kashm":7042,"declaration</w>":7043,"Attor":7044,"boosting</w>":7045,"activist</w>":7046,"grat":7047,"grant</w>":7048,"Seven</w>":7049,"Malawi</w>":7050,"extensive</w>":7051,"owners</w>":7052,"charac":7053,"participation</w>":7054,"slowly</w>":7055,"Ghana</w>":7056,"adei</w>":7057,"tivity</w>":7058,"courts</w>":7059,"explor":7060,"wrong":7061,"publicly</w>":7062,"Uzbek</w>":7063,"surrounded</w>":7064,"Urugu":7065,"Scott</w>":7066,"junta</w>":7067,"Latvia</w>":7068,"sexual</w>":7069,"Cambodia</w>":7070,"hamper":7071,"substantial</w>":7072,"mudslides</w>":7073,"bodyguards</w>":7074,"Google</w>":7075,"speculation</w>":7076,"Fujimori</w>":7077,"Hutu</w>":7078,"Guatemala</w>":7079,"telecommun":7080,"Chechen</w>":7081,"Baquba</w>":7082,"Scientists</w>":7083,"Belgium</w>":7084,"Ala":7085,"FI":7086,"Figh":7087,"Gn":7088,"Jack":7089,"Lik":7090,"Nam":7091,"Raz":7092,"Str":7093,"Sreb":7094,"Tar":7095,"UN":7096,"auc":7097,"bag":7098,"dari</w>":7099,"edi":7100,"fare</w>":7101,"fru":7102,"flow</w>":7103,"gal</w>":7104,"gency</w>":7105,"gains</w>":7106,"jam":7107,"py</w>":7108,"vul":7109,"ws</w>":7110,"anis</w>":7111,"answ":7112,"erate</w>":7113,"resistance</w>":7114,"regular</w>":7115,"enter":7116,"tical</w>":7117,"arities</w>":7118,"sta":7119,"icated</w>":7120,"eless</w>":7121,"atically</w>":7122,"diver":7123,"esha":7124,"plagu":7125,"unable</w>":7126,"uncovered</w>":7127,"consp":7128,"desi":7129,"neu":7130,"appoint":7131,"peti":7132,"cience</w>":7133,"polio</w>":7134,"itive</w>":7135,"leg</w>":7136,"roughly</w>":7137,"string</w>":7138,"incur":7139,"recasters</w>":7140,"embassi":7141,"ricket</w>":7142,"merger</w>":7143,"talk</w>":7144,"pressed</w>":7145,"penalty</w>":7146,"Anton":7147,"minor</w>":7148,"Abk":7149,"Koreans</w>":7150,"Mars</w>":7151,"aya</w>":7152,"linking</w>":7153,"closure</w>":7154,"deny</w>":7155,"Pakistanis</w>":7156,"donor</w>":7157,"Countries</w>":7158,"Franc":7159,"ehr</w>":7160,"complained</w>":7161,"great":7162,"busy</w>":7163,"funded</w>":7164,"hunt</w>":7165,"communications</w>":7166,"disper":7167,"burning</w>":7168,"medic":7169,"inea</w>":7170,"colony</w>":7171,"battles</w>":7172,"withdrawn</w>":7173,"ahu</w>":7174,"pictures</w>":7175,"instability</w>":7176,"Green":7177,"flood</w>":7178,"Forecasters</w>":7179,"extending</w>":7180,"charity</w>":7181,"big</w>":7182,"recognized</w>":7183,"cleared</w>":7184,"generally</w>":7185,"anyahu</w>":7186,"ambitions</w>":7187,"transit</w>":7188,"boycotted</w>":7189,"16th</w>":7190,"authorized</w>":7191,"square</w>":7192,"apartment</w>":7193,"Madrid</w>":7194,"written</w>":7195,"logis":7196,"Feder":7197,"Relations</w>":7198,"surrender</w>":7199,"partners</w>":7200,"Vicente</w>":7201,"proceedings</w>":7202,"Algerian</w>":7203,"Province</w>":7204,"freeze</w>":7205,"blames</w>":7206,"tionally</w>":7207,"Silva</w>":7208,"shootout</w>":7209,"rivals</w>":7210,"imprisoned</w>":7211,"memorial</w>":7212,"subject</w>":7213,"Portugal</w>":7214,"Pinoch":7215,"Kibaki</w>":7216,"astronauts</w>":7217,"obtained</w>":7218,"Tanz":7219,"primarily</w>":7220,"Netanyahu</w>":7221,"eligible</w>":7222,"Director</w>":7223,"Emergency</w>":7224,"embassies</w>":7225,"Pinochet</w>":7226,"42</w>":7227,"43</w>":7228,"51</w>":7229,"DRC</w>":7230,"Him":7231,"IC":7232,"Ire":7233,"Man</w>":7234,"Mumb":7235,"Tou":7236,"Vil":7237,"fting</w>":7238,"fying</w>":7239,"lers</w>":7240,"lying</w>":7241,"mel":7242,"mour":7243,"ners</w>":7244,"si</w>":7245,"ua</w>":7246,"vers</w>":7247,"wearing</w>":7248,"yle</w>":7249,"anians</w>":7250,"rebuilding</w>":7251,"tively</w>":7252,"ila</w>":7253,"ace</w>":7254,"dig":7255,"beat":7256,"ass</w>":7257,"chur":7258,"forcement</w>":7259,"seed</w>":7260,"idly</w>":7261,"portion</w>":7262,"shop":7263,"editor</w>":7264,"imi</w>":7265,"counts</w>":7266,"ignor":7267,"aine</w>":7268,"Chechn":7269,"Initi":7270,"ingbe</w>":7271,"turning</w>":7272,"calm</w>":7273,"motivated</w>":7274,"moshenko</w>":7275,"disea":7276,"managed</w>":7277,"mandate</w>":7278,"missions</w>":7279,"izes</w>":7280,"solution</w>":7281,"hop</w>":7282,"protecting</w>":7283,"vedev</w>":7284,"classi":7285,"Alban":7286,"billions</w>":7287,"Southern</w>":7288,"ayan</w>":7289,"dog</w>":7290,"tually</w>":7291,"joining</w>":7292,"Politi":7293,"goals</w>":7294,"Turin</w>":7295,"discovery</w>":7296,"dram":7297,"depends</w>":7298,"denying</w>":7299,"investigated</w>":7300,"cred":7301,"planted</w>":7302,"visitors</w>":7303,"assingbe</w>":7304,"Assistance</w>":7305,"black":7306,"Protest":7307,"storms</w>":7308,"ittances</w>":7309,"assail":7310,"society</w>":7311,"arrive</w>":7312,"directed</w>":7313,"reject</w>":7314,"Baradei</w>":7315,"ElBaradei</w>":7316,"legislature</w>":7317,"consumers</w>":7318,"installed</w>":7319,"contractors</w>":7320,"Act</w>":7321,"profits</w>":7322,"demonstrated</w>":7323,"Diplom":7324,"nominated</w>":7325,"parents</w>":7326,"Leaders</w>":7327,"criminals</w>":7328,"industrialized</w>":7329,"standoff</w>":7330,"Berlin</w>":7331,"successor</w>":7332,"Rica</w>":7333,"adic</w>":7334,"influential</w>":7335,"iyah</w>":7336,"photos</w>":7337,"Medvedev</w>":7338,"rapidly</w>":7339,"Revolution</w>":7340,"Angela</w>":7341,"Recep</w>":7342,"cycle</w>":7343,"succeed</w>":7344,"Tayyi":7345,"Yugoslav</w>":7346,"endorsed</w>":7347,"conflicts</w>":7348,"Cypriot</w>":7349,"inquiry</w>":7350,"Ghazni</w>":7351,"Tymoshenko</w>":7352,"feared</w>":7353,"internation":7354,"Gunmen</w>":7355,"Hondur":7356,"Square</w>":7357,"Shell</w>":7358,"acceptable</w>":7359,"Azerbaijan</w>":7360,"occer</w>":7361,"telecommunications</w>":7362,"Gnassingbe</w>":7363,"vulner":7364,"Mumbai</w>":7365,"Chechnya</w>":7366,"Tayyip</w>":7367,"140</w>":7368,"88</w>":7369,"Avi":7370,"BI</w>":7371,"Ci":7372,"Eve</w>":7373,"Eag":7374,"Fel":7375,"Fir":7376,"Gra":7377,"Hill</w>":7378,"Howard</w>":7379,"IO":7380,"Iri":7381,"Jes":7382,"Jav":7383,"Ou":7384,"Pi":7385,"Sic":7386,"TR":7387,"Vir":7388,"Wall</w>":7389,"boun":7390,"bit</w>":7391,"fic":7392,"hang":7393,"len":7394,"my":7395,"marg":7396,"non":7397,"tell</w>":7398,"uel</w>":7399,"wage</w>":7400,"zation</w>":7401,"anci":7402,"rein":7403,"time":7404,"stan":7405,"ator":7406,"rov</w>":7407,"sized</w>":7408,"emplo":7409,"ple":7410,"units</w>":7411,"united</w>":7412,"prospec":7413,"devices</w>":7414,"che":7415,"sey</w>":7416,"seiz":7417,"adver":7418,"ably</w>":7419,"trand</w>":7420,"lege</w>":7421,"Island</w>":7422,"Thomas</w>":7423,"Stre":7424,"trials</w>":7425,"motion</w>":7426,"dissidents</w>":7427,"manned</w>":7428,"prior</w>":7429,"fierce</w>":7430,"democra":7431,"annually</w>":7432,"ashed</w>":7433,"angry</w>":7434,"carri":7435,"interpre":7436,"dox</w>":7437,"placing</w>":7438,"increases</w>":7439,"brok":7440,"gap</w>":7441,"possibly</w>":7442,"2012</w>":7443,"Guinea</w>":7444,"affir":7445,"famous</w>":7446,"schedule</w>":7447,"Persian</w>":7448,"dropping</w>":7449,"Elec":7450,"picked</w>":7451,"estimate</w>":7452,"ishing</w>":7453,"Clar":7454,"destroying</w>":7455,"advant":7456,"Football</w>":7457,"ceremonies</w>":7458,"Financial</w>":7459,"clean":7460,"compete</w>":7461,"extremely</w>":7462,"Lithu":7463,"messages</w>":7464,"adium</w>":7465,"brings</w>":7466,"downturn</w>":7467,"Zardari</w>":7468,"unions</w>":7469,"encouraged</w>":7470,"completely</w>":7471,"course</w>":7472,"insisted</w>":7473,"experience</w>":7474,"tiny</w>":7475,"preventing</w>":7476,"Bureau</w>":7477,"Garang</w>":7478,"surrendered</w>":7479,"purchase</w>":7480,"preced":7481,"property</w>":7482,"existing</w>":7483,"predicted</w>":7484,"individuals</w>":7485,"isiana</w>":7486,"concluded</w>":7487,"Louisiana</w>":7488,"hideout</w>":7489,"thodox</w>":7490,"Mauritania</w>":7491,"Tropical</w>":7492,"Burundi</w>":7493,"centimeters</w>":7494,"sensitive</w>":7495,"Attorney</w>":7496,"Uruguay</w>":7497,"Likud</w>":7498,"conspiracy</w>":7499,"Ireland</w>":7500,"assailants</w>":7501,"130</w>":7502,"61</w>":7503,"72</w>":7504,"ABC</w>":7505,"Dr</w>":7506,"Ev":7507,"Gab":7508,"Hen":7509,"Lop":7510,"Lag":7511,"Lee</w>":7512,"Mag":7513,"Nat":7514,"Now</w>":7515,"Oper":7516,"Ru":7517,"Smit":7518,"Tik":7519,"Youn":7520,"Zo":7521,"cated</w>":7522,"fts</w>":7523,"gol":7524,"ks":7525,"ket":7526,"ron</w>":7527,"sound</w>":7528,"vast</w>":7529,"wrec":7530,"ero":7531,"tied</w>":7532,"tial</w>":7533,"alone</w>":7534,"acio</w>":7535,"ishop</w>":7536,"deposed</w>":7537,"adding</w>":7538,"exce":7539,"extra</w>":7540,"porter</w>":7541,"apologi":7542,"akashvili</w>":7543,"lob":7544,"posts</w>":7545,"impover":7546,"itim":7547,"ques</w>":7548,"entally</w>":7549,"capable</w>":7550,"boys</w>":7551,"decreas":7552,"finally</w>":7553,"commented</w>":7554,"violate</w>":7555,"airline</w>":7556,"liams</w>":7557,"weak</w>":7558,"link</w>":7559,"voic":7560,"grown</w>":7561,"casting</w>":7562,"gunbattle</w>":7563,"waiting</w>":7564,"Orthodox</w>":7565,"submitted</w>":7566,"keeping</w>":7567,"Saakashvili</w>":7568,"Peres</w>":7569,"Christop":7570,"hoping</w>":7571,"rejecting</w>":7572,"1988</w>":7573,"searchers</w>":7574,"colon":7575,"collea":7576,"gging</w>":7577,"underwent</w>":7578,"Libyan</w>":7579,"addressed</w>":7580,"blocking</w>":7581,"1970s</w>":7582,"technical</w>":7583,"celebrated</w>":7584,"Balk":7585,"Ivanov</w>":7586,"drinking</w>":7587,"Bertrand</w>":7588,"Williams</w>":7589,"appropri":7590,"autonomous</w>":7591,"museum</w>":7592,"wrong</w>":7593,"Dozens</w>":7594,"alizing</w>":7595,"Jaaf":7596,"exercises</w>":7597,"abandoned</w>":7598,"semi":7599,"flee</w>":7600,"maintained</w>":7601,"Sloven":7602,"forecasters</w>":7603,"circ":7604,"Daily</w>":7605,"Today</w>":7606,"ichiro</w>":7607,"Grand</w>":7608,"textile</w>":7609,"belonging</w>":7610,"compensation</w>":7611,"Militants</w>":7612,"choose</w>":7613,"volunte":7614,"egration</w>":7615,"prehensive</w>":7616,"Johnson</w>":7617,"Manuel</w>":7618,"foot</w>":7619,"unveiled</w>":7620,"Kashmiri</w>":7621,"FIFA</w>":7622,"Jackson</w>":7623,"Tanzania</w>":7624,"Himal":7625,"diseases</w>":7626,"First</w>":7627,"Irish</w>":7628,"Street</w>":7629,"Lopez</w>":7630,"Smith</w>":7631,"impoverished</w>":7632,"Christopher</w>":7633,"02</w>":7634,"AS</w>":7635,"Ass</w>":7636,"Bl":7637,"Bet":7638,"Black</w>":7639,"CA":7640,"Cel":7641,"Equ":7642,"Gam":7643,"Hal":7644,"Haw":7645,"Mur":7646,"Mand":7647,"New":7648,"Over</w>":7649,"Public</w>":7650,"Sab":7651,"Sand":7652,"Typ":7653,"ailed</w>":7654,"bad":7655,"bic</w>":7656,"cope</w>":7657,"eys</w>":7658,"jur":7659,"lo</w>":7660,"mir":7661,"mament</w>":7662,"ry":7663,"tough</w>":7664,"utions</w>":7665,"vest":7666,"wro":7667,"zes</w>":7668,"reve":7669,"relay</w>":7670,"ena</w>":7671,"orm</w>":7672,"itable</w>":7673,"icip":7674,"save</w>":7675,"rit</w>":7676,"olas</w>":7677,"unnamed</w>":7678,"university</w>":7679,"irregul":7680,"ammun":7681,"amnesty</w>":7682,"dee":7683,"degre":7684,"witness</w>":7685,"spa":7686,"spy</w>":7687,"kills</w>":7688,"loan</w>":7689,"attribu":7690,"earned</w>":7691,"quote</w>":7692,"Storm</w>":7693,"mism</w>":7694,"integ":7695,"legitim":7696,"hou</w>":7697,"pression</w>":7698,"findings</w>":7699,"warded</w>":7700,"harsh</w>":7701,"meets</w>":7702,"veto</w>":7703,"huan</w>":7704,"ief":7705,"Abdel</w>":7706,"airlin":7707,"voys</w>":7708,"voter</w>":7709,"goes</w>":7710,"curb</w>":7711,"aware</w>":7712,"paying</w>":7713,"broad</w>":7714,"ipe</w>":7715,"func":7716,"Residents</w>":7717,"hunting</w>":7718,"Carroll</w>":7719,"infection</w>":7720,"Peru":7721,"genous</w>":7722,"clone</w>":7723,"quarter":7724,"bridge</w>":7725,"consulate</w>":7726,"flooded</w>":7727,"1979</w>":7728,"grounds</w>":7729,"extension</w>":7730,"networ":7731,"Leader</w>":7732,"stopping</w>":7733,"mountain</w>":7734,"contribute</w>":7735,"Qure":7736,"Resear":7737,"danger</w>":7738,"welcome</w>":7739,"pilot</w>":7740,"effects</w>":7741,"tanks</w>":7742,"Criminal</w>":7743,"payment</w>":7744,"Moroccan</w>":7745,"pursuing</w>":7746,"disrupted</w>":7747,"refinery</w>":7748,"refineries</w>":7749,"difficul":7750,"lifting</w>":7751,"Ayman</w>":7752,"walked</w>":7753,"mixed</w>":7754,"piece</w>":7755,"partnership</w>":7756,"crucial</w>":7757,"Straw</w>":7758,"fellow</w>":7759,"testimony</w>":7760,"friendly</w>":7761,"enclave</w>":7762,"Administration</w>":7763,"Crude</w>":7764,"Dubai</w>":7765,"Fighting</w>":7766,"plagued</w>":7767,"Tourism</w>":7768,"internationally</w>":7769,"vulnerable</w>":7770,"Eagle</w>":7771,"Virg":7772,"timetable</w>":7773,"Tikrit</w>":7774,"wrote</w>":7775,"irregularities</w>":7776,"ammunition</w>":7777,"03</w>":7778,"1st</w>":7779,"67</w>":7780,"BA":7781,"By</w>":7782,"Bor":7783,"Bag":7784,"Bash":7785,"ER":7786,"Eid</w>":7787,"Fa":7788,"Im":7789,"Istan":7790,"Jong</w>":7791,"Mid":7792,"Mrs</w>":7793,"Obas":7794,"Sir":7795,"by":7796,"bi</w>":7797,"bon</w>":7798,"bought</w>":7799,"brain</w>":7800,"home":7801,"rallied</w>":7802,"soccer</w>":7803,"tled</w>":7804,"tains</w>":7805,"vi</w>":7806,"wood</w>":7807,"yond</w>":7808,"thal</w>":7809,"inter</w>":7810,"researchers</w>":7811,"encing</w>":7812,"ardo</w>":7813,"orities</w>":7814,"ouch":7815,"itch":7816,"always</w>":7817,"atra</w>":7818,"satis":7819,"diam":7820,"emed</w>":7821,"plat":7822,"proliferation</w>":7823,"beyond</w>":7824,"agar</w>":7825,"owns</w>":7826,"sphere</w>":7827,"ado</w>":7828,"exporter</w>":7829,"aba</w>":7830,"ester":7831,"governmental</w>":7832,"image</w>":7833,"secular</w>":7834,"contained</w>":7835,"prize</w>":7836,"renica</w>":7837,"integration</w>":7838,"warns</w>":7839,"Alb":7840,"outgoing</w>":7841,"bombed</w>":7842,"senator</w>":7843,"shots</w>":7844,"Gerhard</w>":7845,"Compan":7846,"etta</w>":7847,"planet</w>":7848,"returns</w>":7849,"Assistant</w>":7850,"chaos</w>":7851,"highs</w>":7852,"channel</w>":7853,"identity</w>":7854,"resolving</w>":7855,"1984</w>":7856,"indictment</w>":7857,"attempting</w>":7858,"ellan</w>":7859,"Conference</w>":7860,"Royal</w>":7861,"hearings</w>":7862,"install":7863,"Great</w>":7864,"stream</w>":7865,"filled</w>":7866,"Micro":7867,"elmingly</w>":7868,"lords</w>":7869,"delegates</w>":7870,"generals</w>":7871,"reduction</w>":7872,"Nicolas</w>":7873,"expanding</w>":7874,"article</w>":7875,"approach</w>":7876,"1967</w>":7877,"Romania</w>":7878,"weekend</w>":7879,"slowed</w>":7880,"rapid</w>":7881,"advisor</w>":7882,"hotels</w>":7883,"tunnel</w>":7884,"hydro":7885,"mortars</w>":7886,"shortage</w>":7887,"princi":7888,"anjo</w>":7889,"disarmament</w>":7890,"garia</w>":7891,"modern</w>":7892,"overwhel":7893,"overwhelmingly</w>":7894,"strengthening</w>":7895,"retaliation</w>":7896,"amendment</w>":7897,"Bulgaria</w>":7898,"Special</w>":7899,"rubble</w>":7900,"moment</w>":7901,"electronic</w>":7902,"judicial</w>":7903,"idea</w>":7904,"Carolina</w>":7905,"exploration</w>":7906,"Srebrenica</w>":7907,"Sichuan</w>":7908,"advantage</w>":7909,"Jaafari</w>":7910,"Istanbul</w>":7911,"Obasanjo</w>":7912,"77</w>":7913,"78</w>":7914,"Ed":7915,"FBI</w>":7916,"Gon":7917,"Hou":7918,"Hom":7919,"Hak":7920,"Iy":7921,"Jack</w>":7922,"Ki</w>":7923,"Kare":7924,"Mou":7925,"Moun":7926,"Mir":7927,"Non</w>":7928,"Rash":7929,"Saf":7930,"Srin":7931,"WTO</w>":7932,"bishop</w>":7933,"clin":7934,"flawed</w>":7935,"hitting</w>":7936,"jani</w>":7937,"lit":7938,"less":7939,"menti":7940,"pi</w>":7941,"page</w>":7942,"path</w>":7943,"scra":7944,"ym":7945,"zi</w>":7946,"think</w>":7947,"indi":7948,"inadequate</w>":7949,"anes</w>":7950,"restruc":7951,"tives</w>":7952,"ard":7953,"onto</w>":7954,"store</w>":7955,"stone</w>":7956,"style</w>":7957,"sas</w>":7958,"sabot":7959,"radi":7960,"ached</w>":7961,"essions</w>":7962,"unacceptable</w>":7963,"congrat":7964,"asa</w>":7965,"opti":7966,"options</w>":7967,"leads</w>":7968,"chos":7969,"span</w>":7970,"absol":7971,"residence</w>":7972,"immun":7973,"ulated</w>":7974,"lep":7975,"Chan":7976,"ocau":7977,"Station</w>":7978,"worse</w>":7979,"worried</w>":7980,"oured</w>":7981,"trag":7982,"1960</w>":7983,"guid":7984,"tox":7985,"economists</w>":7986,"predomin":7987,"sever":7988,"mean":7989,"mean</w>":7990,"remittances</w>":7991,"warn</w>":7992,"centr":7993,"minim":7994,"maxim":7995,"Europeans</w>":7996,"soaring</w>":7997,"looks</w>":7998,"Arabic</w>":7999,"poss":8000,"Demon":8001,"tories</w>":8002,"torious</w>":8003,"subsistence</w>":8004,"Colombo</w>":8005,"ailing</w>":8006,"hoped</w>":8007,"Junichiro</w>":8008,"1982</w>":8009,"disasters</w>":8010,"mored</w>":8011,"underway</w>":8012,"municip":8013,"refer</w>":8014,"represent</w>":8015,"patri":8016,"Constitu":8017,"confid":8018,"Base</w>":8019,"Nepalese</w>":8020,"Exchange</w>":8021,"Diy":8022,"importance</w>":8023,"tribes":8024,"expires</w>":8025,"McCl":8026,"Finance</w>":8027,"clearing</w>":8028,"berto</w>":8029,"significantly</w>":8030,"Econom":8031,"trouble</w>":8032,"climbed</w>":8033,"champion":8034,"hazia</w>":8035,"vessels</w>":8036,"mistake</w>":8037,"attracted</w>":8038,"associated</w>":8039,"original</w>":8040,"semi</w>":8041,"cocaine</w>":8042,"Slovakia</w>":8043,"interrogation</w>":8044,"subsidi":8045,"Miami</w>":8046,"spirit":8047,"refusal</w>":8048,"aggressive</w>":8049,"Hosp":8050,"feder":8051,"Peninsula</w>":8052,"alternative</w>":8053,"surprise</w>":8054,"innocent</w>":8055,"Namib":8056,"Abkhazia</w>":8057,"Diplomats</w>":8058,"Java</w>":8059,"brokered</w>":8060,"Lagos</w>":8061,"Himalayan</w>":8062,"deeply</w>":8063,"Peruvian</w>":8064,"Bashir</w>":8065,"Microsoft</w>":8066,"Gonz":8067,"Iyad</w>":8068,"chosen</w>":8069,"ocaust</w>":8070,"49</w>":8071,"81</w>":8072,"Asi":8073,"Bou":8074,"Beng":8075,"Dmit":8076,"Fac":8077,"Hill":8078,"Ni":8079,"Pear":8080,"Ta":8081,"Tom</w>":8082,"Taj":8083,"awarded</w>":8084,"cles</w>":8085,"cricket</w>":8086,"din</w>":8087,"ek":8088,"fly</w>":8089,"ky</w>":8090,"kind</w>":8091,"lor</w>":8092,"lus</w>":8093,"rallies</w>":8094,"senti":8095,"tren":8096,"tank</w>":8097,"usian</w>":8098,"xes</w>":8099,"zona</w>":8100,"ini</w>":8101,"redi":8102,"til":8103,"tier</w>":8104,"arm</w>":8105,"outra":8106,"ican</w>":8107,"sar</w>":8108,"sier</w>":8109,"urban</w>":8110,"rigged</w>":8111,"ela</w>":8112,"elabor":8113,"dations</w>":8114,"unities</w>":8115,"univer":8116,"listed</w>":8117,"consec":8118,"consen":8119,"consequ":8120,"agers</w>":8121,"sum":8122,"sidelines</w>":8123,"spend</w>":8124,"ford</w>":8125,"sealed</w>":8126,"compromise</w>":8127,"shared</w>":8128,"edi</w>":8129,"kilogra":8130,"lot</w>":8131,"lose</w>":8132,"cipl":8133,"ima</w>":8134,"ressing</w>":8135,"These</w>":8136,"contam":8137,"missed</w>":8138,"intention</w>":8139,"Pakti":8140,"Monten":8141,"servic":8142,"protec":8143,"hui</w>":8144,"class</w>":8145,"Alito</w>":8146,"Alberto</w>":8147,"iety</w>":8148,"mind</w>":8149,"fair":8150,"cartel</w>":8151,"cular</w>":8152,"egro</w>":8153,"ibouti</w>":8154,"upset</w>":8155,"donations</w>":8156,"guns</w>":8157,"Democra":8158,"visa</w>":8159,"bles</w>":8160,"chair":8161,"Cubans</w>":8162,"affili":8163,"sistent</w>":8164,"Karbal":8165,"arrival</w>":8166,"decisions</w>":8167,"urricanes</w>":8168,"doctor</w>":8169,"fugitive</w>":8170,"emerging</w>":8171,"undermine</w>":8172,"confis":8173,"Atl":8174,"boosted</w>":8175,"enriched</w>":8176,"Arizona</w>":8177,"equal</w>":8178,"Exporting</w>":8179,"Corps</w>":8180,"Camer":8181,"dril":8182,"recognition</w>":8183,"mounting</w>":8184,"generate</w>":8185,"Abdul":8186,"insul":8187,"balloting</w>":8188,"Bolivian</w>":8189,"hero":8190,"tanker</w>":8191,"slowdown</w>":8192,"Argentine</w>":8193,"Solana</w>":8194,"narrow":8195,"lusion</w>":8196,"animal</w>":8197,"animals</w>":8198,"Airlines</w>":8199,"revive</w>":8200,"recommended</w>":8201,"Austrian</w>":8202,"Belarusian</w>":8203,"Taylor</w>":8204,"properly</w>":8205,"reflect</w>":8206,"Yugoslavia</w>":8207,"multiple</w>":8208,"Lahoud</w>":8209,"founder</w>":8210,"club</w>":8211,"thanked</w>":8212,"Djibouti</w>":8213,"phase</w>":8214,"Bahrain</w>":8215,"Daniel</w>":8216,"churches</w>":8217,"Political</w>":8218,"Jesus</w>":8219,"prospects</w>":8220,"vestock</w>":8221,"revealed</w>":8222,"iefs</w>":8223,"Srinagar</w>":8224,"indigenous</w>":8225,"McClellan</w>":8226,"spiritual</w>":8227,"Hillary</w>":8228,"consecutive</w>":8229,"Montenegro</w>":8230,"Karbala</w>":8231,"160</w>":8232,"84</w>":8233,"AM":8234,"Aid</w>":8235,"DC</w>":8236,"EL":8237,"Fre":8238,"Fro":8239,"IN</w>":8240,"Lau":8241,"Lash":8242,"Ny":8243,"Nar":8244,"Nation":8245,"Nik":8246,"Pesha":8247,"Ros":8248,"Sul":8249,"Sub":8250,"WFP</w>":8251,"Zh":8252,"ca</w>":8253,"dop":8254,"dates</w>":8255,"dily</w>":8256,"fill</w>":8257,"fic</w>":8258,"fine</w>":8259,"gest":8260,"ither</w>":8261,"iya</w>":8262,"ique</w>":8263,"lis</w>":8264,"landing</w>":8265,"ral</w>":8266,"san":8267,"tom":8268,"tles</w>":8269,"ancy</w>":8270,"erly</w>":8271,"rets</w>":8272,"enh":8273,"tically</w>":8274,"oran</w>":8275,"staff":8276,"easier</w>":8277,"dak</w>":8278,"division</w>":8279,"unanim":8280,"unpreced":8281,"overs</w>":8282,"ovic</w>":8283,"ffs</w>":8284,"condol":8285,"amen</w>":8286,"depic":8287,"option</w>":8288,"exhib":8289,"shoc":8290,"trust</w>":8291,"parade</w>":8292,"notes</w>":8293,"itime</w>":8294,"Stud":8295,"ingent</w>":8296,"evasion</w>":8297,"discipl":8298,"formerly</w>":8299,"Iranians</w>":8300,"eball</w>":8301,"critic</w>":8302,"Sunnis</w>":8303,"uments</w>":8304,"stic</w>":8305,"lowest</w>":8306,"married</w>":8307,"centri":8308,"outlawed</w>":8309,"outskir":8310,"fail</w>":8311,"Koreas</w>":8312,"interrup":8313,"Official</w>":8314,"soared</w>":8315,"responding</w>":8316,"taki</w>":8317,"pha</w>":8318,"Colin</w>":8319,"transm":8320,"gunman</w>":8321,"gunned</w>":8322,"passa":8323,"regarding</w>":8324,"tells</w>":8325,"green":8326,"involves</w>":8327,"Regi":8328,"Serbs</w>":8329,"neighbor</w>":8330,"Sean</w>":8331,"aches</w>":8332,"employed</w>":8333,"damaging</w>":8334,"ponent</w>":8335,"debris</w>":8336,"college</w>":8337,"farming</w>":8338,"emerged</w>":8339,"criticizing</w>":8340,"Sharif</w>":8341,"representing</w>":8342,"Rod":8343,"Thaks":8344,"slaugh":8345,"18th</w>":8346,"swine</w>":8347,"Lux":8348,"Add":8349,"religion</w>":8350,"profile</w>":8351,"Belgrade</w>":8352,"bab</w>":8353,"Camp</w>":8354,"migrant</w>":8355,"landslide</w>":8356,"longtime</w>":8357,"blood":8358,"contributions</w>":8359,"Quetta</w>":8360,"gadier</w>":8361,"iyeh</w>":8362,"triggering</w>":8363,"flag</w>":8364,"Maoists</w>":8365,"benefit</w>":8366,"squad</w>":8367,"sometimes</w>":8368,"traffickers</w>":8369,"assist</w>":8370,"Holocaust</w>":8371,"computers</w>":8372,"guerrilla</w>":8373,"succeeded</w>":8374,"emisph":8375,"opportunities</w>":8376,"coverage</w>":8377,"Algeria</w>":8378,"Mottaki</w>":8379,"broadcasts</w>":8380,"teenager</w>":8381,"Hungary</w>":8382,"Hungarian</w>":8383,"physical</w>":8384,"subsequent</w>":8385,"Supporters</w>":8386,"Calder":8387,"designated</w>":8388,"house":8389,"stimulus</w>":8390,"respondent</w>":8391,"warrant</w>":8392,"discrimination</w>":8393,"deploy</w>":8394,"Antarctic</w>":8395,"Popular</w>":8396,"atrocities</w>":8397,"Antonio</w>":8398,"medicine</w>":8399,"mourning</w>":8400,"plea</w>":8401,"appropriate</w>":8402,"circum":8403,"Typhoon</w>":8404,"Qureia</w>":8405,"Company</w>":8406,"maximum</w>":8407,"municipal</w>":8408,"Hospital</w>":8409,"elaborate</w>":8410,"Peshawar</w>":8411,"unprecedented</w>":8412,"outskirts</w>":8413,"Thaksin</w>":8414,"04</w>":8415,"11":8416,"82</w>":8417,"BO":8418,"Broad":8419,"BBC</w>":8420,"Cape</w>":8421,"ER</w>":8422,"Fal":8423,"Hel":8424,"Home</w>":8425,"Hay":8426,"IN":8427,"Lav":8428,"Nag":8429,"Nuclear</w>":8430,"Of</w>":8431,"Ri":8432,"Rog":8433,"Rita</w>":8434,"San":8435,"Ter":8436,"aside</w>":8437,"astro":8438,"dated</w>":8439,"dry</w>":8440,"fence</w>":8441,"fever</w>":8442,"hall</w>":8443,"ju":8444,"leng":8445,"mem":8446,"ny</w>":8447,"pum":8448,"rushed</w>":8449,"selected</w>":8450,"sick</w>":8451,"wic":8452,"web</w>":8453,"you":8454,"zhou</w>":8455,"things</w>":8456,"inti":8457,"insp":8458,"iness</w>":8459,"revis":8460,"reaffir":8461,"enly</w>":8462,"arch</w>":8463,"arra</w>":8464,"armored</w>":8465,"ouster</w>":8466,"stret":8467,"station":8468,"stores</w>":8469,"atmo":8470,"say":8471,"sight</w>":8472,"urge</w>":8473,"radic":8474,"ellick</w>":8475,"dah</w>":8476,"dawn</w>":8477,"accompan":8478,"essive</w>":8479,"unmanned</w>":8480,"livestock</w>":8481,"laid</w>":8482,"ash</w>":8483,"asser":8484,"ising</w>":8485,"neither</w>":8486,"spill</w>":8487,"comprehensive</w>":8488,"pei</w>":8489,"try":8490,"loaded</w>":8491,"ull</w>":8492,"ight":8493,"quot":8494,"Chi":8495,"strators</w>":8496,"stranded</w>":8497,"Institute</w>":8498,"Steph":8499,"work":8500,"embourg</w>":8501,"evin</w>":8502,"argued</w>":8503,"percent":8504,"suring</w>":8505,"electric</w>":8506,"priority</w>":8507,"flown</w>":8508,"entially</w>":8509,"fined</w>":8510,"warnings</w>":8511,"warlords</w>":8512,"harm</w>":8513,"marri":8514,"marred</w>":8515,"surged</w>":8516,"wounds</w>":8517,"airports</w>":8518,"Shin":8519,"Shang":8520,"Brigadier</w>":8521,"lawsuit</w>":8522,"Talks</w>":8523,"concert</w>":8524,"drawn</w>":8525,"ranked</w>":8526,"ranean</w>":8527,"observed</w>":8528,"correc":8529,"reactors</w>":8530,"comply</w>":8531,"halted</w>":8532,"Carter</w>":8533,"sisting</w>":8534,"requi":8535,"hopeful</w>":8536,"tail</w>":8537,"employee</w>":8538,"birth":8539,"colli":8540,"Harry</w>":8541,"Taipei</w>":8542,"represents</w>":8543,"picture</w>":8544,"promises</w>":8545,"cultural</w>":8546,"Green</w>":8547,"anks":8548,"militiamen</w>":8549,"focusing</w>":8550,"Shah</w>":8551,"Shabab</w>":8552,"volcan":8553,"breaking</w>":8554,"approxim":8555,"photogra":8556,"Mediter":8557,"prompting</w>":8558,"menei</w>":8559,"someone</w>":8560,"typhoon</w>":8561,"fatalities</w>":8562,"challenged</w>":8563,"recruiting</w>":8564,"malaria</w>":8565,"motorcycle</w>":8566,"Khamenei</w>":8567,"Weah</w>":8568,"Weather</w>":8569,"Nazi</w>":8570,"fleeing</w>":8571,"reverse</w>":8572,"isolation</w>":8573,"subsequently</w>":8574,"accords</w>":8575,"dissolved</w>":8576,"procedure</w>":8577,"viewed</w>":8578,"Nablus</w>":8579,"inauguration</w>":8580,"Andres</w>":8581,"intensified</w>":8582,"Investigators</w>":8583,"urgent</w>":8584,"Details</w>":8585,"pollution</w>":8586,"disclosed</w>":8587,"Bhutto</w>":8588,"authenti":8589,"desire</w>":8590,"shopping</w>":8591,"margin</w>":8592,"Lithuania</w>":8593,"Zoellick</w>":8594,"badly</w>":8595,"Rashid</w>":8596,"restructuring</w>":8597,"tragedy</w>":8598,"toxic</w>":8599,"Democrat</w>":8600,"Lashkar</w>":8601,"Luxembourg</w>":8602,"atmosphere</w>":8603,"percentage</w>":8604,"Mediterranean</w>":8605,"62</w>":8606,"93</w>":8607,"98</w>":8608,"Abu":8609,"Est":8610,"Fil":8611,"Gad":8612,"Its</w>":8613,"Jones</w>":8614,"Mat":8615,"Ok":8616,"PR":8617,"Pl":8618,"Roc":8619,"Tom":8620,"Tran":8621,"Yus":8622,"Yem":8623,"Zone</w>":8624,"af</w>":8625,"aim</w>":8626,"bourn":8627,"cold</w>":8628,"hate</w>":8629,"je":8630,"math</w>":8631,"od":8632,"ppi</w>":8633,"rity</w>":8634,"san</w>":8635,"scar":8636,"tan</w>":8637,"tress</w>":8638,"teg":8639,"tech</w>":8640,"toms</w>":8641,"vital</w>":8642,"zer</w>":8643,"thly</w>":8644,"erto</w>":8645,"renew</w>":8646,"reward</w>":8647,"entr":8648,"oust</w>":8649,"albu":8650,"along":8651,"atched</w>":8652,"roof</w>":8653,"hafi</w>":8654,"sacri":8655,"simul":8656,"sissi":8657,"rage</w>":8658,"ect":8659,"elders</w>":8660,"omen</w>":8661,"lib":8662,"lie</w>":8663,"liqu":8664,"laden</w>":8665,"beha":8666,"beef</w>":8667,"whole</w>":8668,"aso</w>":8669,"sus</w>":8670,"choice</w>":8671,"spring</w>":8672,"sees</w>":8673,"ads</w>":8674,"adi</w>":8675,"exist</w>":8676,"exiled</w>":8677,"abilities</w>":8678,"residential</w>":8679,"vig":8680,"import</w>":8681,"counting</w>":8682,"ulent</w>":8683,"earth</w>":8684,"Ste":8685,"turmo":8686,"evo</w>":8687,"persu":8688,"motive</w>":8689,"mistic</w>":8690,"invent":8691,"capit":8692,"tally</w>":8693,"pending</w>":8694,"hardest</w>":8695,"violated</w>":8696,"version</w>":8697,"overing</w>":8698,"fax</w>":8699,"carbon</w>":8700,"airlines</w>":8701,"Shan</w>":8702,"Deby</w>":8703,"rebellion</w>":8704,"awa</w>":8705,"followers</w>":8706,"clothing</w>":8707,"mptoms</w>":8708,"relative</w>":8709,"delays</w>":8710,"ordination</w>":8711,"dicated</w>":8712,"transpa":8713,"locate</w>":8714,"Organiz":8715,"Juan</w>":8716,"buses</w>":8717,"fundam":8718,"Reid</w>":8719,"essential</w>":8720,"resulting</w>":8721,"infil":8722,"seeks</w>":8723,"Environ":8724,"meat</w>":8725,"backs</w>":8726,"burden</w>":8727,"aching</w>":8728,"medal</w>":8729,"disagre":8730,"threaten</w>":8731,"threatens</w>":8732,"purported</w>":8733,"namese</w>":8734,"ologists</w>":8735,"Peter":8736,"Liberian</w>":8737,"cross":8738,"pick</w>":8739,"legislators</w>":8740,"suffer</w>":8741,"detainee</w>":8742,"organizers</w>":8743,"pledges</w>":8744,"contractor</w>":8745,"foot":8746,"abduction</w>":8747,"custom":8748,"establishing</w>":8749,"values</w>":8750,"Benjam":8751,"Bolton</w>":8752,"Manila</w>":8753,"rescuers</w>":8754,"anticip":8755,"sparking</w>":8756,"handled</w>":8757,"landmark</w>":8758,"mountains</w>":8759,"variety</w>":8760,"ennium</w>":8761,"Herald</w>":8762,"Vietnamese</w>":8763,"Rafah</w>":8764,"counterparts</w>":8765,"potentially</w>":8766,"abila</w>":8767,"Bangladeshi</w>":8768,"Mass</w>":8769,"mistak":8770,"narrow</w>":8771,"shipments</w>":8772,"apart</w>":8773,"Frontier</w>":8774,"punish</w>":8775,"Haniyeh</w>":8776,"suspicious</w>":8777,"maintaining</w>":8778,"1949</w>":8779,"silence</w>":8780,"Negoti":8781,"covering</w>":8782,"implemented</w>":8783,"Jama":8784,"Mississi":8785,"freezing</w>":8786,"Motors</w>":8787,"engineers</w>":8788,"strengthened</w>":8789,"Lahore</w>":8790,"aftermath</w>":8791,"fleet</w>":8792,"catastro":8793,"machine</w>":8794,"propelled</w>":8795,"stocks</w>":8796,"businessman</w>":8797,"Journal</w>":8798,"professional</w>":8799,"aviation</w>":8800,"Reza</w>":8801,"Industri":8802,"aims</w>":8803,"Honduras</w>":8804,"seizure</w>":8805,"Evo</w>":8806,"voiced</w>":8807,"attributed</w>":8808,"networks</w>":8809,"overwhelming</w>":8810,"Homeland</w>":8811,"severely</w>":8812,"Demonstrators</w>":8813,"Gonzales</w>":8814,"Lavrov</w>":8815,"quotas</w>":8816,"Shanghai</w>":8817,"bourne</w>":8818,"alongside</w>":8819,"turmoil</w>":8820,"Benjamin</w>":8821,"Mississippi</w>":8822,"12":8823,"170</w>":8824,"900</w>":8825,"Bat":8826,"EM":8827,"Emil":8828,"Ford</w>":8829,"FTA</w>":8830,"Gal":8831,"Gbag":8832,"Hy":8833,"Kum":8834,"Lari":8835,"Mol":8836,"Mous":8837,"Nur":8838,"Neither</w>":8839,"Ott":8840,"Ron":8841,"Rad":8842,"Reb":8843,"Rah":8844,"Sm":8845,"Sib":8846,"Tel</w>":8847,"Ya":8848,"You</w>":8849,"Yasser</w>":8850,"aa</w>":8851,"ael</w>":8852,"aides</w>":8853,"cattle</w>":8854,"dney</w>":8855,"gate</w>":8856,"kic":8857,"kno":8858,"kzai</w>":8859,"ly":8860,"luc":8861,"mits</w>":8862,"mourn":8863,"nin":8864,"sely</w>":8865,"ust":8866,"weight</w>":8867,"yland</w>":8868,"yard</w>":8869,"zic</w>":8870,"inia</w>":8871,"anon":8872,"analy":8873,"rehol":8874,"repair</w>":8875,"enforcement</w>":8876,"stol":8877,"stac":8878,"stein</w>":8879,"alis</w>":8880,"atero</w>":8881,"roy":8882,"root</w>":8883,"righ":8884,"oly</w>":8885,"dic</w>":8886,"diag":8887,"users</w>":8888,"lia</w>":8889,"proper</w>":8890,"behalf</w>":8891,"consi":8892,"conven":8893,"astic</w>":8894,"assured</w>":8895,"aming</w>":8896,"opponent</w>":8897,"aganda</w>":8898,"sud":8899,"suits</w>":8900,"spot</w>":8901,"extrac":8902,"idi</w>":8903,"abusing</w>":8904,"tril":8905,"estate</w>":8906,"eet</w>":8907,"nosed</w>":8908,"note</w>":8909,"tery</w>":8910,"termin":8911,"country":8912,"buying</w>":8913,"routes</w>":8914,"Thanks":8915,"ocean</w>":8916,"Independent</w>":8917,"monsoon</w>":8918,"monwealth</w>":8919,"monetary</w>":8920,"eveni</w>":8921,"contingent</w>":8922,"alians</w>":8923,"code</w>":8924,"fueled</w>":8925,"intends</w>":8926,"borne</w>":8927,"rements</w>":8928,"fact</w>":8929,"finish</w>":8930,"Ander":8931,"outstanding</w>":8932,"overcome</w>":8933,"master":8934,"faith</w>":8935,"airspace</w>":8936,"Museveni</w>":8937,"Shwe</w>":8938,"Islamists</w>":8939,"Paragu":8940,"Sydney</w>":8941,"offenses</w>":8942,"Chadian</w>":8943,"obstac":8944,"upsurge</w>":8945,"species</w>":8946,"possession</w>":8947,"ife</w>":8948,"laundering</w>":8949,"rupt</w>":8950,"treating</w>":8951,"mediators</w>":8952,"illing":8953,"socialist</w>":8954,"starts</w>":8955,"engage</w>":8956,"administrative</w>":8957,"license</w>":8958,"ska</w>":8959,"Sey":8960,"achieve</w>":8961,"utives</w>":8962,"damages</w>":8963,"settle</w>":8964,"partial</w>":8965,"understanding</w>":8966,"feed</w>":8967,"declare</w>":8968,"Contro":8969,"slaughter</w>":8970,"watched</w>":8971,"contracts</w>":8972,"nature</w>":8973,"1974</w>":8974,"Aden</w>":8975,"grand</w>":8976,"valley</w>":8977,"Benin</w>":8978,"patrol":8979,"Kyo":8980,"murders</w>":8981,"fails</w>":8982,"Balad</w>":8983,"conviction</w>":8984,"bene":8985,"regularly</w>":8986,"standard</w>":8987,"Romanian</w>":8988,"scientist</w>":8989,"scientific</w>":8990,"ordinary</w>":8991,"evacuation</w>":8992,"committing</w>":8993,"lux":8994,"princip":8995,"review":8996,"Lawyers</w>":8997,"toppled</w>":8998,"interrogators</w>":8999,"Melbourne</w>":9000,"dinner</w>":9001,"smoke</w>":9002,"blaming</w>":9003,"jumped</w>":9004,"refuge</w>":9005,"isolated</w>":9006,"amendments</w>":9007,"everyone</w>":9008,"everything</w>":9009,"doubt</w>":9010,"Mayor</w>":9011,"extradited</w>":9012,"brutal</w>":9013,"Sahara</w>":9014,"Only</w>":9015,"Osse":9016,"weakened</w>":9017,"Zapatero</w>":9018,"wrongdoing</w>":9019,"petition</w>":9020,"disperse</w>":9021,"Greenspan</w>":9022,"beaten</w>":9023,"classified</w>":9024,"Felipe</w>":9025,"ancient</w>":9026,"wreckage</w>":9027,"colleagues</w>":9028,"volunteers</w>":9029,"legitimate</w>":9030,"Karen</w>":9031,"Mount</w>":9032,"mentioned</w>":9033,"absolute</w>":9034,"Diyala</w>":9035,"tribesmen</w>":9036,"consequences</w>":9037,"Paktika</w>":9038,"fairly</w>":9039,"confiscated</w>":9040,"heroin</w>":9041,"condolences</w>":9042,"passage</w>":9043,"emisphere</w>":9044,"11th</w>":9045,"youths</w>":9046,"marriage</w>":9047,"Gadhafi</w>":9048,"Yemeni</w>":9049,"behavi":9050,"Gbagbo</w>":9051,"Larijani</w>":9052,"knoc":9053,"ninth</w>":9054,"Thanksgiving</w>":9055,"Paraguay</w>":9056,"69</w>":9057,"87</w>":9058,"83</w>":9059,"92</w>":9060,"BP</w>":9061,"Bom":9062,"Bus":9063,"Blo":9064,"Bog":9065,"Cas":9066,"Dom":9067,"EAN</w>":9068,"Grow":9069,"Hil":9070,"Hoo":9071,"Kra":9072,"Kadi":9073,"Kingdom</w>":9074,"Kevin</w>":9075,"Lula</w>":9076,"Mut":9077,"Neg":9078,"Pla":9079,"Rat":9080,"Tru":9081,"VI</w>":9082,"Vol":9083,"We</w>":9084,"balli":9085,"cac":9086,"dong</w>":9087,"fow":9088,"file</w>":9089,"gn":9090,"hik":9091,"healthy</w>":9092,"irez</w>":9093,"kes":9094,"male</w>":9095,"nels</w>":9096,"pain":9097,"piracy</w>":9098,"song":9099,"swa":9100,"ure":9101,"youth</w>":9102,"thin":9103,"inations</w>":9104,"indi</w>":9105,"annex":9106,"erra</w>":9107,"enza</w>":9108,"tioning</w>":9109,"arm":9110,"stal":9111,"alom</w>":9112,"ilit":9113,"icy</w>":9114,"icals</w>":9115,"icians</w>":9116,"hailed</w>":9117,"easing</w>":9118,"urs</w>":9119,"ele</w>":9120,"acad":9121,"actress</w>":9122,"pling</w>":9123,"plays</w>":9124,"unch</w>":9125,"lab</w>":9126,"iring</w>":9127,"ambi":9128,"depos":9129,"leaf</w>":9130,"sub</w>":9131,"chea":9132,"chma</w>":9133,"spot":9134,"fortun":9135,"seize</w>":9136,"exposed</w>":9137,"abused</w>":9138,"appoint</w>":9139,"shment</w>":9140,"pard":9141,"load</w>":9142,"noting</w>":9143,"notorious</w>":9144,"pop</w>":9145,"quick</w>":9146,"quakes</w>":9147,"Chall":9148,"Inacio</w>":9149,"worship":9150,"attached</w>":9151,"perc":9152,"prises</w>":9153,"trains</w>":9154,"reness</w>":9155,"preci":9156,"solar</w>":9157,"heat</w>":9158,"ducks</w>":9159,"factories</w>":9160,"hari</w>":9161,"operative</w>":9162,"card</w>":9163,"Africans</w>":9164,"retail":9165,"placement</w>":9166,"Shor":9167,"fering</w>":9168,"curfew</w>":9169,"Park</w>":9170,"tense</w>":9171,"tension</w>":9172,"senators</w>":9173,"offers</w>":9174,"ranks</w>":9175,"producers</w>":9176,"visional</w>":9177,"correspondent</w>":9178,"specific":9179,"gather</w>":9180,"torate</w>":9181,"Proliferation</w>":9182,"symptoms</w>":9183,"peacefully</w>":9184,"chanted</w>":9185,"tree</w>":9186,"venture</w>":9187,"wind":9188,"negotiating</w>":9189,"matches</w>":9190,"Johann":9191,"particular</w>":9192,"idden</w>":9193,"Consu":9194,"culled</w>":9195,"culture</w>":9196,"slain</w>":9197,"transl":9198,"frag":9199,"icken</w>":9200,"sharehol":9201,"1976</w>":9202,"assassinated</w>":9203,"Basque</w>":9204,"Ramirez</w>":9205,"patrols</w>":9206,"dominant</w>":9207,"Corp</w>":9208,"Management</w>":9209,"crack</w>":9210,"letters</w>":9211,"competing</w>":9212,"participating</w>":9213,"Emirates</w>":9214,"Herat</w>":9215,"influenza</w>":9216,"iyev</w>":9217,"wild":9218,"ballot</w>":9219,"Community</w>":9220,"Kuchma</w>":9221,"checkpoints</w>":9222,"Davis</w>":9223,"tunnels</w>":9224,"something</w>":9225,"conversion</w>":9226,"granting</w>":9227,"writing</w>":9228,"practices</w>":9229,"type</w>":9230,"Malaysian</w>":9231,"coordinate</w>":9232,"cocoa</w>":9233,"fatal</w>":9234,"transporting</w>":9235,"forecast</w>":9236,"Scotland</w>":9237,"purchased</w>":9238,"circul":9239,"Survey</w>":9240,"smoking</w>":9241,"abortion</w>":9242,"audience</w>":9243,"escalating</w>":9244,"Dominican</w>":9245,"dismantle</w>":9246,"ASEAN</w>":9247,"propaganda</w>":9248,"THE</w>":9249,"dumped</w>":9250,"Socialist</w>":9251,"Rene</w>":9252,"extremism</w>":9253,"Tensions</w>":9254,"barrier</w>":9255,"solidarity</w>":9256,"restaurant</w>":9257,"recommendations</w>":9258,"eighth</w>":9259,"renounce</w>":9260,"suburb</w>":9261,"privatization</w>":9262,"hampered</w>":9263,"appointment</w>":9264,"ignored</w>":9265,"dramatically</w>":9266,"Protesters</w>":9267,"Aviv</w>":9268,"carrier</w>":9269,"miral</w>":9270,"Virginia</w>":9271,"Sirleaf</w>":9272,"Albanian</w>":9273,"Economists</w>":9274,"Asif</w>":9275,"Calderon</w>":9276,"approximately</w>":9277,"diagnosed</w>":9278,"Anderson</w>":9279,"beneath</w>":9280,"Ossetia</w>":9281,"behavior</w>":9282,"ballistic</w>":9283,"worshippers</w>":9284,"specifically</w>":9285,"05</w>":9286,"13":9287,"60th</w>":9288,"97</w>":9289,"Bi":9290,"BS</w>":9291,"Bac":9292,"Cer":9293,"Citi":9294,"Dha":9295,"Day":9296,"Fit":9297,"Flo":9298,"Gib":9299,"God</w>":9300,"Gedi</w>":9301,"Hind":9302,"Jim</w>":9303,"KI":9304,"Kabila</w>":9305,"Late</w>":9306,"Marg":9307,"Mil</w>":9308,"Massa":9309,"Ora":9310,"Pu":9311,"Pap":9312,"RO":9313,"Rou":9314,"Rio</w>":9315,"Shui</w>":9316,"Up":9317,"West":9318,"Women</w>":9319,"Zuma</w>":9320,"bans</w>":9321,"dan</w>":9322,"dressed</w>":9323,"eu":9324,"eover</w>":9325,"euti":9326,"efficient</w>":9327,"few":9328,"gla":9329,"goo":9330,"hill</w>":9331,"hear</w>":9332,"hem</w>":9333,"ix</w>":9334,"keys</w>":9335,"mans</w>":9336,"midn":9337,"oi</w>":9338,"pal":9339,"pharm":9340,"qt":9341,"riles</w>":9342,"song</w>":9343,"science</w>":9344,"tear</w>":9345,"wra":9346,"wealthy</w>":9347,"yber</w>":9348,"yah</w>":9349,"thr":9350,"throwing</w>":9351,"anx":9352,"erals</w>":9353,"erial</w>":9354,"reopen</w>":9355,"enty</w>":9356,"arb":9357,"orb":9358,"stance</w>":9359,"stake</w>":9360,"stood</w>":9361,"stones</w>":9362,"itaries</w>":9363,"attered</w>":9364,"rot":9365,"ropon":9366,"royo</w>":9367,"eased</w>":9368,"raft</w>":9369,"ramp":9370,"ratified</w>":9371,"omberg</w>":9372,"atisti":9373,"actor</w>":9374,"accompl":9375,"actually</w>":9376,"aceuti":9377,"ema</w>":9378,"embe":9379,"unil":9380,"lights</w>":9381,"proof</w>":9382,"provisions</w>":9383,"deemed</w>":9384,"suf</w>":9385,"ower</w>":9386,"chi":9387,"chol":9388,"forum</w>":9389,"ading</w>":9390,"exac":9391,"idoa</w>":9392,"theid</w>":9393,"losing</w>":9394,"pool</w>":9395,"imposing</w>":9396,"bureau</w>":9397,"Under":9398,"secession</w>":9399,"quality</w>":9400,"recalled</w>":9401,"ocol</w>":9402,"content</w>":9403,"permit</w>":9404,"priest</w>":9405,"Mongol":9406,"solid</w>":9407,"fines</w>":9408,"Anti</w>":9409,"verdict</w>":9410,"Baidoa</w>":9411,"marine</w>":9412,"Alan</w>":9413,"Moqt":9414,"camer":9415,"fast":9416,"effer</w>":9417,"interference</w>":9418,"interviews</w>":9419,"retail</w>":9420,"Marburg</w>":9421,"aire</w>":9422,"ealing</w>":9423,"weaken</w>":9424,"defending</w>":9425,"cega</w>":9426,"derly</w>":9427,"resumption</w>":9428,"Arroyo</w>":9429,"Arcega</w>":9430,"produces</w>":9431,"delib":9432,"delaying</w>":9433,"ordon</w>":9434,"Commonwealth</w>":9435,"speci":9436,"locations</w>":9437,"wai</w>":9438,"waste</w>":9439,"Somalis</w>":9440,"assess</w>":9441,"reaction</w>":9442,"chae":9443,"chair</w>":9444,"kidnap</w>":9445,"communication</w>":9446,"Carriles</w>":9447,"mediate</w>":9448,"veness</w>":9449,"drivers</w>":9450,"infections</w>":9451,"wind</w>":9452,"requests</w>":9453,"tough":9454,"appealing</w>":9455,"risks</w>":9456,"Interfax</w>":9457,"expressing</w>":9458,"searched</w>":9459,"Keny":9460,"referring</w>":9461,"Petro":9462,"battled</w>":9463,"sada</w>":9464,"crop</w>":9465,"nationalities</w>":9466,"promising</w>":9467,"boom</w>":9468,"hike</w>":9469,"toler":9470,"Luiz</w>":9471,"enrich</w>":9472,"grand":9473,"executives</w>":9474,"stepping</w>":9475,"Michel":9476,"Scheffer</w>":9477,"check</w>":9478,"expire</w>":9479,"expelled</w>":9480,"preparations</w>":9481,"recognizes</w>":9482,"collabor":9483,"regulators</w>":9484,"Bangko":9485,"ategory</w>":9486,"implicated</w>":9487,"Wilma</w>":9488,"1962</w>":9489,"shoot</w>":9490,"herself</w>":9491,"tane":9492,"sugges":9493,"chemicals</w>":9494,"deliveries</w>":9495,"except</w>":9496,"disrupting</w>":9497,"Representative</w>":9498,"shipping</w>":9499,"apartheid</w>":9500,"chicken</w>":9501,"surveyed</w>":9502,"objections</w>":9503,"register</w>":9504,"nutri":9505,"defendant</w>":9506,"evacuate</w>":9507,"Holy</w>":9508,"amounts</w>":9509,"Samarra</w>":9510,"restoring</w>":9511,"Kyrgyz</w>":9512,"ranging</w>":9513,"firefight</w>":9514,"prepares</w>":9515,"Trib":9516,"Dujail</w>":9517,"foundation</w>":9518,"conflicting</w>":9519,"individual</w>":9520,"Television</w>":9521,"Warsaw</w>":9522,"revolution</w>":9523,"federation</w>":9524,"according</w>":9525,"15th</w>":9526,"procedures</w>":9527,"businessmen</w>":9528,"Journalists</w>":9529,"steady</w>":9530,"adjour":9531,"reunification</w>":9532,"prosperous</w>":9533,"Yousuf</w>":9534,"Mehlis</w>":9535,"deteriorating</w>":9536,"ravaged</w>":9537,"Guangdong</w>":9538,"gradually</w>":9539,"character":9540,"incursion</w>":9541,"Francisco</w>":9542,"greatest</w>":9543,"logistical</w>":9544,"Villep":9545,"TRU":9546,"Operation</w>":9547,"Slovenia</w>":9548,"platform</w>":9549,"Houston</w>":9550,"predominantly</w>":9551,"kilograms</w>":9552,"Atlanta</w>":9553,"Laurent</w>":9554,"slaughtered</w>":9555,"stationed</w>":9556,"requirements</w>":9557,"birthday</w>":9558,"inventories</w>":9559,"footage</w>":9560,"mourners</w>":9561,"Control</w>":9562,"luxury</w>":9563,"Bloomberg</w>":9564,"Growth</w>":9565,"Negropon":9566,"cache</w>":9567,"deposits</w>":9568,"Hindu</w>":9569,"Orakzai</w>":9570,"midnight</w>":9571,"pharmaceuti":9572,"Moqtada</w>":9573,"Bangkok</w>":9574,"Villepin</w>":9575,"Negroponte</w>":9576,"68</w>":9577,"Ath":9578,"Aqu":9579,"APEC</w>":9580,"Ban":9581,"Ben</w>":9582,"Bid":9583,"Beth":9584,"Foun":9585,"Gi":9586,"G8</w>":9587,"Glo":9588,"Hi":9589,"Jen":9590,"Jab":9591,"Ki":9592,"Kal":9593,"Kac":9594,"Li</w>":9595,"Light</w>":9596,"Oman</w>":9597,"Say":9598,"Tul":9599,"Zeb":9600,"ais":9601,"abet":9602,"cub":9603,"cils</w>":9604,"drow":9605,"fed</w>":9606,"fans</w>":9607,"flam":9608,"founding</w>":9609,"gaining</w>":9610,"hect":9611,"iers</w>":9612,"iary</w>":9613,"mack</w>":9614,"none</w>":9615,"oo</w>":9616,"pushing</w>":9617,"rd</w>":9618,"tine</w>":9619,"task</w>":9620,"uf</w>":9621,"yen</w>":9622,"zyn":9623,"tha</w>":9624,"thro":9625,"instr":9626,"inating</w>":9627,"ermen</w>":9628,"rey</w>":9629,"encoun":9630,"tie</w>":9631,"arded</w>":9632,"ario</w>":9633,"arbit":9634,"stances</w>":9635,"stadium</w>":9636,"ilo</w>":9637,"royal</w>":9638,"haven</w>":9639,"sively</w>":9640,"rammed</w>":9641,"rioting</w>":9642,"else</w>":9643,"oman</w>":9644,"olds</w>":9645,"usual</w>":9646,"lasted</w>":9647,"prohib":9648,"whales</w>":9649,"ira</w>":9650,"deal":9651,"depar":9652,"dedicated</w>":9653,"sident</w>":9654,"chi</w>":9655,"chose</w>":9656,"erners</w>":9657,"adzic</w>":9658,"apply</w>":9659,"aker</w>":9660,"frozen</w>":9661,"pedi":9662,"ede</w>":9663,"tware</w>":9664,"twork</w>":9665,"vier</w>":9666,"cig":9667,"eek</w>":9668,"lethal</w>":9669,"udulent</w>":9670,"routine</w>":9671,"quiet</w>":9672,"quota</w>":9673,"Than</w>":9674,"incor":9675,"recovering</w>":9676,"Inc</w>":9677,"Independence</w>":9678,"worsen":9679,"monthly</w>":9680,"contacts</w>":9681,"perpe":9682,"permits</w>":9683,"surplus</w>":9684,"trips</w>":9685,"disgu":9686,"manip":9687,"epid":9688,"accur":9689,"invest</w>":9690,"predec":9691,"predict</w>":9692,"decree</w>":9693,"hosted</w>":9694,"factor</w>":9695,"versy</w>":9696,"verified</w>":9697,"baseball</w>":9698,"maritime</w>":9699,"Moz":9700,"mini":9701,"overthrew</w>":9702,"Marx":9703,"shield</w>":9704,"depend</w>":9705,"deser":9706,"ewal":9707,"investigations</w>":9708,"dick</w>":9709,"Champ":9710,"Colum":9711,"transac":9712,"gunships</w>":9713,"blown</w>":9714,"cham":9715,"highligh":9716,"Gul</w>":9717,"affar":9718,"trees</w>":9719,"sister</w>":9720,"empha":9721,"famine</w>":9722,"Karadzic</w>":9723,"ika</w>":9724,"rocks</w>":9725,"diplomacy</w>":9726,"1986</w>":9727,"1980</w>":9728,"expert</w>":9729,"Bob</w>":9730,"suspending</w>":9731,"represented</w>":9732,"pur</w>":9733,"Muth":9734,"Khyber</w>":9735,"books</w>":9736,"Amman</w>":9737,"pointing</w>":9738,"privately</w>":9739,"fraudulent</w>":9740,"organizing</w>":9741,"blocks</w>":9742,"spacewal":9743,"Deleg":9744,"1975</w>":9745,"1973</w>":9746,"establishment</w>":9747,"changing</w>":9748,"Shauk":9749,"condemning</w>":9750,"murdered</w>":9751,"films</w>":9752,"ownership</w>":9753,"cancel</w>":9754,"Cormack</w>":9755,"Manouch":9756,"accidentally</w>":9757,"Posada</w>":9758,"McCormack</w>":9759,"Final</w>":9760,"younger</w>":9761,"fishermen</w>":9762,"approached</w>":9763,"dismiss</w>":9764,"Rafael</w>":9765,"Sierra</w>":9766,"restricted</w>":9767,"Kuwa":9768,"favor":9769,"happy</w>":9770,"effectively</w>":9771,"prayer</w>":9772,"refining</w>":9773,"10th</w>":9774,"Akayev</w>":9775,"printed</w>":9776,"Macau</w>":9777,"piec":9778,"sustain":9779,"scandals</w>":9780,"Children</w>":9781,"association</w>":9782,"Leon":9783,"Leone</w>":9784,"Hanoi</w>":9785,"snow":9786,"software</w>":9787,"bolster</w>":9788,"precau":9789,"intentions</w>":9790,"Khaled</w>":9791,"sexually</w>":9792,"implementing</w>":9793,"implementation</w>":9794,"Cambodian</w>":9795,"Frank</w>":9796,"paramilitaries</w>":9797,"substantially</w>":9798,"eliminate</w>":9799,"lacks</w>":9800,"shootings</w>":9801,"Bernard</w>":9802,"enjoy</w>":9803,"expensive</w>":9804,"awaiting</w>":9805,"awareness</w>":9806,"stamp</w>":9807,"khan":9808,"Heavy</w>":9809,"IRNA</w>":9810,"diversify</w>":9811,"Rescue</w>":9812,"Rescuers</w>":9813,"intercepted</w>":9814,"Zambia</w>":9815,"Gilani</w>":9816,"coffee</w>":9817,"answer</w>":9818,"IOC</w>":9819,"Electoral</w>":9820,"apologized</w>":9821,"degrees</w>":9822,"difficulties</w>":9823,"esterday</w>":9824,"sabotage</w>":9825,"Bengal</w>":9826,"From</w>":9827,"unanimously</w>":9828,"greenhouse</w>":9829,"circumstances</w>":9830,"reaffirmed</w>":9831,"accompanied</w>":9832,"Stephen</w>":9833,"Organizers</w>":9834,"Rebels</w>":9835,"anonym":9836,"stolen</w>":9837,"trillion</w>":9838,"fewer</w>":9839,"Tribunal</w>":9840,"TRUE</w>":9841,"Biden</w>":9842,"Foundation</w>":9843,"Kaczyn":9844,"predecessor</w>":9845,"Shaukat</w>":9846,"Manouchehr</w>":9847,"Kaczynski</w>":9848,"110</w>":9849,"350</w>":9850,"79</w>":9851,"86</w>":9852,"Ase":9853,"Att":9854,"Adam</w>":9855,"Bad":9856,"Co</w>":9857,"Cold</w>":9858,"Dra":9859,"Duma</w>":9860,"Fern":9861,"GM</w>":9862,"Got":9863,"Had":9864,"Hash":9865,"Iow":9866,"Jed":9867,"Jill</w>":9868,"Jaff":9869,"Kon":9870,"Kad":9871,"La</w>":9872,"Lar":9873,"Lay</w>":9874,"Lord</w>":9875,"Myan":9876,"Mitch":9877,"Mwai</w>":9878,"Nev":9879,"Nang":9880,"Rea":9881,"Riy":9882,"Spo":9883,"Santi":9884,"Sisco</w>":9885,"Tung</w>":9886,"Voice</w>":9887,"Wi":9888,"Wen</w>":9889,"XVI</w>":9890,"Zen":9891,"aj</w>":9892,"bid":9893,"bited</w>":9894,"barg":9895,"bann":9896,"branch</w>":9897,"ck</w>":9898,"cable</w>":9899,"cites</w>":9900,"ege</w>":9901,"fees</w>":9902,"gro":9903,"hat":9904,"hoods</w>":9905,"lu</w>":9906,"lus":9907,"nov":9908,"pher</w>":9909,"rator</w>":9910,"ser</w>":9911,"smen</w>":9912,"tore</w>":9913,"tments</w>":9914,"treason</w>":9915,"wat</w>":9916,"willing":9917,"yar</w>":9918,"thes</w>":9919,"ink":9920,"rean</w>":9921,"resi":9922,"reated</w>":9923,"reopened</w>":9924,"enacted</w>":9925,"arsen":9926,"oni</w>":9927,"online</w>":9928,"ori":9929,"orian</w>":9930,"oun</w>":9931,"stops</w>":9932,"icate</w>":9933,"hab</w>":9934,"hair</w>":9935,"sail":9936,"siz":9937,"ecraft</w>":9938,"rig":9939,"rifl":9940,"dacy</w>":9941,"acks</w>":9942,"esburg</w>":9943,"uset":9944,"unt</w>":9945,"unlikely</w>":9946,"unfair</w>":9947,"livel":9948,"lahi</w>":9949,"laure":9950,"concentr":9951,"aman</w>":9952,"isi</w>":9953,"destabilize</w>":9954,"chuset":9955,"spil":9956,"adh</w>":9957,"aped</w>":9958,"akar</w>":9959,"shou":9960,"atters</w>":9961,"ultim":9962,"leve":9963,"lehem</w>":9964,"secured</w>":9965,"stricken</w>":9966,"embar":9967,"contain":9968,"display</w>":9969,"priests</w>":9970,"coincid":9971,"cooperating</w>":9972,"audio</w>":9973,"rency</w>":9974,"fixed</w>":9975,"acco</w>":9976,"accel":9977,"demol":9978,"captain</w>":9979,"capabilities</w>":9980,"anny</w>":9981,"remn":9982,"pension</w>":9983,"facilit":9984,"panic</w>":9985,"Anat":9986,"Andi":9987,"Andrew</w>":9988,"aret</w>":9989,"harv":9990,"detailed</w>":9991,"Baj":9992,"arresting</w>":9993,"outlin":9994,"releasing</w>":9995,"intervention</w>":9996,"interfering</w>":9997,"rete</w>":9998,"strip</w>":9999,"DeLay</w>":10000,"lawsuits</w>":10001,"structural</w>":10002,"derail</w>":10003,"sense</w>":10004,"controversy</w>":10005,"drafting</w>":10006,"eggs</w>":10007,"resuming</w>":10008,"shop</w>":10009,"takeover</w>":10010,"desh</w>":10011,"alleging</w>":10012,"phic</w>":10013,"Germans</w>":10014,"rulers</w>":10015,"observe</w>":10016,"donated</w>":10017,"Burk":10018,"submit</w>":10019,"assi</w>":10020,"Carol</w>":10021,"treat</w>":10022,"candidacy</w>":10023,"bank":10024,"consider":10025,"consideration</w>":10026,"direction</w>":10027,"Geological</w>":10028,"burn</w>":10029,"1987</w>":10030,"indication</w>":10031,"Canal</w>":10032,"certain":10033,"express</w>":10034,"quarant":10035,"puts</w>":10036,"nationality</w>":10037,"consumption</w>":10038,"Muz":10039,"Khin</w>":10040,"slaves</w>":10041,"transmission</w>":10042,"watch":10043,"populated</w>":10044,"spacecraft</w>":10045,"publishing</w>":10046,"succession</w>":10047,"Admiral</w>":10048,"Exec":10049,"nominees</w>":10050,"connected</w>":10051,"celebration</w>":10052,"celebrating</w>":10053,"monitored</w>":10054,"electrical</w>":10055,"Mich":10056,"crowds</w>":10057,"describes</w>":10058,"spark</w>":10059,"landfall</w>":10060,"gressive</w>":10061,"1960s</w>":10062,"freedoms</w>":10063,"welfare</w>":10064,"downtown</w>":10065,"Pro</w>":10066,"inda</w>":10067,"shells</w>":10068,"Medical</w>":10069,"deficits</w>":10070,"manufactured</w>":10071,"flags</w>":10072,"smugglers</w>":10073,"griev":10074,"archipel":10075,"Ecuad":10076,"adviser</w>":10077,"Catholics</w>":10078,"Masha":10079,"write</w>":10080,"Akbar</w>":10081,"recording</w>":10082,"tari":10083,"Airport</w>":10084,"Airbus</w>":10085,"writer</w>":10086,"Prosecutor</w>":10087,"sovereign</w>":10088,"strongholds</w>":10089,"attracting</w>":10090,"punished</w>":10091,"examine</w>":10092,"Relief</w>":10093,"maintains</w>":10094,"eye</w>":10095,"Bakiyev</w>":10096,"Eritrean</w>":10097,"eliminated</w>":10098,"learned</w>":10099,"bodyguard</w>":10100,"compens":10101,"mutate</w>":10102,"Dominique</w>":10103,"Paul":10104,"steadily</w>":10105,"qualified</w>":10106,"simply</w>":10107,"Miller</w>":10108,"Millennium</w>":10109,"Wolf</w>":10110,"Congressional</w>":10111,"confrontation</w>":10112,"inhabited</w>":10113,"auction</w>":10114,"Civil</w>":10115,"interpreter</w>":10116,"Gabon</w>":10117,"Younis</w>":10118,"ketball</w>":10119,"decreased</w>":10120,"optimistic</w>":10121,"guidelines</w>":10122,"outrage</w>":10123,"Cameroon</w>":10124,"narrowly</w>":10125,"doping</w>":10126,"gesture</w>":10127,"exhibition</w>":10128,"Roddick</w>":10129,"revised</w>":10130,"Abuja</w>":10131,"entrance</w>":10132,"simultane":10133,"Kyoto</w>":10134,"Bogota</w>":10135,"Hoop</w>":10136,"annexed</w>":10137,"spotted</w>":10138,"Shortly</w>":10139,"Johannesburg</w>":10140,"Margaret</w>":10141,"Massachuset":10142,"embezz":10143,"unilateral</w>":10144,"Kenyans</w>":10145,"Bethlehem</w>":10146,"Global</w>":10147,"Kuwaiti</w>":10148,"pieces</w>":10149,"Gotovina</w>":10150,"Iowa</w>":10151,"Jeddah</w>":10152,"Myanmar</w>":10153,"Mitchell</w>":10154,"Riyadh</w>":10155,"Spokes":10156,"Santiago</w>":10157,"willingness</w>":10158,"rifles</w>":10159,"liveli":10160,"laureate</w>":10161,"Massachusetts</w>":10162,"275</w>":10163,"66</w>":10164,"96</w>":10165,"99</w>":10166,"Ale":10167,"Bis":10168,"Cre":10169,"Cra":10170,"Cop":10171,"Clevel":10172,"Eli":10173,"Ebol":10174,"FA":10175,"Fu":10176,"Fed</w>":10177,"Fort</w>":10178,"Faso</w>":10179,"Gran":10180,"Gordon</w>":10181,"Hur":10182,"Hot":10183,"Heb":10184,"ISA":10185,"Koran</w>":10186,"Mes":10187,"MAN</w>":10188,"Nu":10189,"Nine</w>":10190,"RA":10191,"Son":10192,"Tenn":10193,"Win</w>":10194,"Yon":10195,"Zu":10196,"ag</w>":10197,"bil</w>":10198,"blin":10199,"bery</w>":10200,"bacco</w>":10201,"caf":10202,"ceded</w>":10203,"catch</w>":10204,"fea":10205,"fted</w>":10206,"frac":10207,"hurricanes</w>":10208,"kid":10209,"kov</w>":10210,"li</w>":10211,"mol":10212,"mad</w>":10213,"mention</w>":10214,"mud</w>":10215,"mouth</w>":10216,"ois</w>":10217,"pone</w>":10218,"som":10219,"tents</w>":10220,"tacti":10221,"uph":10222,"vania</w>":10223,"washed</w>":10224,"thrown</w>":10225,"informal</w>":10226,"anke</w>":10227,"erts</w>":10228,"republic":10229,"repatri":10230,"entions</w>":10231,"enge</w>":10232,"encia</w>":10233,"tier":10234,"onaire</w>":10235,"ordering</w>":10236,"stem":10237,"stages</w>":10238,"urred</w>":10239,"ray</w>":10240,"rail":10241,"rid":10242,"ria</w>":10243,"elles</w>":10244,"elements</w>":10245,"eleph":10246,"use":10247,"emade</w>":10248,"plastic</w>":10249,"lies</w>":10250,"lasting</w>":10251,"ffle</w>":10252,"bek</w>":10253,"coni</w>":10254,"dez</w>":10255,"deep":10256,"sul":10257,"sun</w>":10258,"sur</w>":10259,"sufficient</w>":10260,"chron":10261,"adults</w>":10262,"portions</w>":10263,"abol":10264,"aps</w>":10265,"apol":10266,"commod":10267,"commodi":10268,"edom</w>":10269,"notice</w>":10270,"pol</w>":10271,"councils</w>":10272,"ige</w>":10273,"itious</w>":10274,"ightened</w>":10275,"quell</w>":10276,"quanti":10277,"Chry":10278,"Stu":10279,"Stan":10280,"mond</w>":10281,"monop":10282,"monks</w>":10283,"turn":10284,"ouring</w>":10285,"contested</w>":10286,"argue</w>":10287,"persec":10288,"provoc":10289,"dissident</w>":10290,"coon</w>":10291,"helet</w>":10292,"accep":10293,"demo":10294,"toff</w>":10295,"tobacco</w>":10296,"captivity</w>":10297,"economist</w>":10298,"peat</w>":10299,"graded</w>":10300,"financing</w>":10301,"commit</w>":10302,"oke</w>":10303,"ashore</w>":10304,"arem</w>":10305,"arett":10306,"warm</w>":10307,"sigye</w>":10308,"Bay":10309,"Baha":10310,"operational</w>":10311,"bills</w>":10312,"bilisi</w>":10313,"minorities</w>":10314,"overseeing</w>":10315,"mails</w>":10316,"Abra":10317,"retain</w>":10318,"linois</w>":10319,"Mada":10320,"Turks</w>":10321,"tenance</w>":10322,"tenstein</w>":10323,"offen":10324,"desper":10325,"descent</w>":10326,"phones</w>":10327,"investigator</w>":10328,"crews</w>":10329,"ruler</w>":10330,"etz</w>":10331,"planting</w>":10332,"Cham":10333,"Chaud":10334,"oblig":10335,"obtain</w>":10336,"upheld</w>":10337,"specified</w>":10338,"separately</w>":10339,"chain</w>":10340,"compli":10341,"complaint</w>":10342,"telling</w>":10343,"Refug":10344,"discussion</w>":10345,"essment</w>":10346,"Services</w>":10347,"ikistan</w>":10348,"echan":10349,"echtenstein</w>":10350,"negotiated</w>":10351,"administered</w>":10352,"homemade</w>":10353,"Peretz</w>":10354,"maintenance</w>":10355,"1985</w>":10356,"investor</w>":10357,"Obrad":10358,"Cauc":10359,"Barre</w>":10360,"lateral</w>":10361,"Interim</w>":10362,"purpose</w>":10363,"Libby</w>":10364,"features</w>":10365,"Sharm</w>":10366,"repression</w>":10367,"Besigye</w>":10368,"score</w>":10369,"flood":10370,"Egyptians</w>":10371,"Adv":10372,"abductions</w>":10373,"abductors</w>":10374,"grants</w>":10375,"jaf</w>":10376,"earthquakes</w>":10377,"Belgian</w>":10378,"crush</w>":10379,"Correa</w>":10380,"Spani":10381,"Yugan":10382,"Jerich":10383,"Jersey</w>":10384,"doubles</w>":10385,"singles</w>":10386,"enriching</w>":10387,"traditionally</w>":10388,"Berlus":10389,"struggled</w>":10390,"Liechtenstein</w>":10391,"heating</w>":10392,"postpone</w>":10393,"articles</w>":10394,"stafa</w>":10395,"sionals</w>":10396,"flash</w>":10397,"smuggled</w>":10398,"encouraging</w>":10399,"explain</w>":10400,"Masri</w>":10401,"Raj":10402,"authorizing</w>":10403,"commitments</w>":10404,"Javier</w>":10405,"Najaf</w>":10406,"knowledge</w>":10407,"Farmer</w>":10408,"walls</w>":10409,"attract</w>":10410,"bitter</w>":10411,"Tibetans</w>":10412,"rebounded</w>":10413,"Laos</w>":10414,"Rangel</w>":10415,"Mike</w>":10416,"Minsk</w>":10417,"Pradesh</w>":10418,"learn</w>":10419,"Bernanke</w>":10420,"rivers</w>":10421,"Cypriots</w>":10422,"Summit</w>":10423,"thanks</w>":10424,"poisoned</w>":10425,"veteran</w>":10426,"veterinary</w>":10427,"hideouts</w>":10428,"Sinai</w>":10429,"Militant</w>":10430,"justified</w>":10431,"stock":10432,"liberties</w>":10433,"client</w>":10434,"Kamal</w>":10435,"Suspected</w>":10436,"Saharan</w>":10437,"extreme</w>":10438,"Illinois</w>":10439,"Simon</w>":10440,"Congressman</w>":10441,"Protection</w>":10442,"destination</w>":10443,"sweep</w>":10444,"Tutsis</w>":10445,"Raza</w>":10446,"Strateg":10447,"Initiative</w>":10448,"Albanians</w>":10449,"employs</w>":10450,"colonial</w>":10451,"Balkan</w>":10452,"juris":10453,"integrity</w>":10454,"federalism</w>":10455,"Namibia</w>":10456,"Dmitri</w>":10457,"Pearson</w>":10458,"Tajikistan</w>":10459,"summon":10460,"contaminated</w>":10461,"drilling</w>":10462,"ELN</w>":10463,"staffers</w>":10464,"Addis</w>":10465,"Broadcasting</w>":10466,"Estonia</w>":10467,"Yusuf</w>":10468,"album</w>":10469,"Emile</w>":10470,"Ottoman</w>":10471,"rightist</w>":10472,"consists</w>":10473,"Kadima</w>":10474,"ambique</w>":10475,"Bachelet</w>":10476,"Dayton</w>":10477,"throne</w>":10478,"Tulk":10479,"abetes</w>":10480,"cubic</w>":10481,"encountered</w>":10482,"epidemic</w>":10483,"Mozambique</w>":10484,"minibus</w>":10485,"Marxist</w>":10486,"Asefi</w>":10487,"remnants</w>":10488,"Burkina</w>":10489,"tariffs</w>":10490,"Cleveland</w>":10491,"Ebola</w>":10492,"ISAF</w>":10493,"republics</w>":10494,"commodities</w>":10495,"Obrador</w>":10496,"Jericho</w>":10497,"Berlusconi</w>":10498,"01</w>":10499,"09</w>":10500,"74</w>":10501,"94</w>":10502,"9th</w>":10503,"Aso</w>":10504,"Award</w>":10505,"BA</w>":10506,"Bot":10507,"Cru":10508,"Dru":10509,"EC":10510,"EF</w>":10511,"Ever":10512,"Each</w>":10513,"Fore":10514,"Hing":10515,"Hub":10516,"Hemisphere</w>":10517,"Idri":10518,"Janj":10519,"Kin":10520,"Les":10521,"Lev":10522,"MO":10523,"My":10524,"Mun":10525,"Mbe":10526,"Mir</w>":10527,"Mof":10528,"Much</w>":10529,"Memor":10530,"Never":10531,"Osman</w>":10532,"PL":10533,"Pon":10534,"Reh":10535,"SO":10536,"Sid":10537,"Such</w>":10538,"Santa</w>":10539,"Te":10540,"Tal</w>":10541,"Van</w>":10542,"What</w>":10543,"Winter</w>":10544,"Ye":10545,"Zel":10546,"ault</w>":10547,"awards</w>":10548,"bic":10549,"bids</w>":10550,"cand":10551,"cade</w>":10552,"dman</w>":10553,"eiro</w>":10554,"fit</w>":10555,"fle</w>":10556,"hin":10557,"hid</w>":10558,"hry</w>":10559,"kin":10560,"mac":10561,"mechan":10562,"nic":10563,"nes":10564,"night":10565,"otic</w>":10566,"pit":10567,"pain</w>":10568,"phosp":10569,"pounded</w>":10570,"rounded</w>":10571,"sson</w>":10572,"slam":10573,"sanj":10574,"tude</w>":10575,"ub</w>":10576,"uing</w>":10577,"yi</w>":10578,"yaf</w>":10579,"yesterday</w>":10580,"instruc":10581,"erad":10582,"restra":10583,"restrict</w>":10584,"restart</w>":10585,"tip</w>":10586,"tili":10587,"arhar</w>":10588,"arika</w>":10589,"onian</w>":10590,"orly</w>":10591,"alco":10592,"alties</w>":10593,"ati</w>":10594,"roeconomic</w>":10595,"hap</w>":10596,"habil":10597,"savi</w>":10598,"sities</w>":10599,"siege</w>":10600,"raw</w>":10601,"riding</w>":10602,"elling</w>":10603,"elson</w>":10604,"elderly</w>":10605,"emi</w>":10606,"lie":10607,"lists</w>":10608,"lionaire</w>":10609,"lav</w>":10610,"provisional</w>":10611,"conqu":10612,"ase</w>":10613,"opposing</w>":10614,"neys</w>":10615,"supreme</w>":10616,"chelles</w>":10617,"spurred</w>":10618,"add</w>":10619,"exact</w>":10620,"exclu":10621,"ider</w>":10622,"apology</w>":10623,"components</w>":10624,"pest</w>":10625,"parked</w>":10626,"twin</w>":10627,"estine</w>":10628,"noti":10629,"poorly</w>":10630,"imon</w>":10631,"resor":10632,"Afar</w>":10633,"rough</w>":10634,"Chev":10635,"worries</w>":10636,"ingredi":10637,"rick</w>":10638,"peror</w>":10639,"performing</w>":10640,"proved</w>":10641,"tribu":10642,"manager</w>":10643,"maneu":10644,"coach</w>":10645,"1945</w>":10646,"intestin":10647,"merged</w>":10648,"invitation</w>":10649,"flowing</w>":10650,"bol</w>":10651,"pregn":10652,"peak</w>":10653,"plots</w>":10654,"anne</w>":10655,"hoen":10656,"meth":10657,"mework</w>":10658,"metho":10659,"metal</w>":10660,"preser":10661,"supposed</w>":10662,"facto</w>":10663,"arez</w>":10664,"warzen":10665,"Basay":10666,"spoken</w>":10667,"Priv":10668,"overturned</w>":10669,"oversee</w>":10670,"faster</w>":10671,"Ababa</w>":10672,"interven":10673,"Maryland</w>":10674,"shift</w>":10675,"strife</w>":10676,"defuse</w>":10677,"fertili":10678,"Brian</w>":10679,"conclusion</w>":10680,"concrete</w>":10681,"aweed</w>":10682,"discou":10683,"tenths</w>":10684,"denly</w>":10685,"racing</w>":10686,"brothers</w>":10687,"corpor":10688,"corrupt</w>":10689,"specify</w>":10690,"hmer</w>":10691,"passes</w>":10692,"mming</w>":10693,"tortured</w>":10694,"relies</w>":10695,"reliance</w>":10696,"Sao</w>":10697,"Joe</w>":10698,"chanting</w>":10699,"assaul":10700,"drives</w>":10701,"blaze</w>":10702,"wins</w>":10703,"window</w>":10704,"raises</w>":10705,"engine</w>":10706,"administrator</w>":10707,"Chris</w>":10708,"supplied</w>":10709,"receip":10710,"burst</w>":10711,"1981</w>":10712,"1983</w>":10713,"Canadi":10714,"expression</w>":10715,"experim":10716,"Ellen</w>":10717,"Board</w>":10718,"Taiw":10719,"echnology</w>":10720,"representation</w>":10721,"Contin":10722,"Roh</w>":10723,"bribes</w>":10724,"addressing</w>":10725,"suffers</w>":10726,"studying</w>":10727,"cells</w>":10728,"water":10729,"popularity</w>":10730,"180</w>":10731,"bassadors</w>":10732,"shasa</w>":10733,"accounted</w>":10734,"travelers</w>":10735,"pulling</w>":10736,"Malta</w>":10737,"condemns</w>":10738,"film":10739,"dominate</w>":10740,"initiatives</w>":10741,"Campa":10742,"Schwarzen":10743,"Poor</w>":10744,"Croat</w>":10745,"letes</w>":10746,"landmine</w>":10747,"generated</w>":10748,"participated</w>":10749,"Ricardo</w>":10750,"Wilson</w>":10751,"artist</w>":10752,"downhill</w>":10753,"slum":10754,"remark</w>":10755,"Kost":10756,"favored</w>":10757,"shelters</w>":10758,"slowing</w>":10759,"challenging</w>":10760,"advised</w>":10761,"origin</w>":10762,"adopt</w>":10763,"musician</w>":10764,"publication</w>":10765,"pipelines</w>":10766,"mortg":10767,"removing</w>":10768,"tinational</w>":10769,"indefin":10770,"sustain</w>":10771,"Recent</w>":10772,"associate</w>":10773,"distur":10774,"distance</w>":10775,"example</w>":10776,"bulk</w>":10777,"recruits</w>":10778,"assume</w>":10779,"laborers</w>":10780,"collected</w>":10781,"umbent</w>":10782,"Invest":10783,"existence</w>":10784,"jump</w>":10785,"engineer</w>":10786,"text</w>":10787,"aggression</w>":10788,"negative</w>":10789,"isition</w>":10790,"revolt</w>":10791,"salaries</w>":10792,"justi":10793,"studies</w>":10794,"extradite</w>":10795,"Janeiro</w>":10796,"Armenia</w>":10797,"barriers</w>":10798,"restaurants</w>":10799,"recommendation</w>":10800,"inhabit":10801,"campaigning</w>":10802,"UNIC":10803,"neutr":10804,"Albania</w>":10805,"atorship</w>":10806,"semifinal</w>":10807,"airliner</w>":10808,"satisfied</w>":10809,"installations</w>":10810,"Mousavi</w>":10811,"congratulated</w>":10812,"confident</w>":10813,"consensus</w>":10814,"affiliated</w>":10815,"transmitted</w>":10816,"infiltr":10817,"crossings</w>":10818,"customers</w>":10819,"Jamaica</w>":10820,"EMA</w>":10821,"Moussa</w>":10822,"Seychelles</w>":10823,"patrolling</w>":10824,"thinks</w>":10825,"13th</w>":10826,"Westerners</w>":10827,"palace</w>":10828,"orbiting</w>":10829,"atistics</w>":10830,"Mongolia</w>":10831,"adjourned</w>":10832,"Athens</w>":10833,"Sayyaf</w>":10834,"drowned</w>":10835,"hectares</w>":10836,"cigarett":10837,"manipul":10838,"Mutharika</w>":10839,"Delegates</w>":10840,"Leonid</w>":10841,"Nangarhar</w>":10842,"watchdog</w>":10843,"archipelago</w>":10844,"kidney</w>":10845,"commodity</w>":10846,"monopoly</w>":10847,"Chaudhry</w>":10848,"jurisdic":10849,"Tulkarem</w>":10850,"Hingis</w>":10851,"Janjaweed</w>":10852,"Kinshasa</w>":10853,"Mbeki</w>":10854,"Mofaz</w>":10855,"intestinal</w>":10856,"Basayev</w>":10857,"Canadians</w>":10858,"220</w>":10859,"3rd</w>":10860,"89</w>":10861,"8th</w>":10862,"Bil":10863,"Bish":10864,"Cay":10865,"Dun":10866,"Dist":10867,"Deb":10868,"Dow</w>":10869,"DNA</w>":10870,"Fif":10871,"Gan":10872,"Good</w>":10873,"Glor":10874,"Hall</w>":10875,"HAM":10876,"Jon":10877,"Ka":10878,"Kas":10879,"Kag":10880,"Kidn":10881,"Line</w>":10882,"ME":10883,"Mig":10884,"Mladi":10885,"Nas":10886,"Nah":10887,"Out":10888,"Others</w>":10889,"Ohi":10890,"PP</w>":10891,"Pun":10892,"Patt":10893,"Plat":10894,"Phoen":10895,"Qing":10896,"Reg":10897,"SR</w>":10898,"Tuni":10899,"Tbilisi</w>":10900,"UT":10901,"Ur":10902,"Wal</w>":10903,"ab</w>":10904,"bin":10905,"bron":10906,"bowl":10907,"core</w>":10908,"coo":10909,"dub":10910,"fers</w>":10911,"fash":10912,"flock</w>":10913,"feet</w>":10914,"gal":10915,"garian</w>":10916,"hes</w>":10917,"hem":10918,"hide</w>":10919,"hidden</w>":10920,"ive</w>":10921,"jour":10922,"jiang</w>":10923,"kin</w>":10924,"mo</w>":10925,"mp</w>":10926,"mu</w>":10927,"matters</w>":10928,"ni":10929,"nan</w>":10930,"oath</w>":10931,"oples</w>":10932,"pa</w>":10933,"phe</w>":10934,"pound</w>":10935,"papers</w>":10936,"sb":10937,"skilled</w>":10938,"skills</w>":10939,"tac":10940,"tcy</w>":10941,"uting</w>":10942,"van":10943,"wang</w>":10944,"waging</w>":10945,"yn</w>":10946,"yes</w>":10947,"yat</w>":10948,"zo</w>":10949,"zad</w>":10950,"theless</w>":10951,"induc":10952,"infighting</w>":10953,"incoming</w>":10954,"innings</w>":10955,"rek":10956,"reference</w>":10957,"replacement</w>":10958,"repeat</w>":10959,"rehabil":10960,"enforce</w>":10961,"tian</w>":10962,"tiles</w>":10963,"arc":10964,"archae":10965,"ono</w>":10966,"ortu":10967,"stum":10968,"stealing</w>":10969,"itated</w>":10970,"rol":10971,"roso</w>":10972,"saf":10973,"rail</w>":10974,"ectors</w>":10975,"rioters</w>":10976,"elder</w>":10977,"omo</w>":10978,"oldest</w>":10979,"das</w>":10980,"emig":10981,"unc":10982,"unification</w>":10983,"ovan</w>":10984,"bei</w>":10985,"bears</w>":10986,"wheat</w>":10987,"cons":10988,"ased</w>":10989,"dean</w>":10990,"deport":10991,"depression</w>":10992,"net":10993,"neft</w>":10994,"cho":10995,"chin</w>":10996,"chest":10997,"spare</w>":10998,"exha":10999,"portra":11000,"abs":11001,"ables</w>":11002,"shook</w>":11003,"shoul":11004,"pede</w>":11005,"theater</w>":11006,"vities</w>":11007,"attled</w>":11008,"governors</w>":11009,"governance</w>":11010,"impea":11011,"immigrant</w>":11012,"igning</w>":11013,"bust</w>":11014,"Chic":11015,"Thir":11016,"ingu":11017,"evol":11018,"contains</w>":11019,"uber":11020,"coordination</w>":11021,"ebook</w>":11022,"eberman</w>":11023,"epher":11024,"aud</w>":11025,"auto</w>":11026,"rence</w>":11027,"invaded</w>":11028,"flu":11029,"capsized</w>":11030,"Palestine</w>":11031,"serves</w>":11032,"belong</w>":11033,"hosts</w>":11034,"metric</w>":11035,"rememb":11036,"remember</w>":11037,"factional</w>":11038,"urov</w>":11039,"wartime</w>":11040,"detentions</w>":11041,"martial</w>":11042,"ville</w>":11043,"bilities</w>":11044,"outcome</w>":11045,"outpost</w>":11046,"faul":11047,"cartel":11048,"Mart</w>":11049,"Mark</w>":11050,"Marie</w>":11051,"Marino</w>":11052,"eived</w>":11053,"charging</w>":11054,"Shimon</w>":11055,"ferring</w>":11056,"awaz</w>":11057,"path":11058,"clothes</w>":11059,"taker</w>":11060,"rank</w>":11061,"desec":11062,"desert</w>":11063,"product</w>":11064,"partly</w>":11065,"aval":11066,"Egeland</w>":11067,"separated</w>":11068,"independently</w>":11069,"Askar</w>":11070,"iper</w>":11071,"Produc":11072,"Guar":11073,"Early</w>":11074,"ruptcy</w>":11075,"movements</w>":11076,"medium</w>":11077,"empty</w>":11078,"Senior</w>":11079,"Oluse":11080,"Agassi</w>":11081,"supplying</w>":11082,"supporter</w>":11083,"identities</w>":11084,"rejects</w>":11085,"sitting</w>":11086,"util":11087,"Barroso</w>":11088,"medals</w>":11089,"aster</w>":11090,"referral</w>":11091,"Liber":11092,"featur":11093,"criticize</w>":11094,"refusing</w>":11095,"brid":11096,"confessed</w>":11097,"rones</w>":11098,"Muk":11099,"Khur":11100,"Spin</w>":11101,"Club</w>":11102,"install</w>":11103,"watches</w>":11104,"populations</w>":11105,"organize</w>":11106,"pledging</w>":11107,"contraction</w>":11108,"slight</w>":11109,"shadow</w>":11110,"advancing</w>":11111,"accounting</w>":11112,"travels</w>":11113,"divide</w>":11114,"Acc":11115,"valued</w>":11116,"bag</w>":11117,"cancell":11118,"Boldak</w>":11119,"Baltic</w>":11120,"hurled</w>":11121,"describe</w>":11122,"expired</w>":11123,"preparation</w>":11124,"drink</w>":11125,"doubled</w>":11126,"improvement</w>":11127,"improvements</w>":11128,"Croats</w>":11129,"bench":11130,"teor":11131,"participants</w>":11132,"Lieberman</w>":11133,"heightened</w>":11134,"longest</w>":11135,"Command</w>":11136,"Nichol":11137,"Queen</w>":11138,"strongest</w>":11139,"Rafsanj":11140,"Ukrainians</w>":11141,"athletes</w>":11142,"uniforms</w>":11143,"happ":11144,"shelling</w>":11145,"tankers</w>":11146,"inspections</w>":11147,"tivation</w>":11148,"dictatorship</w>":11149,"delivering</w>":11150,"challenger</w>":11151,"acquitted</w>":11152,"excessive</w>":11153,"105</w>":11154,"distributing</w>":11155,"narrates</w>":11156,"shipment</w>":11157,"Jaap</w>":11158,"Naj":11159,"Farah</w>":11160,"registration</w>":11161,"pion":11162,"falls</w>":11163,"Samuel</w>":11164,"patient</w>":11165,"1947</w>":11166,"accusation</w>":11167,"cartoon</w>":11168,"silver</w>":11169,"topple</w>":11170,"topics</w>":11171,"Hossein</w>":11172,"modern":11173,"Network</w>":11174,"battered</w>":11175,"Khalid</w>":11176,"Latortu":11177,"tycoon</w>":11178,"congressman</w>":11179,"Frank":11180,"Mission</w>":11181,"ologist</w>":11182,"eventual</w>":11183,"Disc":11184,"Bulgarian</w>":11185,"Horse</w>":11186,"Sumatra</w>":11187,"advocates</w>":11188,"allege</w>":11189,"designate</w>":11190,"tica</w>":11191,"consultations</w>":11192,"simple</w>":11193,"ratify</w>":11194,"respondents</w>":11195,"floor</w>":11196,"warrants</w>":11197,"harmful</w>":11198,"Captain</w>":11199,"reveal</w>":11200,"tighten</w>":11201,"Indians</w>":11202,"edition</w>":11203,"Federer</w>":11204,"hanging</w>":11205,"democratically</w>":11206,"Mandela</w>":11207,"Research</w>":11208,"Bagram</w>":11209,"diamonds</w>":11210,"principle</w>":11211,"clinic</w>":11212,"minimum</w>":11213,"Constitutional</w>":11214,"Facebook</w>":11215,"protectorate</w>":11216,"Freedom</w>":11217,"Nationalist</w>":11218,"sanitation</w>":11219,"interrupted</w>":11220,"Roger</w>":11221,"wickets</w>":11222,"volcano</w>":11223,"Roche</w>":11224,"liberal</w>":11225,"Mold":11226,"Ronald</w>":11227,"suddenly</w>":11228,"mastermind</w>":11229,"reviewing</w>":11230,"Dhaka</w>":11231,"good":11232,"rotating</w>":11233,"cholera</w>":11234,"Undersecretary</w>":11235,"fastest</w>":11236,"characterized</w>":11237,"Zebari</w>":11238,"departure</w>":11239,"khanurov</w>":11240,"oriented</w>":11241,"sailors</w>":11242,"Executive</w>":11243,"Yonhap</w>":11244,"stemming</w>":11245,"summoned</w>":11246,"Memorial</w>":11247,"Yekhanurov</w>":11248,"slammed</w>":11249,"fertilizer</w>":11250,"Taiwanese</w>":11251,"UNICEF</w>":11252,"jurisdiction</w>":11253,"Gloria</w>":11254,"Kagame</w>":11255,"Mladic</w>":11256,"Ohio</w>":11257,"Phoenix</w>":11258,"cartels</w>":11259,"Olusegun</w>":11260,"Rafsanjani</w>":11261,"Latortue</w>":11262,"08</w>":11263,"71</w>":11264,"AD":11265,"AG":11266,"Aw":11267,"Amir</w>":11268,"Bes":11269,"Bush":11270,"CTV</w>":11271,"Cust":11272,"CBS</w>":11273,"Dre":11274,"Dan</w>":11275,"FO":11276,"Gore</w>":11277,"Gren":11278,"Gand":11279,"His":11280,"Hare</w>":11281,"Haf":11282,"High":11283,"IL":11284,"Icel":11285,"Itar</w>":11286,"Jem":11287,"LR":11288,"LU":11289,"Ly":11290,"LD</w>":11291,"Lha":11292,"Lub":11293,"Lind":11294,"Nour</w>":11295,"NLD</w>":11296,"Ox":11297,"PC</w>":11298,"Ray</w>":11299,"SC":11300,"Sk":11301,"Slo":11302,"Sik":11303,"Sales</w>":11304,"Sources</w>":11305,"TA":11306,"TE</w>":11307,"Twit":11308,"Tass</w>":11309,"Tadic</w>":11310,"UE":11311,"Uige</w>":11312,"Wali</w>":11313,"Xinj":11314,"Yun":11315,"Yow":11316,"Yous":11317,"Za":11318,"Zah":11319,"aud":11320,"aiding</w>":11321,"bling</w>":11322,"bran":11323,"dar":11324,"dly</w>":11325,"dying</w>":11326,"dance</w>":11327,"drones</w>":11328,"egi":11329,"fice</w>":11330,"fake</w>":11331,"fews</w>":11332,"gets</w>":11333,"gall":11334,"hn</w>":11335,"handing</w>":11336,"hemor":11337,"kek</w>":11338,"liter":11339,"mi</w>":11340,"pel":11341,"pap":11342,"pine</w>":11343,"psy":11344,"rat":11345,"rha":11346,"sance</w>":11347,"selection</w>":11348,"sang</w>":11349,"slick</w>":11350,"tent</w>":11351,"tling</w>":11352,"uations</w>":11353,"vals</w>":11354,"waged</w>":11355,"xing</w>":11356,"ycle</w>":11357,"zin":11358,"thwar":11359,"inery</w>":11360,"indirect</w>":11361,"erea":11362,"error</w>":11363,"rela":11364,"repri":11365,"reform":11366,"reinst":11367,"enem":11368,"envoys</w>":11369,"tious</w>":11370,"tiveness</w>":11371,"onable</w>":11372,"orge</w>":11373,"orph":11374,"staging</w>":11375,"stayed</w>":11376,"steep</w>":11377,"steel</w>":11378,"iction</w>":11379,"sit</w>":11380,"sians</w>":11381,"sius</w>":11382,"echo":11383,"rig</w>":11384,"ridic":11385,"elic</w>":11386,"omes</w>":11387,"olo</w>":11388,"older</w>":11389,"dir":11390,"dies":11391,"divisions</w>":11392,"diox":11393,"emate</w>":11394,"una</w>":11395,"uncertain</w>":11396,"unsuccessful</w>":11397,"lities</w>":11398,"lake</w>":11399,"prolong":11400,"prophet</w>":11401,"beans</w>":11402,"congress</w>":11403,"convoys</w>":11404,"iron</w>":11405,"amed</w>":11406,"ambassadors</w>":11407,"deported</w>":11408,"oph":11409,"chancellor</w>":11410,"spies</w>":11411,"adou</w>":11412,"exit</w>":11413,"expo":11414,"abi</w>":11415,"aked</w>":11416,"coma</w>":11417,"shir":11418,"shall</w>":11419,"shock</w>":11420,"fficiency</w>":11421,"edon</w>":11422,"paraly":11423,"loy":11424,"attara</w>":11425,"imov</w>":11426,"county</w>":11427,"igned</w>":11428,"poli</w>":11429,"polar</w>":11430,"resource</w>":11431,"aff</w>":11432,"secrets</w>":11433,"routin":11434,"quite</w>":11435,"Chand":11436,"incide</w>":11437,"ock":11438,"Steve</w>":11439,"Staff</w>":11440,"worry</w>":11441,"turkey</w>":11442,"contest</w>":11443,"contacted</w>":11444,"performed</w>":11445,"surfaced</w>":11446,"mobil":11447,"disban":11448,"mann</w>":11449,"managing</w>":11450,"uba</w>":11451,"cotics</w>":11452,"cosur</w>":11453,"coincide</w>":11454,"eption</w>":11455,"traders</w>":11456,"helps</w>":11457,"intly</w>":11458,"guese</w>":11459,"troom</w>":11460,"bodan</w>":11461,"entirely</w>":11462,"preferred</w>":11463,"sole</w>":11464,"solve</w>":11465,"hot</w>":11466,"grain</w>":11467,"presents</w>":11468,"finds</w>":11469,"And":11470,"protected</w>":11471,"Alpha</w>":11472,"operates</w>":11473,"wiped</w>":11474,"Moh":11475,"outlets</w>":11476,"faith":11477,"respects</w>":11478,"dos</w>":11479,"Musa</w>":11480,"Sher":11481,"jointly</w>":11482,"curfews</w>":11483,"ject</w>":11484,"anche</w>":11485,"egger</w>":11486,"offset</w>":11487,"alleges</w>":11488,"Arch":11489,"iba</w>":11490,"productive</w>":11491,"productivity</w>":11492,"Intel</w>":11493,"looked</w>":11494,"eta</w>":11495,"observing</w>":11496,"holm</w>":11497,"Burns</w>":11498,"gunfight</w>":11499,"critically</w>":11500,"Meantime</w>":11501,"iff</w>":11502,"assessment</w>":11503,"Sam</w>":11504,"Saad</w>":11505,"green</w>":11506,"greeted</w>":11507,"storage</w>":11508,"Rebel</w>":11509,"deadlock</w>":11510,"hunters</w>":11511,"teacher</w>":11512,"Gutier":11513,"afford</w>":11514,"mediator</w>":11515,"dispatched</w>":11516,"Karimov</w>":11517,"eches</w>":11518,"rocked</w>":11519,"glob":11520,"touch</w>":11521,"directors</w>":11522,"generation</w>":11523,"masked</w>":11524,"Barz":11525,"latter</w>":11526,"August":11527,"ineers</w>":11528,"searches</w>":11529,"fuges</w>":11530,"ello</w>":11531,"signature</w>":11532,"brid</w>":11533,"confront</w>":11534,"Swaz":11535,"ishes</w>":11536,"ishment</w>":11537,"speeches</w>":11538,"multinational</w>":11539,"Advis":11540,"foiled</w>":11541,"combination</w>":11542,"hosting</w>":11543,"pulsion</w>":11544,"demonstrate</w>":11545,"checks</w>":11546,"biased</w>":11547,"Opponents</w>":11548,"Opinion</w>":11549,"Speaker</w>":11550,"Time</w>":11551,"drill</w>":11552,"landslides</w>":11553,"ARE</w>":11554,"personally</w>":11555,"Mercosur</w>":11556,"anything</w>":11557,"approaching</w>":11558,"dismissal</w>":11559,"controlling</w>":11560,"Siad</w>":11561,"sler</w>":11562,"unified</w>":11563,"uniform</w>":11564,"unique</w>":11565,"suggests</w>":11566,"suggesting</w>":11567,"inspect</w>":11568,"inspection</w>":11569,"courtroom</w>":11570,"exclud":11571,"Majority</w>":11572,"Akh":11573,"hybrid</w>":11574,"reserve</w>":11575,"convert</w>":11576,"conversation</w>":11577,"printing</w>":11578,"disarming</w>":11579,"credible</w>":11580,"credibility</w>":11581,"walk</w>":11582,"Recon":11583,"cyclone</w>":11584,"punishment</w>":11585,"types</w>":11586,"devastation</w>":11587,"undergoing</w>":11588,"coca</w>":11589,"stabilizing</w>":11590,"prosecute</w>":11591,"firefighters</w>":11592,"Tripoli</w>":11593,"satellites</w>":11594,"reflected</w>":11595,"normally</w>":11596,"motorcade</w>":11597,"Jammu</w>":11598,"multiparty</w>":11599,"geograph":11600,"Strasb":11601,"eliminating</w>":11602,"broadcaster</w>":11603,"Togolese</w>":11604,"teenagers</w>":11605,"imprisonment</w>":11606,"Louis</w>":11607,"machinery</w>":11608,"advocacy</w>":11609,"Portuguese</w>":11610,"justices</w>":11611,"dismantling</w>":11612,"Kerry</w>":11613,"Walter</w>":11614,"doubts</w>":11615,"guarantees</w>":11616,"guaranteed</w>":11617,"dump</w>":11618,"convinc":11619,"copper</w>":11620,"timber</w>":11621,"constructed</w>":11622,"occasion</w>":11623,"modified</w>":11624,"professionals</w>":11625,"Because</w>":11626,"suburbs</w>":11627,"coffin</w>":11628,"hampering</w>":11629,"logistics</w>":11630,"Initial</w>":11631,"Ouattara</w>":11632,"bound":11633,"semifinals</w>":11634,"Celsius</w>":11635,"airliners</w>":11636,"Researchers</w>":11637,"Boris</w>":11638,"Mideast</w>":11639,"hometown</w>":11640,"championship</w>":11641,"championships</w>":11642,"subsidiary</w>":11643,"trend</w>":11644,"chairs</w>":11645,"Abdullahi</w>":11646,"centrifuges</w>":11647,"bloodshed</w>":11648,"Nagin</w>":11649,"intimid":11650,"odds</w>":11651,"sacrifice</w>":11652,"persuade</w>":11653,"fundament":11654,"mistakenly</w>":11655,"Negotiators</w>":11656,"catastrophe</w>":11657,"Industrial</w>":11658,"12th</w>":11659,"Rahman</w>":11660,"kicked</w>":11661,"lywood</w>":11662,"obstacles</w>":11663,"Bomb":11664,"hikes</w>":11665,"stalemate</w>":11666,"fragile</w>":11667,"Puerto</w>":11668,"Rouge</w>":11669,"wrapped</w>":11670,"deliber":11671,"tougher</w>":11672,"nutrition</w>":11673,"Jenin</w>":11674,"aissance</w>":11675,"flames</w>":11676,"instruments</w>":11677,"affarabad</w>":11678,"spacewalk</w>":11679,"sustainable</w>":11680,"Jaffna</w>":11681,"bidding</w>":11682,"bankruptcy</w>":11683,"considerable</w>":11684,"Muzaffarabad</w>":11685,"simultaneous</w>":11686,"Hurri":11687,"Hebron</w>":11688,"tactics</w>":11689,"Chrysler</w>":11690,"Bahamas</w>":11691,"floodwaters</w>":11692,"Yugansk":11693,"stockp":11694,"Strategic</w>":11695,"Hubble</w>":11696,"Idriss</w>":11697,"bicycle</w>":11698,"macroeconomic</w>":11699,"exclusive</w>":11700,"methods</w>":11701,"intervene</w>":11702,"Schwarzenegger</w>":11703,"mortgage</w>":11704,"Bishkek</w>":11705,"binding</w>":11706,"bronze</w>":11707,"fashion</w>":11708,"deportation</w>":11709,"absence</w>":11710,"Chicago</w>":11711,"Guardian</w>":11712,"Nicholas</w>":11713,"Moldova</w>":11714,"Beslan</w>":11715,"Bushehr</w>":11716,"Customs</w>":11717,"LRA</w>":11718,"Lhasa</w>":11719,"Slobodan</w>":11720,"Twitter</w>":11721,"Yoweri</w>":11722,"hemorrha":11723,"reinstated</w>":11724,"enemies</w>":11725,"diesel</w>":11726,"exposure</w>":11727,"routinely</w>":11728,"faithful</w>":11729,"Gutierrez</w>":11730,"Strasbourg</w>":11731,"115</w>":11732,"30th</w>":11733,"4th</w>":11734,"450</w>":11735,"5th</w>":11736,"6th</w>":11737,"91</w>":11738,"Are":11739,"Ada":11740,"Aus":11741,"Ali":11742,"Bam":11743,"Bab":11744,"Brow":11745,"Berg":11746,"Crow":11747,"DO":11748,"Dera</w>":11749,"Ey":11750,"Easter</w>":11751,"FM</w>":11752,"Fis":11753,"Fig":11754,"Floo":11755,"FEMA</w>":11756,"GO":11757,"IS":11758,"Iz":11759,"Ima":11760,"Jar":11761,"Kit":11762,"Lech</w>":11763,"Life</w>":11764,"Lower</w>":11765,"MB":11766,"Mak":11767,"More":11768,"Mwan":11769,"Nin":11770,"Nest":11771,"Nasser</w>":11772,"Nawaz</w>":11773,"OEC":11774,"Pric":11775,"Pover":11776,"Panam":11777,"Previ":11778,"Rally</w>":11779,"Reduc":11780,"Real</w>":11781,"RCTV</w>":11782,"Science</w>":11783,"TO":11784,"Top":11785,"Tot":11786,"Tand":11787,"Tah":11788,"UR":11789,"Ul":11790,"Vinc":11791,"Voters</w>":11792,"Wim":11793,"abe":11794,"bear</w>":11795,"bars</w>":11796,"banning</w>":11797,"cous":11798,"dil":11799,"eans</w>":11800,"eant</w>":11801,"eup</w>":11802,"eus</w>":11803,"gli":11804,"gment</w>":11805,"ip</w>":11806,"kha":11807,"kins</w>":11808,"lon</w>":11809,"les":11810,"lunch</w>":11811,"nd</w>":11812,"pir":11813,"rand":11814,"sity</w>":11815,"sburg</w>":11816,"tz</w>":11817,"tum":11818,"trem":11819,"tack":11820,"uan</w>":11821,"wed":11822,"way":11823,"wise</w>":11824,"thri":11825,"thus</w>":11826,"inform</w>":11827,"erity</w>":11828,"erated</w>":11829,"ertoff</w>":11830,"repay</w>":11831,"reauc":11832,"relocate</w>":11833,"ene</w>":11834,"enab":11835,"endar</w>":11836,"aro</w>":11837,"arat":11838,"ardi":11839,"onso</w>":11840,"onium</w>":11841,"oria</w>":11842,"ouri":11843,"stom":11844,"stems</w>":11845,"stole</w>":11846,"itz</w>":11847,"alabad</w>":11848,"atorial</w>":11849,"ilzad</w>":11850,"robo":11851,"robust</w>":11852,"ices</w>":11853,"hav":11854,"saving</w>":11855,"sibilities</w>":11856,"radar</w>":11857,"rifle</w>":11858,"aties</w>":11859,"aco</w>":11860,"actual</w>":11861,"dians</w>":11862,"diabetes</w>":11863,"escor":11864,"espion":11865,"unarmed</w>":11866,"uncertain":11867,"unspecified</w>":11868,"lap":11869,"lay":11870,"lady</w>":11871,"proclaimed</w>":11872,"probing</w>":11873,"ghouti</w>":11874,"conspir":11875,"consistent</w>":11876,"assur":11877,"asus</w>":11878,"amph":11879,"ammar</w>":11880,"design</w>":11881,"open":11882,"lease</w>":11883,"nef":11884,"sued</w>":11885,"chment</w>":11886,"ched":11887,"chest</w>":11888,"spots</w>":11889,"spur</w>":11890,"sef</w>":11891,"explan":11892,"exchanged</w>":11893,"abao</w>":11894,"apped</w>":11895,"shu":11896,"shell</w>":11897,"sheep</w>":11898,"pardon":11899,"losis</w>":11900,"nose</w>":11901,"poc":11902,"impossible</w>":11903,"bureauc":11904,"resched":11905,"lea</w>":11906,"uda</w>":11907,"Chung</w>":11908,"Chertoff</w>":11909,"Then</w>":11910,"incumbent</w>":11911,"Inc":11912,"Inter</w>":11913,"Inspec":11914,"Stadium</w>":11915,"monarch</w>":11916,"containing</w>":11917,"rich":11918,"arguing</w>":11919,"persons</w>":11920,"provo":11921,"triple</w>":11922,"calendar</w>":11923,"model</w>":11924,"disgra":11925,"rugged</w>":11926,"prise</w>":11927,"privil":11928,"1959</w>":11929,"fueling</w>":11930,"merge</w>":11931,"deav":11932,"box</w>":11933,"entials</w>":11934,"server</w>":11935,"premi":11936,"annon</w>":11937,"severed</w>":11938,"hol</w>":11939,"utonium</w>":11940,"graves</w>":11941,"preserve</w>":11942,"finalized</w>":11943,"dual</w>":11944,"Americas</w>":11945,"Anwar</w>":11946,"Andy</w>":11947,"Andean</w>":11948,"azir</w>":11949,"warheads</w>":11950,"warfare</w>":11951,"harder</w>":11952,"harmon":11953,"veget":11954,"classes</w>":11955,"Allen</w>":11956,"Alpine</w>":11957,"billionaire</w>":11958,"overcrowded</w>":11959,"ezes</w>":11960,"rowers</w>":11961,"carries</w>":11962,"airing</w>":11963,"respec":11964,"doors</w>":11965,"shipped</w>":11966,"turer</w>":11967,"cun</w>":11968,"culosis</w>":11969,"defected</w>":11970,"ferry</w>":11971,"powered</w>":11972,"Maha":11973,"Mahar":11974,"Talat</w>":11975,"concessions</w>":11976,"awatra</w>":11977,"awasa</w>":11978,"tening</w>":11979,"drawing</w>":11980,"shoes</w>":11981,"Mehm":11982,"descen":11983,"phy</w>":11984,"Arctic</w>":11985,"Gerard</w>":11986,"ordance</w>":11987,"broker</w>":11988,"donate</w>":11989,"hole</w>":11990,"Arabian</w>":11991,"separation</w>":11992,"posite</w>":11993,"smashed</w>":11994,"ifer</w>":11995,"ifies</w>":11996,"assemb":11997,"202</w>":11998,"2020</w>":11999,"regained</w>":12000,"regard</w>":12001,"regards</w>":12002,"bledon</w>":12003,"poppy</w>":12004,"chased</w>":12005,"Joint</w>":12006,"launches</w>":12007,"launchers</w>":12008,"Guards</w>":12009,"currencies</w>":12010,"Cardin":12011,"assaults</w>":12012,"Hadi":12013,"procession</w>":12014,"seekers</w>":12015,"blasp":12016,"winners</w>":12017,"appearing</w>":12018,"Sun</w>":12019,"invested</w>":12020,"clan</w>":12021,"runner</w>":12022,"Australians</w>":12023,"Cancun</w>":12024,"Barghouti</w>":12025,"Interpol</w>":12026,"coups</w>":12027,"medication</w>":12028,"Forum</w>":12029,"Turkmen":12030,"commandos</w>":12031,"morator":12032,"refuses</w>":12033,"ushered</w>":12034,"Ethiopians</w>":12035,"Connor</w>":12036,"Millions</w>":12037,"nationalize</w>":12038,"consular</w>":12039,"Thabo</w>":12040,"Mustafa</w>":12041,"culmin":12042,"cultivation</w>":12043,"Beit</w>":12044,"detaining</w>":12045,"cipation</w>":12046,"framework</w>":12047,"scru":12048,"tolerate</w>":12049,"swing</w>":12050,"swana</w>":12051,"1972</w>":12052,"1978</w>":12053,"combat":12054,"cotton</w>":12055,"Action</w>":12056,"assassinate</w>":12057,"professor</w>":12058,"broader</w>":12059,"Shaul</w>":12060,"Benazir</w>":12061,"condemnation</w>":12062,"murdering</w>":12063,"failures</w>":12064,"initiated</w>":12065,"Yulia</w>":12066,"declines</w>":12067,"casualty</w>":12068,"expectations</w>":12069,"Timor</w>":12070,"sporadic</w>":12071,"mosques</w>":12072,"Liv":12073,"contribution</w>":12074,"perio":12075,"irit</w>":12076,"ambitious</w>":12077,"Saleh</w>":12078,"slalom</w>":12079,"forest</w>":12080,"Boliv":12081,"suggest</w>":12082,"honoring</w>":12083,"pray</w>":12084,"acquired</w>":12085,"pursuit</w>":12086,"cautioned</w>":12087,"Jiabao</w>":12088,"musical</w>":12089,"distribute</w>":12090,"authorize</w>":12091,"Soldi":12092,"Solid":12093,"removal</w>":12094,"lusive</w>":12095,"tarily</w>":12096,"prevention</w>":12097,"vaccination</w>":12098,"object</w>":12099,"objects</w>":12100,"briefing</w>":12101,"Garcia</w>":12102,"Hollywood</w>":12103,"undergo</w>":12104,"Law</w>":12105,"1948</w>":12106,"foreclo":12107,"bullets</w>":12108,"junior</w>":12109,"Melinda</w>":12110,"promotion</w>":12111,"promoted</w>":12112,"Khalilzad</w>":12113,"extraordinary</w>":12114,"Miss":12115,"ologies</w>":12116,"yield</w>":12117,"engineering</w>":12118,"teenage</w>":12119,"enjoyed</w>":12120,"expense</w>":12121,"felt</w>":12122,"escalated</w>":12123,"Brigade</w>":12124,"veterans</w>":12125,"surprised</w>":12126,"vacation</w>":12127,"housed</w>":12128,"symbol</w>":12129,"electronics</w>":12130,"Investigation</w>":12131,"ratification</w>":12132,"judiciary</w>":12133,"clients</w>":12134,"Armenian</w>":12135,"USSR</w>":12136,"occasions</w>":12137,"Goss</w>":12138,"screen</w>":12139,"supervis":12140,"Industry</w>":12141,"commemorate</w>":12142,"Current</w>":12143,"Menezes</w>":12144,"Mahdi</w>":12145,"enterprises</w>":12146,"greatly</w>":12147,"Ould</w>":12148,"homeowners</w>":12149,"diamond</w>":12150,"principles</w>":12151,"Change</w>":12152,"universities</w>":12153,"Rosneft</w>":12154,"depicting</w>":12155,"lengthy</w>":12156,"inspired</w>":12157,"workforce</w>":12158,"Shinawatra</w>":12159,"photograph</w>":12160,"authenticity</w>":12161,"transparency</w>":12162,"disagreements</w>":12163,"Petersburg</w>":12164,"Radovan</w>":12165,"knocked</w>":12166,"Business</w>":12167,"cheaper</w>":12168,"Challenge</w>":12169,"retailers</w>":12170,"windows</w>":12171,"shareholders</w>":12172,"Fitr</w>":12173,"Flores</w>":12174,"glass</w>":12175,"anxi</w>":12176,"anonymity</w>":12177,"hatred</w>":12178,"Ecuadore":12179,"Hotel</w>":12180,"persecution</w>":12181,"demobil":12182,"compliance</w>":12183,"Refugees</w>":12184,"Caucasus</w>":12185,"Botswana</w>":12186,"Zelaya</w>":12187,"alcohol</w>":12188,"experiments</w>":12189,"Kasuri</w>":12190,"dubbed</w>":12191,"journey</w>":12192,"rehabilitation</w>":12193,"shoulder</w>":12194,"impeachment</w>":12195,"uberculosis</w>":12196,"happen</w>":12197,"goodwill</w>":12198,"Gandhi</w>":12199,"Xinjiang</w>":12200,"Archbishop</w>":12201,"Augusto</w>":12202,"Yugansknef":12203,"Imam</w>":12204,"Mwanawasa</w>":12205,"OECD</w>":12206,"Prices</w>":12207,"Poverty</w>":12208,"Reduction</w>":12209,"Tandja</w>":12210,"Wimbledon</w>":12211,"espionage</w>":12212,"assurances</w>":12213,"Turkmenistan</w>":12214,"moratorium</w>":12215,"135</w>":12216,"2nd</w>":12217,"750</w>":12218,"AK":12219,"AT":12220,"AP</w>":12221,"Buc":12222,"Banny</w>":12223,"Cat":12224,"Cant":12225,"Category</w>":12226,"DV":12227,"Dag":12228,"Eri":12229,"Edu":12230,"Erel":12231,"Every</w>":12232,"Erek":12233,"Fay":12234,"Gro":12235,"Gri":12236,"HE":12237,"Has":12238,"Il</w>":12239,"Just</w>":12240,"Kony</w>":12241,"Kharra":12242,"Kiv":12243,"Land</w>":12244,"Long</w>":12245,"Lare":12246,"Lyn":12247,"MQ":12248,"Ma</w>":12249,"Not</w>":12250,"NBA</w>":12251,"Orange</w>":12252,"PO":12253,"PA</w>":12254,"Pet":12255,"Qala</w>":12256,"Sem":12257,"Sali":12258,"Snow</w>":12259,"Saud</w>":12260,"Tin</w>":12261,"Ten</w>":12262,"Tem":12263,"USA</w>":12264,"Van":12265,"Wa":12266,"Yud":12267,"Yuri</w>":12268,"Zid":12269,"ac</w>":12270,"aqu":12271,"athan</w>":12272,
[...]
