#version: 0.2
t h
th e</w>
i n
a n
o f</w>
e r
t i
a r
i s</w>
t e
r a
l e
an d</w>
r e
a l
r i
e r</w>
a t</w>
o n
t s</w>
e n
p o
o n</w>
s i
e s</w>
l e</w>
r o
q u
u m
d i
i n</w>
n um
num b
f o
e n</w>
f ra
v e</w>
s e
c h</w>
fra c</w>
m a
ar e</w>
th at</w>
er s</w>
c o
t o</w>
t h</w>
a l</w>
l a
in g</w>
an g
e d</w>
s u
a n</w>
g h
w i
T h
d o
s t</w>
i r
w h
ti on</w>
qu a
po in
numb er</w>
in d</w>
gh t</w>
b e</w>
t er
l y</w>
s t
ang le</w>
l o
in te
a s</w>
u n
c e</w>
inte g
a m
fo r</w>
f t</w>
s e</w>
F ind</w>
h o
le ft</w>
in e</w>
er e</w>
ri ght</w>
Th e</w>
e a
e t</w>
o l
c on
t ri
b e
v er
al l</w>
wi th</w>
t w
o r</w>
o r
numb ers</w>
ti ve</w>
en t</w>
th e
t e</w>
qua d</w>
2 0
ma th
l i
e x
t a
v al
r t</w>
te x
g i
s q
po si
val u
sq rt</w>
c ir
an y</w>
L et</w>
c u
n o
q quad</w>
1 0</w>
p ro
posi tive</w>
c t
m u
tw o</w>
poin ts</w>
c do
si d
m e
a s
r m</w>
b y</w>
su ch</w>
d e
te r</w>
1 0
b o
poin t</w>
on e</w>
ea ch</w>
ti on
p e
W h
ro m</w>
p er
v i
m e</w>
tri angle</w>
t o
f i
valu e</w>
l ine</w>
v en</w>
f rom</w>
h a
u r
le s</w>
b le</w>
c t</w>
m i
t y</w>
su m</w>
integ er</w>
wh i
integ ers</w>
di gi
p a
b f</w>
re s
I f</w>
re e</w>
c an</w>
e qu
cir c
o u
i t</w>
math rm</w>
Wh at</w>
ter m
m any</w>
th en</w>
1 2</w>
p le</w>
v e
tion s</w>
d s</w>
l an
c i
re al</w>
a t
g e
p ar
l l</w>
d ra
s qu
whi ch</w>
th er</w>
h as</w>
en ts</w>
n e
c h
m es</w>
tex t</w>
b a
s a
c tion</w>
am e</w>
2 0</w>
al le
c e
p ri
di vi
te d</w>
th ree</w>
tex t
w n</w>
I n</w>
ar e
i f</w>
ti c
i mu
co m
imu m</w>
text bf</w>
H o
no t</w>
en ce</w>
th ere</w>
ti mes</w>
1 1</w>
in ter
m in
si ble</w>
n g
e qua
p h
a g
o ver
p la
ha ve</w>
1 9
wh ere</w>
Ho w</w>
cdo ts</w>
sid e</w>
re a
le ng
1 5</w>
0 0</w>
m o
circ le</w>
G i
cdo t</w>
th is</w>
b i
se qu
th an</w>
ti s
are a</w>
p i
Gi ven</w>
S ol
b le
squ are</w>
sa tis
di st
term ine</w>
c ho
do ts</w>
lo w
u s</w>
f f
ir st</w>
la r</w>
1 6</w>
pri me</w>
s ol
Sol ve</w>
f irst</w>
1 3</w>
F or</w>
D e
E x
equa tion</w>
s m
h e
B C</w>
d ed</w>
or d
digi t</w>
sequ ence</w>
di ff
P ro
ro w</w>
o ther</w>
cir c</w>
f un
se t</w>
f a
i r</w>
en d</w>
am ple</w>
dra w</w>
y s</w>
po s
s s</w>
w a
s ho
i ts</w>
d u
ra y</w>
si n</w>
g h</w>
m ent</w>
diff er
p res
s ame</w>
ve ly</w>
fo l
fo r
ti vely</w>
equ al</w>
d a
s o</w>
Th en</w>
c a
t ra
p s</w>
2 4</w>
u d
f ind</w>
r u
digi ts</w>
ct ly</w>
h e</w>
l ar
inter se
pos sible</w>
ar ray</w>
u r</w>
De termine</w>
fol low
l s</w>
te s</w>
1 4</w>
g in</w>
co s</w>
leng th</w>
sm alle
c en
lan t</w>
b u
ble m</w>
s lant</w>
q slant</w>
3 0</w>
over line</w>
l in
ra l</w>
ro u
1 7</w>
c es</w>
l d</w>
p i</w>
e en</w>
se d</w>
ma x
le a
f in
r an
fun ction</w>
l dots</w>
tw een</w>
t t
wi ll</w>
satis f
t ar
be tween</w>
s o
n at
max imum</w>
p p
2 5</w>
l y
on g</w>
co r
g ra
i ght</w>
ro o
c m</w>
be gin</w>
1 8</w>
re d</w>
pe c
u ral</w>
follow ing</w>
the se</w>
valu es</w>
fo rm</w>
2 1</w>
nat ural</w>
c k</w>
m ents</w>
g e</w>
d en
p lan
la be
in s</w>
ex a
ur e</w>
fo ur</w>
p en
sol u
1 9</w>
1 4
5 0</w>
differ ent</w>
w ri
ri gh
ra di
smalle st</w>
20 0
d e</w>
Ex ample</w>
tar row</w>
al i
cho o
ar i
c k
d ing</w>
sid es</w>
righ tarrow</w>
A B</w>
al ly</w>
10 0</w>
exa ctly</w>
t a</w>
6 0</w>
to p</w>
ang les</w>
labe l</w>
min imum</w>
ta k
ph a</w>
a d
w as</w>
ho w</w>
al pha</w>
u p
ar d</w>
te n</w>
res pec
Pro blem</w>
s te
se g
in to</w>
respec tively</w>
com p
la ter
pro du
si on</w>
u lar</w>
in a
1 2
cu la
d th</w>
t al</w>
bi li
later al</w>
se con
s s
al cula
t ers</w>
wi dth</w>
t ing</w>
po se</w>
f ter</w>
gi ven</w>
1 3
wh at</w>
M a
re ma
re ct
st ud
m p
C D</w>
s y
w er</w>
o ri
wh en</w>
radi us</w>
s c
bili ty</w>
g rea
9 0</w>
A BC</w>
an ce</w>
r ang
lo g</w>
da y</w>
lea st</w>
secon d</w>
the m</w>
plan e</w>
S up
in c
1 5
the ir</w>
pro ba
Sup pose</w>
2 2</w>
the ma
i d</w>
k no
a c
mu l
su b
or e</w>
proba bility</w>
al s</w>
satisf y</w>
g ure</w>
ge st</w>
ver y</w>
n o</w>
e le
ba se</w>
thema tic
s h
v es</w>
on ly</w>
po ly
1 8
le q</w>
math bf</w>
4 0</w>
wa ys</w>
or s</w>
rou gh</w>
un d</w>
as k</w>
choo l</w>
w e</w>
in t</w>
t ten</w>
ver tic
to tal</w>
lar gest</w>
ti me</w>
1 7
T ask</w>
e d
t ur
ti c</w>
le qslant</w>
su l
dist in
ou t</w>
1 6
produ ct</w>
rema in
2 3</w>
wri tten</w>
th rough</w>
2 8
v ing</w>
an t</w>
re sul
o se</w>
t ang
le t</w>
the y</w>
I t</w>
e s
pla y
do es</w>
for m
m ore</w>
4 5</w>
b b</w>
s pe
tion al</w>
sho wn</w>
e very</w>
ar y</w>
co lo
math bb</w>
distin ct</w>
w e
mi d
z e</w>
er ed</w>
Ma thematic
2 5
l u
v er</w>
vertic es</w>
c ts</w>
f e
ex pres
dist ance</w>
he ight</w>
C on
ar es</w>
con ta
ord er</w>
un i
alcula te</w>
d er</w>
kno wn</w>
C o
comp le
stud ents</w>
3 6</w>
i s
O n</w>
re la
3 0
r e</w>
th s</w>
le ss</w>
c an
s wer</w>
sc ri
w ere</w>
par alle
g in
do t</w>
bo th</w>
term s</w>
9 9
k s</w>
o me
e l
st a
2 7
s ing</w>
squ ares</w>
divi sible</w>
h tt
o per
p er</w>
4 0
te n
co m</w>
te st</w>
den o
htt ps</w>
3 6
3 2</w>
m b
A B
a x
b ol
f lo
ag e</w>
con di
divi ded</w>
5 0
c ar
ra ti
ord ina
b ed</w>
g a
over rightarrow</w>
3 7
c tions</w>
f fi
ea r</w>
19 9
roo ts</w>
n ed</w>
A n
i gh</w>
di ag
co ordina
con st
p as
er i
Th ere</w>
3 4
w or
so me</w>
rati o</w>
u ld</w>
qua d
com m
scri bed</w>
3 8
cu lar</w>
satis fi
g s</w>
st ar
pa ir
leng ths</w>
seg ment</w>
mul ti
o u</w>
th ir
a bo
c ted</w>
v ol
me ters</w>
fi gure</w>
2 7</w>
3 5</w>
on s</w>
a fter</w>
de fin
C alculate</w>
wh ose</w>
per i
10 0
ge qslant</w>
s es</w>
2 8</w>
2 6
c y
c ro
no mi
equ i
h is</w>
cu be</w>
2 4
um e</w>
mi d</w>
lin es</w>
poly nomi
flo or</w>
v ed</w>
thir d</w>
S chool</w>
in ed</w>
ou r</w>
tang ent</w>
E a
co un
min u
comm on</w>
2 9
bu t</w>
ran do
Mathematic s</w>
2 6</w>
5 6
satisfi es</w>
A C</w>
i gh
k e</w>
Wh en</w>
re g
as y</w>
pa ir</w>
cen ter</w>
n on</w>
o b
rect angle</w>
c al</w>
o ple</w>
bo ard</w>
pe ople</w>
circ les</w>
Ea ch</w>
4 6
ti tion</w>
co l
pp ed</w>
5 7
n s</w>
sy ste
ffi ci
c ed</w>
m s</w>
u p</w>
an swer</w>
fi ve</w>
interse cts</w>
cor re
w s</w>
d r
z er
solu tions</w>
3 3</w>
cu r
syste m</w>
3 9
3 4</w>
3 1</w>
H igh</w>
ang ular</w>
ch es</w>
4 8
2 9</w>
s he</w>
u t</w>
re pres
o d
y ing</w>
te x</w>
pair s</w>
4 7
5 8
m ar
y a</w>
dra wn</w>
i l
si ze</w>
sid er</w>
10 00</w>
le d</w>
ta ble</w>
fa ce</w>
solu tion</w>
ax is</w>
the ta</w>
ari th
4 9
ver tex</w>
ex ample</w>
rang e</w>
in f
rela tively</w>
AB CD</w>
t r
ar s</w>
se ts</w>
me tic</w>
0 5</w>
pe tition</w>
ali g
inf ty</w>
y ou</w>
ter m</w>
divi s
s ph
ri lateral</w>
pen di
b al
u se</w>
paralle l</w>
5 9
g u
i te
ori gin
per pendi
g o
o d</w>
spe ed</w>
tri c</w>
equa tions</w>
cy c
al so</w>
mu st</w>
pi e
grea ter</w>
od d</w>
a te</w>
c lo
me ter</w>
ran s
reg ular</w>
arith metic</w>
b la
ta in</w>
quad rilateral</w>
re as
am e
A s</w>
c d
m ea
ma l</w>
tri angles</w>
par ti
d es</w>
g ame</w>
ct or</w>
grea test</w>
vol ume</w>
6 7
o p
lin e
mea su
8 0</w>
I n
s pa
re s</w>
ali ty</w>
la st</w>
wh o</w>
20 24</w>
l ls</w>
a d</w>
se cu
de termine</w>
mid point</w>
F i
or n
resul t</w>
cd n</w>
ti es</w>
diag on
de ci
tak e</w>
5 5</w>
7 5</w>
g rou
lo w</w>
con secu
polynomi al</w>
line width</w>
8 0
e mp
p e</w>
t ru
car ds</w>
3 7</w>
j p
he dr
satisf ying</w>
8 9
A m
m on
wa y</w>
ele ments</w>
oper at
origin al</w>
Con sider</w>
corre ct</w>
jp g</w>
C h
p re
math pi
cro pped</w>
mathpi x</w>
4 8</w>
6 0
g on</w>
5 6</w>
e ven</w>
expres sion</w>
defin ed</w>
4 1</w>
g es</w>
di r</w>
un d
8 7
i ther</w>
ed ge</w>
li es</w>
minu tes</w>
perpendi cular</w>
4 2</w>
g re
h al
in scribed</w>
ge q</w>
remain der</w>
W e</w>
a b
g et</w>
i st</w>
19 8
zer o</w>
consecu tive</w>
4 9</w>
comple x</w>
3 9</w>
a m</w>
e y</w>
i m
in de
ta tion</w>
ce i
interse ct</w>
4 4</w>
co ins</w>
A t</w>
di d</w>
pro ble
bal ls</w>
A D</w>
sy m
se le
ce ss
peri meter</w>
i te</w>
si x</w>
pro per
pro blem</w>
hedr on</w>
6 4</w>
ar rang
par t</w>
ne q</w>
seg ments</w>
abo ve</w>
9 7
N o
k ing</w>
3 8</w>
5 4</w>
bol a</w>
orn ame</w>
operat orname</w>
hal f</w>
O n
h er</w>
ha d</w>
form ed</w>
s on</w>
z o
di re
ver age</w>
circ um
ne ga
s en</w>
cho sen</w>
e ffici
t rans
nega tive</w>
A fter</w>
P o
wi th
be ta</w>
equ ality</w>
e t
o un
ex ce
0 6</w>
4 7</w>
9 9</w>
k m</w>
t an</w>
an ts</w>
co effici
con si
da ys</w>
ck s</w>
multi ple</w>
al ong</w>
li p
differ ence</w>
ad j
ame ter</w>
a verage</w>
g a</w>
ct ors</w>
Co m
bla ck</w>
c er
ur s</w>
const ant</w>
sph ere</w>
parti ci
7 7
g er</w>
9 0
d o</w>
ex ist</w>
interse ction</w>
k ed</w>
en ti
5 3</w>
5 1</w>
T w
pe zo
alle d</w>
for e</w>
ac ent</w>
es tion</w>
adj acent</w>
8 6
as es</w>
ch e
can not</w>
2 x</w>
f ine</w>
s ce
v a
y our</w>
el lip
8 1</w>
c alled</w>
pla ce</w>
gra p
tra pezo
n ing</w>
y ra
co uld</w>
ex is
as h
pla ced</w>
bi se
exis ts</w>
remain ing</w>
coordina tes</w>
5 2</w>
5 7</w>
un it</w>
am ong</w>
Com petition</w>
Tw o</w>
h y
p yra
te tra
ou s</w>
5 8</w>
8 5</w>
re gi
ol d</w>
ge ome
so sce
deno te</w>
condi tions</w>
ellip se</w>
sosce les</w>
4 3</w>
n i
s ts</w>
ne cess
spa ce</w>
trapezo id</w>
5 9</w>
B o
i ti
conta ins</w>
grap h</w>
ex ag
a tion</w>
si g
su r
st ri
20 0</w>
a p
i sosceles</w>
s ha
t wi
re cei
al ways</w>
condi tion</w>
alig ned</w>
cyc le</w>
emp ty</w>
pyra mid</w>
e ither</w>
h exag
te ment</w>
fun ctions</w>
twi ce</w>
4 6</w>
7 0
c la
o und</w>
per fe
tak es</w>
ome ga</w>
reas ing</w>
l us</w>
u te</w>
v al</w>
ra tional</w>
me di
ou ld</w>
mo st</w>
fa ces</w>
smalle r</w>
coordina te</w>
equi lateral</w>
t in
lu e</w>
1 1
Q u
d re
p les</w>
in equality</w>
ho l
col um
l ong</w>
di s
ho urs</w>
play er</w>
b lue</w>
o ver</w>
bo x</w>
6 5</w>
m a</w>
u an</w>
li e</w>
sho uld</w>
0 4</w>
1 20</w>
6 3</w>
k i
sol ving</w>
tetra hedron</w>
perfe ct</w>
ro und</w>
ct ing</w>
whi te</w>
o k</w>
wi se</w>
Th is</w>
un its</w>
bo l</w>
whi le</w>
par a
deci mal</w>
sym bol</w>
ob ta
cer tain</w>
hol ds</w>
6 9
n on
s ti
w ar
w ould</w>
wa ter</w>
tra ve
7 2</w>
j o
an other</w>
re qu
divi des</w>
rect angular</w>
rando m</w>
b les</w>
l ud
Pro ve</w>
ina tion</w>
repres en
grou p</w>
On e</w>
0 1</w>
8 4</w>
a pp
m ly</w>
s co
mo ves</w>
rando mly</w>
7 0</w>
d symbol</w>
s chool</w>
ex t</w>
ch i
tur ns</w>
bol dsymbol</w>
divis ors</w>
proper ty</w>
geome tric</w>
R e
y ear</w>
equ als</w>
mo ve</w>
colo r
Fi gure</w>
h i
n er</w>
s um
de c
to u
ou s
tru e</w>
6 8</w>
w al
ord ered</w>
colo r</w>
d a</w>
h ea
s in
be ing</w>
li st</w>
tur n</w>
ite m</w>
tin u
m in</w>
s h</w>
ou t
roo t</w>
ele ment</w>
6 6</w>
8 9</w>
f u
j e
v ar
y e
Th ree</w>
ver al</w>
posi te</w>
Wh i
per son</w>
ne w</w>
Ex am
gra de</w>
8 8</w>
F rom</w>
c alcula
g ri
ma t
am oun
6 2</w>
k e
p lus</w>
sh i
Co mp
t y
u sing</w>
ar ound</w>
te am</w>
on ce</w>
ro ws</w>
do wn</w>
li m</w>
tic al</w>
inter val</w>
sub sets</w>
pas sing</w>
pie ces</w>
in side</w>
qua dra
20 21</w>
dist ri
sm all</w>
expres sed</w>
0 00</w>
k i</w>
l floor</w>
p on
r floor</w>
y uan</w>
in iti
an s</w>
te ly</w>
inc rea
Qu estion</w>
S ta
ma de</w>
ma ke</w>
ed ges</w>
resul ting</w>
with out</w>
quadra tic</w>
7 9
f f</w>
f proble
m solving</w>
n ext</w>
p t</w>
ar to
st o
st ra
con ne
be low</w>
ci ty</w>
ch ang
obta ined</w>
Whi ch</w>
Exam ination</w>
gri d</w>
fproble msolving</w>
arto fproblemsolving</w>
m pi
r d</w>
di ameter</w>
ag a
fin ite</w>
eri can</w>
A r
b all</w>
b rea
i den
mu ch</w>
cur ve</w>
sur face</w>
Sta tement</w>
k es</w>
re n
en ds</w>
se veral</w>
ho ur</w>
con tinu
inc reasing</w>
coeffici ents</w>
3 x</w>
6 1</w>
a ble</w>
d y</w>
p u
fra ction</w>
math cal</w>
per p</w>
Am erican</w>
o c
en ces</w>
20 16</w>
li ce</w>
ce lls</w>
8 2</w>
p ut</w>
con e</w>
de g
mo ving</w>
tt ing</w>
tr y</w>
9 5</w>
o ff</w>
t ud
w ing</w>
posi tion</w>
de term
pa per</w>
ye ars</w>
distri bu
deg ree</w>
8 6</w>
e v
ur ing</w>
pri ce</w>
measu re</w>
hexag on</w>
b es</w>
d frac</w>
t ly</w>
ma x</w>
lar ge</w>
pie ce</w>
ra m</w>
diagon als</w>
inde x</w>
amoun t</w>
9 6</w>
C ar
i or</w>
p en</w>
v o
v ari
in o
in ing</w>
ar ri
ter n
tri angular</w>
be en</w>
ve x</w>
divis or</w>
trans la
regi on</w>
A ll</w>
S i
c ha
g en
di tion</w>
ph p</w>
ca ted</w>
tak en</w>
ori gin</w>
tur ned</w>
Bo b</w>
para bola</w>
7 8</w>
A lice</w>
c ard</w>
e st</w>
l on
r un
u sed</w>
er e
fra c
wi ki</w>
play ers</w>
color s</w>
Comp ute</w>
mpi ad</w>
6 9</w>
6 7</w>
8 3</w>
8 7</w>
O ly
r y</w>
co in</w>
la mb
20 15</w>
sub set</w>
op posite</w>
colum n</w>
2 3
a tional</w>
d ash
in gs</w>
se l
con vex</w>
cu bes</w>
bo un
ba r</w>
wri te</w>
arrang ed</w>
ous ly</w>
dash ed</w>
2 n</w>
f y</w>
s er
par ts</w>
stud ent</w>
requ i
9 2</w>
o s</w>
on es</w>
am s</w>
20 17</w>
ex ten
tt ers</w>
inc lud
7 6</w>
A n</w>
j um
cu t</w>
lar ger</w>
diag ram</w>
abo ut</w>
diagon al</w>
gre en</w>
partici pa
B e
d ro
i ma
l n</w>
po sed</w>
di es</w>
fo ur
10 1</w>
pla y</w>
und er
lamb da</w>
w ers</w>
ma tri
or y</w>
at or</w>
ce ll</w>
ari ly</w>
No te</w>
consi sts</w>
cla ss</w>
3 3
t an
st ing</w>
me an</w>
me mb
res pon
uni qu
7 6
t ro
al low
ma y</w>
me th
ge ther</w>
mo d</w>
ca p</w>
200 6</w>
choo se</w>
pas ses</w>
star ting</w>
exce e
iden tical</w>
9 6
P et
c ases</w>
l l
con sid
Mathematic al</w>
9 8</w>
9 1</w>
9 7</w>
X i
a r</w>
a cu
ar c
le tters</w>
si ons</w>
lo gra
divi de</w>
are as</w>
min us</w>
const ru
Po int</w>
S e
g ir
h an
se ction</w>
am ma</w>
me et</w>
to gether</w>
follow s</w>
uni or</w>
mar ked</w>
Ch in
pre vi
6 6
9 8
j u
ti l</w>
ir c
pro g
de fine</w>
inter ior</w>
poly gon</w>
gen er
acu te</w>
4 4
C irc
c ent</w>
st an
conta in</w>
four th</w>
7 7</w>
s he
20 19</w>
sa id</w>
spe ci
5 4
J unior</w>
M i
th ose</w>
sequ ences</w>
bise ctor</w>
necess ary</w>
Xi a
prog res
8 8
H e</w>
T o</w>
b ra
b lo
c lu
s cor
t u
t ter</w>
un til</w>
tri ples</w>
ca r</w>
mid points</w>
Oly mpiad</w>
7 9</w>
I I</w>
f ri
m en
pro ce
ne ed</w>
ph i</w>
ca tion</w>
ca se</w>
multi p
cur ren
il dre
sele cted</w>
consid ered</w>
ildre n</w>
6 5
8 5
E F</w>
N ational</w>
po r
numb ered</w>
Th ey</w>
20 20</w>
20 13</w>
cu p</w>
ch ildren</w>
An swer</w>
star t</w>
equi v</w>
alig n</w>
hy per
excee ding</w>
0 2</w>
6 8
7 8
7 4</w>
9 3</w>
B D</w>
e ar
e ld</w>
l led</w>
n or
o t
o dot</w>
integ ral</w>
20 22</w>
cir cular</w>
ne e
ch ar
roo m</w>
ss es</w>
star ts</w>
aga in</w>
determ ined</w>
boun ded</w>
7 1</w>
M ar
a b</w>
a x</w>
g ru
i c</w>
s m</w>
t frac</w>
te ams</w>
se ven</w>
con gru
be fore</w>
me e
fin al</w>
we e
comple te</w>
can dies</w>
matri x</w>
progres sion</w>
3 00</w>
x y</w>
an s
ro ta
De fine</w>
cor respon
ffici ent</w>
Am ong</w>
inde pen
uniqu e</w>
0 3</w>
0 7</w>
2 2
C A</w>
b an
le n
po ten
si an</w>
inte d</w>
li mi
pri sm</w>
pres s</w>
fe et</w>
igh ts</w>
partici p
sel f</w>
hyper bola</w>
4 5
5 5
i t
k a</w>
ve c</w>
fa ct
recei ved</w>
sin g
var phi</w>
ere fore</w>
7 5
9 4</w>
D i
c d</w>
i i</w>
p es</w>
r ing</w>
in ts</w>
ar c</w>
si ve</w>
di e</w>
fo und</w>
20 14</w>
ex pec
ta gon</w>
cu s</w>
to m</w>
radi i</w>
repres ents</w>
proble ms</w>
Pet ya</w>
1 50</w>
4 3
a tely</w>
e l</w>
h line</w>
o th
s p
po rt</w>
wh o
tri es</w>
fi eld</w>
com petition</w>
Ex press</w>
for ma
ad d</w>
deno tes</w>
necess arily</w>
gir ls</w>
6 4
9 4
D E</w>
T i
d eri
e se</w>
w in
le tter</w>
bo ys</w>
ste p</w>
colo red</w>
initi al</w>
tan e
scor e</w>
1 st</w>
3 5
7 4
9 5
b ir
b ino
g y</w>
m an
p ed</w>
p mod</w>
w ins</w>
x ed</w>
su fficient</w>
20 12</w>
20 18</w>
bo t
200 8</w>
coun t</w>
war ds</w>
stra ight</w>
previ ous</w>
7 3</w>
e ight</w>
i l</w>
i ly</w>
n am
z ed</w>
ti tud
si mul
co mes</w>
lo cated</w>
20 00</w>
equ ally</w>
ba g</w>
enti re</w>
includ ing</w>
logra m</w>
bot tom</w>
simul tane
h igh
de gre
vi de</w>
at ta
cor ding</w>
grou ps</w>
ki lo
degre es</w>
5 3
8 4
V as
k g</w>
s wi
co ver
li sh</w>
per mu
pi le</w>
polynomi als</w>
arrang e
dire ction</w>
ap pro
sum s</w>
brea ks</w>
W ri
f le
l o</w>
n u
t g</w>
an ces</w>
al titud
Th erefore</w>
20 11</w>
pa inted</w>
inc lu
18 0</w>
Con dition</w>
paralle logram</w>
oper ation</w>
mon ey</w>
meth od</w>
deri va
simultane ously</w>
Vas ya</w>
Wri te</w>
e p</w>
f er
u ght</w>
in ci
po wer</w>
su re</w>
valu ate</w>
pp er</w>
ad ded</w>
mp li
minu te</w>
ite ly</w>
No w</w>
circum scribed</w>
hy poten
sco red</w>
shi p</w>
increa sed</w>
congru ent</w>
hypoten use</w>
b ro
c y</w>
c ing</w>
n d</w>
s al
z z
gi ves</w>
per cent</w>
cho rd</w>
fa ctors</w>
for mul
interse cting</w>
200 5</w>
ste ps</w>
col le
go t</w>
requi red</w>
sing le</w>
kilo meters</w>
formul a</w>
l ing</w>
o re
x es</w>
an i
ra te</w>
re es</w>
co st</w>
ex p
posi tions</w>
bo o
bo ok</w>
ne igh
ba ck</w>
Sol u
cen ters</w>
coeffici ent</w>
Xia o</w>
proce ss</w>
deriva tive</w>
0 8</w>
0 9</w>
7 3
c c
c alculate</w>
i mi
n ine</w>
p ea
s k</w>
t size</w>
u l
ma thematic
ho mb
to ok</w>
fi f
fi xed</w>
ve ctors</w>
ch ed</w>
lar s</w>
lin ear</w>
ck wise</w>
transla tion</w>
gener al</w>
3 2
C la
E ng
F our</w>
J o
c all</w>
h und
v en
er ate</w>
en um
co me</w>
mo du
ly ing</w>
pen ci
Chin a</w>
Eng lish</w>
1 25</w>
8 3
A l
A ss
a ted</w>
g old</w>
l g</w>
l and</w>
p ur
w in</w>
te sian</w>
re du
ter ed</w>
ver se</w>
ex tern
mi t
ag es</w>
sho ws</w>
wor th</w>
clo ckwise</w>
dire ctly</w>
sti ll</w>
represen tation</w>
neigh b
5 00</w>
6 3
S how</w>
a ch
k et</w>
n a</w>
er es</w>
le ve
li ght</w>
vi si
form at</w>
clo sed</w>
consi sting</w>
represen ted</w>
oc cu
under line</w>
memb ers</w>
allow ed</w>
cover ed</w>
homb us</w>
enum erate</w>
1 10</w>
4 2
9 3
I M
f al
w ants</w>
th ou
le gs</w>
ro ad</w>
ma kes</w>
mi l
par ameter</w>
pla ces</w>
19 90</w>
cen ding</w>
tt le</w>
200 9</w>
mar k</w>
sph eres</w>
ab solu
Po ints</w>
hi m</w>
ty pe</w>
9 2
B y</w>
N o</w>
S u
a sed</w>
b x</w>
b ar
b ea
f am
g cd</w>
h at</w>
i ce</w>
ti ce</w>
en d
do l
li ters</w>
gi ve</w>
pa int</w>
pla in</w>
fa ctor</w>
ru bles</w>
rect angles</w>
play ed</w>
go od</w>
sele ct</w>
with in</w>
increa se</w>
constru cted</w>
correspon ding</w>
bino m</w>
D ra
G amma</w>
N E</w>
b b
c ally</w>
d x</w>
in finite</w>
an g</w>
re turn</w>
ro lls</w>
se mi
st ru
ct g</w>
ur nam
ne are
ch ing</w>
Pro posed</w>
sh ed</w>
we ver</w>
peri od</w>
measu res</w>
proper ties</w>
Circ le</w>
absolu te</w>
urnam ent</w>
neare st</w>
A M</w>
A E</w>
S he</w>
Y ou</w>
a ct
a tions</w>
b ases</w>
c i</w>
r hombus</w>
la te</w>
do u
un der</w>
20 10</w>
com b
pp ing</w>
200 4</w>
200 7</w>
gin ning</w>
wor k
ap pe
non negative</w>
app les</w>
ev ent</w>
Car tesian</w>
ans wers</w>
d ri
k o
n or</w>
n one</w>
r ds</w>
w o
in ce</w>
te ments</w>
be ginning</w>
li ed</w>
me tric</w>
bo xes</w>
cen ti
bu y</w>
200 3</w>
el low</w>
sta tements</w>
cy lin
bla ck
sha ded</w>
out put</w>
it self</w>
expec ted</w>
exp an
T ri
k n
p al
r t
w ro
ti les</w>
ar d
te ach
wh e
to urnament</w>
ha ving</w>
plan es</w>
200 1</w>
rema ins</w>
tang ents</w>
play ing</w>
form s</w>
pas s</w>
zer os</w>
ash a</w>
stri ctly</w>
sha pe</w>
calcula ted</w>
mat ches</w>
conne cted</w>
wro te</w>
C D
P er
T ry</w>
b us</w>
d uring</w>
m en</w>
o t</w>
t rees</w>
w ard</w>
z on
in dro
te e</w>
le r</w>
al e</w>
ri zon
ho rizon
bo ught</w>
Ho wever</w>
mo ved</w>
dist ances</w>
gra ph
den tly</w>
14 0</w>
resul ts</w>
deno ted</w>
corre ctly</w>
im medi
medi an</w>
tou ches</w>
vari able</w>
exten sion</w>
indepen dently</w>
black board</w>
2 1
E valuate</w>
P ar
R o
T I
d le</w>
e ll</w>
r on
re st</w>
si l
qu estion</w>
ang led</w>
su c
am es</w>
ho me</w>
ho ld</w>
li gh
no w</w>
as cending</w>
ve ctor</w>
low er</w>
fin i
sub tra
sh are</w>
sco res</w>
hea ds</w>
out side</w>
initi ally</w>
distribu tion</w>
fri ends</w>
particip ants</w>
boo ks</w>
centi meters</w>
pal indro
5 2
T rans
p lo
y ellow</w>
ma gi
sid ed</w>
fi ed</w>
mi les</w>
cho rds</w>
lea se</w>
roo ms</w>
pen tagon</w>
14 4</w>
Ma th</w>
ac cording</w>
es tions</w>
wor k</w>
wor d</w>
defin ite</w>
trave l</w>
forma tion</w>
modu lo</w>
4 x</w>
P Q</w>
d ers</w>
l ta</w>
t or</w>
re l</w>
re sid
qu ar
ma ss</w>
ta bu
cu bi
pro ve</w>
10 2</w>
fi ll</w>
fi lled</w>
pa th</w>
sho r
cen tro
rela tion
sta r</w>
app ear</w>
conne cting</w>
han ds</w>
limi t</w>
who le</w>
inclu sive</w>
fif th</w>
penci ls</w>
teach er</w>
immedi ately</w>
tabu lar</w>
4 00</w>
7 2
C B</w>
L a
h space</w>
i ty</w>
m y</w>
re fle
qu estions</w>
wi de
ta ge</w>
sq rt
10 5</w>
to wards</w>
sol ved</w>
tra in</w>
deno min
199 2</w>
pair wise</w>
deci ded</w>
arc s</w>
nee ded</w>
extern ally</w>
leve l</w>
wide hat</w>
0 0
2 y</w>
6 2
C an</w>
N W</w>
e g
i a</w>
j e</w>
s eri
u m</w>
v a</w>
y z</w>
en s</w>
en cy</w>
di ce</w>
fo ot</w>
ma in</w>
co s
la y
pri mes</w>
ru les</w>
comp any</w>
eri cal</w>
repres ent</w>
gu e</w>
exce ed</w>
colum ns</w>
jum p</w>
ot on
mee ts</w>
wee k</w>
oth ers</w>
swi t
seri es</w>
8 2
I s</w>
P a
a way</w>
a chi
g ons</w>
i ll</w>
m et</w>
p m</w>
x max</w>
ti ent</w>
re pea
ro un
num er
co t</w>
con ver
con sider</w>
20 23</w>
ct ure</w>
dra l</w>
ne ither</w>
divi sion</w>
sol ve</w>
he dral</w>
pos si
bu l
comp ute</w>
mb er</w>
199 9</w>
tru th</w>
dre w</w>
transla ted</w>
Solu tion</w>
fam ily</w>
expan sion</w>
cubi c</w>
centro id</w>
achi e
2 a</w>
A u
H ere</w>
L ea
c at
g o</w>
u e</w>
er ci
on al</w>
se a
la tion</w>
ta tions</w>
inter n
over la
follow ed</w>
wri tes</w>
form ing</w>
conta ining</w>
cei l</w>
regi ons</w>
fu l</w>
fu ll</w>
shi ft</w>
chang ed</w>
continu es</w>
participa ted</w>
ima gin
nor mal</w>
permu tation</w>
altitud e</w>
fer ence</w>
Dra w</w>
appe ars</w>
Lea gue</w>
N one</w>
b s</w>
d war
p r
u t
ra ce</w>
qu o
di hedral</w>
fo cus</w>
fo ci</w>
se e</w>
ma n</w>
co ver</w>
st ore</w>
fa ul
bu il
fe wer</w>
conta in
ax es</w>
199 5</w>
sig n</w>
chang e</w>
cylin der</w>
erci se</w>
M N</w>
S h
a u
c li
e ds</w>
f ar
m er</w>
o es</w>
an ti
ar bi
la t
ir rational</w>
li on</w>
pro vi
fi gu
mi al</w>
pa id</w>
pa ges</w>
ge ts</w>
par t
diff er</w>
cen t
cor ner</w>
labe led</w>
200 2</w>
we ight</w>
quad ran
Fi ve</w>
mon oton
circum circle</w>
bise ctors</w>
hea d</w>
jum ps</w>
whe ther</w>
horizon tal</w>
quo tient</w>
arbi tr
1 60</w>
B E</w>
C an
N e
T o
T ea
d ent</w>
g ames</w>
h ere</w>
n ers</w>
t pen</w>
v á</w>
x min</w>
y min</w>
y max</w>
in di
en tries</w>
di v</w>
fra ctions</w>
co inci
la m
de ck</w>
per cen
vi l
rea dy</w>
ste ad</w>
16 2</w>
25 6</w>
99 9</w>
mar bles</w>
cyc list</w>
reas es</w>
ab c</w>
mat ch</w>
lon ger</w>
run ning</w>
relation ship</w>
imagin ary</w>
0 5
1 11</w>
D uring</w>
E very</w>
M o
P C</w>
S o
S E</w>
b ri
c lud
f ro
k o</w>
o ds</w>
p matrix</w>
r a</w>
s en
s li
t or
u pper</w>
in verse</w>
si x
si mi
di men
be ca
ver y
ta sk</w>
10 3</w>
bo und
pe ct</w>
vi ce</w>
sa y</w>
pla ys</w>
Ex ercise</w>
fin itely</w>
so cks</w>
ss board</w>
13 5</w>
28 4</w>
we ll</w>
mid dle</w>
oper ations</w>
199 8</w>
multi ples</w>
clo se
measu re
im port</w>
che ssboard</w>
dec rea
run s</w>
len t</w>
mpli fy</w>
fal se</w>
lat tice</w>
percen tage</w>
beca use</w>
U sing</w>
a ds</w>
c ra
g la
h igh</w>
in st</w>
er ing</w>
te ll</w>
le pi
al ready</w>
se m
ma j
ho use</w>
tri p</w>
de faul
rea d</w>
Pro v
ck et</w>
12 8</w>
tang ency</w>
paralle lepi
car s</w>
const ants</w>
ob tain</w>
recei ves</w>
jo ur
tou ch</w>
aga inst</w>
arri ved</w>
tu ally</w>
Cla ss</w>
end points</w>
graph s</w>
denomin ator</w>
quadran t</w>
close st</w>
defaul tpen</w>
L e
P e
b as
d one</w>
f li
g ray</w>
g amma</w>
n a
w all</w>
ti le</w>
ra ys</w>
re moved</w>
en ou
po pu
fo ot
do main</w>
ter n</w>
ea st</w>
li ke
ta il</w>
as ked</w>
10 4</w>
fi ll
ha pp
equ ali
sa ys</w>
rea m</w>
mo ther</w>
De lta</w>
tak ing</w>
kno w</w>
sta tement</w>
ten s</w>
gu es
perpendi cu
On ly</w>
dec reasing</w>
wal k</w>
arri ve</w>
mee ting</w>
arrange ments</w>
mit tee</w>
kn ights</w>
Prov ince</w>
enou gh</w>
2 k</w>
A le
D C</w>
E ar
M A
P M</w>
P A</w>
a f
c ame</w>
f ru
p ra
s er</w>
u red</w>
z a</w>
th ing</w>
er ased</w>
re cor
al ter
ma king</w>
su p
no tation</w>
ci ties</w>
rea ches</w>
sho ts</w>
nat ing</w>
14 2</w>
comp u
12 3</w>
sh u
wor ds</w>
tr ino
go es</w>
In iti
exce pt</w>
che ss</w>
bise cts</w>
sig ma</w>
recei ve</w>
jo int</w>
ty pes</w>
stan d
blo cks</w>
curren t</w>
nee ds</w>
char ac
sal ary</w>
Ass ume</w>
pur cha
suc ce
sea ts</w>
six th</w>
parallelepi ped</w>
1 30</w>
1 21</w>
B 2</w>
B er
P B</w>
R a
S qu
f on
g ing</w>
k in
n y</w>
p sil
s ou
s sed</w>
in k</w>
re ci
al tern
on g
en closed</w>
po wers</w>
si ty</w>
co prime</w>
Th e
lo ses</w>
lo cus</w>
ta i
res pect</w>
ce p
mo ment</w>
Pro ble
pres ent</w>
cen tered</w>
tar get</w>
ck ed</w>
ad di
sh a</w>
is h</w>
199 3</w>
199 1</w>
emp h</w>
sym metric</w>
chi ld</w>
Ar rows</w>
memb er</w>
bra ce</w>
blo ck</w>
win ner</w>
arrange ment</w>
visi ted</w>
thou ght</w>
work ers</w>
Trans late</w>
popu lation</w>
equali ties</w>
alter nating</w>
Initi ally</w>
fon tsize</w>
psil on</w>
2 nd</w>
6 56
C E</w>
E F
L i
M on
b c</w>
c le
d at
e e
p lease</w>
s lo
x ima
in ches</w>
in correct</w>
an nu
si t</w>
ro ads</w>
num erical</w>
ma th</w>
la ke</w>
do w
ter is
be lon
or ang
mu tually</w>
10 8</w>
tion ed</w>
at ure</w>
com mittee</w>
19 9</w>
mo tor
bi g
sol id</w>
fa ir</w>
differ enti
ru le</w>
14 3</w>
ad dition</w>
secon ds</w>
spe eds</w>
sta ck</w>
AB CD
wor king</w>
satisfi ed</w>
coun ted</w>
mon th</w>
198 9</w>
dire ctions</w>
Si mplify</w>
ju st</w>
she ep</w>
multip lied</w>
fact ori
ore m</w>
fini shed</w>
palindro me</w>
magi c</w>
bound ary</w>
like ly</w>
perpendicu lars</w>
Proble ms</w>
2 10</w>
J an
S y
T u
b p</w>
c ents</w>
l ly</w>
m u</w>
s che
x i</w>
th us</w>
th ous
in ner</w>
in finitely</w>
le g</w>
on to</w>
en sure</w>
si tting</w>
ma g
st one</w>
ol y
be comes</w>
or g
li ars</w>
ex plain</w>
no tic
bo at</w>
vi ta
min imi
rea ch</w>
low est</w>
tra l</w>
max imi
12 6</w>
vertic al</w>
es day</w>
form ly</w>
uni form</w>
uni formly</w>
star ted</w>
col linear</w>
198 5</w>
im g</w>
circum ference</w>
et c</w>
trave led</w>
wal ks</w>
je ct</w>
dro pped</w>
appro xima
mathematic al</w>
hund re
hund red</w>
dol lars</w>
quar ter</w>
bul let</w>
cent re</w>
Tea m</w>
addi tional</w>
Tu esday</w>
6 th</w>
A 3</w>
C O
F ri
K no
S W</w>
S ci
W i
a va
e very
f ron
g x</w>
i la
i ds</w>
i cally</w>
k en</w>
m per
m ple</w>
o wn</w>
p te
s tic
t un
t use</w>
w on</w>
th o
an ya</w>
si mple</w>
ro ll</w>
di sc
se para
co o
be g
li ke</w>
as sig
10 9</w>
10 6</w>
pa ge</w>
dra ws</w>
com posed</w>
min i
cho co
fa r</w>
lea ves</w>
fin ish</w>
gra des</w>
bili ties</w>
poly hedron</w>
es ti
uni tsize</w>
can dy</w>
ga ve</w>
100 1</w>
coun ter
medi ans</w>
non zero</w>
distribu ted</w>
under brace</w>
Se pte
Chin ese</w>
speci al</w>
clu b</w>
nu ts</w>
Tri angle</w>
ard less</w>
Per son</w>
cos ine</w>
foot ball</w>
Ear th</w>
stand ard</w>
org ani
vita tional</w>
ava ila
Septe mber</w>
availa ble</w>
1 f
1 20
A A
B 1</w>
B on
D A</w>
M e
M ari
N i
P Q
R u
b ly</w>
c a</w>
f ree</w>
g round</w>
i ii</w>
n am</w>
u ses</w>
v an
w ant</w>
al ge
ro lled</w>
um b
se c</w>
ir s</w>
con clu
as sum
10 7</w>
fi t</w>
fi sh</w>
pa y</w>
at ing</w>
dra wing</w>
squ ir
pri l</w>
sol d</w>
lar ly</w>
lea ve</w>
12 2</w>
sub sequ
distin gu
16 9</w>
30 6</w>
ga th
quad ru
defin itely</w>
cur ves</w>
origin ally</w>
clo ck</w>
op tions</w>
hexag ons</w>
non empty</w>
wal king</w>
participa te</w>
por tion</w>
indepen dent</w>
particip ant</w>
sp ent</w>
zz le</w>
IM O</w>
mil k</w>
numer ator</w>
figu res</w>
Squ are</w>
dow n
A 2</w>
A 1</w>
A pril</w>
J u
a part
b ran
c tion
d ge</w>
e c
e ts</w>
h it</w>
l a</w>
m n</w>
m ale</w>
n g</w>
o v</w>
p ing</w>
p ng</w>
r h
s ci
w ent</w>
y oun
z i
ti t</w>
ar ct
te mper
re turns</w>
on e
ro tation</w>
qu anti
se ctions</w>
Th ese</w>
ir e</w>
st and</w>
lo an</w>
be long</w>
li min
tex tit</w>
pro vide</w>
ct ory</w>
me s
Wh o</w>
vi sible</w>
at ten
ne ver</w>
pi les</w>
cho ol
sho w</w>
so ci
choo ses</w>
ss ing</w>
15 2</w>
17 5</w>
conta ined</w>
comple tely</w>
is land</w>
An d</w>
coun ts</w>
ob tuse</w>
go al</w>
ap ple</w>
dis joint</w>
trave ls</w>
Ar range</w>
ev en
requi re
wee ks</w>
colle cted</w>
semi circle</w>
dou ble</w>
lay er</w>
provi ded</w>
lam ps</w>
simi lar</w>
cra w
reci pro
tai ls</w>
arct an</w>
0 7
1 24</w>
2 50</w>
2 40</w>
3 60</w>
A P</w>
C ity</w>
D a
R S</w>
R ound</w>
S tar
T a
U n
Y our</w>
b or
d g</w>
f s</w>
f e</w>
h and</w>
m ing</w>
m orn
s k
s po
t al
t on</w>
w ered</w>
z a
in es</w>
in ary</w>
in center</w>
in formation</w>
in equalities</w>
er ro
er wise</w>
ar ing</w>
re en</w>
re vol
en o
si mpli
um es</w>
co de</w>
do min
lo a
am p</w>
be st</w>
pro gra
pro per</w>
de pen
ci ans</w>
par k</w>
par ame
ne y</w>
ag on</w>
pla te</w>
Ex a
du e</w>
ca pa
tt les</w>
14 1</w>
14 6</w>
13 3</w>
13 1</w>
13 7</w>
15 5</w>
16 4</w>
we igh
uni t
37 1</w>
199 4</w>
vol umes</w>
100 00</w>
reg ardless</w>
11 11
calcula tion</w>
ke e
chang es</w>
speci fi
fact ory</w>
oth erwise</w>
win ning</w>
high er</w>
permu tations</w>
bro ther</w>
mathematic s</w>
ven th</w>
redu ced</w>
occu r</w>
ligh ts</w>
plo ts</w>
shor ter</w>
vil la
dimen sions</w>
purcha se</w>
fron t</w>
subsequ ent</w>
gath ered</w>
1 12</w>
4 a
6 00</w>
8 d
8 x</w>
A IM
B CD</w>
B AC</w>
C up</w>
D oes</w>
F irst</w>
J a
a se</w>
a ir</w>
c b
f la
g ro
k u
l s
n e</w>
n ight</w>
o l</w>
o ffi
p tion</w>
s day</w>
t rea
v ers</w>
w edge</w>
in ser
in stead</w>
an a</w>
te q</w>
te sts</w>
en g
po un
si st
si tive</w>
qu i
qu ality</w>
um ing</w>
la ter</w>
st ones</w>
20 8</w>
ta bles</w>
val s</w>
val id</w>
pro d</w>
pro fit</w>
bo ttles</w>
vi e
pa y
ge tting</w>
divi ding</w>
tic ket</w>
com posite</w>
inter vals</w>
ph one</w>
bi cycle</w>
da te</w>
ru n</w>
wri ting</w>
ck ing</w>
12 9</w>
sc al
16 5</w>
we st</w>
25 7</w>
can s</w>
sta tion</w>
cro ss</w>
coun ting</w>
ob ser
go ing</w>
spa ces</w>
Ch ar
198 7</w>
circum center</w>
sin ce</w>
var angle</w>
mat ter</w>
continu ous</w>
determ in
ev ents</w>
Be i
nor th</w>
ans wered</w>
rota te</w>
ban k</w>
altitud es</w>
Ass uming</w>
neighb ors</w>
eg gs</w>
sem i</w>
pra c
compu ter</w>
slo pe</w>
Exa ctly</w>
AIM E</w>
ls f</w>
1 g</w>
1 19</w>
2 i</w>
2 16</w>
4 th</w>
9 th</w>
E n
G H</w>
H int</w>
L u
S te
S tud
T H
a part</w>
c rea
d d
j ing</w>
k ey</w>
l ang
s ted</w>
s pi
s sho
s ca
x yz</w>
z es</w>
th ers</w>
in ch</w>
ra bb
re placed</w>
on d</w>
on ing</w>
po n</w>
si m</w>
se teq</w>
lo o
lo st</w>
ol i
or tho
pro je
10 th</w>
mi ze</w>
par ed</w>
tic k
tic le</w>
com pe
rea ds</w>
sequ enti
he ld</w>
fa st</w>
sho p</w>
pres er
tra je
fin ally</w>
gra ssho
ck s
ad ding</w>
12 7</w>
13 9</w>
13 2</w>
15 6</w>
ac count</w>
17 0</w>
17 6</w>
16 8</w>
16 3</w>
we ights</w>
36 6</w>
ax is
199 7</w>
199 6</w>
pas sed</w>
equi va
coun tries</w>
tr a</w>
gu ar
ite mize</w>
op en</w>
In vitational</w>
198 8</w>
198 6</w>
sele ction</w>
Po sitive</w>
geome try</w>
stri p</w>
cla sses</w>
calcula tor</w>
stra te
iden ti
distribu te</w>
Si mi
Circ les</w>
char act
bir th
bar rel</w>
TI O
achie ve</w>
contain er</w>
clud ing</w>
Ale x</w>
trino mial</w>
dat a</w>
annu al</w>
orang e</w>
temper ature</w>
bor n</w>
poun ds</w>
determin ant</w>
lang u
rabb it</w>
grassho pper</w>
charact ers</w>
6 x</w>
8 th</w>
A N
B a
B F</w>
B ill</w>
F t</w>
I II</w>
K ar
L ine</w>
O P</w>
O B</w>
P ut
S o</w>
Y ear</w>
d ly</w>
d angle</w>
e b
f ly</w>
g ear</w>
m box</w>
n ame</w>
o pen
r ings</w>
s on
s ter</w>
u se
u res</w>
x is</w>
y si
y le</w>
in a</w>
ar a</w>
re tain</w>
al l
ri es</w>
ri ver</w>
si mp
st ring</w>
st ream</w>
ea ts</w>
tri bu
tri city</w>
li c</w>
cu ts</w>
no te
me ans</w>
pa t
par ty</w>
ne ss</w>
ch am
ce l
min or</w>
pla cing</w>
rea ched</w>
Pro vide</w>
interse ction
14 7</w>
14 5</w>
rema in</w>
15 9</w>
kno ws</w>
18 8</w>
18 1</w>
17 2</w>
50 00</w>
An y</w>
comm uni
coun try</w>
reas oning</w>
dec agon</w>
wal ked</w>
sto p</w>
frac tional</w>
constru ct</w>
stan ds</w>
limi ts</w>
Al so</w>
neighb or
mil lion</w>
bea ds</w>
comb ined</w>
possi bilities</w>
intern ally</w>
overla p</w>
monoton ically</w>
arbitr ary</w>
indi ca
So me</w>
measure dangle</w>
af ter
thous and</w>
Wi th</w>
every one</w>
coo ki
rh o</w>
morn ing</w>
specifi c</w>
sequenti ally</w>
equiva lent</w>
guar an
Put nam</w>
1 15</w>
2 b</w>
3 rd</w>
5 x</w>
7 th</w>
8 00</w>
9 00</w>
A M
A c
A F</w>
C at</w>
C he
C CA</w>
D B</w>
D eno
E D</w>
F u
F in
L ist</w>
M asha</w>
P i
R O
S asha</w>
T e
U ni
Z a
a war
b bi
c al
d end</w>
e sting</w>
j a</w>
m m</w>
m er
m sel
s a</w>
s ent</w>
t ure</w>
u ary</w>
in ver
an al
an za</w>
ti n</w>
ar range</w>
re move</w>
re turned</w>
di am
ma in
co ur
la xis</w>
wi de</w>
lo gi
lo ss</w>
lo cation</w>
con tribu
tri p
ver t</w>
the msel
pro pos
mu sh
de li
bo y</w>
ha i</w>
ce le
inter esting</w>
ph ysi
pla tes</w>
19 0</w>
19 2</w>
mo un
pi pe</w>
fa v
sho t</w>
fol ded</w>
da ily</w>
cen tral</w>
lea ding</w>
plan ar</w>
produ cts</w>
produ ced</w>
13 8</w>
sc ale</w>
sc reen</w>
inc reases</w>
15 4</w>
15 3</w>
15 1</w>
17 8</w>
17 1</w>
28 8</w>
28 5</w>
rela tion</w>
scri be</w>
AB D</w>
37 5</w>
34 3</w>
mar ks</w>
198 3</w>
sig ns</w>
fu lly</w>
participa ting</w>
ll ing</w>
logra ms</w>
han g</w>
swit ch</w>
05 in</w>
jour ney</w>
Mon day</w>
differenti able</w>
Jan uary</w>
hundre ds</w>
separa ted</w>
assig ned</w>
Bon anza</w>
squir rel</w>
revol u
Bei jing</w>
birth day</w>
Deno te</w>
awar ded</w>
themsel ves</w>
1 x</w>
1 13</w>
1 17</w>
2 20</w>
3 a</w>
3 20</w>
3 30
A d
B ar
C M</w>
C ar</w>
H u
M r</w>
b ur
d ar
e ver</w>
g ard
i ces</w>
k ens</w>
w ns</w>
y i
in st
ti al</w>
la s</w>
Th us</w>
do t
st yle</w>
20 1</w>
li ve</w>
ta u</w>
ta ins</w>
cu tting</w>
no on</w>
cdo t
pe at</w>
to day</w>
to kens</w>
pa ck
ci ble</w>
ce pt</w>
divi du
inter p</w>
pla ce
19 6</w>
bi ll</w>
ca kes</w>
rou te</w>
choo sing</w>
up les</w>
produ ce</w>
13 4</w>
kno wing</w>
sub seteq</w>
poly gons</w>
18 4</w>
18 3</w>
18 7</w>
17 9</w>
16 7</w>
es ter
sta te</w>
ten th</w>
37 8</w>
ffi c</w>
38 4</w>
59 8</w>
parti cular</w>
pre ce
198 4</w>
Bo th</w>
tou ching</w>
pu ts</w>
oc tagon</w>
cha irs</w>
frac 1</w>
ser vice</w>
exten d</w>
meth ods</w>
arc sin</w>
she et</w>
Xia o
rota ted</w>
expec tation</w>
bir ds</w>
high way</w>
colle ction</w>
Solu tions</w>
Jo h
redu cible</w>
swit ches</w>
dwar fs</w>
buil ding</w>
fro g</w>
bas ket</w>
fill draw</w>
ABCD EF</w>
oly mpiad</w>
notic ed</w>
Kno wing</w>
stic ks</w>
ec cen
craw ls</w>
Star ting</w>
erro r</w>
Ac cording</w>
mush rooms</w>
gard en</w>
1 14</w>
1 18</w>
4 y</w>
9 46
A re
A re</w>
B ri
B ased</w>
E C</w>
G R
I den
P at
V ari
Z hang</w>
b inary</w>
e valu
f b
g ers</w>
i se</w>
i ld</w>
j ar</w>
m ary</w>
o ff
p ure</w>
r s</w>
r ong</w>
s ample</w>
s wa
s ume</w>
s chool
t ree</w>
u ts</w>
w at
z ation</w>
th ro
in king</w>
ti ble</w>
ar ly</w>
ar ctg</w>
te en</w>
ra tion</w>
re sta
en try</w>
po und</w>
se venth</w>
ma ch
Th rough</w>
un translated</w>
tri ple</w>
be come</w>
20 9</w>
20 7</w>
li ttle</w>
ex cluding</w>
pro positions</w>
me al</w>
per form</w>
ha ble</w>
par tition</w>
inter cep
ag ed</w>
fa ther</w>
tra ffic</w>
bu ild</w>
tar y</w>
so me
14 8</w>
ck y</w>
15 8</w>
15 7</w>
sub group</w>
18 6</w>
17 7</w>
we igh</w>
Con stru
is hable</w>
99 2</w>
99 7</w>
27 0</w>
40 1</w>
36 5</w>
38 0</w>
26 7</w>
il le</w>
mon ic</w>
Ch i
gre at</w>
sym me
ni ce</w>
cla ss
ki lograms</w>
sti fy</w>
continu e</w>
continu ed</w>
Car l</w>
vo tes</w>
arri ves</w>
exten ded</w>
includ e</w>
previ ously</w>
ju ice</w>
Mi sha</w>
curren ce</w>
Di vide</w>
Ti cks</w>
Ti cks
high est</w>
inclu ded</w>
sal t</w>
mit ted</w>
dol lar</w>
stru cture</w>
wo men</w>
plo t</w>
repea ted</w>
roun ds</w>
overla pping</w>
far m</w>
coinci de</w>
decrea se</w>
decrea sed</w>
gla ss</w>
maj or</w>
succe s
belon gs</w>
motor cyclist</w>
Fri day</w>
counter clockwise</w>
distingu ishable</w>
simpli fied</w>
capa city</w>
gro wing</w>
scal ator</w>
neighbor ing</w>
ester day</w>
mach ine</w>
Ticks Ar
0 6
2 z</w>
2 25</w>
2 60</w>
2 25
3 f
5 th</w>
5 12</w>
7 x</w>
8 284</w>
9 bp</w>
A da
B i
B M</w>
B AD</w>
C ho
C all</w>
E G</w>
E E</w>
F G</w>
I 3</w>
K ee
M O</w>
O f</w>
O me
P u
S un
S at
T ra
V o
b on
b at
c ri
d in
e igh
e scalator</w>
f ur
h u
h on
m L</w>
m or
n al
v are
w rong</w>
th er
in circle</w>
in definite</w>
ra bbi
le ts</w>
re ls</w>
si ly</w>
ro pe</w>
ma p</w>
la tes</w>
su pp
ho r
20 4</w>
li a</w>
li cation</w>
ex pen
ta in
ta gons</w>
pro of</w>
ct ori
de stri
bo ttle</w>
pe destri
to sses</w>
fi cation</w>
mi sta
ba sed</w>
ba ck
text books</w>
tic s</w>
com pared</w>
19 5</w>
pi cture</w>
ble d</w>
cho ice</w>
Ex plain</w>
he l
fol d</w>
for ward</w>
ru ble</w>
lin ed</w>
den sity</w>
exa ct</w>
14 9</w>
produ ction</w>
12 34
13 6</w>
stud y</w>
ori te</w>
thema ti
18 2</w>
18 5</w>
remain ders</w>
28 0</w>
28 9</w>
play style</w>
we l
rela tive</w>
99 8</w>
el ds</w>
27 2</w>
40 5</w>
50 7</w>
ga r</w>
An na</w>
34 4</w>
34 7</w>
38 7</w>
26 1</w>
29 7</w>
39 9</w>
39 2</w>
gu e
cyc lic</w>
In scribed</w>
spa ced</w>
tru ck</w>
im a</w>
im possible</w>
sig n
dis playstyle</w>
ke ts</w>
sto ps</w>
Si x</w>
cha el</w>
lon gest</w>
Se con
bra ic</w>
por ts</w>
who m</w>
atta ched</w>
occu pi
bar a</w>
Par t</w>
shor test</w>
sqrt 3</w>
roun ded</w>
buil t</w>
contain ers</w>
arbitr arily</w>
Ne w</w>
gues ts</w>
gues sed</w>
sup pose</w>
sou th</w>
656 9</w>
alge braic</w>
conclu sions</w>
traje ctory</w>
strate gy</w>
langu age</w>
pat tern</w>
cooki es</w>
contribu ted</w>
Bar bara</w>
place ment</w>
prece ding</w>
Joh n</w>
eccen tricity</w>
Ome ga</w>
Sat ur
nal do</w>
vare psilon</w>
rabbi ts</w>
1 16</w>
2 36</w>
6 48
7 89
8 50</w>
B P</w>
D ani
E M</w>
F or
G ra
I 1</w>
J en
M P
M er
N umb
O C</w>
P lease</w>
S ele
S ince</w>
W ed
a st
b ra</w>
c le</w>
d er
d res
d ps</w>
e 0
e ly</w>
e valuate</w>
e limin
f l
g on
g as</w>
g all
k a
l ceil</w>
m x</w>
n is</w>
r ceil</w>
s at</w>
s ons</w>
t ons</w>
u ti
u la
u su
v an</w>
x right</w>
y top</w>
in i
an ds</w>
er ase</w>
ar ed</w>
te st
te mp
re ver
re place</w>
re moving</w>
en tered</w>
po ured</w>
ro d</w>
ro ss</w>
qu een</w>
di an</w>
su b</w>
do decagon</w>
ir reducible</w>
lo g
lo ser</w>
un known</w>
un cated</w>
ho les</w>
con cen
con ten
be li
the orem</w>
20 2</w>
li ar</w>
no thing</w>
as sume</w>
de scribed</w>
tion ally</w>
vi ty</w>
to o</w>
ur n</w>
ur ant</w>
mi s
pa in
lan ds</w>
at ors</w>
at temp
ch er
ch ni
ba gs</w>
inter est</w>
19 4</w>
19 8</w>
19 7</w>
19 68</w>
19 78</w>
mo ve
ff e
ord ers</w>
tra ins</w>
roo k</w>
den ds</w>
ste n
produ ces</w>
ori ty</w>
ac qua
ac ross</w>
17 3</w>
28 2</w>
28 6</w>
25 5</w>
expres sions</w>
30 3</w>
ome tric</w>
el le</w>
27 1</w>
40 3</w>
40 00</w>
36 1</w>
36 7</w>
50 4</w>
50 8</w>
50 2</w>
37 6</w>
An ya</w>
34 8</w>
38 8</w>
38 3</w>
38 2</w>
26 8</w>
24 4</w>
24 3</w>
24 9</w>
24 6</w>
29 3</w>
49 4</w>
tr uncated</w>
bal ance</w>
ite ms</w>
measu red</w>
emp ty
pre di
pre ci
cer tain
enti st</w>
ni ss</w>
sha ped</w>
trave ling</w>
chi p</w>
color ing</w>
tou ri
conne ct</w>
brea k</w>
cha ir</w>
matri ces</w>
uniqu ely</w>
Pet ro
gir l</w>
stan ding</w>
speci fied</w>
fri end</w>
forma tting</w>
appro x</w>
fal ls</w>
kn ight</w>
subtra ct</w>
resid ents</w>
repea ting</w>
possi bly</w>
intern al</w>
monoton ic</w>
maj ority</w>
fru it</w>
charac ter</w>
charac teris
altern ately</w>
factori al</w>
minimi zed</w>
tun ne
Mari a</w>
youn ger</w>
quanti ty</w>
recipro cal</w>
depen ds</w>
trea sure</w>
Stud ents</w>
Simi larly</w>
inver tible</w>
moun tain</w>
fav orite</w>
Pat niss</w>
thro wn</w>
resta urant</w>
Kee ta</w>
eigh th</w>
pedestri an</w>
Wed ne
fl at</w>
empty set</w>
1 pt</w>
2 f</w>
2 34</w>
3 g</w>
3 56
3 58
6 57
6 90
8 67
9 x</w>
9 87
A ng
A DE</w>
A CB</w>
D F</w>
D ima</w>
F ol
F act
G u
I ts</w>
J i
K i
K at
M y</w>
M ary</w>
O M</w>
O A</w>
P y
S er
T anya</w>
U S
U se</w>
Y i</w>
a tes</w>
a 8d
b f
b mod</w>
c 0
c x</w>
c re
c as
c amp</w>
e psilon</w>
f low
f esti
g ar
l t</w>
l in</w>
r y
r is</w>
s u</w>
s an
s is</w>
s and</w>
s na
t ally</w>
th ag
in vol
an as</w>
ra n</w>
le st</w>
re ali
re pay
re peat</w>
al co
en ty</w>
ro w
se en</w>
se par
se ctor</w>
ma themati
co sts</w>
la w</w>
ang hai</w>
do or</w>
ter ia</w>
un changed</w>
ho li
ol ya</w>
con test
tri se
20 3</w>
ex pon
cu bo
pro portion</w>
as soci
de p
10 11</w>
bo dy</w>
Wh ite</w>
vi ch</w>
to wn</w>
mi c</w>
ou se</w>
ci an</w>
ch ance</w>
sa u
sa ve</w>
text rm</w>
19 3</w>
Gi ve</w>
bi l
dist ant</w>
ca ke</w>
ca ught</w>
tra ck</w>
interse ctions</w>
ran d
pen tagons</w>
rang es</w>
18 9</w>
17 4</w>
16 6</w>
28 1</w>
25 4</w>
fe male</w>
30 2</w>
99 4</w>
27 9</w>
40 6</w>
36 8</w>
36 9</w>
36 2</w>
50 1</w>
ga te</w>
37 0</w>
37 3</w>
37 7</w>
An drew</w>
34 9</w>
34 2</w>
34 6</w>
peri meters</w>
24 2</w>
29 4</w>
29 2</w>
46 8</w>
49 9</w>
op tion</w>
In te
consecu tively</w>
operat ing</w>
che ck
tetra hedr
hexag onal</w>
jo b</w>
Re call</w>
sum mer</w>
dec lar
dec reases</w>
sto od</w>
oc cur
tud e</w>
Be fore</w>
ll a</w>
arc cos</w>
she ets</w>
Mi chael</w>
ear n</w>
ear ly</w>
Mar ch</w>
rota ting</w>
ban anas</w>
man u
atta ck</w>
swi m
ore an</w>
occu p
Su b
act u
comb ina
suc cess
achie ved</w>
dwar f</w>
pr inci
Sh anghai</w>
jour n
Pe ter</w>
recor d</w>
recor ded</w>
shu ff
kin ds</w>
The orem</w>
Li ttle</w>
cle arly</w>
maximi ze</w>
Sci entist</w>
beg ins</w>
mini mal</w>
choco lates</w>
Ju stify</w>
domin os</w>
Ja ck</w>
TIO N</w>
simp lest</w>
guaran tee</w>
Za da
cour se</w>
Are a</w>
Vari ant</w>
Constru ct</w>
Pu zzle</w>
Wedne sday</w>
Fact ori
Py thag
alco ho
holi days</w>
cubo id</w>
1 c
1 d
1 e
3 y</w>
3 n</w>
4 50</w>
4 48
5 35</w>
5 48
5 47
6 47
7 00</w>
9 80
9 89
A CD</w>
B L
B R</w>
C a
C DE</w>
E MA
F ur
G CD</w>
J ia</w>
K a
L ines</w>
O L
P ri
P RO
R i
S et</w>
V i
V er
V it
a ce</w>
b it</w>
c q
c s</w>
c tri
d ary</w>
e m</w>
e th</w>
f ence</w>
g er
g ments</w>
g za
j ed
k x</w>
k ind</w>
k et
o di
p al</w>
p run
s ke
s sian</w>
s ports</w>
t old</w>
t uples</w>
y ond</w>
in dividu
an ing</w>
ar row
re p
re ly</w>
re verse</w>
re placement</w>
en ded</w>
en tly</w>
ro bo
ro ds</w>
ro lling</w>
di ame
ma te</w>
wh y</w>
ter i
ter ior</w>
st re
inte r</w>
be d
be yond</w>
ver sity</w>
tw el
or k</w>
20 5</w>
20 6</w>
li t</w>
li er</w>
li cen
ex terior</w>
ta k</w>
me t
me ch
as ks</w>
de parts</w>
de vice</w>
bo und</w>
per formed</w>
ur l</w>
ou ter</w>
ve lo
lan ding</w>
par ity</w>
par ticle</w>
sa ge</w>
divi dend</w>
19 1</w>
pi cks</w>
cho ices</w>
Ex ten
differ ences</w>
ran k</w>
cor ners</w>
roo ks</w>
sh es</w>
16 1</w>
remain ed</w>
28 3</w>
28 7</w>
25 2</w>
25 1</w>
fe w</w>
expres s</w>
comple ted</w>
30 9</w>
30 7</w>
30 5</w>
99 1</w>
99 99</w>
27 4</w>
27 3</w>
27 7</w>
40 8</w>
40 7</w>
ten nis</w>
50 6</w>
37 4</w>
37 9</w>
37 2</w>
An a</w>
An n</w>
34 1</w>
38 9</w>
38 5</w>
star s</w>
26 4</w>
26 2</w>
26 5</w>
24 1</w>
29 9</w>
29 1</w>
29 5</w>
dr ink</w>
39 4</w>
39 8</w>
58 9</w>
il lu
bal lo
59 3</w>
59 6</w>
In side</w>
In stead</w>
Fi g</w>
mon ths</w>
198 2</w>
sele cts</w>
On ce</w>
consi st</w>
enti rely</w>
che ese</w>
stri pes</w>
sco w</w>
chi ps</w>
chi ck
hea ding</w>
amoun ts</w>
ke ep</w>
sto ck</w>
brea k
vari ab
Si ze</w>
men tary</w>
multip ly</w>
len e</w>
bino mial</w>
bro thers</w>
penci l</w>
extern al</w>
La be
eg g</w>
lay ers</w>
conver ges</w>
Can not</w>
Mo scow</w>
altern ate</w>
EF GH</w>
sche du
maximi zed</w>
beg an</w>
choco late</w>
Ru ssian</w>
apart ments</w>
bran ches</w>
sci ss
zi gza
even ly</w>
require ment</w>
loa ding</w>
progra m</w>
unit circle</w>
villa ge</w>
obser ved</w>
prac tic
proje ction</w>
identi ty</w>
note book</w>
after noon</w>
Satur day</w>
elimin ated</w>
usu al</w>
log arith
concen tric</w>
certain ty</w>
cas h</w>
separ ate</w>
princi pal</w>
Zada tak</w>
Pythag orean</w>
alcoho l</w>
ske w</w>
arrow size</w>
licen se</w>
zigza g</w>
0 01</w>
0 000</w>
2 p</w>
2 45</w>
4 47
6 60
6 97
7 b
7 47
7 97
8 48
8 47
8 89
8 87
9 47
A N</w>
A ri
A no
A pp
B Q</w>
B ro
B la
B ut</w>
C T</w>
C ol
D o</w>
E R</w>
G F</w>
I van
N A
N ext</w>
O 1</w>
P re
P la
S W
S T</w>
S ha
U pon</w>
V anya</w>
W ang</w>
Y oun
a i
c c</w>
c als</w>
d i</w>
d an
d on
e f</w>
e at</w>
e ous</w>
f en</w>
f all</w>
f ire</w>
h ind</w>
h its</w>
i j</w>
i de
i mal</w>
k y</w>
l i</w>
l un
o ur
p ho
s c</w>
s le
t ch</w>
t ran
u di
y es</w>
z e
th y</w>
th metic</w>
in g
in correctly</w>
an no
ar on</w>
le ss
re ed</w>
re currence</w>
en the
en ever</w>
fra k</w>
se ly</w>
se ll</w>
se ated</w>
su gar</w>
do w</w>
wh enever</w>
st ory</w>
lo sing</w>
ol der</w>
con es</w>
con tro
math frak</w>
ex i
no te</w>
10 24</w>
Wh ere</w>
per sons</w>
vi s
fi ves</w>
fi elds</w>
mi le</w>
ou th</w>
ve hi
par enthe
sa fe</w>
text dollar</w>
com position</w>
Ho pe</w>
rea ding</w>
pi on
sho o
for tun
ca tions</w>
ca tional</w>
bu ses</w>
lin ation</w>
lea ving</w>
gra in</w>
exa m</w>
ad vis
ste ms</w>
colo ured</w>
25 8</w>
uni on</w>
comple tes</w>
30 1</w>
99 3</w>
sta cks</w>
27 5</w>
27 6</w>
40 4</w>
36 4</w>
flo ors</w>
50 9</w>
50 5</w>
peri odi
100 2</w>
26 3</w>
equi distant</w>
24 8</w>
24 7</w>
29 6</w>
57 0</w>
57 6</w>
39 1</w>
39 7</w>
39 5</w>
49 5</w>
59 4</w>
clo ser</w>
op ti
op lus</w>
Ch en</w>
ab sent</w>
trans formation</w>
va cation</w>
11 11</w>
dis play</w>
obta ining</w>
Re ct
var nothing</w>
shi ps</w>
pu zzle</w>
run ners</w>
Oly mpi
clu bs</w>
multip lication</w>
ear ns</w>
ear lier</w>
fle a</w>
cc cc
pea ches</w>
neighb or</w>
leve ls</w>
comb ination</w>
work er</w>
ligh thou
resid ue</w>
refle cted</w>
sqrt 2</w>
au di
cli mb
fro gs</w>
gla sses</w>
The ir</w>
EF G</w>
mag ni
PQ RS</w>
assum ing</w>
quadru ples</w>
apart ment</w>
bran ch</w>
require ments</w>
offi ce</w>
preser ving</w>
open ed</w>
indica te</w>
anal y
trip lets</w>
Bi g</w>
hon est</w>
uti ful</w>
acqua in
preci sely</w>
Ji ang
bil lion</w>
actu ally</w>
EMA TI
Exten d</w>
variab les</w>
Labe l</w>
Ari thmetic</w>
Ano ther</w>
Youn g</w>
1 A</w>
1 200</w>
2 f
2 19</w>
3 21</w>
4 56
5 60</w>
6 67
6 89
7 48
7 58
7 67
7 86
8 g</w>
8 80
9 56
9 48
9 67
A 6</w>
A H</w>
A Q</w>
B 3</w>
B A</w>
B al
B ing</w>
B et
C F</w>
C C</w>
C H</w>
C am
D o
D ar
E u
E ight</w>
G BR</w>
H al
I m</w>
I mag
K o
L o
L i</w>
M B</w>
M ore
N C</w>
P r
R ight</w>
S U
V a
X Y</w>
a e
b c
b et</w>
d t</w>
d on</w>
d ence</w>
e f
g ed</w>
h er
i tion</w>
i ang</w>
k way</w>
m ally</w>
p x</w>
r o</w>
r x</w>
t le</w>
w le
x i
x left</w>
y mp
y bottom</w>
ã o</w>
th in</w>
th rees</w>
th ink</w>
an y
ti mes
ar t
te a</w>
te le
te lls</w>
te dly</w>
te eth</w>
le f
le g
re f
on y</w>
en g</w>
en a</w>
po les</w>
po cket</w>
si vely</w>
si tu
si zes</w>
fo od</w>
se at</w>
ma tes</w>
co u
co vers</w>
co planar</w>
la tions</w>
su it</w>
gh ter</w>
Th ir
st or
lo t</w>
lo r</w>
un covered</w>
ea s
ol a</w>
con cer
con figu
con son
tri gon
be et
be hind</w>
li ter</w>
li sted</w>
ex peri
ta x</w>
cu sto
no tes</w>
pro por
ct ures</w>
sid ent</w>
as ter</w>
as teris
as ymp
de s
de le
de posi
de lta</w>
bo dies</w>
vi ctori
to ri
to po
ur ce</w>
mi als</w>
pa i
pa ths</w>
ve sti
lan eous</w>
ch er</w>
com ing</w>
Ho zo
pla n</w>
mo tion</w>
bi g</w>
bi lls</w>
pi zz
he at</w>
Pro per
pres en
ca ps</w>
bu g</w>
lin gs</w>
max imal</w>
14 th</w>
ad dends</w>
ac ci</w>
vertic ally</w>
tur tle</w>
es ted</w>
25 3</w>
Con ne
Con tinu
30 4</w>
30 00</w>
can di
99 5</w>
27 8</w>
40 2</w>
36 3</w>
50 3</w>
ga ther</w>
38 1</w>
defin ition</w>
26 9</w>
26 6</w>
cro ssed</w>
29 8</w>
igh t
46 3</w>
col on</w>
39 3</w>
39 6</w>
mar k
mar ket</w>
59 2</w>
59 5</w>
gu ard</w>
go ods</w>
reas on</w>
In tern
Fi ll</w>
Fi bon
tru cks</w>
pre sident</w>
ab sciss
stri ps</w>
Qu ad
dis ks</w>
trave ler</w>
jo ined</w>
requ ested</w>
hi de</w>
je wel
vo te</w>
vari ous</w>
ser ve</w>
ima ge</w>
tan ces</w>
Se veral</w>
Mi d
multip lying</w>
ear ned</w>
Di ag
Ti ck</w>
bro ken</w>
Cla udi
Jo ão</w>
visi t</w>
thou gh</w>
fam i
dri ver</w>
subtra cted</w>
refle ction</w>
coinci des</w>
vil le</w>
Pe tra</w>
Ber nd</w>
belon ging</w>
sche mes</w>
minimi ze</w>
approxima te</w>
organi z
one ers</w>
atten ded</w>
parame ters</w>
parame tric</w>
kee ping</w>
villa ges</w>
inser t</w>
sca lene</w>
loo king</w>
compe ti
axis pen</w>
axis arrowsize</w>
AN SW
cham pion
cel er
intersection point</w>
Fin ally</w>
diam on
pack ages</w>
Iden ti
school children</w>
intercep ts</w>
symme try</w>
Ada m</w>
Sun day</w>
bat ch</w>
fur ther</w>
back ward</w>
gue ss</w>
occupi ed</w>
Gra de</w>
conten t</w>
cher ries</w>
touri st</w>
dep end</w>
swim ming</w>
combina tions</w>
PRO BL
robo t</w>
twel ve</w>
break fast</w>
Bla ck</w>
tran ce</w>
anno un
parenthe ses</w>
lighthou se</w>
magni tude</w>
acquain tances</w>
Hal f</w>
Imag ine</w>
wle dge</w>
asymp to
Hozo vá</w>
Fibon acci</w>
jewel ry</w>
ANSW ER</w>
0 th</w>
0 02</w>
2 t</w>
2 u</w>
2 1st</w>
3 b
3 p</w>
3 15</w>
3 32</w>
3 37</w>
4 f
4 a</w>
4 n</w>
4 58
5 g</w>
5 56
5 58
6 25</w>
6 58
6 87
6 69
7 56
7 80
7 60
7 87
7 69
8 56
8 58
8 86
9 58
9 60
A R
A me
A DB</w>
B ra
C G</w>
C en
C ru
C lar
C ould</w>
D on
D ing</w>
F a
G ri
G ames</w>
H is</w>
I S
I g
I V</w>
J uan</w>
K olya</w>
L in
M P</w>
N either</w>
O ption</w>
S a
S pe
T T
T V</w>
W en
b i</w>
b er
b lan
c ine</w>
c lea
d ure</w>
d ings</w>
d frac1</w>
f 8
f d
f lower</w>
g um
g ging</w>
j in</w>
j el
l um
l cm</w>
m b</w>
n et</w>
o dra
o vich</w>
s la
t re
u pon</w>
w ed</w>
w ol
y a
y la</w>
y esterday</w>
z x</w>
č ka</w>
th i
in put</w>
in scribe</w>
in distinguishable</w>
an t
ar ding</w>
ra i
ra in</w>
ra tes</w>
re stri
re moves</w>
re sist
ri ed</w>
ri later
ri des</w>
on i
en er
en coun
po lar</w>
ro ck</w>
ro cks</w>
di o
se t
ma s</w>
co ffe
su i
Th ur
ir on</w>
st e</w>
st ers</w>
st age</w>
st ry</w>
lo v</w>
lo re</w>
lo cal</w>
lo gy</w>
un equal</w>
ea ten</w>
be ans</w>
ver i
tw os</w>
tw ork</w>
20 21
li ved</w>
posi tioned</w>
cu p
pro position</w>
sid ering</w>
me als</w>
as sem
de si
de st</w>
de part
10 10</w>
vi d</w>
vi a</w>
vi e</w>
to ss</w>
to wns</w>
mi x
pa cks</w>
ve l</w>
ci l</w>
ge q
par en</w>
ch ments</w>
ba se
pri ze</w>
com mu
inter cept</w>
over paren</w>
19 80</w>
19 76</w>
mo on</w>
tis h</w>
pi e</w>
pi ck</w>
pi pes</w>
pi cked</w>
sm s</w>
he ights</w>
fol low</w>
ca ve</w>
lea sed</w>
gra ms</w>
plan ned</w>
labe ls</w>
righ tang
radi ans</w>
ad ds</w>
comp are</w>
15 80</w>
ac cu
ac tions</w>
sh aring</w>
tur ning</w>
28 57</w>
colo urs</w>
25 9</w>
lu cky</w>
fe ll</w>
Con sidering</w>
Co un
is su
30 8</w>
40 9</w>
rati os</w>
An dre
pas sen
wor ked</w>
38 6</w>
100 8</w>
46 9</w>
46 6</w>
46 41</w>
57 4</w>
57 8</w>
57 9</w>
57 1</w>
od en</w>
49 3</w>
49 2</w>
49 7</w>
49 6</w>
59 9</w>
59 1</w>
cyc ling</w>
diagon ally</w>
Am y</w>
Ch ris</w>
dire ct</w>
che st</w>
ni e</w>
sur ve
sha kes</w>
Re al</w>
color ings</w>
wal kway</w>
calcula ting</w>
pon d</w>
brea d</w>
vo ters</w>
arri val</w>
includ es</w>
Be tween</w>
excee ds</w>
constru ction</w>
ju g</w>
bra ce
scor ing</w>
men tioned</w>
proce dure</w>
curren tly</w>
congru ence</w>
rota tions</w>
correspon d</w>
bir th</w>
atta chments</w>
Jo shu
pur ch
bar rels</w>
end point</w>
semi circles</w>
wo oden</w>
horizon tally</w>
Ro sa</w>
sil ver</w>
palindro mes</w>
cat ch</w>
cat ches</w>
cli mb</w>
measure ment</w>
happ en
happ en</w>
MA TH
trino mials</w>
differenti al</w>
factori zation</w>
approxima tely</w>
AA AA
Me th
PQ R</w>
alge bra</w>
umb re
quadru ple</w>
limin ary</w>
recipro cals</w>
Da vid</w>
weigh s</w>
unit sphere</w>
1111 1111
vie w</w>
dd en</w>
sca les</w>
ortho center</w>
use ful</w>
intersection points</w>
Uni versity</w>
main tains</w>
physi cians</w>
revolu tion</w>
revolu tions</w>
Bri tish</w>
cri teria</w>
For m</w>
Ser ge
festi val</w>
repay ment</w>
check mark</w>
success ful</w>
Factori ze</w>
Vit ya</w>
mech ani
illu stra
Pla ce</w>
ide al</w>
lun ch</w>
periodi c</w>
EMATI C
More over</w>
Proper ties</w>
Continu e</w>
Quad rilateral</w>
fami lies</w>
Identi fy</w>
asympto tes</w>
Spe ci
Wen dy</w>
clea r</w>
jel ly</w>
odra z</w>
rilater als</w>
coffe e</w>
Joshu a</w>
MATH EMATIC
0 8
1 142</w>
2 b
2 d
2 h</w>
2 cm</w>
3 b</w>
3 z</w>
3 11</w>
3 30</w>
3 25</w>
3 50</w>
3 23</w>
3 33</w>
4 d
4 k</w>
4 z</w>
4 45</w>
4 32</w>
4 34</w>
4 pt</w>
5 d
6 80
6 86
7 90
8 60
8 33
9 86
9 69
A 4</w>
A G</w>
A R</w>
A T</w>
B B</w>
B or
C H
C or
C es
E S</w>
F eb
G e
H ar
H er</w>
I N
I sa
I va</w>
J ill</w>
M a</w>
N W
N ine</w>
O 2</w>
P oly
Q R</w>
R ob
T ony</w>
V la
W u
Z er
a ir
a tive</w>
a du
a 89
a 7b
b en
b in</w>
c 5
c g</w>
c um
c am
c sc</w>
d ea
e m
e u
e la
e ta</w>
f 9
f requ
f aster</w>
g ment</w>
h all</w>
i z
i e</w>
i de</w>
j n</w>
j am</w>
k n</w>
k in</w>
k ola</w>
l ler</w>
m or</w>
n ame
o a
o do
p ted</w>
p Tick</w>
r angle</w>
r ying</w>
s end</w>
t most</w>
u š
v matrix</w>
v na</w>
w on
w are
x z</w>
x axis</w>
y al
y axis</w>
y ang</w>
z h
z ho
z el
à ro</w>
ö r
th rows</w>
th erefore</w>
th east</w>
th inking</w>
in come</w>
an ced</w>
an ja</w>
an uts</w>
an jin</w>
ti vity</w>
ar ds</w>
ar ticle</w>
ra in
ra ll</w>
le y</w>
le mark</w>
re st
re als</w>
re leased</w>
en ter
en ding</w>
en tal</w>
po st</w>
po ur</w>
po ol</w>
di tionally</w>
fo urs</w>
fo rall</w>
se e
se lls</w>
ma pping</w>
ma ster</w>
ma teri
ang yang</w>
su n</w>
su res</w>
lo se</w>
lo cations</w>
ho le</w>
ho me
ho uses</w>
ea sily</w>
ol dest</w>
con test</w>
con clud
tri cally</w>
be came</w>
20 th</w>
li jn</w>
ex tra
ex ams</w>
ex change</w>
ex tra</w>
ta ining</w>
gi ft</w>
valu ed</w>
cu l
cu ps</w>
no tice</w>
me shed</w>
me aning</w>
de vi
de part</w>
pe b
pe anuts</w>
per forms</w>
vi ctory</w>
to es</w>
to ken</w>
to tal
ha zel
mi ssing</w>
res ts</w>
at an</w>
par abo
ne twork</w>
ch uan</w>
pri mary</w>
ag reed</w>
19 th</w>
19 64</w>
rea ching</w>
mo de
bi tes</w>
bi king</w>
pi cket</w>
sol i
sho rt</w>
du ration</w>
for th</w>
for ce</w>
da u
ru ary</w>
bu ys</w>
bu cket</w>
lin a</w>
lea f</w>
lea ds</w>
lea ther</w>
so on</w>
so urce</w>
gra ss</w>
gra pe</w>
plan s</w>
pen s</w>
pen ni
ali st</w>
ad v
13 th</w>
Ma y</w>
inc lination</w>
15 r</w>
ac comp
ac 36
sh ing</w>
sh ares</w>
17 e0
sul t</w>
16 th</w>
we l</w>
25 1f
fe ss
99 6</w>
27 833
36 27833
flo ur</w>
car ried</w>
car rying</w>
An i
An ge
An ton</w>
pas s
quad rilaterals</w>
Ea r</w>
46 2</w>
46 1</w>
46 7</w>
57 3</w>
57 2</w>
dr inking</w>
zer oes</w>
49 8</w>
bal anced</w>
59 7</w>
clo se</w>
parti al</w>
In di
In vesti
Ch ong
sele cting</w>
arrang ing</w>
trans por
grap es</w>
sur pri
medi cine</w>
11 12
dis played</w>
sti al</w>
jo ining</w>
represen tations</w>
Re sult</w>
Comp are</w>
distri ct</w>
continu ously</w>
pu b
Si chuan</w>
frac 12</w>
frac 14</w>
23 rd</w>
boun ces</w>
requi res</w>
allow s</w>
han d
ju sti
Circ um
curren cy</w>
Mar uš
correspon ds</w>
poten tial</w>
Ti anjin</w>
bir ch</w>
man age</w>
cover ing</w>
appro pri
modu lus</w>
dou bled</w>
magi cal</w>
sqrt 5</w>
indi cated</w>
lam p</w>
bri dge</w>
bas ket
Ale x
fru its</w>
succe ss</w>
notic es</w>
organi zed</w>
Ni kola</w>
conclu sion</w>
atten d</w>
Ta ke</w>
kee ps</w>
fla gs</w>
eng ine</w>
prac tice</w>
Ste p</w>
TH E</w>
cham ele
indica tes</w>
cal ves</w>
diam ond</w>
deli ver
cele bra
cele stial</w>
Ad ditionally</w>
inst al
swa pped</w>
wat ches</w>
Chi ara</w>
TicksAr ry</w>
TicksAr rx</w>
mor t
ther more</w>
expen ses</w>
mista ke</w>
Secon dary</w>
Dani el</w>
Mer lijn</w>
Numb er</w>
Sele ction</w>
chni cal</w>
Fol k
Kat ya</w>
flow s</w>
Inte ger</w>
tetrahedr a</w>
occup y</w>
Fur thermore</w>
prun ing</w>
diame ters</w>
Pre liminary</w>
Sha po
don uts</w>
vehi cle</w>
Olympi c</w>
analy tical</w>
Cam ille</w>
cou ple</w>
trigon ometric</w>
propor tional</w>
asteris ks</w>
deposi t</w>
presen ted</w>
champion ship</w>
rai sed</w>
sui table</w>
Thur sday</w>
desi red</w>
rightang lemark</w>
passen gers</w>
brace let</w>
MATHEMATIC S</w>
Ces àro</w>
Feb ruary</w>
Isa be
Zer o</w>
cum ula
zho u</w>
total ing</w>
hazel nuts</w>
penni es</w>
ac36 3627833
17e0 251f
ac363627833 17e0251f
ac36362783317e0251f dg</w>
0 946
1 B</w>
2 B</w>
2 11</w>
2 15</w>
2 24</w>
2 23</w>
2 32</w>
3 1
3 d
3 12</w>
3 40</w>
3 31</w>
4 g</w>
5 11</w>
6 c
6 n</w>
6 ed
7 10</w>
7 11</w>
7 22
9 80</w>
A F
A DC</w>
A OB</w>
B u
B 4</w>
B N</w>
B en</w>
B ear</w>
C A
C u
D u
E d
E l
E r
E TI
E very
E van</w>
G o
G 9</w>
G 2</w>
G rou
I s
I ly
I van</w>
J on</w>
K e
K u
K L</w>
L ight
L yla</w>
M C</w>
M ing</w>
M at
M is
M oun
M ouse</w>
O b
O R</w>
O ri
O ver</w>
P al
S S</w>
S an
S um
S he
S chool
T en</w>
T or
T able</w>
X X
Y a
Y u
Y esterday</w>
a 6
a c</w>
a ch</w>
a dian</w>
a beli
b r
b un
b 85
c er</w>
c tive</w>
c ru
c ream</w>
c ry
d et</w>
d inner</w>
d rank</w>
e g</w>
e vi
e mer
f light</w>
g ine</w>
g no
g as
g ory</w>
g onal</w>
g rand
h ar
h en</w>
h un
i al</w>
i shed</w>
j er
j ud
j ars</w>
k ar
k er</w>
l f</w>
l ts</w>
l ers</w>
l angle</w>
l bs</w>
l laneous</w>
m and</w>
n x</w>
n ment</w>
n ational</w>
n ights</w>
o f
o red</w>
p q</w>
p an
s ine</w>
s ki
u es</w>
v in
v space</w>
th ings</w>
in tro
an ci
er y</w>
ti o</w>
ar gum
te es</w>
te gory</w>
ra ces</w>
ra sh
le n</w>
re e
re fin
re cur
re arranged</w>
al t</w>
po le</w>
po ta
si ts</w>
se c
co ws</w>
la d
la n</w>
la ps</w>
su n
gh tarrow</w>
gh nuts</w>
do ck</w>
do es
ir case</w>
st um</w>
lo ck</w>
lo ad</w>
lo ok</w>
un k</w>
ea ting</w>
ol ine</w>
con sum
con ference</w>
tri n</w>
tri ghtarrow</w>
be i</w>
ver s
the st</w>
li an</w>
li ving</w>
li ary</w>
li sts</w>
ex clu
ta tive</w>
val ov</w>
gi c</w>
gi ving</w>
no des</w>
as sign</w>
as sist
de g</w>
de sign
de mand</w>
10 5
10 10
to ur</w>
to ssed</w>
mi sce
pa st</w>
pa ct</w>
pa ys</w>
pa ints</w>
term ina
ci pa
par ents</w>
ch ant</w>
ba sin</w>
ba 1f
sa v
sa les</w>
pri ces</w>
tic kets</w>
com mo
com pact</w>
min de
bi je
pi lls</w>
pi cking</w>
pi ctures</w>
De ci
he mi
he ard</w>
fun ds</w>
fa ct</w>
sho wing</w>
du g</w>
du cation</w>
ca b
ca te</w>
tra m</w>
ru bb
bu rash
lea d</w>
ran king</w>
so da</w>
den ars</w>
14 2857</w>
ari es</w>
ari an</w>
ad dres
up stream</w>
12 34</w>
15 00</w>
15 69</w>
ac celer
ac commo
sub st
sub sequence</w>
sub ject</w>
ele d</w>
sh ir
18 x</w>
28 0
es tern</w>
colo ur</w>
mid way</w>
el se</w>
sta ircase</w>
flo w</w>
car din
const ra
wor ld</w>
100 5</w>
100 6</w>
100 000</w>
46 5</w>
57 7</w>
57 5</w>
dr a</w>
49 1</w>
gu il
cyc les</w>
line type</w>
spa tial</w>
mon o
Ch ri
pre t
60 00</w>
ab cd</w>
198 1</w>
im ally</w>
arrang es</w>
dire ctri
circum radius</w>
trans form</w>
trans formed</w>
trans port</w>
77 7</w>
Tw enty</w>
che ck</w>
sig ned</w>
perfe ctly</w>
dis h</w>
dis mi
app ended</w>
Re g
hi ll</w>
hi tting</w>
hi dden</w>
out comes</w>
out come</w>
je cts</w>
var triangle</w>
calcula tions</w>
sto red</w>
ren t</w>
vari ances</w>
cha in</w>
exten sions</w>
ima gine</w>
allow ing</w>
allow break</w>
consid ering</w>
she lf</w>
Mi ky</w>
fri ger
multip lies</w>
Mar tin</w>
wee k
rota tes</w>
ban ks</w>
fact ored</w>
75 th</w>
sp lit</w>
forma tions</w>
man ner</w>
man aged</w>
nam ed</w>
visi ts</w>
Su m</w>
dou ghnuts</w>
ko pec
ko vá</w>
wo man</w>
Tri angles</w>
whe el</w>
Ro w</w>
resid ent</w>
resid ues</w>
relation ships</w>
00 01</w>
Pa per</w>
bul bs</w>
far thest</w>
anti cipa
provi des</w>
Can adian</w>
fli ps</w>
fli pped</w>
fill ing</w>
fru stum</w>
sup port</w>
purcha sed</w>
cle an</w>
orang es</w>
thous ands</w>
hundre dth</w>
CO MP
Kno wledge</w>
disc s</w>
distingu ished</w>
down stream</w>
mes sage</w>
even ing</w>
07 g</w>
Ta king</w>
spo t</w>
4a a8d
ku ta</w>
Char les</w>
Ste ve</w>
crea te</w>
spi ral</w>
proje ctions</w>
note books</w>
communi ty</w>
communi cated</w>
Che burash
Fu ll</w>
Pi oneers</w>
cal ls</w>
anal o
trip let</w>
off ered</w>
class room</w>
class mates</w>
succes sive</w>
225 f8
3f 225f8
Tra ining</w>
Vo cational</w>
supp ly</w>
hor ses</w>
hel p</w>
1234 56
sign al</w>
Secon d</w>
Jen ny</w>
gall ons</w>
beli e
mis sion</w>
move ment</w>
move ments</w>
sten ce</w>
Petro vá</w>
characteris tic</w>
characteris tics</w>
tunne l</w>
tunne ls</w>
Ang les</w>
Ki ara</w>
bf 722
reali zed</w>
mathemati cians</w>
contest ant</w>
manu fact
Sub ject</w>
journ alist</w>
shuff led</w>
Pri mary</w>
rep lied</w>
met res</w>
velo city</w>
ballo on</w>
Col le
contro l</w>
fortun ately</w>
opti mally</w>
audi ence</w>
climb s</w>
Jiang su</w>
Va sily</w>
xi liary</w>
concer t</w>
des cending</w>
pizz a</w>
Conne ct</w>
Intern ational</w>
Claudi a</w>
diamon ds</w>
Ame lia</w>
Cen tral</w>
Cru ps</w>
Ig or</w>
cup cakes</w>
base ball</w>
happen ed</w>
Meth od</w>
NW F</w>
a89 4aa8d
a7b 3g</w>
name ly</w>
peb bles</w>
pass word</w>
basket ball</w>
deliver ed</w>
instal lations</w>
Folk lore</w>
0946 3f225f8
6ed 09463f225f8
ETI TION</w>
Grou p</w>
Ily a</w>
Light ning</w>
School s</w>
abeli an</w>
b85 a894aa8d
gas oline</w>
argum ent</w>
pota toes</w>
does n</w>
misce llaneous</w>
ba1f 07g</w>
rubb er</w>
cardin ality</w>
COMP ETITION</w>
bf722 a7b3g</w>
6ed09463f225f8 ba1f07g</w>
b85a894aa8d bf722a7b3g</w>
0 g</w>
0 89
1 a
2 s</w>
2 d</w>
2 m</w>
2 q</w>
2 14</w>
2 17</w>
2 18</w>
2 22</w>
2 35</w>
2 28</w>
2 xy</w>
3 16</w>
3 24</w>
3 14</w>
3 45</w>
3 36</w>
3 29</w>
3 57</w>
4 b
4 i</w>
4 11</w>
4 36</w>
4 28</w>
4 48</w>
5 cm</w>
6 a
6 10</w>
6 pt</w>
6 33
6 371</w>
7 14</w>
8 a</w>
9 a
9 90</w>
A D
A G
A P
A A</w>
A ro
A aron</w>
B ab
B CA</w>
B PC</w>
C E
C P</w>
C AB</w>
C ut</w>
C AD</w>
C au
C amp</w>
C ase</w>
D or
D asha</w>
D CB</w>
E qua
E qui
E vie</w>
F ran
F ren
F OR</w>
G a
G 5</w>
G rand
I 2</w>
J ör
M ore</w>
M ars</w>
N um
N or
O F</w>
P F</w>
P R</w>
P E</w>
P at</w>
P en</w>
P ol
Q C</w>
R un
R ou
S I
S pa
S cor
V ol
V eri
W inter</w>
Y an
Z h
Z u</w>
a 0
b d
b rou
c l</w>
c o</w>
c q</w>
c 49
c fb
d n</w>
d m</w>
d wi
d ex
d as
d ered</w>
d Pen</w>
e q
f er</w>
f res
f lu
f ga
f 3g</w>
g n</w>
g le</w>
g en</w>
g ly</w>
g age</w>
h are</w>
h an</w>
i x</w>
i mp
i ors</w>
k ers</w>
k ut
l ll</w>
l ons</w>
m p</w>
m ers</w>
m ed</w>
m all</w>
m ps</w>
n in
n array</w>
o gh</w>
o logi
o mitted</w>
p ha
r r</w>
s i</w>
s q</w>
s tic</w>
t i</w>
t ol
t te</w>
t rou
t ors</w>
u n</w>
w l</w>
w ine</w>
w rest
x el</w>
x step</w>
y step</w>
th m</w>
in radius</w>
in ks</w>
in son</w>
in stru
in um</w>
an cing</w>
er no
er ases</w>
er vo
er naldo</w>
ti ves</w>
ti re</w>
ar row</w>
ar ning</w>
ar rays</w>
ra ined</w>
le gi
le ag
le arning</w>
re stru
re arranging</w>
re friger
al y
al um
al li
al pha
ri sk</w>
en ters</w>
si ster</w>
ro ses</w>
ro bin</w>
ro ller</w>
qu e
qu e</w>
qu ali
di scri
se l</w>
se ar
ma tion</w>
ma il</w>
co oper
la un
la id</w>
su it
wi d
wi shes</w>
do m</w>
do ctor</w>
ir ing</w>
ter me
st u
st range</w>
lo s</w>
un loading</w>
ho te
ea utiful</w>
tri ed</w>
tw ard</w>
tw enty</w>
20 25</w>
ex am
ex it</w>
no tin</w>
no tch</w>
ct uring</w>
mu se
as ing</w>
de f</w>
de par
de du
10 x</w>
10 21</w>
bo wl</w>
pe st</w>
pe ars</w>
per forming</w>
vi et</w>
vi ties</w>
to č
to ssing</w>
fi es</w>
fi lls</w>
mi ds</w>
pa ck</w>
pa cked</w>
res ervo
ve mber</w>
ci ph
at ures</w>
ge ars</w>
par ing</w>
ne ka
ch y</w>
ba d</w>
sa il
alle ng
ce mber</w>
tic ks</w>
min ant</w>
min imally</w>
equa tor</w>
ph ant
ag ree</w>
19 75</w>
19 59</w>
19 63</w>
19 62</w>
mo de</w>
tis ts</w>
pi es</w>
pi xel</w>
sol va
sol ids</w>
De fini
De cember</w>
sm art
he ar
he dPen</w>
ord inary</w>
fa cing</w>
wa i
wa ste</w>
wa terme
du ty</w>
ca pi
ca tegory</w>
tra ining</w>
ru p</w>
cen tur
cen tly</w>
rou gh
lea p</w>
fin ds</w>
fin ding</w>
so pho
gra du
gra vity</w>
plan ts</w>
pen sion</w>
pen ny</w>
14 x</w>
ad dend</w>
up per
ste el</w>
12 th</w>
12 11</w>
13 00</w>
Ma te
15 12</w>
proba bilities</w>
ac tivity</w>
sub mi
sub ten
ele c
ele venth</w>
ele mentary</w>
sh ared</w>
17 th</w>
ed boat</w>
28 th</w>
form er</w>
spe edboat</w>
mid d
mid night</w>
25 th</w>
Con cept</w>
Co s</w>
comple ment</w>
is es</w>
can dle</w>
sta tions</w>
AB CDE</w>
ax ial</w>
car ps</w>
An t
An aly
An neka
wor m</w>
wor ks</w>
100 7</w>
100 th</w>
100 01</w>
coun ters</w>
coun ties</w>
ob ject</w>
46 4</w>
col li
47 1</w>
parti tioned</w>
67 2</w>
In ter
deci de</w>
mon oli
Ch erno
60 6</w>
cess es</w>
No vo
No Zero</w>
No vember</w>
trans fer
consi sten
enti al</w>
pyra mids</w>
sha ke</w>
cla i
tin gs</w>
dis count</w>
obta ins</w>
sti pu
jo gging</w>
requ ire</w>
hea ps</w>
sin es</w>
fu el</w>
Whi le</w>
Exam ples</w>
mat ching</w>
ke ys</w>
ke pt</w>
Comp le
sto pping</w>
Ar row</w>
oc ta
Car ol</w>
vo ted</w>
vo wel</w>
jum ped</w>
Be ta</w>
dro ve</w>
allow able</w>
ll ll</w>
Se gment</w>
gener ated</w>
stan ces</w>
she v</w>
speci fy</w>
blo o
char ge</w>
ban ana</w>
limi ted</w>
Di vi
sp inner</w>
Ti me</w>
man dat
sal e</w>
boo l</w>
Su n</w>
Su fficient</w>
bea d</w>
bea m</w>
Dra mps</w>
semi circular</w>
dri ve</w>
dri ving</w>
dri cal</w>
ko v</w>
cylin drical</w>
graph ic</w>
Par is</w>
subtra ction</w>
palindro mic</w>
La w</w>
refle ctions</w>
denomin ation</w>
repea tedly</w>
roun ding</w>
numer al</w>
Au stra
Au xiliary</w>
Au fga
cat ty</w>
pr inted</w>
cent res</w>
Ne cess
Tea cher</w>
So viet</w>
sen iors</w>
sli ding</w>
simi larly</w>
Le f
fli p</w>
fli pping</w>
happ y</w>
happ ens</w>
slo pes</w>
motor cycle</w>
Sy m
mini sters</w>
esti mate</w>
Ni ki</w>
squir rels</w>
Ju ly</w>
quanti ties</w>
soci e
Da y</w>
tal k</w>
progra ms</w>
weigh ing</w>
eng aged</w>
qui z</w>
pay ments</w>
En ter</w>
Stud y</w>
crea ted</w>
ortho gonal</w>
tick length</w>
tick down</w>
Te chnical</w>
Uni on</w>
mer chant</w>
main taining</w>
logi c</w>
propos al</w>
dot factor</w>
Xiao ming</w>
Iden tical</w>
evalu ated</w>
off er</w>
school s</w>
some one</w>
some times</w>
Chi ef</w>
expen sive</w>
Numb ers</w>
pain tings</w>
Ang le</w>
Gu ang
US A</w>
san dwi
invol ved</w>
mathemati cian</w>
contest ants</w>
trise ct</w>
expon ent</w>
journ al</w>
Ver tex</w>
cq cq
individu al</w>
bed ded</w>
bed room</w>
chick en</w>
chick ens</w>
schedu led</w>
practic ally</w>
less ons</w>
advis ors</w>
Rect angle</w>
Bal ogh</w>
Bet ty</w>
configu ration</w>
beet les</w>
custo mer</w>
topo logy</w>
pai red</w>
candi date</w>
absciss a</w>
announ ced</w>
Clar a</w>
Lin lin</w>
blan k</w>
resist ance</w>
ener gy</w>
assem bled</w>
mix ture</w>
commu tes</w>
mechani sms</w>
Rob inson</w>
em bedded</w>
ware house</w>
zh i</w>
parabo las</w>
adv ance</w>
Ani čka</w>
Investi gate</w>
Chong zhi</w>
surpri se</w>
appropri ate</w>
mort gage</w>
Shapo valov</w>
har monic</w>
anci ent</w>
refin ancing</w>
recur sively</w>
lad der</w>
sun ny</w>
hemi sphere</w>
shir ts</w>
guil ty</w>
kopec ks</w>
Aro gs</w>
Cau chy</w>
Equi lateral</w>
Fren ch</w>
Jör g</w>
Num erical</w>
Rou te</w>
Veri fy</w>
brou ght</w>
das hedPen</w>
eq narray</w>
nin th</w>
trou ble
leag ue</w>
restru cturing</w>
refriger ators</w>
alum inum</w>
discri minant</w>
reservo ir</w>
phant ine</w>
waterme lons</w>
centur y</w>
Anneka trin</w>
Cherno mor</w>
mandat ory</w>
Aufga be</w>
cqcq cq</w>
0 30
0 05</w>
0 06</w>
0 76</w>
1 y</w>
2 g</w>
2 c</w>
2 12</w>
2 21</w>
2 100</w>
2 90</w>
2 33</w>
2 ee
2 dg</w>
3 k</w>
3 13</w>
3 17</w>
3 28</w>
3 26</w>
3 54</w>
3 52</w>
3 cg</w>
4 22</w>
4 55</w>
4 41</w>
4 44</w>
4 54</w>
4 1st</w>
5 a</w>
5 t</w>
5 20</w>
5 17</w>
5 19</w>
5 40</w>
5 23</w>
5 34</w>
5 49</w>
5 46</w>
6 y</w>
6 40</w>
6 83</w>
7 d
7 p</w>
7 35</w>
7 26</w>
7 89</w>
8 f
8 11</w>
8 40</w>
8 31</w>
9 e
9 54</w>
9 1c
A H
A s
A 5</w>
A x</w>
A X</w>
A li
A line</w>
A ly
A ga
A long</w>
A ko</w>
A PB</w>
B C
B F
B G
B K</w>
B ea
B il
B ram</w>
B ul
B elle</w>
C L
C N</w>
D P</w>
D M</w>
D an
D ou
D EF</w>
E M
E d</w>
E ither</w>
F o
F F</w>
F H</w>
F lo
G H
G 3</w>
G 7</w>
G 6</w>
G o</w>
H e
H ea
H app
H ES</w>
I P</w>
I AD</w>
I sosceles</w>
I tal
J er
K la
K ing</w>
K na
K yi
M L</w>
M K</w>
M ir
M ental</w>
N a
N at
O l
O r
O Q</w>
O ut</w>
P N</w>
P ra
P as
P ab
P hi
P layer</w>
P layers</w>
P AR
R as
R ST</w>
S E
S in</w>
S lo
S even</w>
S am</w>
S han
S af
S OL
T H</w>
T est</w>
T ong
T anja</w>
U L</w>
W al
W ol
W ill</w>
W IS
X i</w>
Y n
Y MP
Z S</w>
a a
a z</w>
a ver
a pe
a cor
a bility</w>
a ids</w>
b 0
b y
b d</w>
b and</w>
b or</w>
b 19
b order</w>
b ring</w>
c 1
c f
c at</w>
c ers</w>
c line</w>
c ch
c lar
d ance</w>
d ness</w>
e i</w>
e va
e 85
e state</w>
f 5
f 1</w>
f ea
f lies</w>
f lights</w>
g am
g over
g ran
g ori
g lu
g ged</w>
g arian</w>
h men</w>
h ens</w>
i dio
j a
j an</w>
k er
k ne
l fill</w>
l vert</w>
l las</w>
m g</w>
m l</w>
m at</w>
m ba
m als</w>
m ma</w>
m ouse</w>
n i</w>
n u</w>
n ut</w>
o p</w>
o th</w>
o pp
o sha</w>
p and</w>
p are</w>
p tagon</w>
r in
s wers</w>
t z</w>
t all</w>
t alle
t ted</w>
t ong</w>
t tage</w>
u ph
v i</w>
v ases</w>
w a</w>
w an
w ea
w age</w>
x ing</w>
y ard</w>
y ka</w>
y book</w>
y outh</w>
z w</w>
z ard</w>
ü r
Č rt</w>
к о
th row</w>
th read</w>
th inks</w>
th rough
in ve
in visible</w>
an im
ti r
te en
te chni
ra ts</w>
ra se</w>
ra tions</w>
ra ther</w>
ra ted</w>
ra ff
ra il
le ns</w>
le mentary</w>
re n</w>
re ve
re petition</w>
re port</w>
re places</w>
re turning</w>
al one</w>
ri d</w>
ri se</w>
ri dge</w>
on line</w>
on als</w>
en trance</w>
en sures</w>
en cry
po t</w>
po ts</w>
po uring</w>
si us</w>
si zed</w>
si onal</w>
si mplify</w>
si stence</w>
ro yal
qu il
qu ite</w>
qu ises</w>
di ers</w>
di al</w>
di sa
di ffi
di ra</w>
fo rest</w>
fra gments</w>
se wn</w>
se can
se ating</w>
ma tic
ma ps</w>
ma tic</w>
co al</w>
co ck
co uples</w>
co ttage</w>
la tively</w>
la tter</w>
la va</w>
ang e
su s</w>
su ally</w>
wi re</w>
wi res</w>
wi zard</w>
do g</w>
wh ere
poin ting</w>
st i</w>
st ori
lo ye
inte n
am ent</w>
ho od</w>
ho spi
ea d
ea per</w>
con ju
tri x</w>
tri ps</w>
ver sion</w>
or ge</w>
20 x</w>
math op</w>
li br
ex pe
ta len
val ley</w>
gi raff
cir cu
cir cula
no si</w>
pro posed</w>
pro ject</w>
pro fess
mu las</w>
me er
me tal</w>
as s</w>
as i</w>
as se
de o</w>
de composition</w>
10 a</w>
10 n</w>
10 23</w>
tion ary</w>
per sistence</w>
vi deo</w>
to ise</w>
fi re
fi ts</w>
fi ghter</w>
mi ght</w>
mi xed</w>
pa d</w>
pa tro
ou tward</w>
lan a</w>
lan ce</w>
ge bra</w>
par ent</w>
dra w
dra gon</w>
ch al
ch ro
ch en</w>
ch ka</w>
ch eaper</w>
ba th
sa w</w>
text book</w>
ag o</w>
ag ing</w>
over all</w>
19 51</w>
19 58</w>
19 69</w>
19 67</w>
19 79</w>
mo m</w>
mo le</w>
mo ments</w>
mo res</w>
bi tten</w>
bi ke</w>
bi ologi
sequ ently</w>
pi ll</w>
pi ast
cho se</w>
low er
low ed</w>
sol diers</w>
Ex pand</w>
he ptagon</w>
ord ering</w>
Pro du
Pro position</w>
pos ing</w>
pres sed</w>
pres ses</w>
pres sure</w>
for ty</w>
for get</w>
for got</w>
for mulas</w>
da r</w>
da tion</w>
da tes</w>
ca st</w>
ca len
tra il</w>
cen tra
bu tt
tt le
pp y</w>
pp ings</w>
cor n</w>
gra ders</w>
plan et</w>
14 00</w>
14 16</w>
14 em</w>
ck ey</w>
tak e
ad y</w>
up wards</w>
respec tive</w>
12 3
12 x</w>
12 96</w>
ss a</w>
mp h</w>
ac cep
sub space</w>
ele cted</w>
ele ctri
sh an</w>
sh il
18 th</w>
17 16</w>
ed er
ed 4f
16 00</w>
28 53
we i</w>
Co lor</w>
rela tions</w>
rela ted</w>
30 th</w>
can oni
el ves</w>
el sius</w>
sta tis
sta irs</w>
sta tionary</w>
27 bc
27 089
50 40</w>
car ry</w>
car tesian</w>
ordina te</w>
An hu
An swers</w>
thir ty</w>
thir ds</w>
100 0th</w>
cro ss
cro sses</w>
equi angular</w>
coun cil</w>
minu end</w>
57 cb
48 0</w>
mar ble</w>
mar quises</w>
il ing</w>
il lum
alig ns</w>
sph erical</w>
gu m</w>
gu est</w>
gu ide</w>
parti ally</w>
In dividu
deci mals</w>
80 00</w>
emp loye
mon key</w>
operat or</w>
pre pared</w>
pre pare</w>
60 27bc
inde ed</w>
97 0
dire cted</w>
et nam</w>
lip a</w>
77 1</w>
90 3</w>
va tion</w>
trapezo ids</w>
ni ck
Bo x</w>
Bo jan</w>
sur faces</w>
sur rounded</w>
stri pe</w>
sha pes</w>
70 00</w>
medi ate</w>
11 x</w>
11 10</w>
Qu asi</w>
dis cu
sti tu
jo in</w>
requ iring</w>
represen ting</w>
app lying</w>
Re gi
Re latively</w>
sum mation</w>
hea p</w>
hea vi
hea ded</w>
sin h</w>
fu lfill</w>
chang ing</w>
pu sh</w>
distribu tions</w>
Car lo</w>
Car li</w>
vo chka</w>
vari es</w>
arri ving</w>
lon gs</w>
frac 13</w>
Oly a</w>
lamb s</w>
boun ds</w>
jum ping</w>
Be th</w>
Be low</w>
four teen</w>
33 rd</w>
Se gments</w>
ju ices</w>
Mi ke</w>
tu al</w>
curren t
por ridge</w>
ear ning</w>
Mar k</w>
Mar o</w>
Mar ta</w>
Mar ks</w>
Mar ko</w>
22 nd</w>
sing ing</w>
43 rd</w>
sp ins</w>
deri ve</w>
atta ins</w>
atta cks</w>
appro ach</w>
fle w</w>
bro wn</w>
colle ct</w>
mathematic ally</w>
Jo in</w>
ven ue</w>
Al ber
Al gebra</w>
pur se</w>
pur ple</w>
redu ction</w>
Su pp
bea ts</w>
bea utiful</w>
dri ves</w>
wo od</w>
wo mba
21 21</w>
Par alle
Par tition</w>
Ro man
ligh ter</w>
subtra cts</w>
quar ters</w>
Au to</w>
dwar ves</w>
pr i</w>
Sh aron</w>
au to
cli p</w>
To tal</w>
indi ces</w>
Mo m</w>
bri ck</w>
sli ps</w>
dimen sional</w>
bound aries</w>
Ber tram</w>
Ra y</w>
Ra tio</w>
kin g
sou ght</w>
big cap</w>
big cup</w>
Sy low</w>
Sy stems</w>
every thing</w>
stic k</w>
disc ard</w>
separa tely</w>
organi ze</w>
assum ed</w>
down hill</w>
sci ence</w>
youn gest</w>
Un cle</w>
Un fortunately</w>
sk y</w>
sk et
sk ates</w>
erro rs</w>
domin oes</w>
depen ding</w>
capa ci
cb 1112
ku g
sist ers</w>
vie wed</w>
scal ar</w>
En trance</w>
Lu cky</w>
loo p</w>
traje ctori
strate gic</w>
TIO NA
langu ages</w>
AN D</w>
Kar en</w>
open ing</w>
son gs</w>
Che by
Fu wa</w>
Za h
propos es</w>
physi cal</w>
dar k</w>
yi eld</w>
dot ted</w>
Xiao wei</w>
Bri an</w>
GR ADE</w>
swa p</w>
wat ch</w>
succes sion</w>
Sun days</w>
Vo vochka</w>
bon us</w>
fur longs</w>
supp lies</w>
hor se</w>
occupi es</w>
Mer lin</w>
der ange
rever sed</w>
rever sing</w>
mis sible</w>
pain ting</w>
attemp ted</w>
690 91c
expon ents</w>
sau sage</w>
tetrahedr ons</w>
declar es</w>
declar ation</w>
occur s</w>
occup ying</w>
1c 2853
OL YMP
Vi etnam</w>
individu als</w>
schedu le</w>
practic ing</w>
logarith m</w>
logarith mic</w>
App ly</w>
NA TIONA
ai ms</w>
pho to
sle e
shoo ter</w>
advis or</w>
Eu ler</w>
SU B
ef 69091c
tele phone</w>
lef tmost</w>
ref ere
situ ation</w>
Thir ty</w>
stor m</w>
stor ybook</w>
eas y</w>
eas tern</w>
conson ant</w>
conson ants</w>
experi ment</w>
victori ous</w>
Diag onals</w>
competi tor</w>
PROBL EM</w>
PROBL EM
Bra fs</w>
wol ves</w>
veri fy</w>
accu ra
surve y</w>
purch ases</w>
umbre llas</w>
Serge ant</w>
Bor is</w>
Cor re
IN G</w>
adu lts</w>
frequ ency</w>
iz nosi</w>
oa k</w>
enter ing</w>
home work</w>
devi ces</w>
mode l</w>
dau ghter</w>
Ange lo</w>
pub li
hand shakes</w>
justi fication</w>
Circum scribed</w>
Maruš ka</w>
Alex an
chamele on</w>
Is land</w>
Moun tain</w>
Ori gin
Tor toise</w>
Yu lia</w>
bun ches</w>
gno mes</w>
assist ant</w>
design ated</w>
termina te</w>
sav ings</w>
minde dness</w>
Deci mal</w>
acceler ation</w>
subst ance</w>
pret ty</w>
week end</w>
Colle ge</w>
633 f3g</w>
Bab a</w>
Grand ma</w>
Scor ing</w>
Zh en
c49 3cg</w>
cfb 2ee
fres hmen</w>
flu id</w>
alpha bet</w>
que ue</w>
cooper ative</w>
hote l</w>
exam ples</w>
depar ted</w>
sail boat</w>
solva ble</w>
Defini tion</w>
sopho mores</w>
Analy sis</w>
consisten tly</w>
Sym metric</w>
Aly osha</w>
Hea d</w>
Happ y</w>
Ital y</w>
Kla us</w>
Kna ve</w>
Kyi v</w>
Nat ural</w>
Pas cal</w>
Pab lo</w>
PAR T</w>
Saf e</w>
SOL U
Tong tong</w>
WIS HES</w>
Yn dira</w>
ape x</w>
acor ns</w>
cch i</w>
eva po
e85 ef69091c
gam ing</w>
gover nment</w>
gori thm</w>
opp on
uph ill</w>
through out</w>
anim als</w>
teen th</w>
reve al</w>
secan ts</w>
cock tail</w>
hospi tal</w>
talen ts</w>
circu it</w>
piast res</w>
ed4f c493cg</w>
canoni cal</w>
27089 ed4fc493cg</w>
Anhu i</w>
57cb 633f3g</w>
illum ina
6027bc 27089ed4fc493cg</w>
Alber to</w>
womba ts</w>
cb1112 cfb2ee
trajectori es</w>
Cheby shev</w>
1c2853 cb1112cfb2ee
OLYMP IAD</w>
NATIONA L</w>
PROBLEM S</w>
e85ef69091c 57cb633f3g</w>
1c2853cb1112cfb2ee 2dg</w>
0 1
0 9
0 x</w>
0 97
0 67</w>
1 b
1 a</w>
1 C</w>
1 P</w>
1 101</w>
1 140</w>
2 B
2 a
2 r</w>
2 v</w>
2 13</w>
2 30</w>
2 31</w>
2 37</w>
2 38</w>
2 pt</w>
2 3x</w>
2 207</w>
3 i</w>
3 B</w>
3 A</w>
3 18</w>
3 22</w>
3 55</w>
3 38</w>
3 1st</w>
4 e
4 A</w>
4 10</w>
4 20</w>
4 ca
4 14</w>
4 30</w>
4 25</w>
4 18</w>
4 60</w>
4 23</w>
4 31</w>
4 56</w>
4 200</w>
4 164</w>
5 y</w>
5 n</w>
5 b</w>
5 10</w>
5 16</w>
5 18</w>
5 50</w>
5 22</w>
5 31</w>
5 42</w>
5 44</w>
5 38</w>
5 54</w>
5 53</w>
6 d
6 a</w>
6 15</w>
6 05</w>
6 41</w>
6 89</w>
6 88</w>
6 86</w>
6 1e
7 z</w>
7 20</w>
7 25</w>
7 50</w>
7 23</w>
7 31</w>
7 39</w>
7 47</w>
7 84</w>
8 e
8 12</w>
8 20</w>
8 90</w>
8 22</w>
8 45</w>
8 38
8 34</w>
8 37</w>
8 48</w>
8 bp</w>
9 11</w>
9 22</w>
9 29</w>
A E
A b
A g
A 7</w>
A O</w>
A K</w>
A un
A gi
A EF</w>
A PM</w>
A lina</w>
B E
B R
B I</w>
B p</w>
B H</w>
B X</w>
B lan
B DC</w>
B lake</w>
B UL</w>
C I
C i
C y
C 1</w>
C p</w>
C L</w>
C Q</w>
C ri
C ro
C are
C alcula
C ans</w>
C CE
D AB</w>
D eri
D ue</w>
E s
E v
E ö
E sti
E ven
E va</w>
E CT</w>
E ze
E AT</w>
E ducation</w>
F E
F y
F A</w>
F K</w>
F ar
F at</w>
F un
F our
G 8</w>
G 10</w>
G ary</w>
G ree
H a
H C</w>
H D</w>
H on
H en
H un
H or
H el
I r
I t
I 4</w>
I TT
J orge</w>
J ECT</w>
K en
K im
L O
L ong
L CM</w>
M M
M F</w>
M E</w>
M in
M ini
M exi
N Y
N е
N D</w>
N AM
O U</w>
O ur</w>
P é
P D</w>
P K</w>
P en
P AB</w>
P oli
P lot</w>
Q Q</w>
Q iang</w>
R ab
R hombus</w>
S T
S en
S am
S ph
S ome
S now</w>
S ines</w>
S mall</w>
T R
T Y</w>
T ang
T am
T ang</w>
T wel
T olya</w>
V e
V en
W or
Y ellow</w>
Y outh</w>
Y OU</w>
Z o
Z O</w>
Z ou</w>
a te
a po
a ci
a ce
a pri
a we
a vo
a eb
a yka</w>
a trix</w>
b a</w>
b ear</w>
b und
b room</w>
b lings</w>
c 7
c it</w>
c ran
c 9a
c def</w>
d en</w>
d les</w>
d ong</w>
d den
d ney</w>
e line</w>
e sta
e ars</w>
e ye
f 0
f ü
f o</w>
f at</w>
f en
f th</w>
g b</w>
g one</w>
g at
g row</w>
g gy</w>
h ence</w>
h ong</w>
h one
i z</w>
i co
i an</w>
i so
j uni
j unior</w>
j ie</w>
k ong</w>
k ut</w>
k new</w>
k ings</w>
k oli
l b</w>
l is</w>
l le
l le</w>
l la
l son</w>
l lent</w>
l fo</w>
m n
m eri
n ea
n subseteq</w>
o m</w>
o o</w>
o ct
o mi
o il</w>
o vá</w>
o ya
o sits</w>
p m
p a</w>
p h</w>
p an</w>
p tions</w>
p ence</w>
p lant</w>
p ins</w>
p re</w>
p ear</w>
q r</w>
q iang</w>
r gb</w>
s z
s si
s to</w>
s qua
s se</w>
s quad</w>
s ong</w>
s pen
s ten</w>
s low</w>
s ki</w>
s ka</w>
s field</w>
t v
t ter
t tes</w>
t ant</w>
t ches</w>
t ched</w>
u x</w>
u seg
v lo
v dots</w>
v ard</w>
v ary</w>
v rh
w 2</w>
w ra
w ind</w>
w to
w ord
w inter</w>
w estern</w>
x t</w>
x plane</w>
x equals</w>
y m</w>
y er</w>
y an</w>
y equals</w>
y rs</w>
y our
y angyang</w>
z z</w>
z an</w>
á s</w>
ö s</w>
з н
th re
th ly</w>
th ea
th ur</w>
in se
in vi
in ha
in gre
in got</w>
in definitely</w>
in dex
an u</w>
er t</w>
er text</w>
er board</w>
er man</w>
ti e</w>
ti ed</w>
ti an</w>
ti res</w>
ar g</w>
ar ded</w>
ar ance</w>
te lling</w>
ra ft</w>
ra pi
ra ge</w>
ra ise</w>
ra lum
le q
le i</w>
le c</w>
re mo
re ality</w>
re member</w>
re placing</w>
re tains</w>
al d</w>
al most</w>
al together</w>
al thy</w>
al though</w>
ri t</w>
ri de</w>
ri ding</w>
ri ders</w>
en clo
en ko</w>
en tists</w>
si ght</w>
si bly</w>
si blings</w>
ro s</w>
ro de</w>
ro cket</w>
ro sk
num eri
numb ering</w>
fo o</w>
fo re
se a</w>
se es</w>
se as
se ven
se eds</w>
ma ts</w>
ma ple</w>
ma ppings</w>
co p
co at</w>
co ck</w>
co bs</w>
la p
la ted</w>
la ys</w>
la ting</w>
la cro
la sh</w>
la bor</w>
su peri
wi sh</w>
Th at</w>
do ing</w>
do ws</w>
ter ns</w>
st y</w>
st ro
st ly</w>
st ran
lo ts</w>
lo us</w>
lo ps</w>
lo am</w>
lo cked</w>
inte xt</w>
un de
un colored</w>
un certainty</w>
un limited</w>
ho ur
ho ps</w>
ho ses</w>
ho wever</w>
ea gle</w>
con g</w>
con ven
tri cal</w>
be verage</w>
be lt</w>
be ef</w>
or bit</w>
20 36</w>
math sc
li kes</w>
li ament</w>
ex changed</w>
ex changes</w>
ex tre
ta i</w>
no m</w>
pro mo
ct u
ct ares</w>
mu d</w>
me an
as ser
de ed</w>
de tails</w>
de scribe</w>
de alt</w>
10 14</w>
10 22</w>
10 45</w>
10 98</w>
10 79</w>
bo gat
tion ali
per form
per mitted</w>
vi als</w>
to wer</w>
fi ers</w>
fi red</w>
fi cally</w>
ha t
ha ir
mi x</w>
mi gra
mi cro
mi sses</w>
mi ssed</w>
pa th
lan dri
ci a</w>
at tra
ge l</w>
par liament</w>
dra wer</w>
squ ari
ne g
ne ar
ne se</w>
ne ed
ch u
ch elle</w>
ba ge</w>
ba ked</w>
ba cks
sa tion</w>
sa ges</w>
sa hedron</w>
sa il</w>
pri mi
pri zed</w>
text normal</w>
com pres
com pose</w>
com mas</w>
min der</w>
min now</w>
ph ic</w>
ph rase</w>
over takes</w>
pla stic</w>
pla intext</w>
19 x</w>
19 50</w>
19 57</w>
19 72</w>
19 61</w>
19 77</w>
19 74</w>
19 71</w>
mo v</w>
mo thers</w>
bi kes</w>
bi cycles</w>
pi ggy</w>
ff c
ff in</w>
sol ver</w>
Ex am</w>
Ex cel
sm all
he art
he ctares</w>
diff ers</w>
fa bu
sho es</w>
du ction</w>
du cks</w>
du eled</w>
du ralum
for t
for go
da m</w>
ca ble</w>
tra hedron</w>
ru ler</w>
interse cted</w>
bu sin
tar t</w>
so le
so lar</w>
so und</w>
so meth
so cc
cor relation</w>
gra m</w>
gra ded</w>
gra vitational</w>
den er</w>
plan ted</w>
plan ets</w>
pen d
14 24</w>
14 40</w>
14 92</w>
ari o</w>
ari ot</w>
up side</w>
up ward</w>
ste m</w>
seg 2</w>
seg 1</w>
12 12</w>
12 14</w>
12 18</w>
12 32</w>
12 31</w>
12 55</w>
12 75</w>
12 42</w>
12 43</w>
secon dary</w>
ss ors</w>
13 x</w>
13 20</w>
13 19</w>
Ma th
Ma ja</w>
sy rup</w>
inc lined</w>
15 th</w>
15 23</w>
15 06</w>
15 81</w>
ac cumula
mul ti</w>
sub stances</w>
ele ct
18 93</w>
16 82</w>
es h</w>
play ground</w>
spe ws</w>
we ls</w>
25 00</w>
lu ck</w>
lu lfo</w>
fe it</w>
Con test</w>
Con vex</w>
Con sequently</w>
Co mb
Co ordinate</w>
comple ting</w>
comple xplane</w>
can al</w>
can dles</w>
ome try</w>
sta ted</w>
oper ate</w>
40 32</w>
car p</w>
ga tion</w>
37 th</w>
An dr
An dy</w>
34 th</w>
thir teen</w>
100 4</w>
100 9</w>
100 x</w>
100 00
cro wn</w>
cro ssing</w>
24 th</w>
24 a8d
coun ty</w>
29 th</w>
29 25</w>
56 7</w>
reg ard</w>
ob jects</w>
46 ead
syste ms</w>
dr ying</w>
dr unk</w>
47 d
47 9</w>
47 2</w>
58 5</w>
arith me
go als</w>
parti es</w>
parti tions</w>
67 3</w>
67 5</w>
op ini
measu ring</w>
In to</w>
In equality</w>
In deed</w>
deci meters</w>
hedr a</w>
mon thly</w>
Ch eng</w>
Ch ariot</w>
pre c
pre par
87 4</w>
ab s</w>
ab cdef</w>
inde terminate</w>
circum centers</w>
trans mitted</w>
trans formations</w>
trans parent</w>
et te</w>
oun ces</w>
exce llent</w>
adj o
Com paring</w>
pezo id</w>
ash i
hy po
hy per</w>
regi ster</w>
ni fi
sig nifi
stri ves</w>
sha dow</w>
recei ving</w>
tin a</w>
11 th</w>
hol ding</w>
dis k</w>
dis c</w>
ki el</w>
para b</w>
jo g</w>
jo ins</w>
app lied</w>
Re mark</w>
Re peat</w>
Re minder</w>
calcula tes</w>
gri ll</w>
amoun ted</w>
ty om</w>
79 4</w>
sto pped</w>
conne cts</w>
Ar thur</w>
Ar tyom</w>
brea th</w>
oc curren
oc currence</w>
determ ining</w>
Car los</w>
vari ance</w>
vari ants</w>
lon g
frac 32</w>
23 10</w>
ser ved</w>
participa tes</w>
Be to</w>
Be gin</w>
tan k</w>
respon sible</w>
han ded</w>
gener ators</w>
gener atrix</w>
44 th</w>
44 44</w>
Mi hai</w>
Mi chelle</w>
tu b</w>
65 24a8d
ban ds</w>
Di o
Di ck</w>
sp ea
sp end</w>
who osits</w>
94 50</w>
man tis
nam es</w>
atta ching</w>
swi ms</w>
fer ries</w>
inci ple</w>
zz zz
colle ctions</w>
exp li
ul ti
fif ths</w>
fif teen</w>
32 nd</w>
Al pha</w>
42 nd</w>
Su e</w>
Su ch</w>
semi colon</w>
dou bles</w>
appe ared</w>
appe arance</w>
dri ll</w>
cylin ders</w>
expan ded</w>
teach ers</w>
CD P</w>
Per form</w>
21 c5
Ro ck</w>
sil k</w>
fini shes</w>
magi cian</w>
quar tic</w>
La u
La tin</w>
oton ically</w>
Pa vlo
conver g
conver t</w>
conver ted</w>
conver sion</w>
possi bility</w>
Au th
cat ties</w>
sea water</w>
pr ints</w>
Can non</w>
Ne w
To m</w>
To wn</w>
coinci ding</w>
bri c</w>
clud e</w>
fro sting</w>
sen se</w>
sen ten
sen sibly</w>
sli de</w>
sli des</w>
sli pping</w>
dimen sion</w>
measure ments</w>
Ear th
sup posed</w>
shu ttle
Ber naldo</w>
Squ ares</w>
reci pe</w>
EF GH
Mon otonically</w>
cle an
annu ally</w>
big g</w>
big c</w>
ABCD EFGH</w>
Jan e</w>
Sy dney</w>
CO R
CO MM
Fri da</w>
Sci ssors</w>
disc re
disc arding</w>
counter feit</w>
Bon o</w>
assum es</w>
youn g</w>
even tually</w>
Un der</w>
spo t
spo ts</w>
simpli fies</w>
domin o</w>
loa f</w>
loa ded</w>
progra m
kee per</w>
fla g
fla sk</w>
offi ces</w>
trea ted</w>
inser ted</w>
inser ting</w>
eng age</w>
qui ck
obser ve</w>
Char ter</w>
Lu cia</w>
crea tes</w>
spi rit</w>
tick down
compe ting</w>
preser ves</w>
preser ved</w>
identi fy</w>
Simi lar</w>
Ba ker
Ba jie</w>
Kar lson</w>
use ticks</w>
simp ly</w>
pat terns</w>
communi cation</w>
cooki e</w>
AM C</w>
Fu zhou</w>
Te trahedron</w>
inver ses</w>
cour ses</w>
propos er</w>
physi cs</w>
moun tains</w>
Ad d</w>
Hu a</w>
dar t</w>
yi elds</w>
inst ance</w>
cdot 3</w>
cdot 2</w>
Xiao hong</w>
GR EAT</w>
evalu ating</w>
intercep ted</w>
symme trical</w>
succes sively</w>
Ada pted</w>
Cho ose</w>
Cho rd</w>
Cho rds</w>
Tra pezoid</w>
din ners</w>
hon ey</w>
mor phic</w>
hel ped</w>
For ty</w>
Jen na</w>
Sele ct</w>
dres ses</w>
gall ery</w>
ula ted</w>
conten ts</w>
attemp t</w>
attemp ts</w>
ffe ct</w>
predi ctions</w>
predi cted</w>
touri sts</w>
Kat i</w>
cre w</w>
flow ers</w>
festi vities</w>
gar dener</w>
san dy</w>
reali zes</w>
repay ments</w>
trise cted</w>
associ ation</w>
associ ated</w>
associ ations</w>
check erboard</w>
occur red</w>
occur ring</w>
Factori zation</w>
Ca thy</w>
Fur ther</w>
jed na
prun e</w>
diame trically</w>
stre et</w>
Bro thers</w>
Ivan o
dan cing</w>
less on</w>
contro ls</w>
opti mal</w>
Rect angles</w>
cccc c</w>
audi tori
Jiang xi</w>
Do g</w>
Dar ren</w>
Ko st
Pr inciple</w>
SU CCE
her self</w>
times 10</w>
leg ally</w>
Thir d</w>
configu rations</w>
beet le</w>
victori es</w>
tori al</w>
pai gn</w>
candi dates</w>
absciss as</w>
organiz ers</w>
Gri sha</w>
Gri ffin</w>
Sa i</w>
wol f</w>
thi ck
restri ctions</w>
oni o</w>
encoun ter</w>
set up</w>
2021 2021
depart ure</w>
Coun cil</w>
issu e</w>
purch asing</w>
umbre lla</w>
illustra te</w>
Speci fically</w>
Ge ometric</w>
Har old</w>
Har vard</w>
Vla d</w>
Wu kong</w>
cam paign</w>
dea th</w>
eu ros</w>
odo r</w>
odo meter</w>
won dered</w>
rain y</w>
materi al</w>
conclud e</w>
conclud es</w>
extra ction</w>
extra cted</w>
cul ty</w>
accomp lish</w>
Indi cate</w>
transpor ted</w>
transpor tation</w>
Isabe lla</w>
Isabe lle</w>
cumula tive</w>
Cu be</w>
Du shan</w>
El lina</w>
Every one</w>
Ke al</w>
Mat rosk
San dy</w>
Sum mer</w>
She ep</w>
Ya oya
cru ise</w>
grand mother</w>
hun ting</w>
kar p</w>
of ten</w>
intro du
sec ant</w>
consum ption</w>
exclu sive</w>
addres s</w>
constra int</w>
mono chro
directri x</w>
dismi ss</w>
Reg ular</w>
anticipa ted</w>
Cheburash ka</w>
analo g
123456 789
belie ve</w>
AG E</w>
Pol ina</w>
Run ner</w>
SI T</w>
Spa in</w>
Yan n</w>
tol ars</w>
legi ble</w>
quali fication</w>
laun ched</w>
wid gets</w>
muse um</w>
ciph ertext</w>
smart phone</w>
wai ter</w>
capi tal</w>
gradu ate</w>
Mate matic
subten ded</w>
elec tricity</w>
midd lec</w>
Ant onio</w>
transfer red</w>
clai ms</w>
Comple x</w>
octa hedron</w>
Austra lian</w>
Lef trightarrow</w>
socie ties</w>
sandwi ch</w>
Bul garian</w>
Ol ga</w>
Slo ven
Shan ille</w>
gran ulated</w>
glu ing</w>
idio ms</w>
wan ted</w>
wea ther</w>
quil ts</w>
inten ded</w>
expe dition</w>
giraff e</w>
asse mb
patro l</w>
chal k</w>
bath tub</w>
biologi st</w>
Produ ct</w>
calen dar</w>
centra lly</w>
take off</w>
cross word</w>
Individu al</w>
employe es</w>
heavi er</w>
sket ch</w>
capaci tor</w>
Zah len</w>
SUB JECT</w>
refere e</w>
accura cy</w>
Origin ally</w>
oppon ent</w>
61e 21c5
Ag nese</w>
Aun t</w>
Agi lulfo</w>
Deri ve</w>
Es ther</w>
Eö tv
Eze kiel</w>
Fy odor</w>
Hor se</w>
Hel p</w>
It ali
ITT EE</w>
Ken ny</w>
Kim i</w>
Mini stry</w>
Nе зн
NAM E</w>
Pé ter</w>
Poli karp</w>
Rab bit</w>
Some one</w>
Tam ás</w>
Twel ve</w>
aci d</w>
awe some</w>
cran e</w>
esta b
eye b
hone stly</w>
ico sahedron</w>
juni ors</w>
koli ko</w>
lla bles</w>
nea tly</w>
squa ds</w>
useg rid</w>
word ing</w>
your self</w>
thre w</w>
inse ct</w>
inha bi
ingre di
index ed</w>
rapi dly</w>
remo te</w>
numeri cally</w>
seas on</w>
lacro sse</w>
mathsc r</w>
bogat yrs</w>
tionali ze</w>
perform ance</w>
squari sh</w>
backs lash</w>
Excel lent</w>
small c</w>
heart suit</w>
fabu lous</w>
duralum in</w>
forgo tten</w>
busin e
someth ing</w>
socc er</w>
46ead 6524a8d
occurren ces</w>
zzzz zz</w>
shuttle cock</w>
COMM ITTEE</w>
Baker sfield</w>
auditori um</w>
SUCCE SS</w>
Matrosk in</w>
Yaoya o</w>
61e21c5 1g</w>
Eötv ös</w>
Nезн ayka</w>
46ead6524a8d 61e21c51g</w>
0 20</w>
0 19</w>
0 ad
0 40
0 44</w>
0 85</w>
0 04</w>
0 03</w>
0 3b
1 s</w>
1 O</w>
1 D</w>
1 cm</w>
1 100</w>
1 15
1 169</w>
1 165</w>
1 163</w>
1 188</w>
1 171</w>
1 184</w>
2 e</w>
2 A</w>
2 BC</w>
2 27</w>
2 26</w>
2 29</w>
2 39</w>
2 ab</w>
2 yz</w>
2 109</w>
2 122</w>
2 272</w>
2 376</w>
2 341</w>
3 20
3 10</w>
3 90</w>
3 40
3 34</w>
3 53</w>
3 51</w>
3 58</w>
3 59</w>
3 23
3 208</w>
3 998</w>
4 l</w>
4 p</w>
4 q</w>
4 15</w>
4 13</w>
4 19</w>
4 40</w>
4 29</w>
4 37</w>
4 49</w>
4 52</w>
4 58</w>
4 59</w>
4 46</w>
4 xy</w>
4 361</w>
5 e
5 f
5 B</w>
5 z</w>
5 13</w>
5 14</w>
5 30</w>
5 25</w>
5 36</w>
5 47</w>
6 13</w>
6 21</w>
6 50</w>
6 34
6 55</w>
6 38</w>
6 54</w>
6 85</w>
6 46</w>
6 66</w>
6 62</w>
6 c0
7 a</w>
7 b</w>
7 12</w>
7 19</w>
7 36</w>
7 32</w>
7 28</w>
7 33</w>
7 34</w>
7 29</w>
7 05</w>
7 80</w>
7 75</w>
7 48</w>
7 64</w>
7 06</w>
7 85</w>
7 62</w>
7 61</w>
7 f9
8 b
8 10</w>
8 19
8 16</w>
8 24</w>
8 cm</w>
8 18</w>
8 23</w>
8 35</w>
8 33</w>
8 75</w>
8 42</w>
8 64</w>
8 192</w>
9 f
9 g</w>
9 a</w>
9 20</w>
9 24</w>
9 60</w>
9 33</w>
9 55</w>
9 75</w>
9 44</w>
9 85</w>
9 68</w>
9 61</w>
9 86</w>
A K
A Q
A S
A T
A 9</w>
A ir</w>
A verage</w>
A she
A TI
A MN</w>
A EC</w>
A lla</w>
A lana</w>
B A
B G</w>
B O</w>
B W</w>
B x</w>
B T</w>
B en
B ran
B red</w>
B ob
B OC</w>
B EFG</w>
B KL</w>
C O</w>
C K</w>
C X</w>
C J</w>
C ti
C le
C al
C as</w>
C ur
C he</w>
C lu
C ate</w>
C MO</w>
C BA</w>
C ernaldo</w>
C elsius</w>
D E
D y
D I</w>
D R</w>
D N</w>
D en
D on</w>
D ir
D ud
D is
D il
D ong
D ana</w>
D EFG</w>
D ernaldo</w>
D unde
D ario</w>
E N
E A</w>
E H</w>
E ri
E qu
E ve</w>
E valu
E asy</w>
E AR</w>
E DCB</w>
E mma</w>
F D</w>
F er
F res
F esti
G E
G U
G 4</w>
G 1</w>
G V</w>
G ame</w>
G low</w>
G au
G EM</w>
G ener
G erman</w>
G DR</w>
H y
H G</w>
H H</w>
H are</w>
H ol
H at
H igh
H exag
H au
I m
I N</w>
I ri
J un
J ar</w>
K M</w>
K x</w>
K er
K ra
K on
K ha
K night</w>
L I
L e</w>
L C</w>
L E</w>
L in</w>
L ou
L ari
L ena</w>
M T
M u
M i</w>
M D</w>
M al
M at</w>
M an</w>
M other</w>
N O
N 3</w>
N 1</w>
N H</w>
N in
N ast
O N</w>
O ct
O de
O per
O ut
O leg</w>
O ry
P S</w>
P ang
P an</w>
P eri
P yra
P hy
P AM</w>
Q a
Q QQ</w>
R e</w>
R t</w>
R B</w>
R ed</w>
R ach
S F
S I</w>
S C</w>
S p</w>
S im
S tir
S ME</w>
T r</w>
T ur
T at
T asks</w>
T ena</w>
T GV</w>
U S</w>
U K</w>
U V</w>
U sually</w>
V or
W in
W on
W at
W ell</w>
W estern</w>
X Y
X C</w>
X P</w>
X A</w>
X ue</w>
Y W</w>
Y ing</w>
Y ol
Y as
Y ag
Y ork</w>
Y ing
Y EAR</w>
Z W</w>
a g</w>
a th
a ts</w>
a ter</w>
a per
a side</w>
a wards</w>
b 3
b g</w>
b be
b ent</w>
b fa
b ru
b roo
b ars</w>
b 77
b ka</w>
b ron
b orders</w>
c 3
c z</w>
c les</w>
c res
c tional</w>
c table</w>
c rate</w>
d 0
d 4
d ang
d am
d min
d ining</w>
d frac
d ering</w>
d ream</w>
d 970
e k</w>
e ur
e sum</w>
e ls</w>
e ss
e 92
e fly</w>
e gar</w>
e 2f
e ducation</w>
e 4b
e sel</w>
e mail</w>
e pest</w>
f g</w>
f re
f ts</w>
f ba
f red</w>
f 26
f ying</w>
f way</w>
f lying</w>
g al
g an</w>
g ol
g are
g rows</w>
g ton</w>
g spot</w>
h á
h um
h ang
h end</w>
h id</w>
h im
h ini
i h
i ss
i ders</w>
i ca</w>
i fication</w>
i di</w>
j ar
j ana</w>
k ö
k at</w>
k as</w>
k ling</w>
k store</w>
l u</w>
l on</w>
l low
m o</w>
m on</w>
m ine</w>
m ory</w>
n y
n C</w>
n p</w>
n á</w>
n an
n ear</w>
o j
o w
o g</w>
p 1</w>
p se
p un
p ine</w>
p li
p each</w>
p lu
p ants</w>
p ans</w>
p qr</w>
p sto</w>
q x</w>
q ing</w>
r um
r ff</w>
s 0</w>
s do
s or</w>
s par
s low
s cen
s sion</w>
s ks</w>
s coun
s lower</w>
s tern</w>
s sel</w>
t on
t ural</w>
t re</w>
t ya</w>
t ute</w>
t frac
t ná</w>
u k
u f</w>
u ine</w>
u li
u sible</w>
u bka</w>
v r
v č
v re
v ac
v ature</w>
w 1</w>
w spa
w ages</w>
x 3</w>
x f</w>
y o
y ar
y ed</w>
y ab
z o</w>
z in
z en</w>
z one</w>
z eb
z ette</w>
z ubka</w>
z yab
° C</w>
é r</w>
í k</w>
ć a</w>
č a</w>
č lan</w>
ч а</w>
th a</w>
th out</w>
in x</w>
an o</w>
an is
an ten
an dro
er a</w>
er as
er able</w>
ti st</w>
ti tions</w>
ti ents</w>
ti red</w>
ti led</w>
ti ger</w>
ar ma
ar sh
ar ena</w>
te ed</w>
te as
te ctor</w>
ra z
ra č
ra s</w>
ra w</w>
ra ble</w>
ra ls</w>
ra cing</w>
le k</w>
le vi
le ment</w>
le ases</w>
le ni
re pe
re ment</w>
re comm
re memb
re members</w>
re store</w>
re cep
re distribute</w>
re cru
re sear
re cently</w>
re venue</w>
al y</w>
al lo
al located</w>
al gorithm</w>
ri l</w>
ri cul
on wards</w>
on ovich</w>
en ter</w>
en ci
en gin
en rolled</w>
en velo
po li
po urs</w>
po lice</w>
po stage</w>
po lis</w>
si c</w>
si te</w>
si me
si bility</w>
si bir
si xes</w>
si lent</w>
ro id</w>
qu id</w>
di a</w>
di mi
di mes</w>
di als</w>
di fied</w>
di um</w>
di date</w>
di gging</w>
di dn</w>
di esel</w>
fo vá</w>
se at
se ys</w>
se mes
se ille</w>
se cre
ma les</w>
ma ze</w>
ma sco
ma sk</w>
ma kers</w>
ma psto</w>
co b</w>
co ts</w>
co di
co pies</w>
la y</w>
la ws</w>
la sts</w>
la sses</w>
la titud
la sted</w>
su e</w>
su ng
su sta
su ffici
su dden
gh ters</w>
gh nut</w>
wi fe</w>
do r</w>
do ors</w>
do zen</w>
st an</w>
st ard</w>
st rings</w>
lo cally</w>
lo go</w>
lo cking</w>
lo rs</w>
lo yal
lo tte</w>
lo tter
inte ng
un kno
un defined</w>
un decided</w>
un answered</w>
un crossed</w>
un lei</w>
integ rals</w>
am a</w>
am bas
am ong
ho t</w>
ho p</w>
ho st</w>
ho ste
ea st
ea ble</w>
ea 8g</w>
con du
con den
con fe
con tr
con tin
con je
con cep
con cyclic</w>
tri o</w>
tri be</w>
tri ce</w>
be ds</w>
be tter</w>
ver tex
ver sus</w>
tw in</w>
tw ins</w>
or ge
the ory</w>
the ore
the sis</w>
20 90</w>
20 48</w>
20 39</w>
20 46</w>
20 23
20 22
20 502</w>
20 20th</w>
20 16th</w>
20 23x</w>
li č
li ts</w>
li ly</w>
li ty</w>
li ons</w>
li bri
li fe</w>
li tary</w>
li eu
li hood</w>
li cop
li quid</w>
ex ercise</w>
ex pect</w>
ta to</w>
ta ined</w>
ta gged</w>
ta sks</w>
val ve</w>
gi lt</w>
gi tude</w>
cu lt</w>
no st</w>
no se</w>
no ted</w>
no de</w>
no ons</w>
no vel</w>
no tches</w>
no vč
pro cesses</w>
mu tual</w>
mu stard</w>
me ti
me mory</w>
as ph
as cen
as king</w>
de b
de scri
de ep</w>
de sign</w>
de celer
de epest</w>
de tector</w>
10 12</w>
10 20</w>
10 16</w>
10 33</w>
10 31</w>
10 48
10 48</w>
10 59</w>
10 65</w>
10 92</w>
10 101</w>
bo uring</w>
bo il</w>
bo ards</w>
bo iling</w>
pe eled</w>
Wh y</w>
per s
per son
per missible</w>
vi o
to y</w>
to ps</w>
to oth
to mor
fi l
ha m</w>
ha o</w>
ha tters</w>
ur ch</w>
mi xes</w>
mi litary</w>
digi tal</w>
pa tient</w>
res our
ve ssel</w>
lan ded</w>
lan ders</w>
ci al</w>
ci gare
ci stern</w>
ge o
ge 1</w>
par row</w>
dra ch
squ aring</w>
squ ared</w>
ne q
ne k</w>
ne wspa
ch ari
ch es
ch up</w>
ch alleng
ba ker</w>
ba gel</w>
ba dmin
sa ved</w>
sa wto
alle y</w>
ce g</w>
ce a</w>
pri sing</w>
pri sms</w>
divi sions</w>
divi sibility</w>
are v</w>
are tt
tic o</w>
com prising</w>
inter mediate</w>
min is
ng th</w>
ph er</w>
ph in</w>
ph eno
ph arma
ag ricul
pla ins</w>
pla usible</w>
19 12</w>
19 60</w>
19 40</w>
19 55</w>
19 56</w>
19 49</w>
19 54</w>
19 52</w>
19 70</w>
19 66</w>
19 03</w>
19 73</w>
mo o</w>
mo vie</w>
mo dified</w>
Gi uli
bi d</w>
bi a</w>
bi te</w>
bi ased</w>
pi oneers</w>
pi llow
Sol ving</w>
Sol sti
ff er
sol do</w>
De bbi
De vi</w>
De compose</w>
Ex cluding</w>
sm on
he aring</w>
he licop
Pro of</w>
Pro fess
Pro cesses</w>
fun ctional</w>
fa ke</w>
fa vo
pos ter</w>
sho e</w>
sho re</w>
sho wed</w>
du ck</w>
du kes</w>
du pli
fol ding</w>
da mag
da pest</w>
ca b</w>
ca ts</w>
ca bc</w>
tra der</w>
tra ced</w>
tra ing
ud o</w>
ud ine</w>
ru pt</w>
lar ity</w>
cen ds</w>
bu o
bu ying</w>
bu lek</w>
lin ger
lin gton</w>
rou tes</w>
ran ks</w>
nat ure</w>
nat ür
pp ers</w>
pp ear</w>
cor rect
cor din
cor rupt</w>
gra zed</w>
den se</w>
plan k</w>
plan ning</w>
14 b</w>
14 14</w>
14 17</w>
14 cm</w>
14 28</w>
14 34</w>
14 39</w>
14 64</w>
14 99</w>
14 81</w>
14 58</w>
righ tmost</w>
radi an</w>
ali zed</w>
ari k</w>
ck en</w>
ck age</w>
ck ets</w>
ck ie</w>
ad a</w>
ad mi
ad van
ste l
comp ani
produ cing</w>
12 16</w>
12 24</w>
12 30</w>
12 21</w>
12 50</w>
12 12
12 23</w>
12 38</w>
12 54</w>
12 95</w>
12 92</w>
12 74</w>
12 93</w>
12 71</w>
12 321</w>
13 13</w>
13 50</w>
13 60</w>
13 40</w>
13 31</w>
13 41</w>
13 97
13 46</w>
13 65</w>
13 01</w>
13 84</w>
13 68</w>
13 66</w>
13 87</w>
13 903</w>
Ma j
Ma d</w>
Ma tho
sy llables</w>
sc ra
15 x</w>
15 17</w>
15 25</w>
15 60</w>
15 44</w>
kno tes</w>
kno wledge</w>
ac teris
ac cordin
sub sequences</w>
sub spaces</w>
sub string</w>
sub scribe</w>
sub set
sub jects</w>
ele ven</w>
ele vation</w>
sh er</w>
sh light</w>
18 00</w>
18 36</w>
18 78</w>
18 76</w>
18 97</w>
17 00</w>
17 17</w>
17 40</w>
17 80</w>
17 43</w>
17 82</w>
16 16</w>
16 46</w>
16 74</w>
16 93</w>
28 00</w>
28 535</w>
tang yuan</w>
spe wing</w>
we b</w>
we aring</w>
we althy</w>
mid line</w>
25 25</w>
lu xi</w>
fe ct</w>
fe west</w>
fe 5f
Con vert</w>
conta ct</w>
uni versity</w>
Co ins</w>
is ing</w>
is landers</w>
rela y</w>
30 x</w>
30 24</w>
30 25</w>
30 87</w>
30 c9a
scri pt</w>
el ls</w>
el ding</w>
el der</w>
el der
sta ys</w>
sta tes</w>
sta cked</w>
sta dium</w>
27 th</w>
27 85</w>
27 84</w>
oper ates</w>
40 30</w>
40 96</w>
40 07</w>
ten ant</w>
36 0
36 th</w>
36 00</w>
36 42</w>
36 65</w>
36 e2f
AB E</w>
flo wn</w>
flo ck</w>
50 5000</w>
50 0th</w>
50 fba
car go</w>
car ries</w>
ga tes</w>
An tu
An ne</w>
An chu
34 00</w>
34 29</w>
34 54</w>
comm ands</w>
38 38</w>
26 th</w>
26 16</w>
26 77</w>
cro wns</w>
cro iss
equi libri
24 x</w>
24 23</w>
24 55</w>
coun table</w>
29 4a
56 8</w>
56 3</w>
reg arding</w>
ob er</w>
ob li
ob long</w>
46 b19
46 03b
cur vature</w>
39 14</w>
48 4</w>
48 8</w>
48 3</w>
48 2</w>
48 1</w>
48 5</w>
48 th</w>
od bi
47 0</w>
47 7</w>
47 5</w>
47 61</w>
58 a
58 4</w>
58 0</w>
58 6</w>
58 a6
mar ine</w>
il a</w>
il lance</w>
il legible</w>
tr u</w>
tr ying</w>
59 d970
gu st</w>
clo vers</w>
mea dow</w>
67 4</w>
67 9</w>
67 6</w>
67 21</w>
67 89</w>
op uses</w>
op posing</w>
In finite</w>
In ser
In clude</w>
deci sion</w>
grou ped</w>
80 01</w>
89 3b
Am arett
Ch alleng
Ch unlei</w>
pre mi
pre fer
87 6c0
gre e
gre y</w>
hal ved</w>
hal fway</w>
im ed</w>
im por
im plausible</w>
sele ctions</w>
97 3</w>
97 2</w>
97 1</w>
97 6</w>
No t</w>
circum sphere</w>
Po tato</w>
with draw
exce ption</w>
consi sted</w>
lip se</w>
Com mittee</w>
Com mon</w>
cer e
77 8</w>
77 2</w>
77 6</w>
77 77</w>
90 9</w>
90 09</w>
enti er</w>
86 3</w>
86 2</w>
86 1</w>
che wing</w>
che anu</w>
ellip ses</w>
regi onal</w>
ni tro
ni za</w>
ni vers
ni fer</w>
Bo han</w>
Bo hini
stri ke</w>
recei pt</w>
70 8</w>
cla imed</w>
tin ovich</w>
11 12</w>
11 pt</w>
dre ams</w>
hol ders</w>
dis section</w>
dis covered</w>
ki mov</w>
69 8</w>
69 7</w>
non real</w>
sti n</w>
sti tute</w>
jo gs</w>
sco o
chi mes</w>
chi pm
Re cently</w>
hi bi
hi ke</w>
sum med</w>
dec lination</w>
tou ched</w>
out fits</w>
ye l</w>
mat ched</w>
ty pi
ty ya</w>
79 3</w>
79 2</w>
79 1</w>
sto le</w>
sto res</w>
sto rage</w>
chang esum</w>
Ar c</w>
ren tal</w>
ren tly</w>
pu tting</w>
pu lle
Si g
gen uine</w>
lon gitude</w>
ere cted</w>
23 12</w>
boun ce</w>
Be cheanu</w>
dro p</w>
under lined</w>
tan h</w>
respon dence</w>
tro kuta</w>
arc ctg</w>
arc cot</w>
Se e</w>
98 4603b
ju stify</w>
prog am
gener ally</w>
stan tinovich</w>
54 c0
54 321</w>
Mi tya</w>
progres sions</w>
bra ss</w>
blo wn</w>
blo gspot</w>
clu sion</w>
tu be</w>
tu ple</w>
fri ction</w>
men on</w>
proce ssed</w>
multip li
hyper cube</w>
nor ing</w>
nor mally</w>
nor theast</w>
char m</w>
char ges</w>
Mar en</w>
Mar tian</w>
Mar seille</w>
congru ences</w>
ban ner</w>
ban ov</w>
ban knotes</w>
45 00</w>
Di gi
Di pper</w>
Di ana</w>
43 58</w>
sp lits</w>
who le
win dow</w>
win dows</w>
95 bg</w>
simultane ous</w>
atta ch</w>
kilo meter</w>
53 20</w>
53 rd</w>
appro ach
deriva tives</w>
fer ry</w>
inci dent</w>
inci dence</w>
colle ge</w>
colle cting</w>
boo kstore</w>
neigh bouring</w>
73 a
cc c</w>
cc cc</w>
cc 4ca
cc 59d970
homb i</w>
fif teenth</w>
32 y</w>
Cla ire</w>
Cla udine</w>
Jo ey</w>
ven erable</w>
Al though</w>
Al lowed</w>
Al fred</w>
redu ce</w>
redu cing</w>
visi ting</w>
42 16</w>
mil li
92 19</w>
bar ge</w>
dol ph</w>
dol phin</w>
comb ining</w>
work shop</w>
ko g</w>
ko va</w>
ko zyab
expan sions</w>
Tri gon
rt list</w>
whe at</w>
CD M</w>
CD A</w>
Per mu
Per fect</w>
immedi ate</w>
Ro y
Ro man</w>
ron ic</w>
ligh test</w>
fini sher</w>
subtra cting</w>
subtra hend</w>
Trans formations</w>
Trans lating</w>
quar tz</w>
cubi cal</w>
centro ids</w>
La st</w>
La ke</w>
refle ct</w>
refle cts</w>
refle cting</w>
refle ctable</w>
sqrt 7</w>
Pa vel</w>
Pa ckage</w>
Pa yel</w>
numer ous</w>
numer ators</w>
conver sation</w>
Au ction</w>
Au gust</w>
cat ching</w>
pr int</w>
buil dings</w>
Sh en
Sh arik</w>
cli ent</w>
far mer</w>
far things</w>
anti palindromic</w>
quadran ts</w>
Can tor</w>
Can MO</w>
Can didate</w>
To p</w>
To gether</w>
To urnament</w>
Mo tion</w>
Mo ving</w>
bri be</w>
bri cks</w>
bri efly</w>
sen ator</w>
sli p</w>
sli ces</w>
tor n</w>
cra tes</w>
Le i
Le e</w>
fli ppy</w>
foot balls</w>
like lihood</w>
fill pen</w>
fill ér</w>
perpendicu larly</w>
pra vo
recor ds</w>
sup seteq</w>
compu tes</w>
compu ters</w>
Ber tha</w>
Ra di
Ra vin
Ra tionalize</w>
Ra iders</w>
kin a</w>
kin o</w>
sou theast</w>
The ory</w>
tai lors</w>
656 8</w>
Li u</w>
annu lus</w>
motor boat</w>
big circ</w>
ABCD EFGH
factori als</w>
Jan ous</w>
approxima tion</w>
approxima tions</w>
CO ND</w>
Sci ence</w>
Sci ences</w>
Wi thout</w>
stic ally</w>
disc arded</w>
assig ning</w>
counter examples</w>
120 4</w>
120 8</w>
Mari e</w>
Mari o</w>
Ni ko
Ru le</w>
Ru banov</w>
Ru dolph</w>
quadru p
down wards</w>
down ward</w>
ction ery</w>
zi zubka</w>
temper atures</w>
one ic</w>
quanti tative</w>
craw ling</w>
07 84</w>
Un certain</w>
morn ings</w>
spo ke</w>
za k
revol ving</w>
weigh ed</w>
Ja ckie</w>
fla shlight</w>
offi cer</w>
offi cers</w>
Char lie</w>
Char lotte</w>
Char acteris
Bei bei</w>
En zo</w>
Lu luxi</w>
dd fe5f
loo ks</w>
compe tes</w>
cel laneous</w>
after wards</w>
after noons</w>
guaran tees</w>
guaran teed</w>
AM B</w>
Che ck</w>
Fin al</w>
Pi cture</w>
Pi zizubka</w>
logi es</w>
propos ers</w>
deli ons</w>
fav or</w>
330 9</w>
Hu bei</w>
bur g</w>
bur ning</w>
yi elding</w>
dot sc</w>
pack age</w>
off ers</w>
some where</w>
Constru ctions</w>
hu a</w>
ther n</w>
hor n</w>
mista king</w>
back pack</w>
hel met</w>
gue sses</w>
Satur days</w>
648 0</w>
Dani elle</w>
Jen nifer</w>
ast ron
ast roid</w>
gall on</w>
uti lity</w>
cher oo</w>
acqua inted</w>
predi ction</w>
Petro vna</w>
657 1</w>
867 53</w>
Fol ge</w>
Gu ide</w>
cre atures</w>
ry e</w>
sna ke</w>
invol ve</w>
invol ves</w>
trise ctors</w>
dep th</w>
declar ed</w>
swim mer</w>
1e g</w>
980 1</w>
Ca o</w>
Ka bulek</w>
Pri me</w>
Ri go</w>
Vit aly</w>
ket chup</w>
stre ngth</w>
met als</w>
mech anis
illu sions</w>
Bro ther</w>
Bro ken</w>
Ivan ovich</w>
dan delions</w>
sle ep</w>
exi sting</w>
vehi cles</w>
shoo ting</w>
fortun e</w>
climb ing</w>
Bet ya</w>
Dar lington</w>
Eu cli
Lo ve</w>
bc 280
any one</w>
lef trightarrow</w>
leg al</w>
ref ers</w>
situ ations</w>
concer ning</w>
des cends</w>
dele te</w>
topo logies</w>
pizz as</w>
Conne cting</w>
mark ers</w>
mark ings</w>
Intern et</w>
Mid point</w>
Mid dle</w>
Diag ram</w>
Claudi o</w>
organiz er</w>
competi tions</w>
diamon d
announ cing</w>
Clar ification</w>
Don key</w>
Fa bi
fd 2d
sla v</w>
tre at</w>
resist or</w>
encoun tered</w>
dio phantine</w>
assem ble</w>
depart ment</w>
mix ing</w>
geq 1</w>
accu rate</w>
Andre y</w>
Andre j</w>
surve illance</w>
AAAA AAAA
Serge y</w>
mechani cal</w>
Speci fy</w>
2b 50fba
4d 8f
Bor ya</w>
Cor respondence</w>
Poly nomi
Vla dimi
Wu han</w>
air lines</w>
adu lt</w>
ben ch</w>
dea ler</w>
ela p
ela stically</w>
oa ks</w>
see ing</w>
see ms</w>
materi als</w>
devi ation</w>
mode ls</w>
soli do</w>
dau ghters</w>
accomp lice</w>
Indi ans</w>
pub lic</w>
justi fied</w>
Maruš a</w>
Alex ei</w>
chamele ons</w>
celebra tion</w>
celebra te</w>
3d 54c0
AF B</w>
Bu dapest</w>
CA L</w>
Ed en</w>
El lipse</w>
Er naldo</w>
Er nie</w>
Go od</w>
Mis cellaneous</w>
Mis fortune</w>
Pal ace</w>
Pal kino</w>
Sum s</w>
evi l</w>
evi dent</w>
emer ald</w>
jer a</w>
of 5</w>
ski p</w>
vin egar</w>
sec tional</w>
vers al</w>
105 cc4ca
bije ctive</w>
cab bage</w>
addres ses</w>
accommo dation</w>
constra ints</w>
Chri st
directri ces</w>
Reg ardless</w>
anticipa te</w>
Cheburash kas</w>
analo g</w>
123456 789</w>
manufact uring</w>
manufact ured</w>
Dor mouse</w>
Equa tion</w>
Ga zette</w>
Nor thern</w>
Vol ume</w>
Vol fová</w>
bd f</w>
wrest lers</w>
alli ance</w>
alli ances</w>
suit cases</w>
suit case</w>
stu d</w>
hear t</w>
submi t</w>
colli sion</w>
monoli th</w>
monoli ths</w>
Novo tná</w>
Novo sibir
bloo ms</w>
Divi sion</w>
Necess ary</w>
Necess arily</w>
Guang zhou</w>
trouble some</w>
trouble makers</w>
AH SME</w>
Ali da</w>
Bea trice</w>
Bil ly</w>
Dou ghnut</w>
Flo ra</w>
He idi</w>
Mir cea</w>
Pra tyya</w>
Phi l</w>
Ras kina</w>
SE COND</w>
Wol f</w>
aver ages</w>
clar i
ja ck</w>
kne e</w>
rin kets</w>
talle st</w>
rail way</w>
encry pted</w>
royal ties</w>
disa ppear</w>
diffi cult</w>
where as</w>
stori es</w>
conju gate</w>
libr ary</w>
circula tion</w>
profess ors</w>
meer kat</w>
fire fighter</w>
butt on</w>
electri cal</w>
shil lings</w>
nick els</w>
discu ssing</w>
stitu tion</w>
Regi onal</w>
current projection</w>
Paralle logram</w>
Roman ia</w>
king dom</w>
kug la</w>
derange ment</w>
slee ps</w>
Corre ct</w>
Alexan der</w>
Zhen ya</w>
SOLU TION</w>
evapo rated</w>
illumina ted</w>
Ab sent</w>
Cy ril</w>
Care less</w>
Esti mate</w>
Fun ction</w>
Four th</w>
Gree ce</w>
Hon za</w>
Hun an</w>
Ir ina</w>
LO CAL</w>
Long leftrightarrow</w>
Min ded</w>
Mexi co</w>
ST AGE</w>
Sen ior</w>
Sam son</w>
Sph inx</w>
Ven u
Wor ld</w>
Zo e</w>
apo them</w>
ace bdf</w>
apri cots</w>
aeb 4d8f
fü r</w>
oct opuses</w>
vrh u</w>
thea ter</w>
enclo sure</w>
lap top</w>
superi or</w>
promo tional</w>
mean ly</w>
micro cars</w>
landri cs</w>
near by</w>
need le</w>
compres sor</w>
fort night</w>
sole ly</w>
accumula ted</w>
elect ronic</w>
Comb ina
47d 893b
arithme tico</w>
opini ons</w>
hypo thesis</w>
long rightarrow</w>
Dio phantine</w>
mantis sa</w>
expli cit</w>
Pavlo vna</w>
New ton</w>
senten ce</w>
Earth ling</w>
discre te</w>
quick ly</w>
thick ness</w>
analog ous</w>
123456789 10
Sloven ia</w>
ingredi ents</w>
busine ss</w>
0ad 36e2f
819 0g</w>
Ashe ville</w>
Bran ko</w>
Bob i</w>
Cur rently</w>
Dy lan</w>
Dir k</w>
Dil linger
Dong dong</w>
Dunde e</w>
Equ als</w>
Fres h</w>
Hat ter</w>
Hau sdo
Iri sh</w>
Jun e</w>
Ker stin</w>
Kra kozyab
Kon stantinovich</w>
Kha cha
Lari ssa</w>
Nin i</w>
Nast ya</w>
Oct ober</w>
Ode tte</w>
Oper ations</w>
Ory ol</w>
Pang u</w>
Pyra mid</w>
Phy si
Qa sim</w>
Stir ling</w>
Tat jana</w>
Vor onovich</w>
Yol ki</w>
Yas mine</w>
Yag a</w>
aper ture</w>
broo d</w>
bron ze</w>
cres cent</w>
eur o</w>
e4b 8190g</w>
f26 105cc4ca
hum ans</w>
hang ing</w>
him self</w>
pun ctu
spar kling</w>
slow ly</w>
scoun dre
yar n</w>
zeb ra</w>
anten na</w>
andro ids</w>
teas po
levi ed</w>
repe titions</w>
recru its</w>
allo y</w>
enci es</w>
engin es</w>
poli ti
seat ings</w>
semes ter</w>
masco ts</w>
latitud e</w>
sung lasses</w>
suffici ently</w>
sudden ly</w>
loyal ty</w>
lotter y</w>
unkno wns</w>
ambas sa
among st</w>
hoste ss</w>
confe ctionery</w>
contr ary</w>
contin ent</w>
vertex s</w>
theore tical</w>
lieu tenant</w>
novč i
asph alt</w>
ascen sion</w>
1048 ea8g</w>
tomor row</w>
cigare ttes</w>
drach mas</w>
ches ts</w>
badmin ton</w>
sawto oth</w>
minis ter</w>
pheno menon</w>
agricul tural</w>
Giuli o</w>
Solsti ce</w>
Debbi e</w>
helicop ter</w>
Profess or</w>
favo rable</w>
damag ed</w>
traing le</w>
natür li
correct ness</w>
Matho polis</w>
accordin gly</w>
30c9a 294a
elder ly</w>
Antu n</w>
Anchu ri
croiss ant</w>
equilibri um</w>
46b19 47d893b
58a6 e4b8190g</w>
Amarett a</w>
Challeng e</w>
876c0 bc280
withdraw al</w>
nitro gen</w>
nivers ary</w>
Bohini ková</w>
chipm unk</w>
pulle ys</w>
984603b 876c0bc280
approach ing</w>
cc59d970 f26105cc4ca
Ravin dra</w>
ABCDEFGH I
Characteris tics</w>
ddfe5f 1048ea8g</w>
mechanis m</w>
fd2d 0ad36e2f
2b50fba 1g</w>
Vladimi r</w>
3d54c0 ceg</w>
Novosibir sk</w>
aeb4d8f ddfe5f1048ea8g</w>
Dillinger ová</w>
Hausdo rff</w>
30c9a294a 58a6e4b8190g</w>
46b1947d893b 2b50fba1g</w>
984603b876c0bc280 95bg</w>
cc59d970f26105cc4ca 1g</w>
fd2d0ad36e2f 3d54c0ceg</w>
0 4
0 c
0 C</w>
0 24</w>
0 30</w>
0 25</w>
0 50</w>
0 40</w>
0 27</w>
0 35</w>
0 26</w>
0 33</w>
0 31</w>
0 80
0 56</w>
0 49</w>
0 39</w>
0 47</w>
0 90
0 53</w>
0 52</w>
0 88</w>
0 95</w>
0 69</w>
0 98</w>
0 08</w>
0 09</w>
1 b</w>
1 z</w>
1 10
1 ce
1 14
1 17
1 100
1 144</w>
1 102</w>
1 103</w>
1 199</w>
1 143</w>
1 126</w>
1 109</w>
1 122</w>
1 152</w>
1 164</w>
1 127</w>
1 132</w>
1 145</w>
1 172</w>
1 154</w>
1 153</w>
1 151</w>
1 187</w>
1 186</w>
1 149</w>
1 136</w>
1 189</w>
1 174</w>
2 e
2 l</w>
2 C</w>
2 j</w>
2 P</w>
2 w</w>
2 be
2 sqrt</w>
2 10
2 28
2 30
2 40
2 26
2 AC</w>
2 101</w>
2 ax</w>
2 999</w>
2 103</w>
2 bc</w>
2 143</w>
2 bp</w>
2 ca</w>
2 208</w>
2 159</w>
2 AF</w>
2 288</w>
2 992</w>
2 401</w>
2 405</w>
2 344</w>
2 261</w>
2 392</w>
2 194</w>
2 173</w>
2 370</w>
2 294</w>
2 161</w>
2 307</w>
2 408</w>
2 291</w>
2 381</w>
3 a
3 e
3 m</w>
3 c</w>
3 f</w>
3 P</w>
3 10
3 cm</w>
3 19</w>
3 13
3 56</w>
3 39</w>
3 120</w>
3 ax</w>
3 bx</w>
3 bp</w>
3 106</w>
3 168</w>
3 153</w>
3 375</w>
3 997</w>
3 195</w>
3 507</w>
3 e0
3 194</w>
3 361</w>
3 a8d
3 342</w>
3 em</w>
3 278</w>
3 298</w>
3 592</w>
4 c
4 c</w>
4 f</w>
4 P</w>
4 b</w>
4 B</w>
4 16</w>
4 17</w>
4 21</w>
4 90</w>
4 18
4 28
4 27</w>
4 35</w>
4 26</w>
4 33</w>
4 39
4 42</w>
4 39</w>
4 38</w>
4 47</w>
4 57</w>
4 43</w>
4 ax</w>
4 yz</w>
4 135</w>
4 123</w>
4 130</w>
4 146</w>
4 133</w>
4 154</w>
4 183</w>
4 992</w>
4 289</w>
4 297</w>
4 494</w>
4 302</w>
4 499</w>
4 492</w>
5 a
5 p</w>
5 P</w>
5 A</w>
5 21</w>
5 12
5 32</w>
5 28</w>
5 26</w>
5 55</w>
5 56</w>
5 41</w>
5 39</w>
5 58</w>
5 43</w>
5 1st</w>
5 bb
5 103</w>
5 135</w>
5 124</w>
5 168</w>
5 285</w>
5 384</w>
5 388</w>
5 174</w>
5 294</w>
5 468</w>
5 252</w>
5 277</w>
5 1eg</w>
6 e
6 p
6 f</w>
6 P</w>
6 A</w>
6 20</w>
6 11</w>
6 16</w>
6 14</w>
6 30</w>
6 cm</w>
6 19</w>
6 60</w>
6 13
6 22</w>
6 45</w>
6 36</w>
6 40
6 32</w>
6 28</w>
6 33</w>
6 37</w>
6 48</w>
6 56</w>
6 42</w>
6 49</w>
6 39</w>
6 64</w>
6 99</w>
6 53</w>
6 51</w>
6 81</w>
6 57</w>
6 43</w>
6 65</w>
6 68</w>
6 3x</w>
6 82</w>
6 106</w>
6 1996</w>
6 134</w>
6 167</w>
6 267</w>
6 507</w>
6 344</w>
6 261</w>
6 399</w>
6 368</w>
6 370</w>
6 346</w>
6 407</w>
6 372</w>
6 299</w>
6 495</w>
6 462</w>
6 1a
6 54321</w>
7 a
7 e
7 f
7 g</w>
7 y</w>
7 n</w>
7 24</w>
7 17</w>
7 21</w>
7 14
7 15
7 22</w>
7 40</w>
7 45</w>
7 27</w>
7 24
7 55</w>
7 37</w>
7 42</w>
7 53</w>
7 52</w>
7 57</w>
7 58</w>
7 43</w>
7 59</w>
7 200</w>
7 82</w>
7 67</w>
7 83</w>
7 54
7 208</w>
7 1997</w>
7 373</w>
8 a
8 y</w>
8 14</w>
8 25</w>
8 21</w>
8 19</w>
8 15
8 32</w>
8 27</w>
8 28</w>
8 80</w>
8 55</w>
8 41</w>
8 44</w>
8 38</w>
8 54</w>
8 47</w>
8 51</w>
8 57</w>
8 58</w>
8 85</w>
8 84</w>
8 88</w>
8 pt</w>
8 83</w>
8 204</w>
8 348</w>
8 em</w>
8 283</w>
8 ae
8 461</w>
9 c
9 s</w>
9 n</w>
9 z</w>
9 12</w>
9 15</w>
9 13</w>
9 14</w>
9 25</w>
9 19</w>
9 50</w>
9 40</w>
9 28
9 45</w>
9 36</w>
9 35</w>
9 26</w>
9 31</w>
9 42</w>
9 64</w>
9 53</w>
9 51</w>
9 52</w>
9 58</w>
9 59</w>
9 66</w>
9 89</w>
9 69</w>
9 67</w>
9 181</w>
9 372</w>
A h
A i
A v
A 8</w>
A l</w>
A I</w>
A L</w>
A J</w>
A ra
A ce</w>
A cu
A eri
A ya</w>
A round</w>
A PC</w>
A CE</w>
A ED</w>
A FG</w>
A SS</w>
A CP</w>
A muse
B D
B T
B r
B é
B 5</w>
B ir
B right</w>
B ol
B all</w>
B us</w>
B lin
B ly
B orn
B lue</w>
B CO
B uses</w>
B OP</w>
B AF</w>
B MO</w>
B CDE</w>
B BB</w>
B AF
B MC</w>
C G
C S
C T
C 8</w>
C y</w>
C r</w>
C o</w>
C Y</w>
C ra
C re
C lo
C ars</w>
C ul
C MN</w>
C PA</w>
C RO
C ZS</w>
C eline</w>
C zak
D U
D r
D G</w>
D K</w>
D J</w>
D in
D an</w>
D am
D BC</w>
D ori
D und
D ut
D FG</w>
D BA</w>
D rinkets</w>
E g
E I</w>
E P</w>
E B</w>
E L</w>
E lo
E ver
E vi
E ss
E AC</w>
E len
E aster</w>
E LI
E DU
F E</w>
F le
F li
F old</w>
F ace</w>
F elsius</w>
G C</w>
G D</w>
G B</w>
G re
G al
G en
G ang
G ag
G us</w>
G ray</w>
G ran
G ab
G ang</w>
G reen</w>
G ina</w>
G GR
G BKL</w>
G rum
G CMN</w>
H E
H i
H S</w>
H M</w>
H T</w>
H Q</w>
H as</w>
H ong</w>
H allow
H ear
H ong
I 5</w>
I S</w>
I C</w>
I M</w>
I ng
I ber
I AD
J e
J ar
J ur
J im
J ap
J ones</w>
J ing
J ür
K C</w>
K an
K al
K am
K ran
K ev
K yle</w>
K ris</w>
K nights</w>
K SI</w>
K IS</w>
L I</w>
L um
L ya</w>
L ab
L MN</w>
L eng</w>
M D
M y
M M</w>
M ou
M ag
M AB</w>
M ori
M ere
M ee
M use
M rs</w>
M NC</w>
M ulti
M ama</w>
N j
N u
N 2</w>
N a</w>
N S</w>
N P</w>
N B</w>
N T</w>
N on</w>
N ame</w>
N eri
N eder
N ELI
O R
O u
O E</w>
O L</w>
O H</w>
O Y</w>
O ther</w>
O BC</w>
O ru
O dre
O pen</w>
O xy</w>
O mit
P a</w>
P i</w>
P O</w>
P lan
P BC</w>
P ut</w>
P op
P AD</w>
P CA</w>
P asha</w>
P eg
P resident</w>
P IAD
Q B</w>
Q A</w>
Q ing</w>
Q AB</w>
Q BP</w>
R E
R R
R T
R ů
R 1</w>
R C</w>
R D</w>
R an
R en
R am
R ol
R igh
R ED</w>
R ya
S P
S p
S G</w>
S R</w>
S in
S la
S ho
S mu
S equ
S ou
S pi
S BC</w>
S ca
S ure</w>
S ally</w>
S we
S hal
S hi
S end
S outh</w>
S pan
S COR
S parrow</w>
T V
T y
T 0</w>
T M</w>
T T</w>
T X</w>
T en
T ro
T ed</w>
T un
T all</w>
T ou
T ext</w>
T ere
T ina</w>
T ara</w>
T EMATI
T NY
U V
U r
U ly
U ma</w>
U AR
V 0
V E</w>
V in
V 00
W V
W R</w>
W u</w>
W er
W ho
W ere</w>
W il
W ater</w>
W ells</w>
X z
X B</w>
X Head</w>
Y Z</w>
Y es</w>
Y ur
Y ash
Y ang</w>
Y HQ</w>
Z m
Z r
Z a</w>
Z ho
Z or
Z hao</w>
a 4
a j
a w
a er
a su
a ba
a ff
a ed
a 50
a 87
a bola</w>
a ctors</w>
a ko</w>
a 1g</w>
a sures</w>
a ffect</w>
b n</w>
b o</w>
b z</w>
b re
b ing</w>
b an</w>
b low
b ff
b ud
b bb</w>
b 25
b ni
b 82
b 1f
b 547
b reed</w>
b suit</w>
b 6a
b site</w>
c 4
c on</w>
c ea
c bf</w>
c are
c red</w>
c ance</w>
c age</w>
c 87
c 79
c 74
c cot</w>
c reases</w>
c ines</w>
c tible</w>
c 8g</w>
c tivity</w>
c BG
c ashi
d 9
d n
d r</w>
d al
d vi
d ents</w>
d ari
d 18
d 24
d ined</w>
d ni
d 42
d la</w>
d one
d 1e
d 5g</w>
d frac12</w>
d frac14</w>
d ffc
d urch</w>
d cats</w>
e i
e x</w>
e v</w>
e ce</w>
e ine</w>
e cu
e ff
e du
e ding</w>
e tic</w>
e lu
e 67
e dition</w>
e man
e break
e yes</w>
e 31
e 105
e tir
e sus</w>
e dam</w>
e ffect</w>
e 7f9
f es</w>
f alle
f 37
f 49
f 84
f end
f bb
f atten
f ands</w>
f eder
f ashi
g r
g ő</w>
g lo
g les</w>
g non</w>
g ni
g ang</w>
g gers</w>
g dan
g ym</w>
g orge
h r</w>
h x</w>
h in
h ers</w>
h ph
h ares</w>
h 27
h uan</w>
h ard
h 313
i a
i g
i k
i p</w>
i ri
i ence</w>
i ten</w>
i cal</w>
i ced</w>
i ties</w>
i ff</w>
i sto
i ka</w>
i mpli
i yangyang</w>
i ano</w>
j A
j z
j k</w>
j u</w>
j et</w>
j iang</w>
j anja</w>
k k
k v
k c</w>
k f</w>
k an</w>
k un
k ci
k not</w>
k mo
k ni
k app
k han
k ör
k arev</w>
l j
l do</w>
l via</w>
m á
m é
m c</w>
m ma
m ir
m ind</w>
m ou
m ous</w>
m land</w>
m buses</w>
m Top</w>
m jera</w>
n 4</w>
n 3</w>
n 5</w>
n t</w>
n 6</w>
n P</w>
n ol
n ad
n ore</w>
n mid</w>
n il
n je
n ings</w>
n ines</w>
n ight
n arrow</w>
n ady</w>
o h</w>
o le
o ts</w>
o en</w>
o am
o pa
o times</w>
o king</w>
o ren
o van
o slav</w>
o mous</w>
p é
p 2</w>
p y</w>
p r</w>
p o</w>
p um
p ers</w>
p ly</w>
p per
p ment</w>
p 28
p most</w>
p ings</w>
p ron
p pears</w>
p lu</w>
p ík</w>
r brace</w>
r vert</w>
r rr</w>
r hombi</w>
s w
s x</w>
s re
s ve</w>
s al</w>
s an</w>
s ind</w>
s sible</w>
s mo
s ore</w>
s days</w>
s wal
s pu
s sive</w>
s tered</w>
s woman</w>
t ö
t le
t ine</w>
t to
t rema
t ance</w>
t als</w>
t less</w>
t led</w>
t ants</w>
t ory</w>
t Right</w>
t chen</w>
t meti
u ra
u lea
u ser</w>
u reen</w>
v s</w>
v on</w>
v ir
v ea
v ent</w>
v ad
v ni
v jer
w ag
w ed
w ear</w>
w ound</w>
w agon</w>
w ands</w>
x 4
x x</w>
x limits</w>
y u</w>
y en
y age</w>
y ey</w>
y ball</w>
y na</w>
y limits</w>
y lor</w>
z L
z á
z y</w>
z er</w>
z en
z in</w>
z he
z il</w>
é s
é s</w>
í na</w>
ö g</w>
ă ila</w>
č era</w>
č kog</w>
č etir
š i</w>
š te</w>
š ite</w>
ž a</w>
ž bi</w>
ț i</w>
Л О
и з</w>
к а</w>
р о
ш а</w>
№ 5</w>
ﬂ ip</w>
th en
th west</w>
th fully</w>
in n</w>
in si
in et</w>
in ct</w>
in ting</w>
in tly</w>
in stan
in sufficient</w>
in centers</w>
in ven
in centre</w>
in ating</w>
in tra</w>
in puts</w>
in vesti
in duction</w>
in stitution</w>
in vad
an tom</w>
an ol</w>
an niversary</w>
an huan</w>
er ine</w>
er mi
er ting</w>
er ous</w>
er ation</w>
er ov</w>
er lock</w>
er asures</w>
ti a</w>
ti f</w>
ti gh
ti ling</w>
ti gers</w>
ar t</w>
ar m</w>
ar in</w>
ar tic
ar rows</w>
ar ings</w>
ar tists</w>
ar tist</w>
te m
te cks</w>
te acu
te chnical</w>
te kmo
ra d</w>
ra tive</w>
ra tion
ra ins</w>
ra ttle</w>
ra jz
ra ldo</w>
le cu
le tting</w>
le ep</w>
le ton</w>
le ctures</w>
le swoman</w>
le yball</w>
re y</w>
re co
re li
re no
re cyc
re fu
re ty
re frac
re cent</w>
re covered</w>
re ference</w>
re arrange</w>
re ports</w>
re di</w>
re mark
re view</w>
re stored</w>
re tire</w>
re bounds</w>
re leases</w>
re tained</w>
re vea
al le</w>
al th</w>
al ties</w>
al low</w>
al og</w>
ri d
ri st</w>
ri ce</w>
ri ch
ri ors</w>
ri ses</w>
ri bb
ri bs</w>
ri fication</w>
ri cher</w>
ri dden</w>
on is</w>
on ds</w>
on ey</w>
on est</w>
on going</w>
en a
en in
en ro
en da
en gra
en ey</w>
en tation</w>
en counter
en close</w>
po d</w>
po st
po or</w>
po sa
po sters</w>
si y</w>
si a</w>
si li
si lls</w>
si ties</w>
ro v</w>
ro wer</w>
ro thy</w>
qu es</w>
um gray</w>
um mers</w>
di v
di g</w>
di c</w>
di th</w>
di ver
di rect
di sh
di verse</w>
fo g</w>
fo un
fra me</w>
se st
se ss</w>
se wing</w>
se ville</w>
se ssion</w>
ma tively</w>
ma il
ma tters</w>
ma sses</w>
ma ssive</w>
co a</w>
co pi
co ali
co sting</w>
co rate</w>
co ul
co bb
co sec</w>
co ach</w>
co sines</w>
co smon
co coa</w>
la w
la h</w>
la p</w>
la ce</w>
la ten
la dies</w>
ang gang</w>
gh ong</w>
wi t
Th a
Th ose</w>
Th ink</w>
do bi
do ctors</w>
do va</w>
do kimov</w>
ir regular</w>
ir ley</w>
ir matively</w>
poin tpen</w>
ter s
ter ri
ter ly</w>
ter race</w>
ter ature</w>
ter taining</w>
st on</w>
st le</w>
st um
st am
st rea
st ment</w>
st ure</w>
st rang
st ination</w>
st ron
st ures</w>
lo e</w>
lo so
lo ams</w>
lo sses</w>
lo ids</w>
lo morphic</w>
lo zen
un te
un con
un certain</w>
un able</w>
un painted</w>
un folded</w>
un usual</w>
un occupied</w>
un fortunately</w>
un countable</w>
un touched</w>
un recovered</w>
integ ration</w>
am bu
am ic</w>
am use
am onds</w>
ho ok</w>
ho use
ho ckey</w>
ho mbuses</w>
ho lomorphic</w>
ol s</w>
ol ina</w>
ol hat
ol ína</w>
con y</w>
con st</w>
con text</w>
con so
con sul
con fer
con current</w>
con sume</w>
con soli
tri č
tri k</w>
tri al</w>
tri vi
tri section</w>
tri via</w>
tri ggers</w>
be at</w>
be ts</w>
be ars</w>
be arings</w>
ver ts</w>
ver sho
or a</w>
or arrowsize</w>
20 i</w>
20 60</w>
20 40</w>
20 32</w>
20 35</w>
20 26</w>
20 44</w>
20 64</w>
20 47</w>
20 99</w>
20 51</w>
20 43</w>
20 84</w>
20 70</w>
20 88</w>
20 61</w>
20 83</w>
20 76</w>
20 74</w>
20 95
20 14th</w>
20 23rd</w>
20 5320</w>
li ft</w>
li gi
li ps</w>
li ste
li ance</w>
li ves</w>
li ze</w>
li shed</w>
li cations</w>
li qiang</w>
li tre</w>
li lah</w>
li terature</w>
ex circle</w>
ex plan
ex posed</w>
ex plains</w>
ex ecu
ta r</w>
ta te</w>
ta ta</w>
ta led</w>
ta pe</w>
ta urs</w>
ta bly</w>
ta xi
ta sty</w>
ta ша</w>
val ves</w>
val ry</w>
gi e</w>
gi t</w>
gi f</w>
gi ant</w>
gi ban
gi fts</w>
posi tion
posi tional</w>
posi tif</w>
no sed</w>
no tations</w>
no logy</w>
no sti</w>
pro be</w>
pro fi
pro ven</w>
pro mi
pro pose</w>
pro spe
ct orarrowsize</w>
sid e
sid ere
sid eline</w>
me đ
me at</w>
me mo
me ant</w>
me et
me ville</w>
as cent</w>
as leep</w>
de al</w>
de an</w>
de com
de ss
de cess
de composed</w>
de signed</w>
de stro
de fend
de corate</w>
de stination</w>
10 y</w>
10 t</w>
10 i</w>
10 b</w>
10 15</w>
10 13</w>
10 25</w>
10 cm</w>
10 50</w>
10 100</w>
10 12
10 34</w>
10 80</w>
10 55</w>
10 37</w>
10 41</w>
10 44</w>
10 38</w>
10 99</w>
10 53</w>
10 63</w>
10 72</w>
10 70</w>
10 89</w>
10 88</w>
10 97</w>
10 71</w>
10 94</w>
10 110</w>
10 155</w>
10 1010</w>
10 iz</w>
bo d</w>
bo ss</w>
bo xed</w>
bo arding</w>
bo dova</w>
tion ers</w>
tion ist</w>
pe z</w>
pe ds</w>
pe ek</w>
pe pper
per in</w>
per bola</w>
per ched</w>
vi ded</w>
vi ous</w>
vi sions</w>
vi sually</w>
to ver</w>
to ward</w>
to čka</w>
to wels</w>
to pmost</w>
to ols</w>
to taled</w>
fi xing</w>
ha ts</w>
ur a</w>
ur sa</w>
mi es</w>
mi chael</w>
mi stry</w>
whi stle</w>
pa ve</w>
pa ved</w>
pa ying</w>
pa stri
pa cking</w>
pa ste</w>
pa stry</w>
pa tients</w>
pa sture</w>
res ted</w>
circ 2</w>
circ 1</w>
ou ts</w>
term inating</w>
ve ctorarrowsize</w>
lan der</w>
ci den
ci ous</w>
ci val</w>
at ts</w>
at mo
ge 2</w>
ge e</w>
ge stures</w>
par ks</w>
par king</w>
par ities</w>
dra in</w>
dra gons</w>
dra ising</w>
ne u
ne g</w>
ne ck
ch t</w>
ch ard</w>
ch enko</w>
ch tecks</w>
ch nology</w>
ba ps</w>
ba bility</w>
ba 356
sa fe
sa cred</w>
sa fes</w>
sa leswoman</w>
alle t</w>
ce um</w>
ce cra
pri ses</w>
pri ced</w>
pri zes</w>
divi dends</w>
are holders</w>
tic ally</w>
com mit
com pound</w>
com mission</w>
com memo
inter ns</w>
inter pre
inter city</w>
min t</w>
min es</w>
ph ones</w>
ag er</w>
over time</w>
over came</w>
pla tinu
19 a</w>
19 20</w>
19 00</w>
19 16</w>
19 30</w>
19 17</w>
19 18</w>
19 19</w>
19 27</w>
19 35</w>
19 34</w>
19 44</w>
19 47</w>
19 53</w>
19 65</w>
19 04</w>
19 01</w>
19 02</w>
rea der</w>
mo bi
mo wers</w>
mo lecu
Gi ovan
Gi raldo</w>
bi k</w>
bi tangent</w>
pi c</w>
pi sm
pi gs</w>
pi vo
pi one
pi ston</w>
dist ur
low ing</w>
low atts</w>
ff ba356
sol ves</w>
De lilah</w>
ord in
ord er
Pro vided</w>
Pro bability</w>
fun dam
fun kci
fun draising</w>
fa cts</w>
fa il
fa 67
fa 77
fa bric</w>
fa culty</w>
pos ted</w>
pos sess</w>
wa r</w>
wa it</w>
wa tered</w>
sho ps</w>
sho ok</w>
du ce</w>
du res</w>
du lj
differ ently</w>
pres cri
fol der</w>
fol dings</w>
for ces</w>
da ted</w>
da wn</w>
da ps</w>
da 786
ca p
ca tive</w>
ca tes</w>
ca fe
ca 27
ca fe</w>
ca 980
ca valry</w>
tra di
tra ce</w>
tra ver
tra cks</w>
tra fil
ru ž
cen taurs</w>
bu tter</w>
bu yer</w>
bu ckets</w>
lin da</w>
lea king</w>
fin ance</w>
fin dings</w>
ran ds</w>
tar ts</w>
tar ily</w>
so b
so e</w>
nat ura
ly ceum</w>
gra te</w>
gra ding</w>
gra ham</w>
pen ter</w>
pen tru</w>
pen gő</w>
pen alties</w>
14 13</w>
14 19</w>
14 15
14 36</w>
14 29</w>
14 80</w>
14 55</w>
14 56</w>
14 49</w>
14 38</w>
14 06</w>
14 47</w>
14 85</w>
14 46</w>
14 72</w>
14 84</w>
14 62</w>
14 78</w>
14 33
14 91</w>
14 71</w>
14 07</w>
14 94</w>
14 64
14 73</w>
14 09</w>
14 06
14 589</w>
14 3309</w>
radi cal</w>
radi os</w>
200 00</w>
ali ties</w>
ari os</w>
ari tmeti
ck a</w>
ck burg</w>
tak o</w>
ad missible</w>
up right</w>
up coming</w>
ste al</w>
ste am</w>
comp ass</w>
produ ctivity</w>
12 i</w>
12 13</w>
12 60</w>
12 90</w>
12 40</w>
12 27</w>
12 33</w>
12 67
12 48</w>
12 41</w>
12 44</w>
12 47</w>
12 51</w>
12 52</w>
12 63</w>
12 70</w>
12 61</w>
12 86</w>
12 78</w>
12 83</w>
12 98</w>
12 91</w>
12 79</w>
12 94</w>
12 10000</w>
12 20000</w>
13 b
13 n</w>
13 10</w>
13 16</w>
13 14</w>
13 17</w>
13 21</w>
13 32</w>
13 33</w>
13 34</w>
13 55</w>
13 75</w>
13 44</w>
13 38</w>
13 99</w>
13 51</w>
13 81</w>
13 57</w>
13 89</w>
13 82</w>
13 69</w>
13 76</w>
13 91</w>
13 97</w>
13 93</w>
13 73</w>
13 09</w>
13 06
13 511</w>
Ma ch</w>
Ma les</w>
Ma ple</w>
Ma themati
Ma gic</w>
Ma ureen</w>
rect um</w>
sc u</w>
sc ent</w>
sc ra</w>
rang ed</w>
inc y</w>
inc ts</w>
inc rement</w>
15 1
15 10</w>
15 20</w>
15 15</w>
15 24</w>
15 30</w>
15 50</w>
15 90</w>
15 45</w>
15 36</w>
15 27</w>
15 33</w>
15 31</w>
15 05</w>
15 75</w>
15 47</w>
15 99</w>
15 51</w>
15 85</w>
15 65</w>
15 72</w>
15 89</w>
15 000</w>
15 87</w>
15 76</w>
15 98</w>
15 79</w>
15 02</w>
15 03</w>
15 73</w>
15 inch</w>
ac ts</w>
ac re</w>
ac ron
ac counted</w>
ac qui
ac 3d
ac ciden
sub grid</w>
sub mitted</w>
sub net</w>
sub stitute</w>
ele ction</w>
ele ctions</w>
ele men
sh u</w>
sh ut
sh kar
sh kova</w>
sh areholders</w>
poly line</w>
poly hedra</w>
18 15</w>
18 18</w>
18 50</w>
18 90</w>
18 40</w>
18 75</w>
18 48</w>
18 06</w>
18 99</w>
18 59</w>
18 72</w>
18 01</w>
18 67</w>
18 92</w>
18 98</w>
17 12</w>
17 30</w>
17 19</w>
17 35</w>
17 29</w>
17 55</w>
17 56</w>
17 44</w>
17 58</w>
17 85</w>
17 72</w>
17 62</w>
17 95</w>
17 96</w>
17 92</w>
17 03</w>
ed er</w>
ed 65
tur yan</w>
16 20</w>
16 15</w>
16 14</w>
16 50</w>
16 34</w>
16 80</w>
16 85</w>
16 68</w>
16 89</w>
16 62</w>
16 95</w>
16 71</w>
16 94</w>
16 73</w>
16 xyz</w>
28 90</w>
28 45</w>
28 57
28 80</w>
28 75</w>
28 48</w>
28 81</w>
28 85</w>
28 79</w>
28 07
28 683</w>
tang erine</w>
es is</w>
colo uring</w>
we ars</w>
we bsite</w>
25 a
25 x</w>
25 20</w>
25 14</w>
25 18</w>
25 21</w>
25 31</w>
25 37</w>
25 99</w>
25 52</w>
25 46</w>
25 84</w>
25 68</w>
25 02</w>
25 71</w>
25 2500</w>
fe el</w>
fe tch</w>
expres sing</w>
uni ty</w>
uni verse</w>
uni versal</w>
Co effici
Co sines</w>
comple tion</w>
rela te</w>
30 0
30 g</w>
30 10</w>
30 12</w>
30 21</w>
30 32</w>
30 05</w>
30 80</w>
30 56</w>
30 42</w>
30 06</w>
30 01</w>
30 000</w>
30 0000</w>
can tly</w>
scri mma
paralle lograms</w>
99 00</w>
99 24</w>
99 92</w>
99 97</w>
el ler</w>
sta y</w>
sta ble</w>
sta kes</w>
sta yed</w>
27 17</w>
27 23</w>
27 49</w>
27 53</w>
27 01</w>
27 76</w>
27 dg</w>
27 549</w>
htt p</w>
oper ated</w>
40 th</w>
40 13</w>
40 18</w>
40 40</w>
40 23</w>
40 45</w>
40 40
40 27</w>
40 48</w>
40 41</w>
40 38</w>
40 54</w>
40 06</w>
40 02</w>
40 03</w>
40 08</w>
40 4000</w>
40 538</w>
ten ds</w>
36 x</w>
36 20</w>
36 30</w>
36 36</w>
36 27</w>
36 53</w>
36 70
36 04</w>
36 01</w>
36 89</w>
36 62</w>
36 96</w>
36 92</w>
AB P</w>
AB FG</w>
flo ating</w>
flo ats</w>
condi tional</w>
condi tionally</w>
condi tioners</w>
50 th</w>
50 30</w>
50 50</w>
50 45</w>
50 35</w>
50 05</w>
50 80</w>
50 000</w>
50 91</w>
50 0000</w>
50 6789</w>
50 6p
car d
car at</w>
car penter</w>
ga ps</w>
ga de</w>
37 2
37 19</w>
37 60</w>
37 22</w>
37 27
37 32</w>
37 37</w>
37 52</w>
37 69</w>
37 ffba356
199 61996</w>
199 71997</w>
An di</w>
An nie</w>
const rain</w>
34 12</w>
34 16</w>
34 30</w>
34 60</w>
34 22</w>
34 31</w>
34 80</w>
34 56</w>
34 64</w>
34 81</w>
34 52</w>
34 220</w>
comm a</w>
38 x</w>
38 00</w>
38 17</w>
38 60</w>
38 36</w>
38 35</w>
38 05</w>
38 48</w>
38 44</w>
38 81</w>
38 83</w>
38 97</w>
38 43
38 08</w>
vol leyball</w>
defin ite
100 m</w>
100 32</w>
100 03</w>
100 94</w>
100 0000</w>
26 33</w>
26 80</w>
26 75</w>
26 72</w>
26 69</w>
cro codi
equi v
equi pped</w>
24 9
24 00</w>
24 24</w>
24 17</w>
24 21</w>
24 45</w>
24 26</w>
24 29</w>
24 89
24 49</w>
24 46</w>
24 91</w>
24 143309</w>
coun tably</w>
29 20</w>
29 90</w>
29 40</w>
29 42</w>
29 59</w>
29 72</w>
29 61</w>
29 07</w>
29 08</w>
56 9</w>
56 2</w>
56 1</w>
56 6</w>
56 40</w>
56 34</w>
56 65</w>
56 f37
reg ula
46 th</w>
46 00</w>
46 57
46 48</w>
col ony</w>
57 55</w>
57 54</w>
57 84</w>
57 1d
57 954</w>
corre ctions</w>
corre cted</w>
dr ummers</w>
cur y</w>
39 20</w>
39 24</w>
39 90</w>
39 23</w>
39 45</w>
39 55</w>
39 86
39 43</w>
39 59</w>
39 ca980
48 7</w>
48 6</w>
48 12</w>
48 31</w>
48 51</w>
48 84</w>
48 03</w>
od ds</w>
od redi</w>
47 4</w>
47 8</w>
47 6</w>
47 00</w>
47 25</w>
47 27</w>
47 37</w>
58 2</w>
58 7</w>
58 32</w>
58 84</w>
58 09</w>
il i</w>
il o</w>
il ls</w>
il de</w>
49 th</w>
49 00</w>
49 17</w>
49 22</w>
49 27</w>
49 35</w>
49 75</w>
49 42</w>
49 51</w>
49 52</w>
49 01</w>
tr o</w>
pendi cular</w>
bal cony</w>
59 x</w>
59 39</w>
59 03</w>
59 8g</w>
go v</w>
cyc lists</w>
clo ver</w>
clo ses</w>
clo cks</w>
clo thing</w>
cd g</w>
67 8</w>
67 0</w>
67 1</w>
67 7</w>
67 16</w>
67 50</w>
67 86</w>
op e</w>
op tional</w>
op tical</w>
In tro
In na</w>
In finitely</w>
In scribe</w>
In dian</w>
In clusion</w>
In done
spa de</w>
spa cing</w>
spa cecra
Fi lipa</w>
deci sions</w>
grou ping</w>
grou pings</w>
80 3</w>
80 9</w>
80 1</w>
80 6</w>
80 16</w>
80 40</w>
80 64</w>
80 08</w>
80 676</w>
80 571d
tru st</w>
tru thfully</w>
jp al</w>
89 4</w>
89 9</w>
89 7</w>
89 6</w>
mon y</w>
mon stra
mon keys</w>
Ch loe</w>
pre vent</w>
pre decess
60 8</w>
60 3</w>
60 2</w>
60 7</w>
60 06</w>
60 02</w>
60 506p
87 9</w>
87 2</w>
87 1</w>
87 6</w>
87 11</w>
87 65</w>
ab ly</w>
ab as</w>
ab cabc</w>
arrang eable</w>
97 4</w>
97 9</w>
97 68</w>
circum circles</w>
circum centre</w>
trans forming</w>
trans fer</w>
Po oh</w>
adj u
cer amic</w>
77 9</w>
77 44</w>
90 4</w>
90 00</w>
90 99</w>
90 46</w>
86 8</w>
86 7</w>
86 5</w>
86 6</w>
86 15</w>
86 42</w>
che lor</w>
che mistry</w>
va ted</w>
va len
va man</w>
ellip tical</w>
ash ing</w>
bise ct</w>
bise cted</w>
tetra hedral</w>
regi stered</w>
geome tri
ni ches</w>
ni ka</w>
Bo y</w>
Bo gdan
Bo ole
Bo tto
sur round</w>
stri kes</w>
sha king</w>
70 3</w>
70 1</w>
70 10</w>
70 35</w>
70 75</w>
70 62</w>
70 07</w>
cla yey</w>
medi umgray</w>
11 b</w>
11 20</w>
11 14</w>
11 21</w>
11 111</w>
Qu estions</w>
Qu inn</w>
Qu incy</w>
dis playing</w>
dis cover</w>
dis counted</w>
dis counts</w>
ki ds</w>
ki ta</w>
ki tten</w>
ki tchen</w>
ki lowatts</w>
69 4</w>
69 3</w>
69 2</w>
69 5</w>
69 30</w>
non constant</w>
non decreasing</w>
non abelian</w>
non trivi
sti an</w>
war riors</w>
trave lling</w>
trave lers</w>
jo kers</w>
jo intly</w>
requ est</w>
represen tative</w>
app lication</w>
chi ck</w>
chi cks</w>
Re pea
Re present</w>
Re member</w>
Re vie
Re gar
Re ulea
Re chtecks</w>
Re duce</w>
Re jpal</w>
color ful</w>
hi king</w>
hi stori
tou gh</w>
tou qiang</w>
wal lops</w>
out puts</w>
fu n</w>
fu sion</w>
je šite</w>
calcula tors</w>
gri ds</w>
ke like</w>
Comp any</w>
quadra tics</w>
distri cts</w>
Sta te</w>
79 7</w>
79 14</w>
79 60</w>
Ar va</w>
Ar naldo</w>
Ar ccot</w>
brea king</w>
ren ts</w>
ren ted</w>
continu ing</w>
pu lled</w>
pu shing</w>
pu ppy</w>
pu rification</w>
distribu tes</w>
Car ds</w>
Car la</w>
Car michael</w>
vo id</w>
vo cational</w>
vo wels</w>
vo yage</w>
tern ary</w>
Si des</w>
cha ins</w>
gen esis</w>
ere ly</w>
frac 23</w>
frac 34</w>
frac 1x</w>
frac 1y</w>
23 18</w>
23 22</w>
23 23</w>
23 45</w>
23 28</w>
23 38</w>
23 51</w>
23 a0
23 c1
sel ler</w>
ser ves</w>
ser ving</w>
participa tion</w>
Be i</w>
Be ka
Be lov</w>
ima ges</w>
under water</w>
33 15</w>
33 00</w>
33 17</w>
33 45</w>
33 28</w>
33 33</w>
33 39</w>
respon d</w>
respon se</w>
respon dents</w>
76 85</w>
tro kut
tro kut</w>
meth anol</w>
ll ment</w>
ll llll</w>
Xi angyang</w>
Xi yangyang</w>
constru ctible</w>
Se th</w>
Se iten</w>
66 55</w>
98 51</w>
98 430</w>
ju k</w>
gener ator</w>
44 10</w>
44 12</w>
44 11</w>
44 90</w>
44 34</w>
speci es</w>
speci fying</w>
54 g</w>
54 30</w>
54 90</w>
54 45</w>
54 37</w>
54 44</w>
54 46</w>
Mi h</w>
Mi lo
Mi ckey</w>
Xia oli
progres sive</w>
88 33</w>
88 44</w>
bra t</w>
bra king</w>
bra cele
blo uses</w>
clu bsuit</w>
tu g</w>
tu bes</w>
fri es</w>
fri end
men o</w>
men tal</w>
men tally</w>
proce dures</w>
65 00</w>
65 57
65 41</w>
65 120
68 87</w>
78 00</w>
char t</w>
char ms</w>
char ging</w>
Mar ty</w>
correspon dence</w>
22 16</w>
22 90</w>
22 22</w>
22 fa77
ban king</w>
len ds</w>
len tina</w>
poten t</w>
45 b
45 15</w>
45 18</w>
45 36</w>
45 42</w>
55 00</w>
55 55</w>
sing les</w>
sing leton</w>
75 58a
Di ameter</w>
Di visi
Di ffer
Di rich
Di amonds</w>
43 50</w>
43 51</w>
43 b1f
sp r
sp y</w>
64 i</w>
64 35</w>
64 48</w>
64 44</w>
94 45</w>
Ti ger</w>
Ti ebreak
win ners</w>
35 29</w>
35 51</w>
bir d</w>
bir ths</w>
man ages</w>
man ager</w>
high ways</w>
atta ined</w>
atta cking</w>
53 24</w>
53 90</w>
swi m</w>
appro a
fle ece</w>
bro je
exp lo
exp lore</w>
boo ts</w>
73 rd</w>
ul i</w>
ul trafil
32 10</w>
32 16</w>
32 18</w>
Cla sh</w>
Cla ssi
Jo ana</w>
Jo san
enum eration</w>
modu lar</w>
83 45</w>
Al i</w>
Al gorithm</w>
pur pose</w>
63 g</w>
63 17</w>
63 19</w>
42 25</w>
42 45</w>
93 50</w>
93 90</w>
IM O
IM PIAD
fal lops</w>
absolu tely</w>
92 18</w>
92 cb
bea con</w>
Dra gan</w>
semi prime</w>
dou b
dou gh</w>
work days</w>
appe aring</w>
ko je</w>
centi meter</w>
black lozen
Tri ath
Per m</w>
Per forming</w>
Per cival</w>
Per pendicular</w>
graph ically</w>
graph ical</w>
21 12</w>
21 11</w>
21 16</w>
21 18</w>
21 60</w>
21 1976</w>
Par t
Par ti
Par ty</w>
Par tial</w>
Par abola</w>
Ro o
Ro ws</w>
Ro tate</w>
fini shing</w>
52 18</w>
Trans lation</w>
plo tted</w>
magi cians</w>
quar terly</w>
shor ts</w>
72 13</w>
La ter</w>
La ura</w>
La vaman</w>
00 000</w>
00 0000</w>
eg yen
cos 4</w>
cos 3</w>
cos 2</w>
cos 7</w>
cos 5</w>
swit cheroo</w>
Pa ir</w>
Pa trik</w>
Pa uli</w>
conver ting</w>
conver ging</w>
bul k</w>
bul b</w>
achie ves</w>
Au stri
cat alog</w>
sea led</w>
intern ational</w>
imagin ed</w>
faul t</w>
faul ts</w>
Sh u</w>
Sh erlock</w>
Sh irley</w>
au th
au ts</w>
far ms</w>
far mland</w>
lat us</w>
provi der</w>
part ner</w>
cent red</w>
Ne ka</w>
To ss</w>
To day</w>
To mo</w>
To karev</w>
coinci dent</w>
05 12</w>
05 23</w>
Mo on</w>
Mo or</w>
So urce</w>
bri gade</w>
sli ppers</w>
six teen</w>
cra b</w>
gla cial</w>
parallelepi peds</w>
Le i</w>
Le ss</w>
Le tters</w>
Le vel</w>
Le mma</w>
Pe pík</w>
Pe tar</w>
popu lations</w>
foot note</w>
MA N</w>
MA TH</w>
MA TEMATI
af 4
pra v
pra iri
stand ards</w>
Ber lov</w>
kin etic</w>
sou p</w>
tai led</w>
addi tionally</w>
656 2</w>
656 1</w>
Li on</w>
Li Angelo</w>
Mon ika</w>
cle aning</w>
ee 30g</w>
motor cyclists</w>
big gest</w>
big ger</w>
big star</w>
ABCD EFG</w>
Sy rup</w>
Sy lvia</w>
sche me</w>
sche ma</w>
mag pie</w>
minimi zes</w>
CO A</w>
Fri days</w>
Sci entists</w>
Wi thin</w>
fron ts</w>
mper ature</w>
tho center</w>
disc ards</w>
coo ked</w>
coo ler</w>
assig nment</w>
mini bus</w>
mini buses</w>
esti ma
organi zation</w>
1f 49
120 9</w>
120 5</w>
Bon nie</w>
Me di
Me dian</w>
Me iyangyang</w>
Me linda</w>
Ni kita</w>
van ic</w>
van je</w>
assum ption</w>
assum ptions</w>
subsequ ently</w>
Ju lie</w>
sci entists</w>
zi lian</w>
mes sages</w>
soci al</w>
soci ation</w>
craw l</w>
Da ily</w>
Da yna</w>
Star t</w>
Ta i
Ta ylor</w>
Un til</w>
bor rower</w>
spo ken</w>
za vr
loa ves</w>
depen dence</w>
parame trically</w>
weigh ted</w>
weigh ings</w>
4a c</w>
4a 7a
8d 4f
Ja va</w>
cb 4
cb a</w>
gro ep</w>
ku tan</w>
inser ts</w>
vie ws</w>
pay ment</w>
obser ver</w>
obser vation</w>
En d
En tertaining</w>
Lu ise</w>
Lu cka</w>
Ste ven</w>
TH H
spi te</w>
loo ked</w>
oli ves</w>
ortho graphic</w>
tick space</w>
tick len</w>
compe te</w>
identi ties</w>
identi fiers</w>
Simi larity</w>
birth days</w>
TIO NS</w>
Ba g</w>
Ba k</w>
Ba ik
Kar l</w>
Kar asu
Kar olína</w>
open s</w>
simp ler</w>
neighbor hood</w>
AM O</w>
AM P</w>
Che ss</w>
Fin als</w>
Pi plu</w>
Te XHead</w>
Te mperature</w>
Uni one</w>
mer cury</w>
main tain</w>
logi cal</w>
deli very</w>
deli ver</w>
deli vers</w>
Ad mission</w>
Hu go</w>
Hu anhuan</w>
Hu anggang</w>
bur row</w>
bur ned</w>
bur ns</w>
bur rows</w>
dar k
dar ts</w>
inst ant</w>
inst alled</w>
dot sm</w>
cdot s
pack aging</w>
place ments</w>
Xiao yu</w>
Joh ny</w>
eccen tric</w>
Are as</w>
GR AD
Pat ness</w>
Vari gnon</w>
evalu ation</w>
evalu ator</w>
evalu ates</w>
fb dffc
swa ps</w>
wat ching</w>
thro wing</w>
intercep ting</w>
Chi cken</w>
symme trically</w>
06 13</w>
3f 4a7a
Bi lion</w>
Cho mp</w>
bat ches</w>
bat teri
cri tic</w>
supp lementary</w>
mista ken</w>
back wards</w>
1234 56</w>
gue ssing</w>
Dani ca</w>
Gra ding</w>
Sele na</w>
der land</w>
der ful</w>
ka ts</w>
usu ally</w>
rever sal</w>
concen tra
pain table</w>
predi ct</w>
preci sion</w>
certain ly</w>
Petro v</w>
Petro vich</w>
356 3</w>
356 7</w>
987 6</w>
Fol lowing</w>
Gu i
Ki m</w>
Ki rov</w>
Ser yo
Ser bia</w>
US D</w>
bf 92cb
c0 a
cre ating</w>
gar land</w>
sna ck</w>
sna il</w>
sna cking</w>
sna kelike</w>
expon ential</w>
sau ce</w>
sau cer</w>
sau cers</w>
sau sages</w>
Inte gers</w>
Inte grate</w>
manu al</w>
manu script</w>
Sub tra
actu al</w>
combina tori
success ors</w>
success fully</w>
shuff le</w>
shuff les</w>
shuff ling</w>
1d 41</w>
448 2</w>
989 5</w>
989 e67
Ka yla</w>
Ka zan</w>
OL IMPIAD
PRO GE
Ri ta</w>
Ri chard</w>
Ri ješite</w>
Vi ka</w>
Vi eta</w>
Ver y</w>
Ver a</w>
ger min
jed er</w>
jed nad
rep lies</w>
rep unit</w>
robo ts</w>
stre ets</w>
stre tched</w>
twel fth</w>
ballo ps</w>
ballo ons</w>
sciss ors</w>
logarith ms</w>
447 7</w>
660 006</w>
697 2</w>
889 1</w>
947 2</w>
App lication</w>
Ivan ight</w>
Ivan ov</w>
don ut</w>
sle pt</w>
ze ls</w>
ze ta</w>
exi stence</w>
shoo ters</w>
Olympi ads</w>
analy sis</w>
2f 989e67
456 3</w>
758 7</w>
880 2</w>
956 7</w>
Bal d</w>
Do rothy</w>
Lo oking</w>
Pr of</w>
Va lentina</w>
ae sti</w>
her d</w>
any where</w>
any angyang</w>
tele port</w>
tele visions</w>
lef tover</w>
ref use</w>
situ ated</w>
trigon ometry</w>
experi ments</w>
custo mers</w>
asteris k</w>
dele ted</w>
dele gate</w>
deposi ts</w>
presen tation</w>
Mid as</w>
Mid Arrow</w>
Diag onal</w>
organiz ing</w>
competi tors</w>
champion ships</w>
669 6</w>
769 1</w>
Ame lie</w>
Bra zil</w>
Bra zilian</w>
Cen tro
Cru soe</w>
Don ut</w>
Don ate
IS K</w>
Sa id</w>
TT O</w>
TT THH
blan kets</w>
fd 2g</w>
gum s</w>
sla do
sla bs</w>
ya ps</w>
thi ck</w>
ant i</w>
restri cted</w>
encoun ters</w>
set minus</w>
depart ments</w>
geq 3</w>
geq q</w>
commu tative</w>
Coun ting</w>
issu es</w>
issu ing</w>
Andre i</w>
happen ing</w>
Meth ods</w>
11111111 1111
11111111 11111111
illustra tion</w>
illustra tes</w>
Speci al</w>
5d 6
CH M</w>
Poly hedron</w>
Poly gons</w>
Rob ert</w>
air plane</w>
air flow</w>
c5 h27
cam ps</w>
frequ encies</w>
won derful</w>
ware houses</w>
zh a</w>
rain less</w>
rain water</w>
enter prises</w>
home town</w>
soli dari
adv ances</w>
Investi gation</w>
Chong qing</w>
surpri sed</w>
hand shaking</w>
Circum circle</w>
appropri ately</w>
mort als</w>
CA TION</w>
Cu bes</w>
Du ckburg</w>
Ed die</w>
Every thing</w>
Is sue</w>
Ke ep</w>
Ku til</w>
Ku čera</w>
Moun t</w>
Ob tuse</w>
Ob serve</w>
Ob scra</w>
San dra</w>
She lly</w>
Tor us</w>
XX X
Ya kut
bun s</w>
cry p
hun t</w>
jer seys</w>
jud ges</w>
jud gments</w>
jud gment</w>
pan cakes</w>
ski ll</w>
intro verts</w>
consum es</w>
exclu ded</w>
assist ance</w>
design ation</w>
minde dly</w>
bije ction</w>
bije ctions</w>
cab inet</w>
accommo date</w>
accommo dated</w>
subst rings</w>
280 b19
mono mial</w>
Chri sten</w>
pret zels</w>
dismi ssed</w>
week ends</w>
belie ves</w>
Colle cted</w>
AD EG</w>
AP EC</w>
AP MC</w>
CE O</w>
Equa tions</w>
Fran c</w>
Fran kin</w>
Ga zeta</w>
Pol and</w>
Run ners</w>
imp ly</w>
imp lies</w>
kut nika</w>
tol l</w>
instru ction</w>
instru cts</w>
instru ctions</w>
legi bly</w>
sear ching</w>
wid ths</w>
stu dies</w>
dedu ce</w>
dedu ction</w>
toč k
toč ke</w>
toč ki</w>
ciph er</w>
smart phones</w>
hear ts</w>
wai ting</w>
upper hyper</w>
upper parab</w>
Mate o</w>
submi ts</w>
elec tric</w>
midd ling</w>
Ant je</w>
colli des</w>
Inter mediate</w>
transfer ring</w>
clai m</w>
stipu lated</w>
octa hedra</w>
bloo ming</w>
Divi dends</w>
Austra lia</w>
Lef tRight</w>
socie ty</w>
Guang touqiang</w>
sandwi ches</w>
7d 63g</w>
As YHQ</w>
As sociation</w>
Aga in</w>
Aga khan
BC EF</w>
BC FG</w>
BF DE</w>
Bil jar
CL ASS</w>
CL cBG
Dan ny</w>
Dou ble</w>
Fo min</w>
Fo xes</w>
Flo or</w>
Jer ry</w>
Jer oen</w>
Mir a</w>
Na than</w>
Na taша</w>
Or der</w>
Or thocenter</w>
Phi loso
Ras kin</w>
Wal ter</w>
Wal ther</w>
aa a</w>
clar ity</w>
fea ture</w>
kne es</w>
talle r</w>
inve st</w>
inve stment</w>
techni ques</w>
rail road</w>
encry ption</w>
royal ty</w>
diffi culty</w>
where ver</w>
conju gates</w>
libr arian</w>
profess or</w>
meer kats</w>
fire truck</w>
draw ings</w>
lower hyper</w>
lower parab</w>
butt ons</w>
123 123</w>
accep ted</w>
accep table</w>
electri fied</w>
shil ling</w>
statis tical</w>
statis tics</w>
nick el</w>
Regi on</w>
Supp lied</w>
Supp lementary</w>
Paralle l</w>
Roman ian</w>
auto mates</w>
derange ments</w>
photo graph</w>
slee ping</w>
Corre cted</w>
publi shed</w>
publi shing</w>
SOLU TIONS</w>
evapo rates</w>
illumina tes</w>
097 3a8d
6d b77
838 dg</w>
838 e105
AE P</w>
Blan ks</w>
Blan ka</w>
Ci o
Cri teria</w>
Cro esus</w>
Ev dokimov</w>
Even lander</w>
Far m</w>
Ha ven</w>
Hen ner</w>
TR U
Tang ent</w>
Tang ents</w>
Ve lov</w>
avo id</w>
bund les</w>
fen cing</w>
iso morphic</w>
meri dian</w>
sz ög</w>
spen ds</w>
spen ding</w>
wra pped</w>
invi ted</w>
invi tees</w>
seven ty</w>
stran ica</w>
hour glass</w>
hour glasses</w>
conven tion</w>
conven ience</w>
extre me</w>
hair y</w>
migra tion</w>
migra tions</w>
path pen</w>
path ticks</w>
attra ction</w>
neg le
neg ligi
primi tive</w>
primi tives</w>
pend ant</w>
pend ants</w>
Math ilde</w>
Andr o</w>
prec inct</w>
prec incts</w>
prepar es</w>
adjo int</w>
adjo ining</w>
signifi cance</w>
signifi cantly</w>
spea ks</w>
ulti mate</w>
converg ent</w>
converg ence</w>
Auth or</w>
Auth ors</w>
clean ed</w>
COR NELI
spot light</w>
spot lights</w>
program mers</w>
flag ship</w>
tickdown length</w>
tickdown base</w>
jedna ko
Ivano vna</w>
Ivano vs</w>
Kost a</w>
Kost ya</w>
20212021 2021</w>
introdu ced</w>
monochro me</w>
monochro matic</w>
Matematic a</w>
Matematic ă</w>
assemb ly</w>
Itali an</w>
Itali ana</w>
estab lish</w>
estab lished</w>
eyeb row</w>
eyeb rows</w>
inhabi tants</w>
AQ RS</w>
AS U</w>
AT C</w>
Ben elu
Cti rad</w>
Cle arly</w>
Clu b</w>
Den is</w>
Dud eney</w>
Eri n</w>
Evalu ation</w>
Fer nan
Festi val</w>
GU I
Gau ss</w>
Gener al</w>
Hy perbola</w>
Hol mes</w>
High er</w>
Hexag on</w>
Im mortals</w>
Mu shkar
Mal oney</w>
Out put</w>
Peri meter</w>
Rach elle</w>
SF U</w>
Sim ple</w>
Tur ks</w>
Win nie</w>
Won derland</w>
Wat son</w>
Ying ying</w>
bru sh</w>
c3 h313
dang erous</w>
fre ight</w>
gal vanic</w>
gol den</w>
oj at
ow ner</w>
pse udo</w>
scen arios</w>
ton ne</w>
uk up
vre meno</w>
zin ka</w>
eras ers</w>
arsh ins</w>
raz lič
rač un
recomm enda
rememb ered</w>
recep tionist</w>
resear ch</w>
envelo pe</w>
sime trič
secre t</w>
susta v</w>
inteng ers</w>
east ward</w>
condu cted</w>
conden ses</w>
conje cture</w>
concep tual</w>
2023 2023</w>
deb ts</w>
descri bing</w>
pers onal</w>
vio lets</w>
tooth picks</w>
resour ces</w>
geo graphic</w>
neq 0</w>
newspa per</w>
chari table</w>
challeng ed</w>
pharma cy</w>
pillow cases</w>
dupli cate</w>
buo y</w>
admi ts</w>
advan ced</w>
compani es</w>
1212 22</w>
1397 0</w>
Maj or</w>
scra tch</w>
subset neq</w>
obli que</w>
odbi janja</w>
Inser t</w>
premi ses</w>
gree ted</w>
impor tant</w>
scoo ps</w>
hibi tion</w>
Sig ma</w>
progam ers</w>
multipli cative</w>
Digi ts</w>
whole tickdown</w>
73a da786
Trigon ometric</w>
Permu tations</w>
Roy ale</w>
Shen ghong</w>
Lei bni
pravo kutnika</w>
Radi cal</w>
Niko la
quadrup lets</w>
astron o
Eucli dean</w>
diamond 3</w>
Fabi an</w>
Polynomi als</w>
elap sed</w>
Christ ine</w>
clari fy</w>
Venu sian</w>
Combina tions</w>
12345678910 1112</w>
Krakozyab ras</w>
Khacha turyan</w>
Physi cal</w>
punctu ation</w>
scoundre l</w>
teaspo ons</w>
politi cian</w>
ambassa dor</w>
novči ća</w>
Anchuri a</w>
ABCDEFGHI J</w>
5bb fbdffc
714 285</w>
9c 3986
928 838dg</w>
Ai meville</w>
Acu te</w>
Aeri th</w>
Amuse ments</w>
Br ăila</w>
Bir git</w>
Bol tai</w>
Blin kets</w>
Bly the</w>
Born a</w>
BCO N</w>
CS SR</w>
Cul ture</w>
CRO ATI
Czak ler</w>
Din esh</w>
Dam iano</w>
Dori n</w>
Dund o</w>
Dut ch</w>
Eg or</w>
Elo die</w>
Ever est</w>
Ess ence</w>
Elen a</w>
EDU CATION</w>
Fle a</w>
Fli p</w>
Gal perin</w>
Gen nady</w>
Gang song</w>
Gag arin</w>
Gran t</w>
Hallow een</w>
Hear ts</w>
Hong shu</w>
Ing ots</w>
Iber oam
Je more</w>
Jar oslav</w>
Jim my</w>
Jap an</w>
Jing jing</w>
Jür gen</w>
Kam ča</w>
Kran j</w>
Kev in</w>
Lum ix</w>
Lab or</w>
My s
Mou seville</w>
Mag gie</w>
Mori tz</w>
Mere dith</w>
Mee ting</w>
Muse um</w>
Multi ply</w>
Nu anyangyang</w>
Neri ssa</w>
Ou ska</w>
Oru e</w>
Omit Tick</w>
Plan e</w>
Pop a</w>
Peg gy</w>
Rů ža</w>
Ren ate</w>
Ram esh</w>
Righ tarrow</w>
Rya zan</w>
Sin y</w>
Sla tina</w>
Sho rtlist</w>
Smu dla</w>
Sou theast</w>
Sca lene</w>
Swe dish</w>
Shal tai</w>
Shi liqiang</w>
Send erov</w>
Span ish</w>
SCOR ING</w>
TV s</w>
Tro kut</w>
Tun dra</w>
Tou rist</w>
Tere shkova</w>
TNY WR</w>
Uly sses</w>
UAR Y</w>
Vin o</w>
Wer ner</w>
Wil dcats</w>
Yur i</w>
Yash chenko</w>
Zr zinka</w>
Zho uf</w>
aba b</w>
aff irmatively</w>
aed cbf</w>
a50 b547
a87 fa67
blow s</w>
b82 e31
b6a 37ffba356
care fully</w>
c87 b6a37ffba356
cashi er</w>
dvi je</w>
d1e 5bbfbdffc
ei gen
edu cational</w>
e7f9 c87b6a37ffba356
falle n</w>
f49 7d63g</w>
fatten ing</w>
feder al</w>
fashi on</w>
glo vers</w>
gni zed</w>
gorge ous</w>
hph antom</w>
hard cover</w>
isto vremeno</w>
kv ass</w>
kni fe</w>
kapp a</w>
mir ro
mou ths</w>
nol ight</w>
nil potent</w>
night m
opa que</w>
oren san</w>
pé n
p28 3670
sw amp</w>
smo oth</w>
spu n</w>
trema l</w>
vjer ojat
wag ons</w>
wed ding</w>
četir i</w>
insi st</w>
instan tane
invad es</w>
ermi ttle</w>
tigh tly</w>
artic les</w>
teacu ps</w>
tekmo vanje</w>
rajz olhat
reco gnized</w>
reli ability</w>
reno vated</w>
recyc led</w>
refu ses</w>
rety ped</w>
refrac tive</w>
remark able</w>
revea led</w>
ribb on</w>
enro llment</w>
encounter ing</w>
posa ble</w>
sili cone</w>
diver ging</w>
dish onest</w>
sest ra</w>
mail men</w>
coali tion</w>
coul dn</w>
cobb lers</w>
cosmon auts</w>
laten t</w>
dobi je</w>
stam ps</w>
strea k</w>
strang er</w>
uncon sci
ambu lance</w>
amuse ment</w>
conso le</w>
confer ences</w>
consoli dation</w>
versho ks</w>
explan ation</w>
taxi cab</w>
giban je</w>
position ing</w>
profi table</w>
promi sing</w>
prospe ctor</w>
sidere al</w>
meet ings</w>
decom posable</w>
dess ert</w>
destro y</w>
defend ants</w>
1012 10001</w>
pepper onis</w>
pastri es</w>
neck lace</w>
safe ly</w>
commit tees</w>
commemo rative</w>
platinu m</w>
mobi le</w>
molecu les</w>
Giovan ni</w>
pivo t</w>
pione er</w>
fundam ental</w>
fail ure</w>
prescri bed</w>
cafe teria</w>
ca27 ac3d
1433 51eg</w>
1464 101210001</w>
aritmeti čkog</w>
1267 ee30g</w>
Mathemati cians</w>
acron ym</w>
acciden tally</w>
elemen tarily</w>
ed65 3f4a7a
Coeffici ent</w>
scrimma ge</w>
4040 000</w>
definite ness</w>
crocodi les</w>
56f37 ca27ac3d
regula tions</w>
39ca980 f497d63g</w>
Indone sia</w>
spacecra ft</w>
80571d 39ca980f497d63g</w>
60506p 24143309</w>
Bogdan ov</w>
Boole an</w>
Botto mTop</w>
nontrivi al</w>
Repea tedly</w>
Revie wer</w>
Regar ding</w>
Reulea ux</w>
histori cal</w>
23c1 bf92cb
Beka h</w>
trokut u</w>
Xiaoli ang</w>
bracele ts</w>
friend ly</w>
22fa77 b82e31
7558a 598g</w>
Divisi bility</w>
Differ ent</w>
Dirich let</w>
Tiebreak er</w>
Classi cal</w>
Josan na</w>
blacklozen ge</w>
Triath lon</w>
MATEMATI CA</w>
prairi e</w>
8d4f 73ada786
Baik al</w>
Karasu k</w>
GRAD ING</w>
batteri es</w>
Seryo zha</w>
combinatori cs</w>
OLIMPIAD I</w>
PROGE TTO</w>
jednad žbi</w>
2f989e67 g</w>
Donate lla</w>
c5h27 60506p24143309</w>
solidari ty</w>
Yakut sk</w>
280b19 a87fa67
Agakhan ov</w>
CLcBG AsYHQ</w>
Philoso pher</w>
0973a8d 23c1bf92cb
6db77 9c3986
838e105 fd2g</w>
negligi ble</w>
CORNELI A</w>
Benelu x</w>
Fernan do</w>
Mushkar ov</w>
c3h313 13
različ iti
recommenda tions</w>
Leibni z</w>
Iberoam erican</w>
a50b547 6db779c3986
d1e5bbfbdffc 7558a598g</w>
e7f9c87b6a37ffba356 4g</w>
rajzolhat ó</w>
ed653f4a7a 838e105fd2g</w>
56f37ca27ac3d 928838dg</w>
22fa77b82e31 1267ee30g</w>
8d4f73ada786 2f989e67g</w>
280b19a87fa67 143351eg</w>
0973a8d23c1bf92cb 27dg</w>
a50b5476db779c3986 d5g</w>
