{"<unk>":0,"!":1,"\"":2,"#":3,"$":4,"%":5,"&":6,"'":7,"(":8,")":9,"*":10,"+":11,",":12,"-":13,".":14,"/":15,"0":16,"1":17,"2":18,"3":19,"4":20,"5":21,"6":22,"7":23,"8":24,"9":25,":":26,";":27,"<":28,"=":29,">":30,"?":31,"@":32,"A":33,"B":34,"C":35,"D":36,"E":37,"F":38,"G":39,"H":40,"I":41,"J":42,"K":43,"L":44,"M":45,"N":46,"O":47,"P":48,"Q":49,"R":50,"S":51,"T":52,"U":53,"V":54,"W":55,"X":56,"Y":57,"Z":58,"[":59,"\\":60,"]":61,"^":62,"_":63,"`":64,"a":65,"b":66,"c":67,"d":68,"e":69,"f":70,"g":71,"h":72,"i":73,"j":74,"k":75,"l":76,"m":77,"n":78,"o":79,"p":80,"q":81,"r":82,"s":83,"t":84,"u":85,"v":86,"w":87,"x":88,"y":89,"z":90,"{":91,"|":92,"}":93,"~":94,"£":95,"§":96,"«":97,"°":98,"±":99,"²":100,"´":101,"·":102,"»":103,"Â":104,"ß":105,"à":106,"á":107,"ã":108,"ä":109,"é":110,"í":111,"î":112,"ó":113,"ö":114,"ú":115,"ü":116,"ă":117,"ć":118,"Č":119,"č":120,"đ":121,"ő":122,"ř":123,"Š":124,"š":125,"ţ":126,"ů":127,"ž":128,"Ș":129,"ș":130,"ț":131,"α":132,"β":133,"π":134,"А":135,"В":136,"Г":137,"Е":138,"Ж":139,"З":140,"И":141,"К":142,"Л":143,"М":144,"Н":145,"О":146,"П":147,"Р":148,"С":149,"Т":150,"У":151,"Х":152,"Ь":153,"Я":154,"а":155,"б":156,"в":157,"г":158,"д":159,"е":160,"ж":161,"з":162,"и":163,"й":164,"к":165,"л":166,"м":167,"н":168,"о":169,"п":170,"р":171,"с":172,"т":173,"у":174,"ч":175,"ш":176,"ы":177,"я":178,"ё":179,"є":180,"ـ":181,"।":182,"—":183,"’":184,"“":185,"”":186,"…":187,"※":188,"€":189,"№":190,"→":191,"∅":192,"∑":193,"√":194,"∞":195,"∩":196,"∪":197,"∫":198,"≡":199,"≤":200,"≥":201,"■":202,"○":203,"、":204,"。":205,"《":206,"》":207,"「":208,"」":209,"【":210,"】":211,"ニ":212,"・":213,"ㄱ":214,"㮡":215,"一":216,"丁":217,"丈":218,"三":219,"上":220,"下":221,"不":222,"且":223,"丙":224,"两":225,"並":226,"个":227,"中":228,"为":229,"之":230,"乐":231,"乘":232,"乙":233,"了":234,"互":235,"五":236,"些":237,"亦":238,"人":239,"他":240,"以":241,"伍":242,"但":243,"位":244,"作":245,"使":246,"保":247,"俱":248,"個":249,"倍":250,"們":251,"值":252,"偶":253,"僧":254,"元":255,"內":256,"兩":257,"六":258,"其":259,"出":260,"分":261,"则":262,"別":263,"則":264,"剛":265,"力":266,"加":267,"动":268,"助":269,"包":270,"區":271,"升":272,"华":273,"印":274,"原":275,"去":276,"参":277,"參":278,"及":279,"取":280,"句":281,"另":282,"只":283,"可":284,"各":285,"同":286,"名":287,"后":288,"告":289,"和":290,"單":291,"因":292,"圓":293,"在":294,"均":295,"多":296,"夠":297,"大":298,"女":299,"好":300,"如":301,"子":302,"字":303,"学":304,"學":305,"它":306,"安":307,"完":308,"实":309,"實":310,"寸":311,"将":312,"對":313,"小":314,"少":315,"尺":316,"尽":317,"居":318,"展":319,"屬":320,"山":321,"差":322,"已":323,"帮":324,"幕":325,"平":326,"序":327,"应":328,"庚":329,"度":330,"座":331,"式":332,"弦":333,"形":334,"得":335,"從":336,"心":337,"您":338,"意":339,"戊":340,"成":341,"或":342,"所":343,"抽":344,"拔":345,"括":346,"指":347,"按":348,"换":349,"掉":350,"排":351,"接":352,"数":353,"整":354,"數":355,"文":356,"方":357,"於":358,"时":359,"明":360,"是":361,"時":362,"最":363,"有":364,"本":365,"杯":366,"果":367,"某":368,"校":369,"根":370,"格":371,"案":372,"條":373,"概":374,"標":375,"樣":376,"機":377,"正":378,"此":379,"段":380,"每":381,"比":382,"水":383,"求":384,"注":385,"源":386,"满":387,"滿":388,"為":389,"爲":390,"率":391,"班":392,"現":393,"球":394,"生":395,"用":396,"由":397,"甲":398,"男":399,"界":400,"畍":401,"留":402,"當":403,"的":404,"皆":405,"盒":406,"目":407,"直":408,"相":409,"知":410,"碼":411,"示":412,"祝":413,"积":414,"程":415,"稱":416,"積":417,"穷":418,"端":419,"等":420,"答":421,"系":422,"組":423,"線":424,"總":425,"终":426,"经":427,"结":428,"罗":429,"翻":430,"而":431,"能":432,"臬":433,"與":434,"若":435,"英":436,"號":437,"行":438,"表":439,"被":440,"裡":441,"要":442,"角":443,"解":444,"設":445,"註":446,"該":447,"證":448,"记":449,"设":450,"译":451,"说":452,"请":453,"負":454,"賽":455,"贺":456,"赛":457,"起":458,"超":459,"足":460,"距":461,"输":462,"过":463,"运":464,"述":465,"這":466,"連":467,"過":468,"選":469,"邊":470,"那":471,"部":472,"都":473,"释":474,"量":475,"金":476,"長":477,"開":478,"間":479,"问":480,"除":481,"隊":482,"隨":483,"隸":484,"集":485,"離":486,"需":487,"非":488,"面":489,"頂":490,"項":491,"项":492,"题":493,"餘":494,"麼":495,"點":496,"ﬀ":497,"ﬁ":498,"ﬂ":499,"（":500,"）":501,"，":502,"：":503,"？":504,"g</w>":505,"4</w>":506,"s</w>":507,"8</w>":508,"0</w>":509,"3</w>":510,"9</w>":511,"2</w>":512,"y</w>":513,"k</w>":514,"l</w>":515,"d</w>":516,"a</w>":517,"1</w>":518,"7</w>":519,"n</w>":520,"e</w>":521,"5</w>":522,"t</w>":523,"6</w>":524,"r</w>":525,"I</w>":526,"作</w>":527,"h</w>":528,"i</w>":529,"*</w>":530,"m</w>":531,"F</w>":532,"G</w>":533,"c</w>":534,"o</w>":535,"為</w>":536,"S</w>":537,"O</w>":538,"些</w>":539,"C</w>":540,"W</w>":541,"f</w>":542,"R</w>":543,"p</w>":544,"爲</w>":545,"j</w>":546,"P</w>":547,"b</w>":548,"w</w>":549,"ă</w>":550,"述</w>":551,"M</w>":552,"子</w>":553,"及</w>":554,"x</w>":555,"Z</w>":556,"D</w>":557,"度</w>":558,"ć</w>":559,"取</w>":560,"Н</w>":561,"u</w>":562,"v</w>":563,"q</w>":564,"%</w>":565,"B</w>":566,"E</w>":567,"数</w>":568,"下</w>":569,"则</w>":570,"答</w>":571,"本</w>":572,"д</w>":573,"L</w>":574,"展</w>":575,"A</w>":576,"帮</w>":577,"比</w>":578,"單</w>":579,"H</w>":580,"各</w>":581,"K</w>":582,"表</w>":583,"分</w>":584,"倍</w>":585,"機</w>":586,"（</w>":587,"原</w>":588,"積</w>":589,"程</w>":590,"樣</w>":591,",</w>":592,"選</w>":593,"保</w>":594,"排</w>":595,"內</w>":596,"《</w>":597,"Y</w>":598,"и</w>":599,"В</w>":600,"？</w>":601,";</w>":602,"T</w>":603,"註</w>":604,"字</w>":605,"在</w>":606,"穷</w>":607,"丁</w>":608,"в</w>":609,"Q</w>":610,"Л</w>":611,"、</w>":612,"N</w>":613,"é</w>":614,"另</w>":615,"量</w>":616,"£</w>":617,"є</w>":618,"名</w>":619,"成</w>":620,"集</w>":621,"只</w>":622,"á</w>":623,"夠</w>":624,"要</w>":625,"U</w>":626,"z</w>":627,"换</w>":628,"庚</w>":629,"相</w>":630,"“</w>":631,"連</w>":632,"杯</w>":633,"č</w>":634,"有</w>":635,"那</w>":636,"告</w>":637,"说</w>":638,"甲</w>":639,"X</w>":640,"参</w>":641,"設</w>":642,"○</w>":643,"ó</w>":644,"过</w>":645,"接</w>":646,"偶</w>":647,"與</w>":648,"结</w>":649,"當</w>":650,"均</w>":651,"²</w>":652,"總</w>":653,"+</w>":654,"а</w>":655,"=</w>":656,"е</w>":657,"於</w>":658,"是</w>":659,"π</w>":660,"α</w>":661,"被</w>":662,"每</w>":663,"运</w>":664,"Ь</w>":665,"抽</w>":666,"题</w>":667,"ő</w>":668,"乙</w>":669,"一</w>":670,"之</w>":671,"您</w>":672,"#</w>":673,"尽</w>":674,"・</w>":675,"系</w>":676,"赛</w>":677,"{</w>":678,"部</w>":679,"校</w>":680,"完</w>":681,"臬</w>":682,"英</w>":683,"麼</w>":684,"■</w>":685,"山</w>":686,"們</w>":687,"隊</w>":688,"的</w>":689,"目</w>":690,"戊</w>":691,".</w>":692,"該</w>":693,"示</w>":694,"请</w>":695,"(</w>":696,"】</w>":697,"М</w>":698,"區</w>":699,"丙</w>":700,"К</w>":701,"「</w>":702,"僧</w>":703,"㮡</w>":704,"≤</w>":705,"丈</w>":706,"学</w>":707,"這</w>":708,"多</w>":709,"界</w>":710,"<</w>":711,"^</w>":712,"女</w>":713,"\\</w>":714,"長</w>":715,"时</w>":716,"行</w>":717,"點</w>":718,"頂</w>":719,"號</w>":720,"線</w>":721,"Х</w>":722,"證</w>":723,"।</w>":724,"—</w>":725,":</w>":726,"）</w>":727,"心</w>":728,"|</w>":729,"除</w>":730,"等</w>":731,"V</w>":732,"加</w>":733,"ú</w>":734,"端</w>":735,"現</w>":736,"條</w>":737,"畍</w>":738,"乐</w>":739,"'</w>":740,"J</w>":741,"求</w>":742,"项</w>":743,")</w>":744,"§</w>":745,"超</w>":746,"升</w>":747,"指</w>":748,"为</w>":749,"«</w>":750,"段</w>":751,"Е</w>":752,"括</w>":753,"裡</w>":754,"組</w>":755,"若</w>":756,"输</w>":757,"※</w>":758,"幕</w>":759,"И</w>":760,"俱</w>":761,"华</w>":762,"方</w>":763,"@</w>":764,"’</w>":765,"应</w>":766,"式</w>":767,"释</w>":768,"圓</w>":769,"負</w>":770,"元</w>":771,"У</w>":772,"Я</w>":773,"稱</w>":774,"已</w>":775,"時</w>":776,"所</w>":777,"：</w>":778,"。</w>":779,"案</w>":780,"≡</w>":781,"去</w>":782,"或</w>":783,"》</w>":784,"需</w>":785,"居</w>":786,"人</w>":787,"位</w>":788,"А</w>":789,"~</w>":790,"句</w>":791,"根</w>":792,"皆</w>":793,"-</w>":794,"項</w>":795,"用</w>":796,"差</w>":797,"學</w>":798,"從</w>":799,"金</w>":800,"贺</w>":801,"互</w>":802,"離</w>":803,"最</w>":804,"賽</w>":805,"З</w>":806,"将</w>":807,"好</w>":808,"∪</w>":809,"实</w>":810,"乘</w>":811,"且</w>":812,"邊</w>":813,"其</w>":814,"Г</w>":815,"积</w>":816,"參</w>":817,"和</w>":818,"碼</w>":819,"面</w>":820,"О</w>":821,"№</w>":822,"六</w>":823,"印</w>":824,"座</w>":825,"兩</w>":826,"ш</w>":827,"я</w>":828,"對</w>":829,"同</w>":830,"五</w>":831,"明</w>":832,"`</w>":833,"知</w>":834,"非</w>":835,"都</w>":836,"值</w>":837,"></w>":838,"他</w>":839,"班</w>":840,"经</w>":841,"助</w>":842,"/</w>":843,"能</w>":844,"ㄱ</w>":845,"按</w>":846,"屬</w>":847,"三</w>":848,"_</w>":849,"它</w>":850,"大</w>":851,"此</w>":852,"形</w>":853,"使</w>":854,"解</w>":855,"開</w>":856,"生</w>":857,"个</w>":858,"伍</w>":859,"以</w>":860,"∑</w>":861,"整</w>":862,"→</w>":863,"∞</w>":864,"±</w>":865,"可</w>":866,"正</w>":867,"问</w>":868,"∫</w>":869,"∩</w>":870,"由</w>":871,"序</w>":872,"弦</w>":873,"平</w>":874,"注</w>":875,"文</w>":876,"寸</w>":877,"起</w>":878,"並</w>":879,"š</w>":880,"實</w>":881,"餘</w>":882,"б</w>":883,"终</w>":884,"м</w>":885,"意</w>":886,"中</w>":887,"≥</w>":888,"»</w>":889,"祝</w>":890,"拔</w>":891,"记</w>":892,"掉</w>":893,"水</w>":894,"安</w>":895,"，</w>":896,"动</w>":897,"男</w>":898,"包</w>":899,"”</w>":900,"則</w>":901,"С</w>":902,"但</w>":903,"距</w>":904,"足</w>":905,"小</w>":906,"別</w>":907,"果</w>":908,"率</w>":909,"球</w>":910,"译</w>":911,"隸</w>":912,"ニ</w>":913,"亦</w>":914,"罗</w>":915,"\"</w>":916,"不</w>":917,"直</w>":918,"角</w>":919,"源</w>":920,"…</w>":921,"翻</w>":922,"Т</w>":923,"&</w>":924,"设</w>":925,"з</w>":926,"]</w>":927,"隨</w>":928,"$</w>":929,"两</w>":930,"[</w>":931,"滿</w>":932,"概</w>":933,"數</w>":934,"满</w>":935,"因</w>":936,"出</w>":937,"間</w>":938,"尺</w>":939,"β</w>":940,"而</w>":941,"標</w>":942,"∅</w>":943,"少</w>":944,"ـ</w>":945,"上</w>":946,"了</w>":947,"剛</w>":948,"盒</w>":949,"?</w>":950,"й</w>":951,"!</w>":952,"過</w>":953,"·</w>":954,"個</w>":955,"格</w>":956,"得</w>":957,"」</w>":958,"后</w>":959,"【</w>":960,"某</w>":961,"如</w>":962,"}</w>":963,"力</w>":964,"留</w>":965,"Р</w>":966,"th":967,"the</w>":968,"in":969,"an":970,"of</w>":971,"er":972,"ti":973,"ar":974,"is</w>":975,"te":976,"ra":977,"le":978,"and</w>":979,"re":980,"al":981,"ri":982,"er</w>":983,"at</w>":984,"on":985,"ts</w>":986,"en":987,"po":988,"on</w>":989,"si":990,"es</w>":991,"le</w>":992,"ro":993,"qu":994,"um":995,"di":996,"in</w>":997,"num":998,"numb":999,"fo":1000,"en</w>":1001,"fra":1002,"ve</w>":1003,"se":1004,"ch</w>":1005,"frac</w>":1006,"ma":1007,"are</w>":1008,"that</w>":1009,"ers</w>":1010,"co":1011,"to</w>":1012,"th</w>":1013,"al</w>":1014,"la":1015,"ing</w>":1016,"ang":1017,"ed</w>":1018,"su":1019,"an</w>":1020,"gh":1021,"wi":1022,"Th":1023,"do":1024,"st</w>":1025,"ir":1026,"wh":1027,"tion</w>":1028,"qua":1029,"poin":1030,"number</w>":1031,"ind</w>":1032,"ght</w>":1033,"be</w>":1034,"ter":1035,"ly</w>":1036,"st":1037,"angle</w>":1038,"lo":1039,"inte":1040,"as</w>":1041,"un":1042,"ce</w>":1043,"integ":1044,"am":1045,"for</w>":1046,"ft</w>":1047,"se</w>":1048,"Find</w>":1049,"ho":1050,"left</w>":1051,"ine</w>":1052,"ere</w>":1053,"right</w>":1054,"The</w>":1055,"ea":1056,"et</w>":1057,"ol":1058,"con":1059,"tri":1060,"be":1061,"ver":1062,"all</w>":1063,"with</w>":1064,"tw":1065,"or</w>":1066,"or":1067,"numbers</w>":1068,"tive</w>":1069,"ent</w>":1070,"the":1071,"te</w>":1072,"quad</w>":1073,"20":1074,"math":1075,"li":1076,"ex":1077,"ta":1078,"val":1079,"rt</w>":1080,"tex":1081,"gi":1082,"sq":1083,"posi":1084,"valu":1085,"sqrt</w>":1086,"cir":1087,"any</w>":1088,"Let</w>":1089,"cu":1090,"no":1091,"qquad</w>":1092,"10</w>":1093,"pro":1094,"positive</w>":1095,"ct":1096,"mu":1097,"two</w>":1098,"points</w>":1099,"cdo":1100,"sid":1101,"me":1102,"as":1103,"rm</w>":1104,"by</w>":1105,"such</w>":1106,"de":1107,"ter</w>":1108,"10":1109,"bo":1110,"point</w>":1111,"one</w>":1112,"each</w>":1113,"tion":1114,"pe":1115,"Wh":1116,"rom</w>":1117,"per":1118,"vi":1119,"me</w>":1120,"triangle</w>":1121,"to":1122,"fi":1123,"value</w>":1124,"line</w>":1125,"ven</w>":1126,"from</w>":1127,"ha":1128,"ur":1129,"les</w>":1130,"ble</w>":1131,"ct</w>":1132,"mi":1133,"ty</w>":1134,"sum</w>":1135,"integer</w>":1136,"whi":1137,"integers</w>":1138,"digi":1139,"pa":1140,"bf</w>":1141,"res":1142,"If</w>":1143,"ree</w>":1144,"can</w>":1145,"equ":1146,"circ":1147,"ou":1148,"it</w>":1149,"mathrm</w>":1150,"What</w>":1151,"term":1152,"many</w>":1153,"then</w>":1154,"12</w>":1155,"ple</w>":1156,"ve":1157,"tions</w>":1158,"ds</w>":1159,"lan":1160,"ci":1161,"real</w>":1162,"at":1163,"ge":1164,"par":1165,"ll</w>":1166,"dra":1167,"squ":1168,"which</w>":1169,"ther</w>":1170,"has</w>":1171,"ents</w>":1172,"ne":1173,"ch":1174,"mes</w>":1175,"text</w>":1176,"ba":1177,"sa":1178,"ction</w>":1179,"ame</w>":1180,"20</w>":1181,"alle":1182,"ce":1183,"pri":1184,"divi":1185,"ted</w>":1186,"three</w>":1187,"text":1188,"wn</w>":1189,"In</w>":1190,"are":1191,"if</w>":1192,"tic":1193,"imu":1194,"com":1195,"imum</w>":1196,"textbf</w>":1197,"Ho":1198,"not</w>":1199,"ence</w>":1200,"there</w>":1201,"times</w>":1202,"11</w>":1203,"inter":1204,"min":1205,"sible</w>":1206,"ng":1207,"equa":1208,"ph":1209,"ag":1210,"over":1211,"pla":1212,"have</w>":1213,"19":1214,"where</w>":1215,"How</w>":1216,"cdots</w>":1217,"side</w>":1218,"rea":1219,"leng":1220,"15</w>":1221,"00</w>":1222,"mo":1223,"circle</w>":1224,"Gi":1225,"cdot</w>":1226,"this</w>":1227,"bi":1228,"sequ":1229,"than</w>":1230,"tis":1231,"area</w>":1232,"pi":1233,"Given</w>":1234,"Sol":1235,"ble":1236,"square</w>":1237,"satis":1238,"dist":1239,"termine</w>":1240,"cho":1241,"dots</w>":1242,"low":1243,"us</w>":1244,"ff":1245,"irst</w>":1246,"lar</w>":1247,"16</w>":1248,"prime</w>":1249,"sol":1250,"Solve</w>":1251,"first</w>":1252,"13</w>":1253,"For</w>":1254,"De":1255,"Ex":1256,"equation</w>":1257,"sm":1258,"he":1259,"BC</w>":1260,"ded</w>":1261,"ord":1262,"digit</w>":1263,"sequence</w>":1264,"diff":1265,"Pro":1266,"row</w>":1267,"other</w>":1268,"circ</w>":1269,"fun":1270,"set</w>":1271,"fa":1272,"ir</w>":1273,"end</w>":1274,"ample</w>":1275,"draw</w>":1276,"ys</w>":1277,"pos":1278,"ss</w>":1279,"wa":1280,"sho":1281,"its</w>":1282,"du":1283,"ray</w>":1284,"sin</w>":1285,"gh</w>":1286,"ment</w>":1287,"differ":1288,"pres":1289,"same</w>":1290,"vely</w>":1291,"fol":1292,"for":1293,"tively</w>":1294,"equal</w>":1295,"da":1296,"so</w>":1297,"Then</w>":1298,"ca":1299,"tra":1300,"ps</w>":1301,"24</w>":1302,"ud":1303,"find</w>":1304,"ru":1305,"digits</w>":1306,"ctly</w>":1307,"he</w>":1308,"lar":1309,"interse":1310,"possible</w>":1311,"array</w>":1312,"ur</w>":1313,"Determine</w>":1314,"follow":1315,"ls</w>":1316,"tes</w>":1317,"14</w>":1318,"gin</w>":1319,"cos</w>":1320,"length</w>":1321,"smalle":1322,"cen":1323,"lant</w>":1324,"bu":1325,"blem</w>":1326,"slant</w>":1327,"qslant</w>":1328,"30</w>":1329,"overline</w>":1330,"lin":1331,"ral</w>":1332,"rou":1333,"17</w>":1334,"ces</w>":1335,"ld</w>":1336,"pi</w>":1337,"een</w>":1338,"sed</w>":1339,"max":1340,"lea":1341,"fin":1342,"ran":1343,"function</w>":1344,"ldots</w>":1345,"tween</w>":1346,"tt":1347,"will</w>":1348,"satisf":1349,"tar":1350,"between</w>":1351,"so":1352,"nat":1353,"maximum</w>":1354,"pp":1355,"25</w>":1356,"ly":1357,"ong</w>":1358,"cor":1359,"gra":1360,"ight</w>":1361,"roo":1362,"cm</w>":1363,"begin</w>":1364,"18</w>":1365,"red</w>":1366,"pec":1367,"ural</w>":1368,"following</w>":1369,"these</w>":1370,"values</w>":1371,"form</w>":1372,"21</w>":1373,"natural</w>":1374,"ck</w>":1375,"ments</w>":1376,"ge</w>":1377,"den":1378,"plan":1379,"labe":1380,"ins</w>":1381,"exa":1382,"ure</w>":1383,"four</w>":1384,"pen":1385,"solu":1386,"19</w>":1387,"14":1388,"50</w>":1389,"different</w>":1390,"wri":1391,"righ":1392,"radi":1393,"smallest</w>":1394,"200":1395,"de</w>":1396,"Example</w>":1397,"tarrow</w>":1398,"ali":1399,"choo":1400,"ari":1401,"ck":1402,"ding</w>":1403,"sides</w>":1404,"rightarrow</w>":1405,"AB</w>":1406,"ally</w>":1407,"100</w>":1408,"exactly</w>":1409,"ta</w>":1410,"60</w>":1411,"top</w>":1412,"angles</w>":1413,"label</w>":1414,"minimum</w>":1415,"tak":1416,"pha</w>":1417,"ad":1418,"was</w>":1419,"how</w>":1420,"alpha</w>":1421,"up":1422,"ard</w>":1423,"ten</w>":1424,"respec":1425,"Problem</w>":1426,"ste":1427,"seg":1428,"into</w>":1429,"respectively</w>":1430,"comp":1431,"later":1432,"produ":1433,"sion</w>":1434,"ular</w>":1435,"ina":1436,"12":1437,"cula":1438,"dth</w>":1439,"tal</w>":1440,"bili":1441,"lateral</w>":1442,"secon":1443,"ss":1444,"alcula":1445,"ters</w>":1446,"width</w>":1447,"ting</w>":1448,"pose</w>":1449,"fter</w>":1450,"given</w>":1451,"13":1452,"what</w>":1453,"Ma":1454,"rema":1455,"rect":1456,"stud":1457,"mp":1458,"CD</w>":1459,"sy":1460,"wer</w>":1461,"ori":1462,"when</w>":1463,"radius</w>":1464,"sc":1465,"bility</w>":1466,"grea":1467,"90</w>":1468,"ABC</w>":1469,"ance</w>":1470,"rang":1471,"log</w>":1472,"day</w>":1473,"least</w>":1474,"second</w>":1475,"them</w>":1476,"plane</w>":1477,"Sup":1478,"inc":1479,"15":1480,"their</w>":1481,"proba":1482,"Suppose</w>":1483,"22</w>":1484,"thema":1485,"id</w>":1486,"kno":1487,"ac":1488,"mul":1489,"sub":1490,"ore</w>":1491,"probability</w>":1492,"als</w>":1493,"satisfy</w>":1494,"gure</w>":1495,"gest</w>":1496,"very</w>":1497,"no</w>":1498,"ele":1499,"base</w>":1500,"thematic":1501,"sh":1502,"ves</w>":1503,"only</w>":1504,"poly":1505,"18":1506,"leq</w>":1507,"mathbf</w>":1508,"40</w>":1509,"ways</w>":1510,"ors</w>":1511,"rough</w>":1512,"und</w>":1513,"ask</w>":1514,"chool</w>":1515,"we</w>":1516,"int</w>":1517,"tten</w>":1518,"vertic":1519,"total</w>":1520,"largest</w>":1521,"time</w>":1522,"17":1523,"Task</w>":1524,"ed":1525,"tur":1526,"tic</w>":1527,"leqslant</w>":1528,"sul":1529,"distin":1530,"out</w>":1531,"16":1532,"product</w>":1533,"remain":1534,"23</w>":1535,"written</w>":1536,"through</w>":1537,"28":1538,"ving</w>":1539,"ant</w>":1540,"resul":1541,"ose</w>":1542,"tang":1543,"let</w>":1544,"they</w>":1545,"It</w>":1546,"es":1547,"play":1548,"does</w>":1549,"form":1550,"more</w>":1551,"45</w>":1552,"bb</w>":1553,"spe":1554,"tional</w>":1555,"shown</w>":1556,"every</w>":1557,"ary</w>":1558,"colo":1559,"mathbb</w>":1560,"distinct</w>":1561,"we":1562,"mid":1563,"ze</w>":1564,"ered</w>":1565,"Mathematic":1566,"25":1567,"lu":1568,"ver</w>":1569,"vertices</w>":1570,"cts</w>":1571,"fe":1572,"expres":1573,"distance</w>":1574,"height</w>":1575,"Con":1576,"ares</w>":1577,"conta":1578,"order</w>":1579,"uni":1580,"alculate</w>":1581,"der</w>":1582,"known</w>":1583,"Co":1584,"comple":1585,"students</w>":1586,"36</w>":1587,"is":1588,"On</w>":1589,"rela":1590,"30":1591,"re</w>":1592,"ths</w>":1593,"less</w>":1594,"can":1595,"swer</w>":1596,"scri":1597,"were</w>":1598,"paralle":1599,"gin":1600,"dot</w>":1601,"both</w>":1602,"terms</w>":1603,"99":1604,"ks</w>":1605,"ome":1606,"el":1607,"sta":1608,"27":1609,"sing</w>":1610,"squares</w>":1611,"divisible</w>":1612,"htt":1613,"oper":1614,"per</w>":1615,"40":1616,"ten":1617,"com</w>":1618,"test</w>":1619,"deno":1620,"https</w>":1621,"36":1622,"32</w>":1623,"mb":1624,"AB":1625,"ax":1626,"bol":1627,"flo":1628,"age</w>":1629,"condi":1630,"divided</w>":1631,"50":1632,"car":1633,"rati":1634,"ordina":1635,"bed</w>":1636,"ga":1637,"overrightarrow</w>":1638,"37":1639,"ctions</w>":1640,"ffi":1641,"ear</w>":1642,"199":1643,"roots</w>":1644,"ned</w>":1645,"An":1646,"igh</w>":1647,"diag":1648,"coordina":1649,"const":1650,"pas":1651,"eri":1652,"There</w>":1653,"34":1654,"wor":1655,"some</w>":1656,"ratio</w>":1657,"uld</w>":1658,"quad":1659,"comm":1660,"scribed</w>":1661,"38":1662,"cular</w>":1663,"satisfi":1664,"gs</w>":1665,"star":1666,"pair":1667,"lengths</w>":1668,"segment</w>":1669,"multi":1670,"ou</w>":1671,"thir":1672,"abo":1673,"cted</w>":1674,"vol":1675,"meters</w>":1676,"figure</w>":1677,"27</w>":1678,"35</w>":1679,"ons</w>":1680,"after</w>":1681,"defin":1682,"Calculate</w>":1683,"whose</w>":1684,"peri":1685,"100":1686,"geqslant</w>":1687,"ses</w>":1688,"28</w>":1689,"26":1690,"cy":1691,"cro":1692,"nomi":1693,"equi":1694,"his</w>":1695,"cube</w>":1696,"24":1697,"ume</w>":1698,"mid</w>":1699,"lines</w>":1700,"polynomi":1701,"floor</w>":1702,"ved</w>":1703,"third</w>":1704,"School</w>":1705,"ined</w>":1706,"our</w>":1707,"tangent</w>":1708,"Ea":1709,"coun":1710,"minu":1711,"common</w>":1712,"29":1713,"but</w>":1714,"rando":1715,"Mathematics</w>":1716,"26</w>":1717,"56":1718,"satisfies</w>":1719,"AC</w>":1720,"igh":1721,"ke</w>":1722,"When</w>":1723,"reg":1724,"asy</w>":1725,"pair</w>":1726,"center</w>":1727,"non</w>":1728,"ob":1729,"rectangle</w>":1730,"cal</w>":1731,"ople</w>":1732,"board</w>":1733,"people</w>":1734,"circles</w>":1735,"Each</w>":1736,"46":1737,"tition</w>":1738,"col":1739,"pped</w>":1740,"57":1741,"ns</w>":1742,"syste":1743,"ffici":1744,"ced</w>":1745,"ms</w>":1746,"up</w>":1747,"answer</w>":1748,"five</w>":1749,"intersects</w>":1750,"corre":1751,"ws</w>":1752,"dr":1753,"zer":1754,"solutions</w>":1755,"33</w>":1756,"cur":1757,"system</w>":1758,"39":1759,"34</w>":1760,"31</w>":1761,"High</w>":1762,"angular</w>":1763,"ches</w>":1764,"48":1765,"29</w>":1766,"she</w>":1767,"ut</w>":1768,"repres":1769,"od":1770,"ying</w>":1771,"tex</w>":1772,"pairs</w>":1773,"47":1774,"58":1775,"mar":1776,"ya</w>":1777,"drawn</w>":1778,"il":1779,"size</w>":1780,"sider</w>":1781,"1000</w>":1782,"led</w>":1783,"table</w>":1784,"face</w>":1785,"solution</w>":1786,"axis</w>":1787,"theta</w>":1788,"arith":1789,"49":1790,"vertex</w>":1791,"example</w>":1792,"range</w>":1793,"inf":1794,"relatively</w>":1795,"ABCD</w>":1796,"tr":1797,"ars</w>":1798,"sets</w>":1799,"metic</w>":1800,"05</w>":1801,"petition</w>":1802,"alig":1803,"infty</w>":1804,"you</w>":1805,"term</w>":1806,"divis":1807,"sph":1808,"rilateral</w>":1809,"pendi":1810,"bal":1811,"use</w>":1812,"parallel</w>":1813,"59":1814,"gu":1815,"ite":1816,"origin":1817,"perpendi":1818,"go":1819,"od</w>":1820,"speed</w>":1821,"tric</w>":1822,"equations</w>":1823,"cyc":1824,"also</w>":1825,"must</w>":1826,"pie":1827,"greater</w>":1828,"odd</w>":1829,"ate</w>":1830,"clo":1831,"meter</w>":1832,"rans":1833,"regular</w>":1834,"arithmetic</w>":1835,"bla":1836,"tain</w>":1837,"quadrilateral</w>":1838,"reas":1839,"ame":1840,"As</w>":1841,"cd":1842,"mea":1843,"mal</w>":1844,"triangles</w>":1845,"parti":1846,"des</w>":1847,"game</w>":1848,"ctor</w>":1849,"greatest</w>":1850,"volume</w>":1851,"67":1852,"op":1853,"line":1854,"measu":1855,"80</w>":1856,"In":1857,"spa":1858,"res</w>":1859,"ality</w>":1860,"last</w>":1861,"who</w>":1862,"2024</w>":1863,"lls</w>":1864,"ad</w>":1865,"secu":1866,"determine</w>":1867,"midpoint</w>":1868,"Fi":1869,"orn":1870,"result</w>":1871,"cdn</w>":1872,"ties</w>":1873,"diagon":1874,"deci":1875,"take</w>":1876,"55</w>":1877,"75</w>":1878,"grou":1879,"low</w>":1880,"consecu":1881,"polynomial</w>":1882,"linewidth</w>":1883,"80":1884,"emp":1885,"pe</w>":1886,"tru":1887,"cards</w>":1888,"37</w>":1889,"jp":1890,"hedr":1891,"satisfying</w>":1892,"89":1893,"Am":1894,"mon":1895,"way</w>":1896,"elements</w>":1897,"operat":1898,"original</w>":1899,"Consider</w>":1900,"correct</w>":1901,"jpg</w>":1902,"Ch":1903,"pre":1904,"mathpi":1905,"cropped</w>":1906,"mathpix</w>":1907,"48</w>":1908,"60":1909,"gon</w>":1910,"56</w>":1911,"even</w>":1912,"expression</w>":1913,"defined</w>":1914,"41</w>":1915,"ges</w>":1916,"dir</w>":1917,"und":1918,"87":1919,"ither</w>":1920,"edge</w>":1921,"lies</w>":1922,"minutes</w>":1923,"perpendicular</w>":1924,"42</w>":1925,"gre":1926,"hal":1927,"inscribed</w>":1928,"geq</w>":1929,"remainder</w>":1930,"We</w>":1931,"ab":1932,"get</w>":1933,"ist</w>":1934,"198":1935,"zero</w>":1936,"consecutive</w>":1937,"49</w>":1938,"complex</w>":1939,"39</w>":1940,"am</w>":1941,"ey</w>":1942,"im":1943,"inde":1944,"tation</w>":1945,"cei":1946,"intersect</w>":1947,"44</w>":1948,"coins</w>":1949,"At</w>":1950,"did</w>":1951,"proble":1952,"balls</w>":1953,"AD</w>":1954,"sym":1955,"sele":1956,"cess":1957,"perimeter</w>":1958,"ite</w>":1959,"six</w>":1960,"proper":1961,"problem</w>":1962,"hedron</w>":1963,"64</w>":1964,"arrang":1965,"part</w>":1966,"neq</w>":1967,"segments</w>":1968,"above</w>":1969,"97":1970,"No":1971,"king</w>":1972,"38</w>":1973,"54</w>":1974,"bola</w>":1975,"orname</w>":1976,"operatorname</w>":1977,"half</w>":1978,"On":1979,"her</w>":1980,"had</w>":1981,"formed</w>":1982,"son</w>":1983,"zo":1984,"dire":1985,"verage</w>":1986,"circum":1987,"nega":1988,"sen</w>":1989,"chosen</w>":1990,"effici":1991,"trans":1992,"negative</w>":1993,"After</w>":1994,"Po":1995,"with":1996,"beta</w>":1997,"equality</w>":1998,"et":1999,"oun":2000,"exce":2001,"06</w>":2002,"47</w>":2003,"99</w>":2004,"km</w>":2005,"tan</w>":2006,"ants</w>":2007,"coeffici":2008,"consi":2009,"days</w>":2010,"cks</w>":2011,"multiple</w>":2012,"along</w>":2013,"lip":2014,"difference</w>":2015,"adj":2016,"ameter</w>":2017,"average</w>":2018,"ga</w>":2019,"ctors</w>":2020,"Com":2021,"black</w>":2022,"cer":2023,"urs</w>":2024,"constant</w>":2025,"sphere</w>":2026,"partici":2027,"77":2028,"ger</w>":2029,"90":2030,"do</w>":2031,"exist</w>":2032,"intersection</w>":2033,"ked</w>":2034,"enti":2035,"53</w>":2036,"51</w>":2037,"Tw":2038,"pezo":2039,"alled</w>":2040,"fore</w>":2041,"acent</w>":2042,"estion</w>":2043,"adjacent</w>":2044,"86":2045,"ases</w>":2046,"che":2047,"cannot</w>":2048,"2x</w>":2049,"fine</w>":2050,"sce":2051,"va":2052,"your</w>":2053,"ellip":2054,"81</w>":2055,"called</w>":2056,"place</w>":2057,"grap":2058,"trapezo":2059,"ning</w>":2060,"yra":2061,"could</w>":2062,"exis":2063,"ash":2064,"placed</w>":2065,"bise":2066,"exists</w>":2067,"remaining</w>":2068,"coordinates</w>":2069,"52</w>":2070,"57</w>":2071,"unit</w>":2072,"among</w>":2073,"Competition</w>":2074,"Two</w>":2075,"hy":2076,"pyra":2077,"tetra":2078,"ous</w>":2079,"58</w>":2080,"85</w>":2081,"regi":2082,"old</w>":2083,"geome":2084,"sosce":2085,"denote</w>":2086,"conditions</w>":2087,"ellipse</w>":2088,"sosceles</w>":2089,"43</w>":2090,"ni":2091,"sts</w>":2092,"necess":2093,"space</w>":2094,"trapezoid</w>":2095,"59</w>":2096,"Bo":2097,"iti":2098,"contains</w>":2099,"graph</w>":2100,"exag":2101,"ation</w>":2102,"sig":2103,"sur":2104,"stri":2105,"200</w>":2106,"ap":2107,"isosceles</w>":2108,"sha":2109,"twi":2110,"recei":2111,"always</w>":2112,"condition</w>":2113,"aligned</w>":2114,"cycle</w>":2115,"empty</w>":2116,"pyramid</w>":2117,"either</w>":2118,"hexag":2119,"tement</w>":2120,"functions</w>":2121,"twice</w>":2122,"46</w>":2123,"70":2124,"cla":2125,"ound</w>":2126,"perfe":2127,"takes</w>":2128,"omega</w>":2129,"reasing</w>":2130,"lus</w>":2131,"ute</w>":2132,"val</w>":2133,"rational</w>":2134,"medi":2135,"ould</w>":2136,"most</w>":2137,"faces</w>":2138,"smaller</w>":2139,"coordinate</w>":2140,"equilateral</w>":2141,"tin":2142,"lue</w>":2143,"11":2144,"Qu":2145,"dre":2146,"ples</w>":2147,"inequality</w>":2148,"hol":2149,"colum":2150,"long</w>":2151,"dis":2152,"hours</w>":2153,"player</w>":2154,"blue</w>":2155,"over</w>":2156,"box</w>":2157,"65</w>":2158,"ma</w>":2159,"uan</w>":2160,"lie</w>":2161,"should</w>":2162,"04</w>":2163,"120</w>":2164,"63</w>":2165,"ki":2166,"solving</w>":2167,"tetrahedron</w>":2168,"perfect</w>":2169,"round</w>":2170,"cting</w>":2171,"white</w>":2172,"ok</w>":2173,"wise</w>":2174,"This</w>":2175,"units</w>":2176,"bol</w>":2177,"while</w>":2178,"para":2179,"decimal</w>":2180,"symbol</w>":2181,"obta":2182,"certain</w>":2183,"holds</w>":2184,"69":2185,"non":2186,"sti":2187,"war":2188,"would</w>":2189,"water</w>":2190,"trave":2191,"72</w>":2192,"jo":2193,"another</w>":2194,"requ":2195,"divides</w>":2196,"rectangular</w>":2197,"random</w>":2198,"bles</w>":2199,"lud":2200,"Prove</w>":2201,"ination</w>":2202,"represen":2203,"group</w>":2204,"One</w>":2205,"01</w>":2206,"84</w>":2207,"app":2208,"mly</w>":2209,"sco":2210,"moves</w>":2211,"randomly</w>":2212,"70</w>":2213,"dsymbol</w>":2214,"school</w>":2215,"ext</w>":2216,"chi":2217,"turns</w>":2218,"boldsymbol</w>":2219,"divisors</w>":2220,"property</w>":2221,"geometric</w>":2222,"Re":2223,"year</w>":2224,"equals</w>":2225,"move</w>":2226,"color":2227,"Figure</w>":2228,"hi":2229,"ner</w>":2230,"sum":2231,"dec":2232,"tou":2233,"ous":2234,"true</w>":2235,"68</w>":2236,"wal":2237,"ordered</w>":2238,"color</w>":2239,"da</w>":2240,"hea":2241,"sin":2242,"being</w>":2243,"list</w>":2244,"turn</w>":2245,"item</w>":2246,"tinu":2247,"min</w>":2248,"sh</w>":2249,"out":2250,"root</w>":2251,"element</w>":2252,"66</w>":2253,"89</w>":2254,"fu":2255,"je":2256,"var":2257,"ye":2258,"Three</w>":2259,"veral</w>":2260,"posite</w>":2261,"Whi":2262,"person</w>":2263,"new</w>":2264,"Exam":2265,"grade</w>":2266,"88</w>":2267,"From</w>":2268,"calcula":2269,"gri":2270,"mat":2271,"amoun":2272,"62</w>":2273,"ke":2274,"plus</w>":2275,"shi":2276,"Comp":2277,"ty":2278,"using</w>":2279,"around</w>":2280,"team</w>":2281,"once</w>":2282,"rows</w>":2283,"down</w>":2284,"lim</w>":2285,"tical</w>":2286,"interval</w>":2287,"subsets</w>":2288,"passing</w>":2289,"pieces</w>":2290,"inside</w>":2291,"quadra":2292,"2021</w>":2293,"distri":2294,"small</w>":2295,"expressed</w>":2296,"000</w>":2297,"ki</w>":2298,"lfloor</w>":2299,"pon":2300,"rfloor</w>":2301,"yuan</w>":2302,"initi":2303,"ans</w>":2304,"tely</w>":2305,"increa":2306,"Question</w>":2307,"Sta":2308,"made</w>":2309,"make</w>":2310,"edges</w>":2311,"resulting</w>":2312,"without</w>":2313,"quadratic</w>":2314,"79":2315,"ff</w>":2316,"fproble":2317,"msolving</w>":2318,"next</w>":2319,"pt</w>":2320,"arto":2321,"sto":2322,"stra":2323,"conne":2324,"below</w>":2325,"city</w>":2326,"chang":2327,"obtained</w>":2328,"Which</w>":2329,"Examination</w>":2330,"grid</w>":2331,"fproblemsolving</w>":2332,"artofproblemsolving</w>":2333,"mpi":2334,"rd</w>":2335,"diameter</w>":2336,"aga":2337,"finite</w>":2338,"erican</w>":2339,"Ar":2340,"ball</w>":2341,"brea":2342,"iden":2343,"much</w>":2344,"curve</w>":2345,"surface</w>":2346,"Statement</w>":2347,"kes</w>":2348,"ren":2349,"ends</w>":2350,"several</w>":2351,"hour</w>":2352,"continu":2353,"increasing</w>":2354,"coefficients</w>":2355,"3x</w>":2356,"61</w>":2357,"able</w>":2358,"dy</w>":2359,"pu":2360,"fraction</w>":2361,"mathcal</w>":2362,"perp</w>":2363,"American</w>":2364,"oc":2365,"ences</w>":2366,"2016</w>":2367,"lice</w>":2368,"cells</w>":2369,"82</w>":2370,"put</w>":2371,"cone</w>":2372,"deg":2373,"moving</w>":2374,"tting</w>":2375,"try</w>":2376,"95</w>":2377,"off</w>":2378,"tud":2379,"wing</w>":2380,"position</w>":2381,"determ":2382,"paper</w>":2383,"years</w>":2384,"distribu":2385,"degree</w>":2386,"86</w>":2387,"ev":2388,"uring</w>":2389,"price</w>":2390,"measure</w>":2391,"hexagon</w>":2392,"bes</w>":2393,"dfrac</w>":2394,"tly</w>":2395,"max</w>":2396,"large</w>":2397,"piece</w>":2398,"ram</w>":2399,"diagonals</w>":2400,"index</w>":2401,"amount</w>":2402,"96</w>":2403,"Car":2404,"ior</w>":2405,"pen</w>":2406,"vo":2407,"vari":2408,"ino":2409,"ining</w>":2410,"arri":2411,"tern":2412,"triangular</w>":2413,"been</w>":2414,"vex</w>":2415,"divisor</w>":2416,"transla":2417,"region</w>":2418,"All</w>":2419,"Si":2420,"cha":2421,"gen":2422,"dition</w>":2423,"php</w>":2424,"cated</w>":2425,"taken</w>":2426,"origin</w>":2427,"turned</w>":2428,"Bob</w>":2429,"parabola</w>":2430,"78</w>":2431,"Alice</w>":2432,"card</w>":2433,"est</w>":2434,"lon":2435,"run":2436,"used</w>":2437,"ere":2438,"frac":2439,"wiki</w>":2440,"players</w>":2441,"colors</w>":2442,"Compute</w>":2443,"mpiad</w>":2444,"69</w>":2445,"67</w>":2446,"83</w>":2447,"87</w>":2448,"Oly":2449,"ry</w>":2450,"coin</w>":2451,"lamb":2452,"2015</w>":2453,"subset</w>":2454,"opposite</w>":2455,"column</w>":2456,"23":2457,"ational</w>":2458,"dash":2459,"ings</w>":2460,"sel":2461,"convex</w>":2462,"cubes</w>":2463,"boun":2464,"bar</w>":2465,"write</w>":2466,"arranged</w>":2467,"ously</w>":2468,"dashed</w>":2469,"2n</w>":2470,"fy</w>":2471,"ser":2472,"parts</w>":2473,"student</w>":2474,"requi":2475,"92</w>":2476,"os</w>":2477,"ones</w>":2478,"ams</w>":2479,"2017</w>":2480,"exten":2481,"tters</w>":2482,"includ":2483,"76</w>":2484,"An</w>":2485,"jum":2486,"cut</w>":2487,"larger</w>":2488,"diagram</w>":2489,"about</w>":2490,"diagonal</w>":2491,"green</w>":2492,"participa":2493,"Be":2494,"dro":2495,"ima":2496,"ln</w>":2497,"posed</w>":2498,"dies</w>":2499,"four":2500,"101</w>":2501,"play</w>":2502,"under":2503,"lambda</w>":2504,"wers</w>":2505,"matri":2506,"ory</w>":2507,"ator</w>":2508,"cell</w>":2509,"arily</w>":2510,"Note</w>":2511,"consists</w>":2512,"class</w>":2513,"33":2514,"tan":2515,"sting</w>":2516,"mean</w>":2517,"memb":2518,"respon":2519,"uniqu":2520,"76":2521,"tro":2522,"allow":2523,"may</w>":2524,"meth":2525,"gether</w>":2526,"mod</w>":2527,"cap</w>":2528,"2006</w>":2529,"choose</w>":2530,"passes</w>":2531,"starting</w>":2532,"excee":2533,"identical</w>":2534,"96":2535,"Pet":2536,"cases</w>":2537,"ll":2538,"consid":2539,"Mathematical</w>":2540,"98</w>":2541,"91</w>":2542,"97</w>":2543,"Xi":2544,"ar</w>":2545,"acu":2546,"arc":2547,"letters</w>":2548,"sions</w>":2549,"logra":2550,"divide</w>":2551,"areas</w>":2552,"minus</w>":2553,"constru":2554,"Point</w>":2555,"Se":2556,"gir":2557,"han":2558,"section</w>":2559,"amma</w>":2560,"meet</w>":2561,"together</w>":2562,"follows</w>":2563,"unior</w>":2564,"marked</w>":2565,"Chin":2566,"previ":2567,"66":2568,"98":2569,"ju":2570,"til</w>":2571,"irc":2572,"prog":2573,"define</w>":2574,"interior</w>":2575,"polygon</w>":2576,"gener":2577,"acute</w>":2578,"44":2579,"Circ":2580,"cent</w>":2581,"stan":2582,"contain</w>":2583,"fourth</w>":2584,"77</w>":2585,"she":2586,"2019</w>":2587,"said</w>":2588,"speci":2589,"54":2590,"Junior</w>":2591,"Mi":2592,"those</w>":2593,"sequences</w>":2594,"bisector</w>":2595,"necessary</w>":2596,"Xia":2597,"progres":2598,"88":2599,"He</w>":2600,"To</w>":2601,"bra":2602,"blo":2603,"clu":2604,"scor":2605,"tu":2606,"tter</w>":2607,"until</w>":2608,"triples</w>":2609,"car</w>":2610,"midpoints</w>":2611,"Olympiad</w>":2612,"79</w>":2613,"II</w>":2614,"fri":2615,"men":2616,"proce":2617,"need</w>":2618,"phi</w>":2619,"cation</w>":2620,"case</w>":2621,"multip":2622,"curren":2623,"ildre":2624,"selected</w>":2625,"considered</w>":2626,"ildren</w>":2627,"65":2628,"85":2629,"EF</w>":2630,"National</w>":2631,"por":2632,"numbered</w>":2633,"They</w>":2634,"2020</w>":2635,"2013</w>":2636,"cup</w>":2637,"children</w>":2638,"Answer</w>":2639,"start</w>":2640,"equiv</w>":2641,"align</w>":2642,"hyper":2643,"exceeding</w>":2644,"02</w>":2645,"68":2646,"78":2647,"74</w>":2648,"93</w>":2649,"BD</w>":2650,"ear":2651,"eld</w>":2652,"lled</w>":2653,"nor":2654,"ot":2655,"odot</w>":2656,"integral</w>":2657,"2022</w>":2658,"circular</w>":2659,"nee":2660,"char":2661,"room</w>":2662,"sses</w>":2663,"starts</w>":2664,"again</w>":2665,"determined</w>":2666,"bounded</w>":2667,"71</w>":2668,"Mar":2669,"ab</w>":2670,"ax</w>":2671,"gru":2672,"ic</w>":2673,"sm</w>":2674,"tfrac</w>":2675,"teams</w>":2676,"seven</w>":2677,"congru":2678,"before</w>":2679,"mee":2680,"final</w>":2681,"wee":2682,"complete</w>":2683,"candies</w>":2684,"matrix</w>":2685,"progression</w>":2686,"300</w>":2687,"xy</w>":2688,"ans":2689,"rota":2690,"Define</w>":2691,"correspon":2692,"fficient</w>":2693,"Among</w>":2694,"indepen":2695,"unique</w>":2696,"03</w>":2697,"07</w>":2698,"22":2699,"CA</w>":2700,"ban":2701,"len":2702,"poten":2703,"sian</w>":2704,"inted</w>":2705,"limi":2706,"prism</w>":2707,"press</w>":2708,"feet</w>":2709,"ights</w>":2710,"particip":2711,"self</w>":2712,"hyperbola</w>":2713,"45":2714,"55":2715,"it":2716,"ka</w>":2717,"vec</w>":2718,"fact":2719,"received</w>":2720,"sing":2721,"varphi</w>":2722,"erefore</w>":2723,"75":2724,"94</w>":2725,"Di":2726,"cd</w>":2727,"ii</w>":2728,"pes</w>":2729,"ring</w>":2730,"ints</w>":2731,"arc</w>":2732,"sive</w>":2733,"die</w>":2734,"found</w>":2735,"2014</w>":2736,"expec":2737,"tagon</w>":2738,"cus</w>":2739,"tom</w>":2740,"radii</w>":2741,"represents</w>":2742,"problems</w>":2743,"Petya</w>":2744,"150</w>":2745,"43":2746,"ately</w>":2747,"el</w>":2748,"hline</w>":2749,"oth":2750,"sp":2751,"port</w>":2752,"who":2753,"tries</w>":2754,"field</w>":2755,"competition</w>":2756,"Express</w>":2757,"forma":2758,"add</w>":2759,"denotes</w>":2760,"necessarily</w>":2761,"girls</w>":2762,"64":2763,"94":2764,"DE</w>":2765,"Ti":2766,"deri":2767,"ese</w>":2768,"win":2769,"letter</w>":2770,"boys</w>":2771,"step</w>":2772,"colored</w>":2773,"initial</w>":2774,"tane":2775,"score</w>":2776,"1st</w>":2777,"35":2778,"74":2779,"95":2780,"bir":2781,"bino":2782,"gy</w>":2783,"man":2784,"ped</w>":2785,"pmod</w>":2786,"wins</w>":2787,"xed</w>":2788,"sufficient</w>":2789,"2012</w>":2790,"2018</w>":2791,"bot":2792,"2008</w>":2793,"count</w>":2794,"wards</w>":2795,"straight</w>":2796,"previous</w>":2797,"73</w>":2798,"eight</w>":2799,"il</w>":2800,"ily</w>":2801,"nam":2802,"zed</w>":2803,"titud":2804,"simul":2805,"comes</w>":2806,"located</w>":2807,"2000</w>":2808,"equally</w>":2809,"bag</w>":2810,"entire</w>":2811,"including</w>":2812,"logram</w>":2813,"bottom</w>":2814,"simultane":2815,"high":2816,"degre":2817,"vide</w>":2818,"atta":2819,"cording</w>":2820,"groups</w>":2821,"kilo":2822,"degrees</w>":2823,"53":2824,"84":2825,"Vas":2826,"kg</w>":2827,"swi":2828,"cover":2829,"lish</w>":2830,"permu":2831,"pile</w>":2832,"polynomials</w>":2833,"arrange":2834,"direction</w>":2835,"appro":2836,"sums</w>":2837,"breaks</w>":2838,"Wri":2839,"fle":2840,"lo</w>":2841,"nu":2842,"tg</w>":2843,"ances</w>":2844,"altitud":2845,"Therefore</w>":2846,"2011</w>":2847,"painted</w>":2848,"inclu":2849,"180</w>":2850,"Condition</w>":2851,"parallelogram</w>":2852,"operation</w>":2853,"money</w>":2854,"method</w>":2855,"deriva":2856,"simultaneously</w>":2857,"Vasya</w>":2858,"Write</w>":2859,"ep</w>":2860,"fer":2861,"ught</w>":2862,"inci":2863,"power</w>":2864,"sure</w>":2865,"valuate</w>":2866,"pper</w>":2867,"added</w>":2868,"mpli":2869,"minute</w>":2870,"itely</w>":2871,"Now</w>":2872,"circumscribed</w>":2873,"hypoten":2874,"scored</w>":2875,"ship</w>":2876,"increased</w>":2877,"congruent</w>":2878,"hypotenuse</w>":2879,"bro":2880,"cy</w>":2881,"cing</w>":2882,"nd</w>":2883,"sal":2884,"zz":2885,"gives</w>":2886,"percent</w>":2887,"chord</w>":2888,"factors</w>":2889,"formul":2890,"intersecting</w>":2891,"2005</w>":2892,"steps</w>":2893,"colle":2894,"got</w>":2895,"required</w>":2896,"single</w>":2897,"kilometers</w>":2898,"formula</w>":2899,"ling</w>":2900,"ore":2901,"xes</w>":2902,"ani":2903,"rate</w>":2904,"rees</w>":2905,"cost</w>":2906,"exp":2907,"positions</w>":2908,"boo":2909,"book</w>":2910,"neigh":2911,"back</w>":2912,"Solu":2913,"centers</w>":2914,"coefficient</w>":2915,"Xiao</w>":2916,"process</w>":2917,"derivative</w>":2918,"08</w>":2919,"09</w>":2920,"73":2921,"cc":2922,"calculate</w>":2923,"imi":2924,"nine</w>":2925,"pea":2926,"sk</w>":2927,"tsize</w>":2928,"ul":2929,"mathematic":2930,"homb":2931,"took</w>":2932,"fif":2933,"fixed</w>":2934,"vectors</w>":2935,"ched</w>":2936,"lars</w>":2937,"linear</w>":2938,"ckwise</w>":2939,"translation</w>":2940,"general</w>":2941,"32":2942,"Cla":2943,"Eng":2944,"Four</w>":2945,"Jo":2946,"call</w>":2947,"hund":2948,"ven":2949,"erate</w>":2950,"enum":2951,"come</w>":2952,"modu":2953,"lying</w>":2954,"penci":2955,"China</w>":2956,"English</w>":2957,"125</w>":2958,"83":2959,"Al":2960,"Ass":2961,"ated</w>":2962,"gold</w>":2963,"lg</w>":2964,"land</w>":2965,"pur":2966,"win</w>":2967,"tesian</w>":2968,"redu":2969,"tered</w>":2970,"verse</w>":2971,"extern":2972,"mit":2973,"ages</w>":2974,"shows</w>":2975,"worth</w>":2976,"clockwise</w>":2977,"directly</w>":2978,"still</w>":2979,"representation</w>":2980,"neighb":2981,"500</w>":2982,"63":2983,"Show</w>":2984,"ach":2985,"ket</w>":2986,"na</w>":2987,"eres</w>":2988,"leve":2989,"light</w>":2990,"visi":2991,"format</w>":2992,"closed</w>":2993,"consisting</w>":2994,"represented</w>":2995,"occu":2996,"underline</w>":2997,"members</w>":2998,"allowed</w>":2999,"covered</w>":3000,"hombus</w>":3001,"enumerate</w>":3002,"110</w>":3003,"42":3004,"93":3005,"IM":3006,"fal":3007,"wants</w>":3008,"thou":3009,"legs</w>":3010,"road</w>":3011,"makes</w>":3012,"mil":3013,"parameter</w>":3014,"places</w>":3015,"1990</w>":3016,"cending</w>":3017,"ttle</w>":3018,"2009</w>":3019,"mark</w>":3020,"spheres</w>":3021,"absolu":3022,"Points</w>":3023,"him</w>":3024,"type</w>":3025,"92":3026,"By</w>":3027,"No</w>":3028,"Su":3029,"ased</w>":3030,"bx</w>":3031,"bar":3032,"bea":3033,"fam":3034,"gcd</w>":3035,"hat</w>":3036,"ice</w>":3037,"tice</w>":3038,"end":3039,"dol":3040,"liters</w>":3041,"give</w>":3042,"paint</w>":3043,"plain</w>":3044,"factor</w>":3045,"rubles</w>":3046,"rectangles</w>":3047,"played</w>":3048,"good</w>":3049,"select</w>":3050,"within</w>":3051,"increase</w>":3052,"constructed</w>":3053,"corresponding</w>":3054,"binom</w>":3055,"Dra":3056,"Gamma</w>":3057,"NE</w>":3058,"bb":3059,"cally</w>":3060,"dx</w>":3061,"infinite</w>":3062,"ang</w>":3063,"return</w>":3064,"rolls</w>":3065,"semi":3066,"stru":3067,"ctg</w>":3068,"urnam":3069,"neare":3070,"ching</w>":3071,"Proposed</w>":3072,"shed</w>":3073,"wever</w>":3074,"period</w>":3075,"measures</w>":3076,"properties</w>":3077,"Circle</w>":3078,"absolute</w>":3079,"urnament</w>":3080,"nearest</w>":3081,"AM</w>":3082,"AE</w>":3083,"She</w>":3084,"You</w>":3085,"act":3086,"ations</w>":3087,"bases</w>":3088,"ci</w>":3089,"rhombus</w>":3090,"late</w>":3091,"dou":3092,"under</w>":3093,"2010</w>":3094,"comb":3095,"pping</w>":3096,"2004</w>":3097,"2007</w>":3098,"ginning</w>":3099,"work":3100,"appe":3101,"nonnegative</w>":3102,"apples</w>":3103,"event</w>":3104,"Cartesian</w>":3105,"answers</w>":3106,"dri":3107,"ko":3108,"nor</w>":3109,"none</w>":3110,"rds</w>":3111,"wo":3112,"ince</w>":3113,"tements</w>":3114,"beginning</w>":3115,"lied</w>":3116,"metric</w>":3117,"boxes</w>":3118,"centi":3119,"buy</w>":3120,"2003</w>":3121,"ellow</w>":3122,"statements</w>":3123,"cylin":3124,"black":3125,"shaded</w>":3126,"output</w>":3127,"itself</w>":3128,"expected</w>":3129,"expan":3130,"Tri":3131,"kn":3132,"pal":3133,"rt":3134,"wro":3135,"tiles</w>":3136,"ard":3137,"teach":3138,"whe":3139,"tournament</w>":3140,"having</w>":3141,"planes</w>":3142,"2001</w>":3143,"remains</w>":3144,"tangents</w>":3145,"playing</w>":3146,"forms</w>":3147,"pass</w>":3148,"zeros</w>":3149,"asha</w>":3150,"strictly</w>":3151,"shape</w>":3152,"calculated</w>":3153,"matches</w>":3154,"connected</w>":3155,"wrote</w>":3156,"CD":3157,"Per":3158,"Try</w>":3159,"bus</w>":3160,"during</w>":3161,"men</w>":3162,"ot</w>":3163,"trees</w>":3164,"ward</w>":3165,"zon":3166,"indro":3167,"tee</w>":3168,"ler</w>":3169,"ale</w>":3170,"rizon":3171,"horizon":3172,"bought</w>":3173,"However</w>":3174,"moved</w>":3175,"distances</w>":3176,"graph":3177,"dently</w>":3178,"140</w>":3179,"results</w>":3180,"denoted</w>":3181,"correctly</w>":3182,"immedi":3183,"median</w>":3184,"touches</w>":3185,"variable</w>":3186,"extension</w>":3187,"independently</w>":3188,"blackboard</w>":3189,"21":3190,"Evaluate</w>":3191,"Par":3192,"Ro":3193,"TI":3194,"dle</w>":3195,"ell</w>":3196,"ron":3197,"rest</w>":3198,"sil":3199,"question</w>":3200,"angled</w>":3201,"suc":3202,"ames</w>":3203,"home</w>":3204,"hold</w>":3205,"ligh":3206,"now</w>":3207,"ascending</w>":3208,"vector</w>":3209,"lower</w>":3210,"fini":3211,"subtra":3212,"share</w>":3213,"scores</w>":3214,"heads</w>":3215,"outside</w>":3216,"initially</w>":3217,"distribution</w>":3218,"friends</w>":3219,"participants</w>":3220,"books</w>":3221,"centimeters</w>":3222,"palindro":3223,"52":3224,"Trans":3225,"plo":3226,"yellow</w>":3227,"magi":3228,"sided</w>":3229,"fied</w>":3230,"miles</w>":3231,"chords</w>":3232,"lease</w>":3233,"rooms</w>":3234,"pentagon</w>":3235,"144</w>":3236,"Math</w>":3237,"according</w>":3238,"estions</w>":3239,"work</w>":3240,"word</w>":3241,"definite</w>":3242,"travel</w>":3243,"formation</w>":3244,"modulo</w>":3245,"4x</w>":3246,"PQ</w>":3247,"ders</w>":3248,"lta</w>":3249,"tor</w>":3250,"rel</w>":3251,"resid":3252,"quar":3253,"mass</w>":3254,"tabu":3255,"cubi":3256,"prove</w>":3257,"102</w>":3258,"fill</w>":3259,"filled</w>":3260,"path</w>":3261,"shor":3262,"centro":3263,"relation":3264,"star</w>":3265,"appear</w>":3266,"connecting</w>":3267,"hands</w>":3268,"limit</w>":3269,"whole</w>":3270,"inclusive</w>":3271,"fifth</w>":3272,"pencils</w>":3273,"teacher</w>":3274,"immediately</w>":3275,"tabular</w>":3276,"400</w>":3277,"72":3278,"CB</w>":3279,"La":3280,"hspace</w>":3281,"ity</w>":3282,"my</w>":3283,"refle":3284,"questions</w>":3285,"wide":3286,"tage</w>":3287,"sqrt":3288,"105</w>":3289,"towards</w>":3290,"solved</w>":3291,"train</w>":3292,"denomin":3293,"1992</w>":3294,"pairwise</w>":3295,"decided</w>":3296,"arcs</w>":3297,"needed</w>":3298,"externally</w>":3299,"level</w>":3300,"widehat</w>":3301,"00":3302,"2y</w>":3303,"62":3304,"Can</w>":3305,"NW</w>":3306,"eg":3307,"ia</w>":3308,"je</w>":3309,"seri":3310,"um</w>":3311,"va</w>":3312,"yz</w>":3313,"ens</w>":3314,"ency</w>":3315,"dice</w>":3316,"foot</w>":3317,"main</w>":3318,"cos":3319,"lay":3320,"primes</w>":3321,"rules</w>":3322,"company</w>":3323,"erical</w>":3324,"represent</w>":3325,"gue</w>":3326,"exceed</w>":3327,"columns</w>":3328,"jump</w>":3329,"oton":3330,"meets</w>":3331,"week</w>":3332,"others</w>":3333,"swit":3334,"series</w>":3335,"82":3336,"Is</w>":3337,"Pa":3338,"away</w>":3339,"achi":3340,"gons</w>":3341,"ill</w>":3342,"met</w>":3343,"pm</w>":3344,"xmax</w>":3345,"tient</w>":3346,"repea":3347,"roun":3348,"numer":3349,"cot</w>":3350,"conver":3351,"consider</w>":3352,"2023</w>":3353,"cture</w>":3354,"dral</w>":3355,"neither</w>":3356,"division</w>":3357,"solve</w>":3358,"hedral</w>":3359,"possi":3360,"bul":3361,"compute</w>":3362,"mber</w>":3363,"1999</w>":3364,"truth</w>":3365,"drew</w>":3366,"translated</w>":3367,"Solution</w>":3368,"family</w>":3369,"expansion</w>":3370,"cubic</w>":3371,"centroid</w>":3372,"achie":3373,"2a</w>":3374,"Au":3375,"Here</w>":3376,"Lea":3377,"cat":3378,"go</w>":3379,"ue</w>":3380,"erci":3381,"onal</w>":3382,"sea":3383,"lation</w>":3384,"tations</w>":3385,"intern":3386,"overla":3387,"followed</w>":3388,"writes</w>":3389,"forming</w>":3390,"containing</w>":3391,"ceil</w>":3392,"regions</w>":3393,"ful</w>":3394,"full</w>":3395,"shift</w>":3396,"changed</w>":3397,"continues</w>":3398,"participated</w>":3399,"imagin":3400,"normal</w>":3401,"permutation</w>":3402,"altitude</w>":3403,"ference</w>":3404,"Draw</w>":3405,"appears</w>":3406,"League</w>":3407,"None</w>":3408,"bs</w>":3409,"dwar":3410,"pr":3411,"ut":3412,"race</w>":3413,"quo":3414,"dihedral</w>":3415,"focus</w>":3416,"foci</w>":3417,"see</w>":3418,"man</w>":3419,"cover</w>":3420,"store</w>":3421,"faul":3422,"buil":3423,"fewer</w>":3424,"contain":3425,"axes</w>":3426,"1995</w>":3427,"sign</w>":3428,"change</w>":3429,"cylinder</w>":3430,"ercise</w>":3431,"MN</w>":3432,"Sh":3433,"au":3434,"cli":3435,"eds</w>":3436,"far":3437,"mer</w>":3438,"oes</w>":3439,"anti":3440,"arbi":3441,"lat":3442,"irrational</w>":3443,"lion</w>":3444,"provi":3445,"figu":3446,"mial</w>":3447,"paid</w>":3448,"pages</w>":3449,"gets</w>":3450,"part":3451,"differ</w>":3452,"cent":3453,"corner</w>":3454,"labeled</w>":3455,"2002</w>":3456,"weight</w>":3457,"quadran":3458,"Five</w>":3459,"monoton":3460,"circumcircle</w>":3461,"bisectors</w>":3462,"head</w>":3463,"jumps</w>":3464,"whether</w>":3465,"horizontal</w>":3466,"quotient</w>":3467,"arbitr":3468,"160</w>":3469,"BE</w>":3470,"Can":3471,"Ne":3472,"To":3473,"Tea":3474,"dent</w>":3475,"games</w>":3476,"here</w>":3477,"ners</w>":3478,"tpen</w>":3479,"vá</w>":3480,"xmin</w>":3481,"ymin</w>":3482,"ymax</w>":3483,"indi":3484,"entries</w>":3485,"div</w>":3486,"fractions</w>":3487,"coinci":3488,"lam":3489,"deck</w>":3490,"percen":3491,"vil":3492,"ready</w>":3493,"stead</w>":3494,"162</w>":3495,"256</w>":3496,"999</w>":3497,"marbles</w>":3498,"cyclist</w>":3499,"reases</w>":3500,"abc</w>":3501,"match</w>":3502,"longer</w>":3503,"running</w>":3504,"relationship</w>":3505,"imaginary</w>":3506,"05":3507,"111</w>":3508,"During</w>":3509,"Every</w>":3510,"Mo":3511,"PC</w>":3512,"So":3513,"SE</w>":3514,"bri":3515,"clud":3516,"fro":3517,"ko</w>":3518,"ods</w>":3519,"pmatrix</w>":3520,"ra</w>":3521,"sen":3522,"sli":3523,"tor":3524,"upper</w>":3525,"inverse</w>":3526,"six":3527,"simi":3528,"dimen":3529,"beca":3530,"very":3531,"task</w>":3532,"103</w>":3533,"bound":3534,"pect</w>":3535,"vice</w>":3536,"say</w>":3537,"plays</w>":3538,"Exercise</w>":3539,"finitely</w>":3540,"socks</w>":3541,"ssboard</w>":3542,"135</w>":3543,"284</w>":3544,"well</w>":3545,"middle</w>":3546,"operations</w>":3547,"1998</w>":3548,"multiples</w>":3549,"close":3550,"measure":3551,"import</w>":3552,"chessboard</w>":3553,"decrea":3554,"runs</w>":3555,"lent</w>":3556,"mplify</w>":3557,"false</w>":3558,"lattice</w>":3559,"percentage</w>":3560,"because</w>":3561,"Using</w>":3562,"ads</w>":3563,"cra":3564,"gla":3565,"high</w>":3566,"inst</w>":3567,"ering</w>":3568,"tell</w>":3569,"lepi":3570,"already</w>":3571,"sem":3572,"maj":3573,"house</w>":3574,"trip</w>":3575,"defaul":3576,"read</w>":3577,"Prov":3578,"cket</w>":3579,"128</w>":3580,"tangency</w>":3581,"parallelepi":3582,"cars</w>":3583,"constants</w>":3584,"obtain</w>":3585,"receives</w>":3586,"jour":3587,"touch</w>":3588,"against</w>":3589,"arrived</w>":3590,"tually</w>":3591,"Class</w>":3592,"endpoints</w>":3593,"graphs</w>":3594,"denominator</w>":3595,"quadrant</w>":3596,"closest</w>":3597,"defaultpen</w>":3598,"Le":3599,"Pe":3600,"bas":3601,"done</w>":3602,"fli":3603,"gray</w>":3604,"gamma</w>":3605,"na":3606,"wall</w>":3607,"tile</w>":3608,"rays</w>":3609,"removed</w>":3610,"enou":3611,"popu":3612,"foot":3613,"domain</w>":3614,"tern</w>":3615,"east</w>":3616,"like":3617,"tail</w>":3618,"asked</w>":3619,"104</w>":3620,"fill":3621,"happ":3622,"equali":3623,"says</w>":3624,"ream</w>":3625,"mother</w>":3626,"Delta</w>":3627,"taking</w>":3628,"know</w>":3629,"statement</w>":3630,"tens</w>":3631,"gues":3632,"perpendicu":3633,"Only</w>":3634,"decreasing</w>":3635,"walk</w>":3636,"arrive</w>":3637,"meeting</w>":3638,"arrangements</w>":3639,"mittee</w>":3640,"knights</w>":3641,"Province</w>":3642,"enough</w>":3643,"2k</w>":3644,"Ale":3645,"DC</w>":3646,"Ear":3647,"MA":3648,"PM</w>":3649,"PA</w>":3650,"af":3651,"came</w>":3652,"fru":3653,"pra":3654,"ser</w>":3655,"ured</w>":3656,"za</w>":3657,"thing</w>":3658,"erased</w>":3659,"recor":3660,"alter":3661,"making</w>":3662,"sup":3663,"notation</w>":3664,"cities</w>":3665,"reaches</w>":3666,"shots</w>":3667,"nating</w>":3668,"142</w>":3669,"compu":3670,"123</w>":3671,"shu":3672,"words</w>":3673,"trino":3674,"goes</w>":3675,"Initi":3676,"except</w>":3677,"chess</w>":3678,"bisects</w>":3679,"sigma</w>":3680,"receive</w>":3681,"joint</w>":3682,"types</w>":3683,"stand":3684,"blocks</w>":3685,"current</w>":3686,"needs</w>":3687,"charac":3688,"salary</w>":3689,"Assume</w>":3690,"purcha":3691,"succe":3692,"seats</w>":3693,"sixth</w>":3694,"parallelepiped</w>":3695,"130</w>":3696,"121</w>":3697,"B2</w>":3698,"Ber":3699,"PB</w>":3700,"Ra":3701,"Squ":3702,"fon":3703,"ging</w>":3704,"kin":3705,"ny</w>":3706,"psil":3707,"sou":3708,"ssed</w>":3709,"ink</w>":3710,"reci":3711,"altern":3712,"ong":3713,"enclosed</w>":3714,"powers</w>":3715,"sity</w>":3716,"coprime</w>":3717,"The":3718,"loses</w>":3719,"locus</w>":3720,"tai":3721,"respect</w>":3722,"cep":3723,"moment</w>":3724,"Proble":3725,"present</w>":3726,"centered</w>":3727,"target</w>":3728,"cked</w>":3729,"addi":3730,"sha</w>":3731,"ish</w>":3732,"1993</w>":3733,"1991</w>":3734,"emph</w>":3735,"symmetric</w>":3736,"child</w>":3737,"Arrows</w>":3738,"member</w>":3739,"brace</w>":3740,"block</w>":3741,"winner</w>":3742,"arrangement</w>":3743,"visited</w>":3744,"thought</w>":3745,"workers</w>":3746,"Translate</w>":3747,"population</w>":3748,"equalities</w>":3749,"alternating</w>":3750,"Initially</w>":3751,"fontsize</w>":3752,"psilon</w>":3753,"2nd</w>":3754,"656":3755,"CE</w>":3756,"EF":3757,"Li":3758,"Mon":3759,"bc</w>":3760,"cle":3761,"dat":3762,"ee":3763,"please</w>":3764,"slo":3765,"xima":3766,"inches</w>":3767,"incorrect</w>":3768,"annu":3769,"sit</w>":3770,"roads</w>":3771,"numerical</w>":3772,"math</w>":3773,"lake</w>":3774,"dow":3775,"teris":3776,"belon":3777,"orang":3778,"mutually</w>":3779,"108</w>":3780,"tioned</w>":3781,"ature</w>":3782,"committee</w>":3783,"199</w>":3784,"motor":3785,"big":3786,"solid</w>":3787,"fair</w>":3788,"differenti":3789,"rule</w>":3790,"143</w>":3791,"addition</w>":3792,"seconds</w>":3793,"speeds</w>":3794,"stack</w>":3795,"ABCD":3796,"working</w>":3797,"satisfied</w>":3798,"counted</w>":3799,"month</w>":3800,"1989</w>":3801,"directions</w>":3802,"Simplify</w>":3803,"just</w>":3804,"sheep</w>":3805,"multiplied</w>":3806,"factori":3807,"orem</w>":3808,"finished</w>":3809,"palindrome</w>":3810,"magic</w>":3811,"boundary</w>":3812,"likely</w>":3813,"perpendiculars</w>":3814,"Problems</w>":3815,"210</w>":3816,"Jan":3817,"Sy":3818,"Tu":3819,"bp</w>":3820,"cents</w>":3821,"lly</w>":3822,"mu</w>":3823,"sche":3824,"xi</w>":3825,"thus</w>":3826,"thous":3827,"inner</w>":3828,"infinitely</w>":3829,"leg</w>":3830,"onto</w>":3831,"ensure</w>":3832,"sitting</w>":3833,"mag":3834,"stone</w>":3835,"oly":3836,"becomes</w>":3837,"org":3838,"liars</w>":3839,"explain</w>":3840,"notic":3841,"boat</w>":3842,"vita":3843,"minimi":3844,"reach</w>":3845,"lowest</w>":3846,"tral</w>":3847,"maximi":3848,"126</w>":3849,"vertical</w>":3850,"esday</w>":3851,"formly</w>":3852,"uniform</w>":3853,"uniformly</w>":3854,"started</w>":3855,"collinear</w>":3856,"1985</w>":3857,"img</w>":3858,"circumference</w>":3859,"etc</w>":3860,"traveled</w>":3861,"walks</w>":3862,"ject</w>":3863,"dropped</w>":3864,"approxima":3865,"mathematical</w>":3866,"hundre":3867,"hundred</w>":3868,"dollars</w>":3869,"quarter</w>":3870,"bullet</w>":3871,"centre</w>":3872,"Team</w>":3873,"additional</w>":3874,"Tuesday</w>":3875,"6th</w>":3876,"A3</w>":3877,"CO":3878,"Fri":3879,"Kno":3880,"SW</w>":3881,"Sci":3882,"Wi":3883,"ava":3884,"every":3885,"fron":3886,"gx</w>":3887,"ila":3888,"ids</w>":3889,"ically</w>":3890,"ken</w>":3891,"mper":3892,"mple</w>":3893,"own</w>":3894,"pte":3895,"stic":3896,"tun":3897,"tuse</w>":3898,"won</w>":3899,"tho":3900,"anya</w>":3901,"simple</w>":3902,"roll</w>":3903,"disc":3904,"separa":3905,"coo":3906,"beg":3907,"like</w>":3908,"assig":3909,"109</w>":3910,"106</w>":3911,"page</w>":3912,"draws</w>":3913,"composed</w>":3914,"mini":3915,"choco":3916,"far</w>":3917,"leaves</w>":3918,"finish</w>":3919,"grades</w>":3920,"bilities</w>":3921,"polyhedron</w>":3922,"esti":3923,"unitsize</w>":3924,"candy</w>":3925,"gave</w>":3926,"1001</w>":3927,"counter":3928,"medians</w>":3929,"nonzero</w>":3930,"distributed</w>":3931,"underbrace</w>":3932,"Septe":3933,"Chinese</w>":3934,"special</w>":3935,"club</w>":3936,"nuts</w>":3937,"Triangle</w>":3938,"ardless</w>":3939,"Person</w>":3940,"cosine</w>":3941,"football</w>":3942,"Earth</w>":3943,"standard</w>":3944,"organi":3945,"vitational</w>":3946,"availa":3947,"September</w>":3948,"available</w>":3949,"1f":3950,"120":3951,"AA":3952,"B1</w>":3953,"Bon":3954,"DA</w>":3955,"Me":3956,"Mari":3957,"Ni":3958,"PQ":3959,"Ru":3960,"bly</w>":3961,"ca</w>":3962,"free</w>":3963,"ground</w>":3964,"iii</w>":3965,"nam</w>":3966,"uses</w>":3967,"van":3968,"want</w>":3969,"alge":3970,"rolled</w>":3971,"umb":3972,"sec</w>":3973,"irs</w>":3974,"conclu":3975,"assum":3976,"107</w>":3977,"fit</w>":3978,"fish</w>":3979,"pay</w>":3980,"ating</w>":3981,"drawing</w>":3982,"squir":3983,"pril</w>":3984,"sold</w>":3985,"larly</w>":3986,"leave</w>":3987,"122</w>":3988,"subsequ":3989,"distingu":3990,"169</w>":3991,"306</w>":3992,"gath":3993,"quadru":3994,"definitely</w>":3995,"curves</w>":3996,"originally</w>":3997,"clock</w>":3998,"options</w>":3999,"hexagons</w>":4000,"nonempty</w>":4001,"walking</w>":4002,"participate</w>":4003,"portion</w>":4004,"independent</w>":4005,"participant</w>":4006,"spent</w>":4007,"zzle</w>":4008,"IMO</w>":4009,"milk</w>":4010,"numerator</w>":4011,"figures</w>":4012,"Square</w>":4013,"down":4014,"A2</w>":4015,"A1</w>":4016,"April</w>":4017,"Ju":4018,"apart":4019,"bran":4020,"ction":4021,"dge</w>":4022,"ec":4023,"ets</w>":4024,"hit</w>":4025,"la</w>":4026,"mn</w>":4027,"male</w>":4028,"ng</w>":4029,"ov</w>":4030,"ping</w>":4031,"png</w>":4032,"rh":4033,"sci":4034,"went</w>":4035,"youn":4036,"zi":4037,"tit</w>":4038,"arct":4039,"temper":4040,"returns</w>":4041,"one":4042,"rotation</w>":4043,"quanti":4044,"sections</w>":4045,"These</w>":4046,"ire</w>":4047,"stand</w>":4048,"loan</w>":4049,"belong</w>":4050,"limin":4051,"textit</w>":4052,"provide</w>":4053,"ctory</w>":4054,"mes":4055,"Who</w>":4056,"visible</w>":4057,"atten":4058,"never</w>":4059,"piles</w>":4060,"chool":4061,"show</w>":4062,"soci":4063,"chooses</w>":4064,"ssing</w>":4065,"152</w>":4066,"175</w>":4067,"contained</w>":4068,"completely</w>":4069,"island</w>":4070,"And</w>":4071,"counts</w>":4072,"obtuse</w>":4073,"goal</w>":4074,"apple</w>":4075,"disjoint</w>":4076,"travels</w>":4077,"Arrange</w>":4078,"even":4079,"require":4080,"weeks</w>":4081,"collected</w>":4082,"semicircle</w>":4083,"double</w>":4084,"layer</w>":4085,"provided</w>":4086,"lamps</w>":4087,"similar</w>":4088,"craw":4089,"recipro":4090,"tails</w>":4091,"arctan</w>":4092,"07":4093,"124</w>":4094,"250</w>":4095,"240</w>":4096,"360</w>":4097,"AP</w>":4098,"City</w>":4099,"Da":4100,"RS</w>":4101,"Round</w>":4102,"Star":4103,"Ta":4104,"Un":4105,"Your</w>":4106,"bor":4107,"dg</w>":4108,"fs</w>":4109,"fe</w>":4110,"hand</w>":4111,"ming</w>":4112,"morn":4113,"sk":4114,"spo":4115,"tal":4116,"ton</w>":4117,"wered</w>":4118,"za":4119,"ines</w>":4120,"inary</w>":4121,"incenter</w>":4122,"information</w>":4123,"inequalities</w>":4124,"erro":4125,"erwise</w>":4126,"aring</w>":4127,"reen</w>":4128,"revol":4129,"eno":4130,"simpli":4131,"umes</w>":4132,"code</w>":4133,"domin":4134,"loa":4135,"amp</w>":4136,"best</w>":4137,"progra":4138,"proper</w>":4139,"depen":4140,"cians</w>":4141,"park</w>":4142,"parame":4143,"ney</w>":4144,"agon</w>":4145,"plate</w>":4146,"Exa":4147,"due</w>":4148,"capa":4149,"ttles</w>":4150,"141</w>":4151,"146</w>":4152,"133</w>":4153,"131</w>":4154,"137</w>":4155,"155</w>":4156,"164</w>":4157,"weigh":4158,"unit":4159,"371</w>":4160,"1994</w>":4161,"volumes</w>":4162,"10000</w>":4163,"regardless</w>":4164,"1111":4165,"calculation</w>":4166,"kee":4167,"changes</w>":4168,"specifi":4169,"factory</w>":4170,"otherwise</w>":4171,"winning</w>":4172,"higher</w>":4173,"permutations</w>":4174,"brother</w>":4175,"mathematics</w>":4176,"venth</w>":4177,"reduced</w>":4178,"occur</w>":4179,"lights</w>":4180,"plots</w>":4181,"shorter</w>":4182,"villa":4183,"dimensions</w>":4184,"purchase</w>":4185,"front</w>":4186,"subsequent</w>":4187,"gathered</w>":4188,"112</w>":4189,"4a":4190,"600</w>":4191,"8d":4192,"8x</w>":4193,"AIM":4194,"BCD</w>":4195,"BAC</w>":4196,"Cup</w>":4197,"Does</w>":4198,"First</w>":4199,"Ja":4200,"ase</w>":4201,"air</w>":4202,"cb":4203,"fla":4204,"gro":4205,"ku":4206,"ls":4207,"ne</w>":4208,"night</w>":4209,"ol</w>":4210,"offi":4211,"ption</w>":4212,"sday</w>":4213,"trea":4214,"vers</w>":4215,"wedge</w>":4216,"inser":4217,"instead</w>":4218,"ana</w>":4219,"teq</w>":4220,"tests</w>":4221,"eng":4222,"poun":4223,"sist":4224,"sitive</w>":4225,"qui":4226,"quality</w>":4227,"uming</w>":4228,"later</w>":4229,"stones</w>":4230,"208</w>":4231,"tables</w>":4232,"vals</w>":4233,"valid</w>":4234,"prod</w>":4235,"profit</w>":4236,"bottles</w>":4237,"vie":4238,"pay":4239,"getting</w>":4240,"dividing</w>":4241,"ticket</w>":4242,"composite</w>":4243,"intervals</w>":4244,"phone</w>":4245,"bicycle</w>":4246,"date</w>":4247,"run</w>":4248,"writing</w>":4249,"cking</w>":4250,"129</w>":4251,"scal":4252,"165</w>":4253,"west</w>":4254,"257</w>":4255,"cans</w>":4256,"station</w>":4257,"cross</w>":4258,"counting</w>":4259,"obser":4260,"going</w>":4261,"spaces</w>":4262,"Char":4263,"1987</w>":4264,"circumcenter</w>":4265,"since</w>":4266,"varangle</w>":4267,"matter</w>":4268,"continuous</w>":4269,"determin":4270,"events</w>":4271,"Bei":4272,"north</w>":4273,"answered</w>":4274,"rotate</w>":4275,"bank</w>":4276,"altitudes</w>":4277,"Assuming</w>":4278,"neighbors</w>":4279,"eggs</w>":4280,"semi</w>":4281,"prac":4282,"computer</w>":4283,"slope</w>":4284,"Exactly</w>":4285,"AIME</w>":4286,"lsf</w>":4287,"1g</w>":4288,"119</w>":4289,"2i</w>":4290,"216</w>":4291,"4th</w>":4292,"9th</w>":4293,"En":4294,"GH</w>":4295,"Hint</w>":4296,"Lu":4297,"Ste":4298,"Stud":4299,"TH":4300,"apart</w>":4301,"crea":4302,"dd":4303,"jing</w>":4304,"key</w>":4305,"lang":4306,"sted</w>":4307,"spi":4308,"ssho":4309,"sca":4310,"xyz</w>":4311,"zes</w>":4312,"thers</w>":4313,"inch</w>":4314,"rabb":4315,"replaced</w>":4316,"ond</w>":4317,"oning</w>":4318,"pon</w>":4319,"sim</w>":4320,"seteq</w>":4321,"loo":4322,"lost</w>":4323,"oli":4324,"ortho":4325,"proje":4326,"10th</w>":4327,"mize</w>":4328,"pared</w>":4329,"tick":4330,"ticle</w>":4331,"compe":4332,"reads</w>":4333,"sequenti":4334,"held</w>":4335,"fast</w>":4336,"shop</w>":4337,"preser":4338,"traje":4339,"finally</w>":4340,"grassho":4341,"cks":4342,"adding</w>":4343,"127</w>":4344,"139</w>":4345,"132</w>":4346,"156</w>":4347,"account</w>":4348,"170</w>":4349,"176</w>":4350,"168</w>":4351,"163</w>":4352,"weights</w>":4353,"366</w>":4354,"axis":4355,"1997</w>":4356,"1996</w>":4357,"passed</w>":4358,"equiva":4359,"countries</w>":4360,"tra</w>":4361,"guar":4362,"itemize</w>":4363,"open</w>":4364,"Invitational</w>":4365,"1988</w>":4366,"1986</w>":4367,"selection</w>":4368,"Positive</w>":4369,"geometry</w>":4370,"strip</w>":4371,"classes</w>":4372,"calculator</w>":4373,"strate":4374,"identi":4375,"distribute</w>":4376,"Simi":4377,"Circles</w>":4378,"charact":4379,"birth":4380,"barrel</w>":4381,"TIO":4382,"achieve</w>":4383,"container</w>":4384,"cluding</w>":4385,"Alex</w>":4386,"trinomial</w>":4387,"data</w>":4388,"annual</w>":4389,"orange</w>":4390,"temperature</w>":4391,"born</w>":4392,"pounds</w>":4393,"determinant</w>":4394,"langu":4395,"rabbit</w>":4396,"grasshopper</w>":4397,"characters</w>":4398,"6x</w>":4399,"8th</w>":4400,"AN":4401,"Ba":4402,"BF</w>":4403,"Bill</w>":4404,"Ft</w>":4405,"III</w>":4406,"Kar":4407,"Line</w>":4408,"OP</w>":4409,"OB</w>":4410,"Put":4411,"So</w>":4412,"Year</w>":4413,"dly</w>":4414,"dangle</w>":4415,"eb":4416,"fly</w>":4417,"gear</w>":4418,"mbox</w>":4419,"name</w>":4420,"open":4421,"rings</w>":4422,"son":4423,"ster</w>":4424,"use":4425,"ures</w>":4426,"xis</w>":4427,"ysi":4428,"yle</w>":4429,"ina</w>":4430,"ara</w>":4431,"retain</w>":4432,"all":4433,"ries</w>":4434,"river</w>":4435,"simp":4436,"string</w>":4437,"stream</w>":4438,"eats</w>":4439,"tribu":4440,"tricity</w>":4441,"lic</w>":4442,"cuts</w>":4443,"note":4444,"means</w>":4445,"pat":4446,"party</w>":4447,"ness</w>":4448,"cham":4449,"cel":4450,"minor</w>":4451,"placing</w>":4452,"reached</w>":4453,"Provide</w>":4454,"intersection":4455,"147</w>":4456,"145</w>":4457,"remain</w>":4458,"159</w>":4459,"knows</w>":4460,"188</w>":4461,"181</w>":4462,"172</w>":4463,"5000</w>":4464,"Any</w>":4465,"communi":4466,"country</w>":4467,"reasoning</w>":4468,"decagon</w>":4469,"walked</w>":4470,"stop</w>":4471,"fractional</w>":4472,"construct</w>":4473,"stands</w>":4474,"limits</w>":4475,"Also</w>":4476,"neighbor":4477,"million</w>":4478,"beads</w>":4479,"combined</w>":4480,"possibilities</w>":4481,"internally</w>":4482,"overlap</w>":4483,"monotonically</w>":4484,"arbitrary</w>":4485,"indica":4486,"Some</w>":4487,"measuredangle</w>":4488,"after":4489,"thousand</w>":4490,"With</w>":4491,"everyone</w>":4492,"cooki":4493,"rho</w>":4494,"morning</w>":4495,"specific</w>":4496,"sequentially</w>":4497,"equivalent</w>":4498,"guaran":4499,"Putnam</w>":4500,"115</w>":4501,"2b</w>":4502,"3rd</w>":4503,"5x</w>":4504,"7th</w>":4505,"800</w>":4506,"900</w>":4507,"AM":4508,"Ac":4509,"AF</w>":4510,"Cat</w>":4511,"Che":4512,"CCA</w>":4513,"DB</w>":4514,"Deno":4515,"ED</w>":4516,"Fu":4517,"Fin":4518,"List</w>":4519,"Masha</w>":4520,"Pi":4521,"RO":4522,"Sasha</w>":4523,"Te":4524,"Uni":4525,"Za":4526,"awar":4527,"bbi":4528,"cal":4529,"dend</w>":4530,"esting</w>":4531,"ja</w>":4532,"mm</w>":4533,"mer":4534,"msel":4535,"sa</w>":4536,"sent</w>":4537,"ture</w>":4538,"uary</w>":4539,"inver":4540,"anal":4541,"anza</w>":4542,"tin</w>":4543,"arrange</w>":4544,"remove</w>":4545,"returned</w>":4546,"diam":4547,"main":4548,"cour":4549,"laxis</w>":4550,"wide</w>":4551,"logi":4552,"loss</w>":4553,"location</w>":4554,"contribu":4555,"trip":4556,"vert</w>":4557,"themsel":4558,"propos":4559,"mush":4560,"deli":4561,"boy</w>":4562,"hai</w>":4563,"cele":4564,"interesting</w>":4565,"physi":4566,"plates</w>":4567,"190</w>":4568,"192</w>":4569,"moun":4570,"pipe</w>":4571,"fav":4572,"shot</w>":4573,"folded</w>":4574,"daily</w>":4575,"central</w>":4576,"leading</w>":4577,"planar</w>":4578,"products</w>":4579,"produced</w>":4580,"138</w>":4581,"scale</w>":4582,"screen</w>":4583,"increases</w>":4584,"154</w>":4585,"153</w>":4586,"151</w>":4587,"178</w>":4588,"171</w>":4589,"288</w>":4590,"285</w>":4591,"relation</w>":4592,"scribe</w>":4593,"ABD</w>":4594,"375</w>":4595,"343</w>":4596,"marks</w>":4597,"1983</w>":4598,"signs</w>":4599,"fully</w>":4600,"participating</w>":4601,"lling</w>":4602,"lograms</w>":4603,"hang</w>":4604,"switch</w>":4605,"05in</w>":4606,"journey</w>":4607,"Monday</w>":4608,"differentiable</w>":4609,"January</w>":4610,"hundreds</w>":4611,"separated</w>":4612,"assigned</w>":4613,"Bonanza</w>":4614,"squirrel</w>":4615,"revolu":4616,"Beijing</w>":4617,"birthday</w>":4618,"Denote</w>":4619,"awarded</w>":4620,"themselves</w>":4621,"1x</w>":4622,"113</w>":4623,"117</w>":4624,"220</w>":4625,"3a</w>":4626,"320</w>":4627,"330":4628,"Ad":4629,"Bar":4630,"CM</w>":4631,"Car</w>":4632,"Hu":4633,"Mr</w>":4634,"bur":4635,"dar":4636,"ever</w>":4637,"gard":4638,"ices</w>":4639,"kens</w>":4640,"wns</w>":4641,"yi":4642,"inst":4643,"tial</w>":4644,"las</w>":4645,"Thus</w>":4646,"dot":4647,"style</w>":4648,"201</w>":4649,"live</w>":4650,"tau</w>":4651,"tains</w>":4652,"cutting</w>":4653,"noon</w>":4654,"cdot":4655,"peat</w>":4656,"today</w>":4657,"tokens</w>":4658,"pack":4659,"cible</w>":4660,"cept</w>":4661,"dividu":4662,"interp</w>":4663,"place":4664,"196</w>":4665,"bill</w>":4666,"cakes</w>":4667,"route</w>":4668,"choosing</w>":4669,"uples</w>":4670,"produce</w>":4671,"134</w>":4672,"knowing</w>":4673,"subseteq</w>":4674,"polygons</w>":4675,"184</w>":4676,"183</w>":4677,"187</w>":4678,"179</w>":4679,"167</w>":4680,"ester":4681,"state</w>":4682,"tenth</w>":4683,"378</w>":4684,"ffic</w>":4685,"384</w>":4686,"598</w>":4687,"particular</w>":4688,"prece":4689,"1984</w>":4690,"Both</w>":4691,"touching</w>":4692,"puts</w>":4693,"octagon</w>":4694,"chairs</w>":4695,"frac1</w>":4696,"service</w>":4697,"extend</w>":4698,"methods</w>":4699,"arcsin</w>":4700,"sheet</w>":4701,"Xiao":4702,"rotated</w>":4703,"expectation</w>":4704,"birds</w>":4705,"highway</w>":4706,"collection</w>":4707,"Solutions</w>":4708,"Joh":4709,"reducible</w>":4710,"switches</w>":4711,"dwarfs</w>":4712,"building</w>":4713,"frog</w>":4714,"basket</w>":4715,"filldraw</w>":4716,"ABCDEF</w>":4717,"olympiad</w>":4718,"noticed</w>":4719,"Knowing</w>":4720,"sticks</w>":4721,"eccen":4722,"crawls</w>":4723,"Starting</w>":4724,"error</w>":4725,"According</w>":4726,"mushrooms</w>":4727,"garden</w>":4728,"114</w>":4729,"118</w>":4730,"4y</w>":4731,"946":4732,"Are":4733,"Are</w>":4734,"Bri":4735,"Based</w>":4736,"EC</w>":4737,"GR":4738,"Iden":4739,"Pat":4740,"Vari":4741,"Zhang</w>":4742,"binary</w>":4743,"evalu":4744,"fb":4745,"gers</w>":4746,"ise</w>":4747,"ild</w>":4748,"jar</w>":4749,"mary</w>":4750,"off":4751,"pure</w>":4752,"rs</w>":4753,"rong</w>":4754,"sample</w>":4755,"swa":4756,"sume</w>":4757,"school":4758,"tree</w>":4759,"uts</w>":4760,"wat":4761,"zation</w>":4762,"thro":4763,"inking</w>":4764,"tible</w>":4765,"arly</w>":4766,"arctg</w>":4767,"teen</w>":4768,"ration</w>":4769,"resta":4770,"entry</w>":4771,"pound</w>":4772,"seventh</w>":4773,"mach":4774,"Through</w>":4775,"untranslated</w>":4776,"triple</w>":4777,"become</w>":4778,"209</w>":4779,"207</w>":4780,"little</w>":4781,"excluding</w>":4782,"propositions</w>":4783,"meal</w>":4784,"perform</w>":4785,"hable</w>":4786,"partition</w>":4787,"intercep":4788,"aged</w>":4789,"father</w>":4790,"traffic</w>":4791,"build</w>":4792,"tary</w>":4793,"some":4794,"148</w>":4795,"cky</w>":4796,"158</w>":4797,"157</w>":4798,"subgroup</w>":4799,"186</w>":4800,"177</w>":4801,"weigh</w>":4802,"Constru":4803,"ishable</w>":4804,"992</w>":4805,"997</w>":4806,"270</w>":4807,"401</w>":4808,"365</w>":4809,"380</w>":4810,"267</w>":4811,"ille</w>":4812,"monic</w>":4813,"Chi":4814,"great</w>":4815,"symme":4816,"nice</w>":4817,"class":4818,"kilograms</w>":4819,"stify</w>":4820,"continue</w>":4821,"continued</w>":4822,"Carl</w>":4823,"votes</w>":4824,"arrives</w>":4825,"extended</w>":4826,"include</w>":4827,"previously</w>":4828,"juice</w>":4829,"Misha</w>":4830,"currence</w>":4831,"Divide</w>":4832,"Ticks</w>":4833,"Ticks":4834,"highest</w>":4835,"included</w>":4836,"salt</w>":4837,"mitted</w>":4838,"dollar</w>":4839,"structure</w>":4840,"women</w>":4841,"plot</w>":4842,"repeated</w>":4843,"rounds</w>":4844,"overlapping</w>":4845,"farm</w>":4846,"coincide</w>":4847,"decrease</w>":4848,"decreased</w>":4849,"glass</w>":4850,"major</w>":4851,"succes":4852,"belongs</w>":4853,"motorcyclist</w>":4854,"Friday</w>":4855,"counterclockwise</w>":4856,"distinguishable</w>":4857,"simplified</w>":4858,"capacity</w>":4859,"growing</w>":4860,"scalator</w>":4861,"neighboring</w>":4862,"esterday</w>":4863,"machine</w>":4864,"TicksAr":4865,"06":4866,"2z</w>":4867,"225</w>":4868,"260</w>":4869,"225":4870,"3f":4871,"5th</w>":4872,"512</w>":4873,"7x</w>":4874,"8284</w>":4875,"9bp</w>":4876,"Ada":4877,"Bi":4878,"BM</w>":4879,"BAD</w>":4880,"Cho":4881,"Call</w>":4882,"EG</w>":4883,"EE</w>":4884,"FG</w>":4885,"I3</w>":4886,"Kee":4887,"MO</w>":4888,"Of</w>":4889,"Ome":4890,"Pu":4891,"Sun":4892,"Sat":4893,"Tra":4894,"Vo":4895,"bon":4896,"bat":4897,"cri":4898,"din":4899,"eigh":4900,"escalator</w>":4901,"fur":4902,"hu":4903,"hon":4904,"mL</w>":4905,"mor":4906,"nal":4907,"vare":4908,"wrong</w>":4909,"ther":4910,"incircle</w>":4911,"indefinite</w>":4912,"rabbi":4913,"lets</w>":4914,"rels</w>":4915,"sily</w>":4916,"rope</w>":4917,"map</w>":4918,"lates</w>":4919,"supp":4920,"hor":4921,"204</w>":4922,"lia</w>":4923,"lication</w>":4924,"expen":4925,"tain":4926,"tagons</w>":4927,"proof</w>":4928,"ctori":4929,"destri":4930,"bottle</w>":4931,"pedestri":4932,"tosses</w>":4933,"fication</w>":4934,"mista":4935,"based</w>":4936,"back":4937,"textbooks</w>":4938,"tics</w>":4939,"compared</w>":4940,"195</w>":4941,"picture</w>":4942,"bled</w>":4943,"choice</w>":4944,"Explain</w>":4945,"hel":4946,"fold</w>":4947,"forward</w>":4948,"ruble</w>":4949,"lined</w>":4950,"density</w>":4951,"exact</w>":4952,"149</w>":4953,"production</w>":4954,"1234":4955,"136</w>":4956,"study</w>":4957,"orite</w>":4958,"themati":4959,"182</w>":4960,"185</w>":4961,"remainders</w>":4962,"280</w>":4963,"289</w>":4964,"playstyle</w>":4965,"wel":4966,"relative</w>":4967,"998</w>":4968,"elds</w>":4969,"272</w>":4970,"405</w>":4971,"507</w>":4972,"gar</w>":4973,"Anna</w>":4974,"344</w>":4975,"347</w>":4976,"387</w>":4977,"261</w>":4978,"297</w>":4979,"399</w>":4980,"392</w>":4981,"gue":4982,"cyclic</w>":4983,"Inscribed</w>":4984,"spaced</w>":4985,"truck</w>":4986,"ima</w>":4987,"impossible</w>":4988,"sign":4989,"displaystyle</w>":4990,"kets</w>":4991,"stops</w>":4992,"Six</w>":4993,"chael</w>":4994,"longest</w>":4995,"Secon":4996,"braic</w>":4997,"ports</w>":4998,"whom</w>":4999,"attached</w>":5000,"occupi":5001,"bara</w>":5002,"Part</w>":5003,"shortest</w>":5004,"sqrt3</w>":5005,"rounded</w>":5006,"built</w>":5007,"containers</w>":5008,"arbitrarily</w>":5009,"New</w>":5010,"guests</w>":5011,"guessed</w>":5012,"suppose</w>":5013,"south</w>":5014,"6569</w>":5015,"algebraic</w>":5016,"conclusions</w>":5017,"trajectory</w>":5018,"strategy</w>":5019,"language</w>":5020,"pattern</w>":5021,"cookies</w>":5022,"contributed</w>":5023,"Barbara</w>":5024,"placement</w>":5025,"preceding</w>":5026,"John</w>":5027,"eccentricity</w>":5028,"Omega</w>":5029,"Satur":5030,"naldo</w>":5031,"varepsilon</w>":5032,"rabbits</w>":5033,"116</w>":5034,"236</w>":5035,"648":5036,"789":5037,"850</w>":5038,"BP</w>":5039,"Dani":5040,"EM</w>":5041,"For":5042,"Gra":5043,"I1</w>":5044,"Jen":5045,"MP":5046,"Mer":5047,"Numb":5048,"OC</w>":5049,"Please</w>":5050,"Sele":5051,"Since</w>":5052,"Wed":5053,"ast":5054,"bra</w>":5055,"cle</w>":5056,"der":5057,"dres":5058,"dps</w>":5059,"e0":5060,"ely</w>":5061,"evaluate</w>":5062,"elimin":5063,"fl":5064,"gon":5065,"gas</w>":5066,"gall":5067,"ka":5068,"lceil</w>":5069,"mx</w>":5070,"nis</w>":5071,"rceil</w>":5072,"sat</w>":5073,"sons</w>":5074,"tons</w>":5075,"uti":5076,"ula":5077,"usu":5078,"van</w>":5079,"xright</w>":5080,"ytop</w>":5081,"ini":5082,"ands</w>":5083,"erase</w>":5084,"ared</w>":5085,"test":5086,"temp":5087,"rever":5088,"replace</w>":5089,"removing</w>":5090,"entered</w>":5091,"poured</w>":5092,"rod</w>":5093,"ross</w>":5094,"queen</w>":5095,"dian</w>":5096,"sub</w>":5097,"dodecagon</w>":5098,"irreducible</w>":5099,"log":5100,"loser</w>":5101,"unknown</w>":5102,"uncated</w>":5103,"holes</w>":5104,"concen":5105,"conten":5106,"beli":5107,"theorem</w>":5108,"202</w>":5109,"liar</w>":5110,"nothing</w>":5111,"assume</w>":5112,"described</w>":5113,"tionally</w>":5114,"vity</w>":5115,"too</w>":5116,"urn</w>":5117,"urant</w>":5118,"mis":5119,"pain":5120,"lands</w>":5121,"ators</w>":5122,"attemp":5123,"cher":5124,"chni":5125,"bags</w>":5126,"interest</w>":5127,"194</w>":5128,"198</w>":5129,"197</w>":5130,"1968</w>":5131,"1978</w>":5132,"move":5133,"ffe":5134,"orders</w>":5135,"trains</w>":5136,"rook</w>":5137,"dends</w>":5138,"sten":5139,"produces</w>":5140,"ority</w>":5141,"acqua":5142,"across</w>":5143,"173</w>":5144,"282</w>":5145,"286</w>":5146,"255</w>":5147,"expressions</w>":5148,"303</w>":5149,"ometric</w>":5150,"elle</w>":5151,"271</w>":5152,"403</w>":5153,"4000</w>":5154,"361</w>":5155,"367</w>":5156,"504</w>":5157,"508</w>":5158,"502</w>":5159,"376</w>":5160,"Anya</w>":5161,"348</w>":5162,"388</w>":5163,"383</w>":5164,"382</w>":5165,"268</w>":5166,"244</w>":5167,"243</w>":5168,"249</w>":5169,"246</w>":5170,"293</w>":5171,"494</w>":5172,"truncated</w>":5173,"balance</w>":5174,"items</w>":5175,"measured</w>":5176,"empty":5177,"predi":5178,"preci":5179,"certain":5180,"entist</w>":5181,"niss</w>":5182,"shaped</w>":5183,"traveling</w>":5184,"chip</w>":5185,"coloring</w>":5186,"touri":5187,"connect</w>":5188,"break</w>":5189,"chair</w>":5190,"matrices</w>":5191,"uniquely</w>":5192,"Petro":5193,"girl</w>":5194,"standing</w>":5195,"specified</w>":5196,"friend</w>":5197,"formatting</w>":5198,"approx</w>":5199,"falls</w>":5200,"knight</w>":5201,"subtract</w>":5202,"residents</w>":5203,"repeating</w>":5204,"possibly</w>":5205,"internal</w>":5206,"monotonic</w>":5207,"majority</w>":5208,"fruit</w>":5209,"character</w>":5210,"characteris":5211,"alternately</w>":5212,"factorial</w>":5213,"minimized</w>":5214,"tunne":5215,"Maria</w>":5216,"younger</w>":5217,"quantity</w>":5218,"reciprocal</w>":5219,"depends</w>":5220,"treasure</w>":5221,"Students</w>":5222,"Similarly</w>":5223,"invertible</w>":5224,"mountain</w>":5225,"favorite</w>":5226,"Patniss</w>":5227,"thrown</w>":5228,"restaurant</w>":5229,"Keeta</w>":5230,"eighth</w>":5231,"pedestrian</w>":5232,"Wedne":5233,"flat</w>":5234,"emptyset</w>":5235,"1pt</w>":5236,"2f</w>":5237,"234</w>":5238,"3g</w>":5239,"356":5240,"358":5241,"657":5242,"690":5243,"867":5244,"9x</w>":5245,"987":5246,"Ang":5247,"ADE</w>":5248,"ACB</w>":5249,"DF</w>":5250,"Dima</w>":5251,"Fol":5252,"Fact":5253,"Gu":5254,"Its</w>":5255,"Ji":5256,"Ki":5257,"Kat":5258,"My</w>":5259,"Mary</w>":5260,"OM</w>":5261,"OA</w>":5262,"Py":5263,"Ser":5264,"Tanya</w>":5265,"US":5266,"Use</w>":5267,"Yi</w>":5268,"ates</w>":5269,"a8d":5270,"bf":5271,"bmod</w>":5272,"c0":5273,"cx</w>":5274,"cre":5275,"cas":5276,"camp</w>":5277,"epsilon</w>":5278,"flow":5279,"festi":5280,"gar":5281,"lt</w>":5282,"lin</w>":5283,"ry":5284,"ris</w>":5285,"su</w>":5286,"san":5287,"sis</w>":5288,"sand</w>":5289,"sna":5290,"tally</w>":5291,"thag":5292,"invol":5293,"anas</w>":5294,"ran</w>":5295,"lest</w>":5296,"reali":5297,"repay":5298,"repeat</w>":5299,"alco":5300,"enty</w>":5301,"row":5302,"seen</w>":5303,"separ":5304,"sector</w>":5305,"mathemati":5306,"costs</w>":5307,"law</w>":5308,"anghai</w>":5309,"door</w>":5310,"teria</w>":5311,"unchanged</w>":5312,"holi":5313,"olya</w>":5314,"contest":5315,"trise":5316,"203</w>":5317,"expon":5318,"cubo":5319,"proportion</w>":5320,"associ":5321,"dep":5322,"1011</w>":5323,"body</w>":5324,"White</w>":5325,"vich</w>":5326,"town</w>":5327,"mic</w>":5328,"ouse</w>":5329,"cian</w>":5330,"chance</w>":5331,"sau":5332,"save</w>":5333,"textrm</w>":5334,"193</w>":5335,"Give</w>":5336,"bil":5337,"distant</w>":5338,"cake</w>":5339,"caught</w>":5340,"track</w>":5341,"intersections</w>":5342,"rand":5343,"pentagons</w>":5344,"ranges</w>":5345,"189</w>":5346,"174</w>":5347,"166</w>":5348,"281</w>":5349,"254</w>":5350,"female</w>":5351,"302</w>":5352,"994</w>":5353,"279</w>":5354,"406</w>":5355,"368</w>":5356,"369</w>":5357,"362</w>":5358,"501</w>":5359,"gate</w>":5360,"370</w>":5361,"373</w>":5362,"377</w>":5363,"Andrew</w>":5364,"349</w>":5365,"342</w>":5366,"346</w>":5367,"perimeters</w>":5368,"242</w>":5369,"294</w>":5370,"292</w>":5371,"468</w>":5372,"499</w>":5373,"option</w>":5374,"Inte":5375,"consecutively</w>":5376,"operating</w>":5377,"check":5378,"tetrahedr":5379,"hexagonal</w>":5380,"job</w>":5381,"Recall</w>":5382,"summer</w>":5383,"declar":5384,"decreases</w>":5385,"stood</w>":5386,"occur":5387,"tude</w>":5388,"Before</w>":5389,"lla</w>":5390,"arccos</w>":5391,"sheets</w>":5392,"Michael</w>":5393,"earn</w>":5394,"early</w>":5395,"March</w>":5396,"rotating</w>":5397,"bananas</w>":5398,"manu":5399,"attack</w>":5400,"swim":5401,"orean</w>":5402,"occup":5403,"Sub":5404,"actu":5405,"combina":5406,"success":5407,"achieved</w>":5408,"dwarf</w>":5409,"princi":5410,"Shanghai</w>":5411,"journ":5412,"Peter</w>":5413,"record</w>":5414,"recorded</w>":5415,"shuff":5416,"kinds</w>":5417,"Theorem</w>":5418,"Little</w>":5419,"clearly</w>":5420,"maximize</w>":5421,"Scientist</w>":5422,"begins</w>":5423,"minimal</w>":5424,"chocolates</w>":5425,"Justify</w>":5426,"dominos</w>":5427,"Jack</w>":5428,"TION</w>":5429,"simplest</w>":5430,"guarantee</w>":5431,"Zada":5432,"course</w>":5433,"Area</w>":5434,"Variant</w>":5435,"Construct</w>":5436,"Puzzle</w>":5437,"Wednesday</w>":5438,"Factori":5439,"Pythag":5440,"alcoho":5441,"holidays</w>":5442,"cuboid</w>":5443,"1c":5444,"1d":5445,"1e":5446,"3y</w>":5447,"3n</w>":5448,"450</w>":5449,"448":5450,"535</w>":5451,"548":5452,"547":5453,"647":5454,"700</w>":5455,"980":5456,"989":5457,"ACD</w>":5458,"BL":5459,"BR</w>":5460,"Ca":5461,"CDE</w>":5462,"EMA":5463,"Fur":5464,"GCD</w>":5465,"Jia</w>":5466,"Ka":5467,"Lines</w>":5468,"OL":5469,"Pri":5470,"PRO":5471,"Ri":5472,"Set</w>":5473,"Vi":5474,"Ver":5475,"Vit":5476,"ace</w>":5477,"bit</w>":5478,"cq":5479,"cs</w>":5480,"ctri":5481,"dary</w>":5482,"em</w>":5483,"eth</w>":5484,"fence</w>":5485,"ger":5486,"gments</w>":5487,"gza":5488,"jed":5489,"kx</w>":5490,"kind</w>":5491,"ket":5492,"odi":5493,"pal</w>":5494,"prun":5495,"ske":5496,"ssian</w>":5497,"sports</w>":5498,"told</w>":5499,"tuples</w>":5500,"yond</w>":5501,"individu":5502,"aning</w>":5503,"arrow":5504,"rep":5505,"rely</w>":5506,"reverse</w>":5507,"replacement</w>":5508,"ended</w>":5509,"ently</w>":5510,"robo":5511,"rods</w>":5512,"rolling</w>":5513,"diame":5514,"mate</w>":5515,"why</w>":5516,"teri":5517,"terior</w>":5518,"stre":5519,"inter</w>":5520,"bed":5521,"beyond</w>":5522,"versity</w>":5523,"twel":5524,"ork</w>":5525,"205</w>":5526,"206</w>":5527,"lit</w>":5528,"lier</w>":5529,"licen":5530,"exterior</w>":5531,"tak</w>":5532,"met":5533,"mech":5534,"asks</w>":5535,"departs</w>":5536,"device</w>":5537,"bound</w>":5538,"performed</w>":5539,"url</w>":5540,"outer</w>":5541,"velo":5542,"landing</w>":5543,"parity</w>":5544,"particle</w>":5545,"sage</w>":5546,"dividend</w>":5547,"191</w>":5548,"picks</w>":5549,"choices</w>":5550,"Exten":5551,"differences</w>":5552,"rank</w>":5553,"corners</w>":5554,"rooks</w>":5555,"shes</w>":5556,"161</w>":5557,"remained</w>":5558,"283</w>":5559,"287</w>":5560,"252</w>":5561,"251</w>":5562,"few</w>":5563,"express</w>":5564,"completed</w>":5565,"309</w>":5566,"307</w>":5567,"305</w>":5568,"991</w>":5569,"9999</w>":5570,"274</w>":5571,"273</w>":5572,"277</w>":5573,"408</w>":5574,"407</w>":5575,"tennis</w>":5576,"506</w>":5577,"374</w>":5578,"379</w>":5579,"372</w>":5580,"Ana</w>":5581,"Ann</w>":5582,"341</w>":5583,"389</w>":5584,"385</w>":5585,"stars</w>":5586,"264</w>":5587,"262</w>":5588,"265</w>":5589,"241</w>":5590,"299</w>":5591,"291</w>":5592,"295</w>":5593,"drink</w>":5594,"394</w>":5595,"398</w>":5596,"589</w>":5597,"illu":5598,"ballo":5599,"593</w>":5600,"596</w>":5601,"Inside</w>":5602,"Instead</w>":5603,"Fig</w>":5604,"months</w>":5605,"1982</w>":5606,"selects</w>":5607,"Once</w>":5608,"consist</w>":5609,"entirely</w>":5610,"cheese</w>":5611,"stripes</w>":5612,"scow</w>":5613,"chips</w>":5614,"chick":5615,"heading</w>":5616,"amounts</w>":5617,"keep</w>":5618,"stock</w>":5619,"break":5620,"variab":5621,"Size</w>":5622,"mentary</w>":5623,"multiply</w>":5624,"lene</w>":5625,"binomial</w>":5626,"brothers</w>":5627,"pencil</w>":5628,"external</w>":5629,"Labe":5630,"egg</w>":5631,"layers</w>":5632,"converges</w>":5633,"Cannot</w>":5634,"Moscow</w>":5635,"alternate</w>":5636,"EFGH</w>":5637,"schedu":5638,"maximized</w>":5639,"began</w>":5640,"chocolate</w>":5641,"Russian</w>":5642,"apartments</w>":5643,"branches</w>":5644,"sciss":5645,"zigza":5646,"evenly</w>":5647,"requirement</w>":5648,"loading</w>":5649,"program</w>":5650,"unitcircle</w>":5651,"village</w>":5652,"observed</w>":5653,"practic":5654,"projection</w>":5655,"identity</w>":5656,"notebook</w>":5657,"afternoon</w>":5658,"Saturday</w>":5659,"eliminated</w>":5660,"usual</w>":5661,"logarith":5662,"concentric</w>":5663,"certainty</w>":5664,"cash</w>":5665,"separate</w>":5666,"principal</w>":5667,"Zadatak</w>":5668,"Pythagorean</w>":5669,"alcohol</w>":5670,"skew</w>":5671,"arrowsize</w>":5672,"license</w>":5673,"zigzag</w>":5674,"001</w>":5675,"0000</w>":5676,"2p</w>":5677,"245</w>":5678,"447":5679,"660":5680,"697":5681,"7b":5682,"747":5683,"797":5684,"848":5685,"847":5686,"889":5687,"887":5688,"947":5689,"AN</w>":5690,"Ari":5691,"Ano":5692,"App":5693,"BQ</w>":5694,"Bro":5695,"Bla":5696,"But</w>":5697,"CT</w>":5698,"Col":5699,"Do</w>":5700,"ER</w>":5701,"GF</w>":5702,"Ivan":5703,"NA":5704,"Next</w>":5705,"O1</w>":5706,"Pre":5707,"Pla":5708,"SW":5709,"ST</w>":5710,"Sha":5711,"Upon</w>":5712,"Vanya</w>":5713,"Wang</w>":5714,"Youn":5715,"ai":5716,"cc</w>":5717,"cals</w>":5718,"di</w>":5719,"dan":5720,"don":5721,"ef</w>":5722,"eat</w>":5723,"eous</w>":5724,"fen</w>":5725,"fall</w>":5726,"fire</w>":5727,"hind</w>":5728,"hits</w>":5729,"ij</w>":5730,"ide":5731,"imal</w>":5732,"ky</w>":5733,"li</w>":5734,"lun":5735,"our":5736,"pho":5737,"sc</w>":5738,"sle":5739,"tch</w>":5740,"tran":5741,"udi":5742,"yes</w>":5743,"ze":5744,"thy</w>":5745,"thmetic</w>":5746,"ing":5747,"incorrectly</w>":5748,"anno":5749,"aron</w>":5750,"less":5751,"reed</w>":5752,"recurrence</w>":5753,"enthe":5754,"enever</w>":5755,"frak</w>":5756,"sely</w>":5757,"sell</w>":5758,"seated</w>":5759,"sugar</w>":5760,"dow</w>":5761,"whenever</w>":5762,"story</w>":5763,"losing</w>":5764,"older</w>":5765,"cones</w>":5766,"contro":5767,"mathfrak</w>":5768,"exi":5769,"note</w>":5770,"1024</w>":5771,"Where</w>":5772,"persons</w>":5773,"vis":5774,"fives</w>":5775,"fields</w>":5776,"mile</w>":5777,"outh</w>":5778,"vehi":5779,"parenthe":5780,"safe</w>":5781,"textdollar</w>":5782,"composition</w>":5783,"Hope</w>":5784,"reading</w>":5785,"pion":5786,"shoo":5787,"fortun":5788,"cations</w>":5789,"cational</w>":5790,"buses</w>":5791,"lination</w>":5792,"leaving</w>":5793,"grain</w>":5794,"exam</w>":5795,"advis":5796,"stems</w>":5797,"coloured</w>":5798,"258</w>":5799,"union</w>":5800,"completes</w>":5801,"301</w>":5802,"993</w>":5803,"stacks</w>":5804,"275</w>":5805,"276</w>":5806,"404</w>":5807,"364</w>":5808,"floors</w>":5809,"509</w>":5810,"505</w>":5811,"periodi":5812,"1002</w>":5813,"263</w>":5814,"equidistant</w>":5815,"248</w>":5816,"247</w>":5817,"296</w>":5818,"570</w>":5819,"576</w>":5820,"391</w>":5821,"397</w>":5822,"395</w>":5823,"495</w>":5824,"594</w>":5825,"closer</w>":5826,"opti":5827,"oplus</w>":5828,"Chen</w>":5829,"absent</w>":5830,"transformation</w>":5831,"vacation</w>":5832,"1111</w>":5833,"display</w>":5834,"obtaining</w>":5835,"Rect":5836,"varnothing</w>":5837,"ships</w>":5838,"puzzle</w>":5839,"runners</w>":5840,"Olympi":5841,"clubs</w>":5842,"multiplication</w>":5843,"earns</w>":5844,"earlier</w>":5845,"flea</w>":5846,"cccc":5847,"peaches</w>":5848,"neighbor</w>":5849,"levels</w>":5850,"combination</w>":5851,"worker</w>":5852,"lighthou":5853,"residue</w>":5854,"reflected</w>":5855,"sqrt2</w>":5856,"audi":5857,"climb":5858,"frogs</w>":5859,"glasses</w>":5860,"Their</w>":5861,"EFG</w>":5862,"magni":5863,"PQRS</w>":5864,"assuming</w>":5865,"quadruples</w>":5866,"apartment</w>":5867,"branch</w>":5868,"requirements</w>":5869,"office</w>":5870,"preserving</w>":5871,"opened</w>":5872,"indicate</w>":5873,"analy":5874,"triplets</w>":5875,"Big</w>":5876,"honest</w>":5877,"utiful</w>":5878,"acquain":5879,"precisely</w>":5880,"Jiang":5881,"billion</w>":5882,"actually</w>":5883,"EMATI":5884,"Extend</w>":5885,"variables</w>":5886,"Label</w>":5887,"Arithmetic</w>":5888,"Another</w>":5889,"Young</w>":5890,"1A</w>":5891,"1200</w>":5892,"2f":5893,"219</w>":5894,"321</w>":5895,"456":5896,"560</w>":5897,"667":5898,"689":5899,"748":5900,"758":5901,"767":5902,"786":5903,"8g</w>":5904,"880":5905,"956":5906,"948":5907,"967":5908,"A6</w>":5909,"AH</w>":5910,"AQ</w>":5911,"B3</w>":5912,"BA</w>":5913,"Bal":5914,"Bing</w>":5915,"Bet":5916,"CF</w>":5917,"CC</w>":5918,"CH</w>":5919,"Cam":5920,"Do":5921,"Dar":5922,"Eu":5923,"Eight</w>":5924,"GBR</w>":5925,"Hal":5926,"Im</w>":5927,"Imag":5928,"Ko":5929,"Lo":5930,"Li</w>":5931,"MB</w>":5932,"More":5933,"NC</w>":5934,"Pr":5935,"Right</w>":5936,"SU":5937,"Va":5938,"XY</w>":5939,"ae":5940,"bc":5941,"bet</w>":5942,"dt</w>":5943,"don</w>":5944,"dence</w>":5945,"ef":5946,"ged</w>":5947,"her":5948,"ition</w>":5949,"iang</w>":5950,"kway</w>":5951,"mally</w>":5952,"px</w>":5953,"ro</w>":5954,"rx</w>":5955,"tle</w>":5956,"wle":5957,"xi":5958,"xleft</w>":5959,"ymp":5960,"ybottom</w>":5961,"ão</w>":5962,"thin</w>":5963,"threes</w>":5964,"think</w>":5965,"any":5966,"times":5967,"art":5968,"tea</w>":5969,"tele":5970,"tells</w>":5971,"tedly</w>":5972,"teeth</w>":5973,"lef":5974,"leg":5975,"ref":5976,"ony</w>":5977,"eng</w>":5978,"ena</w>":5979,"poles</w>":5980,"pocket</w>":5981,"sively</w>":5982,"situ":5983,"sizes</w>":5984,"food</w>":5985,"seat</w>":5986,"mates</w>":5987,"cou":5988,"covers</w>":5989,"coplanar</w>":5990,"lations</w>":5991,"suit</w>":5992,"ghter</w>":5993,"Thir":5994,"stor":5995,"lot</w>":5996,"lor</w>":5997,"uncovered</w>":5998,"eas":5999,"ola</w>":6000,"concer":6001,"configu":6002,"conson":6003,"trigon":6004,"beet":6005,"behind</w>":6006,"liter</w>":6007,"listed</w>":6008,"experi":6009,"tax</w>":6010,"custo":6011,"notes</w>":6012,"propor":6013,"ctures</w>":6014,"sident</w>":6015,"aster</w>":6016,"asteris":6017,"asymp":6018,"des":6019,"dele":6020,"deposi":6021,"delta</w>":6022,"bodies</w>":6023,"victori":6024,"tori":6025,"topo":6026,"urce</w>":6027,"mials</w>":6028,"pai":6029,"paths</w>":6030,"vesti":6031,"laneous</w>":6032,"cher</w>":6033,"coming</w>":6034,"Hozo":6035,"plan</w>":6036,"motion</w>":6037,"big</w>":6038,"bills</w>":6039,"pizz":6040,"heat</w>":6041,"Proper":6042,"presen":6043,"caps</w>":6044,"bug</w>":6045,"lings</w>":6046,"maximal</w>":6047,"14th</w>":6048,"addends</w>":6049,"acci</w>":6050,"vertically</w>":6051,"turtle</w>":6052,"ested</w>":6053,"253</w>":6054,"Conne":6055,"Continu":6056,"304</w>":6057,"3000</w>":6058,"candi":6059,"995</w>":6060,"278</w>":6061,"402</w>":6062,"363</w>":6063,"503</w>":6064,"gather</w>":6065,"381</w>":6066,"definition</w>":6067,"269</w>":6068,"266</w>":6069,"crossed</w>":6070,"298</w>":6071,"ight":6072,"463</w>":6073,"colon</w>":6074,"393</w>":6075,"396</w>":6076,"mark":6077,"market</w>":6078,"592</w>":6079,"595</w>":6080,"guard</w>":6081,"goods</w>":6082,"reason</w>":6083,"Intern":6084,"Fill</w>":6085,"Fibon":6086,"trucks</w>":6087,"president</w>":6088,"absciss":6089,"strips</w>":6090,"Quad":6091,"disks</w>":6092,"traveler</w>":6093,"joined</w>":6094,"requested</w>":6095,"hide</w>":6096,"jewel":6097,"vote</w>":6098,"various</w>":6099,"serve</w>":6100,"image</w>":6101,"tances</w>":6102,"Several</w>":6103,"Mid":6104,"multiplying</w>":6105,"earned</w>":6106,"Diag":6107,"Tick</w>":6108,"broken</w>":6109,"Claudi":6110,"João</w>":6111,"visit</w>":6112,"though</w>":6113,"fami":6114,"driver</w>":6115,"subtracted</w>":6116,"reflection</w>":6117,"coincides</w>":6118,"ville</w>":6119,"Petra</w>":6120,"Bernd</w>":6121,"belonging</w>":6122,"schemes</w>":6123,"minimize</w>":6124,"approximate</w>":6125,"organiz":6126,"oneers</w>":6127,"attended</w>":6128,"parameters</w>":6129,"parametric</w>":6130,"keeping</w>":6131,"villages</w>":6132,"insert</w>":6133,"scalene</w>":6134,"looking</w>":6135,"competi":6136,"axispen</w>":6137,"axisarrowsize</w>":6138,"ANSW":6139,"champion":6140,"celer":6141,"intersectionpoint</w>":6142,"Finally</w>":6143,"diamon":6144,"packages</w>":6145,"Identi":6146,"schoolchildren</w>":6147,"intercepts</w>":6148,"symmetry</w>":6149,"Adam</w>":6150,"Sunday</w>":6151,"batch</w>":6152,"further</w>":6153,"backward</w>":6154,"guess</w>":6155,"occupied</w>":6156,"Grade</w>":6157,"content</w>":6158,"cherries</w>":6159,"tourist</w>":6160,"depend</w>":6161,"swimming</w>":6162,"combinations</w>":6163,"PROBL":6164,"robot</w>":6165,"twelve</w>":6166,"breakfast</w>":6167,"Black</w>":6168,"trance</w>":6169,"announ":6170,"parentheses</w>":6171,"lighthouse</w>":6172,"magnitude</w>":6173,"acquaintances</w>":6174,"Half</w>":6175,"Imagine</w>":6176,"wledge</w>":6177,"asympto":6178,"Hozová</w>":6179,"Fibonacci</w>":6180,"jewelry</w>":6181,"ANSWER</w>":6182,"0th</w>":6183,"002</w>":6184,"2t</w>":6185,"2u</w>":6186,"21st</w>":6187,"3b":6188,"3p</w>":6189,"315</w>":6190,"332</w>":6191,"337</w>":6192,"4f":6193,"4a</w>":6194,"4n</w>":6195,"458":6196,"5g</w>":6197,"556":6198,"558":6199,"625</w>":6200,"658":6201,"687":6202,"669":6203,"756":6204,"780":6205,"760":6206,"787":6207,"769":6208,"856":6209,"858":6210,"886":6211,"958":6212,"960":6213,"AR":6214,"Ame":6215,"ADB</w>":6216,"Bra":6217,"CG</w>":6218,"Cen":6219,"Cru":6220,"Clar":6221,"Could</w>":6222,"Don":6223,"Ding</w>":6224,"Fa":6225,"Gri":6226,"Games</w>":6227,"His</w>":6228,"IS":6229,"Ig":6230,"IV</w>":6231,"Juan</w>":6232,"Kolya</w>":6233,"Lin":6234,"MP</w>":6235,"Neither</w>":6236,"Option</w>":6237,"Sa":6238,"Spe":6239,"TT":6240,"TV</w>":6241,"Wen":6242,"bi</w>":6243,"ber":6244,"blan":6245,"cine</w>":6246,"clea":6247,"dure</w>":6248,"dings</w>":6249,"dfrac1</w>":6250,"f8":6251,"fd":6252,"flower</w>":6253,"gum":6254,"gging</w>":6255,"jin</w>":6256,"jel":6257,"lum":6258,"lcm</w>":6259,"mb</w>":6260,"net</w>":6261,"odra":6262,"ovich</w>":6263,"sla":6264,"tre":6265,"upon</w>":6266,"wed</w>":6267,"wol":6268,"ya":6269,"yla</w>":6270,"yesterday</w>":6271,"zx</w>":6272,"čka</w>":6273,"thi":6274,"input</w>":6275,"inscribe</w>":6276,"indistinguishable</w>":6277,"ant":6278,"arding</w>":6279,"rai":6280,"rain</w>":6281,"rates</w>":6282,"restri":6283,"removes</w>":6284,"resist":6285,"ried</w>":6286,"rilater":6287,"rides</w>":6288,"oni":6289,"ener":6290,"encoun":6291,"polar</w>":6292,"rock</w>":6293,"rocks</w>":6294,"dio":6295,"set":6296,"mas</w>":6297,"coffe":6298,"sui":6299,"Thur":6300,"iron</w>":6301,"ste</w>":6302,"sters</w>":6303,"stage</w>":6304,"stry</w>":6305,"lov</w>":6306,"lore</w>":6307,"local</w>":6308,"logy</w>":6309,"unequal</w>":6310,"eaten</w>":6311,"beans</w>":6312,"veri":6313,"twos</w>":6314,"twork</w>":6315,"2021":6316,"lived</w>":6317,"positioned</w>":6318,"cup":6319,"proposition</w>":6320,"sidering</w>":6321,"meals</w>":6322,"assem":6323,"desi":6324,"dest</w>":6325,"depart":6326,"1010</w>":6327,"vid</w>":6328,"via</w>":6329,"vie</w>":6330,"toss</w>":6331,"towns</w>":6332,"mix":6333,"packs</w>":6334,"vel</w>":6335,"cil</w>":6336,"geq":6337,"paren</w>":6338,"chments</w>":6339,"base":6340,"prize</w>":6341,"commu":6342,"intercept</w>":6343,"overparen</w>":6344,"1980</w>":6345,"1976</w>":6346,"moon</w>":6347,"tish</w>":6348,"pie</w>":6349,"pick</w>":6350,"pipes</w>":6351,"picked</w>":6352,"sms</w>":6353,"heights</w>":6354,"follow</w>":6355,"cave</w>":6356,"leased</w>":6357,"grams</w>":6358,"planned</w>":6359,"labels</w>":6360,"rightang":6361,"radians</w>":6362,"adds</w>":6363,"compare</w>":6364,"1580</w>":6365,"accu":6366,"actions</w>":6367,"sharing</w>":6368,"turning</w>":6369,"2857</w>":6370,"colours</w>":6371,"259</w>":6372,"lucky</w>":6373,"fell</w>":6374,"Considering</w>":6375,"Coun":6376,"issu":6377,"308</w>":6378,"409</w>":6379,"ratios</w>":6380,"Andre":6381,"passen":6382,"worked</w>":6383,"386</w>":6384,"1008</w>":6385,"469</w>":6386,"466</w>":6387,"4641</w>":6388,"574</w>":6389,"578</w>":6390,"579</w>":6391,"571</w>":6392,"oden</w>":6393,"493</w>":6394,"492</w>":6395,"497</w>":6396,"496</w>":6397,"599</w>":6398,"591</w>":6399,"cycling</w>":6400,"diagonally</w>":6401,"Amy</w>":6402,"Chris</w>":6403,"direct</w>":6404,"chest</w>":6405,"nie</w>":6406,"surve":6407,"shakes</w>":6408,"Real</w>":6409,"colorings</w>":6410,"walkway</w>":6411,"calculating</w>":6412,"pond</w>":6413,"bread</w>":6414,"voters</w>":6415,"arrival</w>":6416,"includes</w>":6417,"Between</w>":6418,"exceeds</w>":6419,"construction</w>":6420,"jug</w>":6421,"brace":6422,"scoring</w>":6423,"mentioned</w>":6424,"procedure</w>":6425,"currently</w>":6426,"congruence</w>":6427,"rotations</w>":6428,"correspond</w>":6429,"birth</w>":6430,"attachments</w>":6431,"Joshu":6432,"purch":6433,"barrels</w>":6434,"endpoint</w>":6435,"semicircles</w>":6436,"wooden</w>":6437,"horizontally</w>":6438,"Rosa</w>":6439,"silver</w>":6440,"palindromes</w>":6441,"catch</w>":6442,"catches</w>":6443,"climb</w>":6444,"measurement</w>":6445,"happen":6446,"happen</w>":6447,"MATH":6448,"trinomials</w>":6449,"differential</w>":6450,"factorization</w>":6451,"approximately</w>":6452,"AAAA":6453,"Meth":6454,"PQR</w>":6455,"algebra</w>":6456,"umbre":6457,"quadruple</w>":6458,"liminary</w>":6459,"reciprocals</w>":6460,"David</w>":6461,"weighs</w>":6462,"unitsphere</w>":6463,"11111111":6464,"view</w>":6465,"dden</w>":6466,"scales</w>":6467,"orthocenter</w>":6468,"useful</w>":6469,"intersectionpoints</w>":6470,"University</w>":6471,"maintains</w>":6472,"physicians</w>":6473,"revolution</w>":6474,"revolutions</w>":6475,"British</w>":6476,"criteria</w>":6477,"Form</w>":6478,"Serge":6479,"festival</w>":6480,"repayment</w>":6481,"checkmark</w>":6482,"successful</w>":6483,"Factorize</w>":6484,"Vitya</w>":6485,"mechani":6486,"illustra":6487,"Place</w>":6488,"ideal</w>":6489,"lunch</w>":6490,"periodic</w>":6491,"EMATIC":6492,"Moreover</w>":6493,"Properties</w>":6494,"Continue</w>":6495,"Quadrilateral</w>":6496,"families</w>":6497,"Identify</w>":6498,"asymptotes</w>":6499,"Speci":6500,"Wendy</w>":6501,"clear</w>":6502,"jelly</w>":6503,"odraz</w>":6504,"rilaterals</w>":6505,"coffee</w>":6506,"Joshua</w>":6507,"MATHEMATIC":6508,"08":6509,"1142</w>":6510,"2b":6511,"2d":6512,"2h</w>":6513,"2cm</w>":6514,"3b</w>":6515,"3z</w>":6516,"311</w>":6517,"330</w>":6518,"325</w>":6519,"350</w>":6520,"323</w>":6521,"333</w>":6522,"4d":6523,"4k</w>":6524,"4z</w>":6525,"445</w>":6526,"432</w>":6527,"434</w>":6528,"4pt</w>":6529,"5d":6530,"680":6531,"686":6532,"790":6533,"860":6534,"833":6535,"986":6536,"969":6537,"A4</w>":6538,"AG</w>":6539,"AR</w>":6540,"AT</w>":6541,"BB</w>":6542,"Bor":6543,"CH":6544,"Cor":6545,"Ces":6546,"ES</w>":6547,"Feb":6548,"Ge":6549,"Har":6550,"Her</w>":6551,"IN":6552,"Isa":6553,"Iva</w>":6554,"Jill</w>":6555,"Ma</w>":6556,"NW":6557,"Nine</w>":6558,"O2</w>":6559,"Poly":6560,"QR</w>":6561,"Rob":6562,"Tony</w>":6563,"Vla":6564,"Wu":6565,"Zer":6566,"air":6567,"ative</w>":6568,"adu":6569,"a89":6570,"a7b":6571,"ben":6572,"bin</w>":6573,"c5":6574,"cg</w>":6575,"cum":6576,"cam":6577,"csc</w>":6578,"dea":6579,"em":6580,"eu":6581,"ela":6582,"eta</w>":6583,"f9":6584,"frequ":6585,"faster</w>":6586,"gment</w>":6587,"hall</w>":6588,"iz":6589,"ie</w>":6590,"ide</w>":6591,"jn</w>":6592,"jam</w>":6593,"kn</w>":6594,"kin</w>":6595,"kola</w>":6596,"ller</w>":6597,"mor</w>":6598,"name":6599,"oa":6600,"odo":6601,"pted</w>":6602,"pTick</w>":6603,"rangle</w>":6604,"rying</w>":6605,"send</w>":6606,"tmost</w>":6607,"uš":6608,"vmatrix</w>":6609,"vna</w>":6610,"won":6611,"ware":6612,"xz</w>":6613,"xaxis</w>":6614,"yal":6615,"yaxis</w>":6616,"yang</w>":6617,"zh":6618,"zho":6619,"zel":6620,"àro</w>":6621,"ör":6622,"throws</w>":6623,"therefore</w>":6624,"theast</w>":6625,"thinking</w>":6626,"income</w>":6627,"anced</w>":6628,"anja</w>":6629,"anuts</w>":6630,"anjin</w>":6631,"tivity</w>":6632,"ards</w>":6633,"article</w>":6634,"rain":6635,"rall</w>":6636,"ley</w>":6637,"lemark</w>":6638,"rest":6639,"reals</w>":6640,"released</w>":6641,"enter":6642,"ending</w>":6643,"ental</w>":6644,"post</w>":6645,"pour</w>":6646,"pool</w>":6647,"ditionally</w>":6648,"fours</w>":6649,"forall</w>":6650,"see":6651,"sells</w>":6652,"mapping</w>":6653,"master</w>":6654,"materi":6655,"angyang</w>":6656,"sun</w>":6657,"sures</w>":6658,"lose</w>":6659,"locations</w>":6660,"hole</w>":6661,"home":6662,"houses</w>":6663,"easily</w>":6664,"oldest</w>":6665,"contest</w>":6666,"conclud":6667,"trically</w>":6668,"became</w>":6669,"20th</w>":6670,"lijn</w>":6671,"extra":6672,"exams</w>":6673,"exchange</w>":6674,"extra</w>":6675,"taining</w>":6676,"gift</w>":6677,"valued</w>":6678,"cul":6679,"cups</w>":6680,"notice</w>":6681,"meshed</w>":6682,"meaning</w>":6683,"devi":6684,"depart</w>":6685,"peb":6686,"peanuts</w>":6687,"performs</w>":6688,"victory</w>":6689,"toes</w>":6690,"token</w>":6691,"total":6692,"hazel":6693,"missing</w>":6694,"rests</w>":6695,"atan</w>":6696,"parabo":6697,"network</w>":6698,"chuan</w>":6699,"primary</w>":6700,"agreed</w>":6701,"19th</w>":6702,"1964</w>":6703,"reaching</w>":6704,"mode":6705,"bites</w>":6706,"biking</w>":6707,"picket</w>":6708,"soli":6709,"short</w>":6710,"duration</w>":6711,"forth</w>":6712,"force</w>":6713,"dau":6714,"ruary</w>":6715,"buys</w>":6716,"bucket</w>":6717,"lina</w>":6718,"leaf</w>":6719,"leads</w>":6720,"leather</w>":6721,"soon</w>":6722,"source</w>":6723,"grass</w>":6724,"grape</w>":6725,"plans</w>":6726,"pens</w>":6727,"penni":6728,"alist</w>":6729,"adv":6730,"13th</w>":6731,"May</w>":6732,"inclination</w>":6733,"15r</w>":6734,"accomp":6735,"ac36":6736,"shing</w>":6737,"shares</w>":6738,"17e0":6739,"sult</w>":6740,"16th</w>":6741,"wel</w>":6742,"251f":6743,"fess":6744,"996</w>":6745,"27833":6746,"3627833":6747,"flour</w>":6748,"carried</w>":6749,"carrying</w>":6750,"Ani":6751,"Ange":6752,"Anton</w>":6753,"pass":6754,"quadrilaterals</w>":6755,"Ear</w>":6756,"462</w>":6757,"461</w>":6758,"467</w>":6759,"573</w>":6760,"572</w>":6761,"drinking</w>":6762,"zeroes</w>":6763,"498</w>":6764,"balanced</w>":6765,"597</w>":6766,"close</w>":6767,"partial</w>":6768,"Indi":6769,"Investi":6770,"Chong":6771,"selecting</w>":6772,"arranging</w>":6773,"transpor":6774,"grapes</w>":6775,"surpri":6776,"medicine</w>":6777,"1112":6778,"displayed</w>":6779,"stial</w>":6780,"joining</w>":6781,"representations</w>":6782,"Result</w>":6783,"Compare</w>":6784,"district</w>":6785,"continuously</w>":6786,"pub":6787,"Sichuan</w>":6788,"frac12</w>":6789,"frac14</w>":6790,"23rd</w>":6791,"bounces</w>":6792,"requires</w>":6793,"allows</w>":6794,"hand":6795,"justi":6796,"Circum":6797,"currency</w>":6798,"Maruš":6799,"corresponds</w>":6800,"potential</w>":6801,"Tianjin</w>":6802,"birch</w>":6803,"manage</w>":6804,"covering</w>":6805,"appropri":6806,"modulus</w>":6807,"doubled</w>":6808,"magical</w>":6809,"sqrt5</w>":6810,"indicated</w>":6811,"lamp</w>":6812,"bridge</w>":6813,"basket":6814,"Alex":6815,"fruits</w>":6816,"success</w>":6817,"notices</w>":6818,"organized</w>":6819,"Nikola</w>":6820,"conclusion</w>":6821,"attend</w>":6822,"Take</w>":6823,"keeps</w>":6824,"flags</w>":6825,"engine</w>":6826,"practice</w>":6827,"Step</w>":6828,"THE</w>":6829,"chamele":6830,"indicates</w>":6831,"calves</w>":6832,"diamond</w>":6833,"deliver":6834,"celebra":6835,"celestial</w>":6836,"Additionally</w>":6837,"instal":6838,"swapped</w>":6839,"watches</w>":6840,"Chiara</w>":6841,"TicksArry</w>":6842,"TicksArrx</w>":6843,"mort":6844,"thermore</w>":6845,"expenses</w>":6846,"mistake</w>":6847,"Secondary</w>":6848,"Daniel</w>":6849,"Merlijn</w>":6850,"Number</w>":6851,"Selection</w>":6852,"chnical</w>":6853,"Folk":6854,"Katya</w>":6855,"flows</w>":6856,"Integer</w>":6857,"tetrahedra</w>":6858,"occupy</w>":6859,"Furthermore</w>":6860,"pruning</w>":6861,"diameters</w>":6862,"Preliminary</w>":6863,"Shapo":6864,"donuts</w>":6865,"vehicle</w>":6866,"Olympic</w>":6867,"analytical</w>":6868,"Camille</w>":6869,"couple</w>":6870,"trigonometric</w>":6871,"proportional</w>":6872,"asterisks</w>":6873,"deposit</w>":6874,"presented</w>":6875,"championship</w>":6876,"raised</w>":6877,"suitable</w>":6878,"Thursday</w>":6879,"desired</w>":6880,"rightanglemark</w>":6881,"passengers</w>":6882,"bracelet</w>":6883,"MATHEMATICS</w>":6884,"Cesàro</w>":6885,"February</w>":6886,"Isabe":6887,"Zero</w>":6888,"cumula":6889,"zhou</w>":6890,"totaling</w>":6891,"hazelnuts</w>":6892,"pennies</w>":6893,"ac363627833":6894,"17e0251f":6895,"ac36362783317e0251f":6896,"ac36362783317e0251fdg</w>":6897,"0946":6898,"1B</w>":6899,"2B</w>":6900,"211</w>":6901,"215</w>":6902,"224</w>":6903,"223</w>":6904,"232</w>":6905,"31":6906,"3d":6907,"312</w>":6908,"340</w>":6909,"331</w>":6910,"4g</w>":6911,"511</w>":6912,"6c":6913,"6n</w>":6914,"6ed":6915,"710</w>":6916,"711</w>":6917,"722":6918,"980</w>":6919,"AF":6920,"ADC</w>":6921,"AOB</w>":6922,"Bu":6923,"B4</w>":6924,"BN</w>":6925,"Ben</w>":6926,"Bear</w>":6927,"CA":6928,"Cu":6929,"Du":6930,"Ed":6931,"El":6932,"Er":6933,"ETI":6934,"Every":6935,"Evan</w>":6936,"Go":6937,"G9</w>":6938,"G2</w>":6939,"Grou":6940,"Is":6941,"Ily":6942,"Ivan</w>":6943,"Jon</w>":6944,"Ke":6945,"Ku":6946,"KL</w>":6947,"Light":6948,"Lyla</w>":6949,"MC</w>":6950,"Ming</w>":6951,"Mat":6952,"Mis":6953,"Moun":6954,"Mouse</w>":6955,"Ob":6956,"OR</w>":6957,"Ori":6958,"Over</w>":6959,"Pal":6960,"SS</w>":6961,"San":6962,"Sum":6963,"She":6964,"School":6965,"Ten</w>":6966,"Tor":6967,"Table</w>":6968,"XX":6969,"Ya":6970,"Yu":6971,"Yesterday</w>":6972,"a6":6973,"ac</w>":6974,"ach</w>":6975,"adian</w>":6976,"abeli":6977,"br":6978,"bun":6979,"b85":6980,"cer</w>":6981,"ctive</w>":6982,"cru":6983,"cream</w>":6984,"cry":6985,"det</w>":6986,"dinner</w>":6987,"drank</w>":6988,"eg</w>":6989,"evi":6990,"emer":6991,"flight</w>":6992,"gine</w>":6993,"gno":6994,"gas":6995,"gory</w>":6996,"gonal</w>":6997,"grand":6998,"har":6999,"hen</w>":7000,"hun":7001,"ial</w>":7002,"ished</w>":7003,"jer":7004,"jud":7005,"jars</w>":7006,"kar":7007,"ker</w>":7008,"lf</w>":7009,"lts</w>":7010,"lers</w>":7011,"langle</w>":7012,"lbs</w>":7013,"llaneous</w>":7014,"mand</w>":7015,"nx</w>":7016,"nment</w>":7017,"national</w>":7018,"nights</w>":7019,"of":7020,"ored</w>":7021,"pq</w>":7022,"pan":7023,"sine</w>":7024,"ski":7025,"ues</w>":7026,"vin":7027,"vspace</w>":7028,"things</w>":7029,"intro":7030,"anci":7031,"ery</w>":7032,"tio</w>":7033,"argum":7034,"tees</w>":7035,"tegory</w>":7036,"races</w>":7037,"rash":7038,"len</w>":7039,"ree":7040,"refin":7041,"recur":7042,"rearranged</w>":7043,"alt</w>":7044,"pole</w>":7045,"pota":7046,"sits</w>":7047,"sec":7048,"cows</w>":7049,"lad":7050,"lan</w>":7051,"laps</w>":7052,"sun":7053,"ghtarrow</w>":7054,"ghnuts</w>":7055,"dock</w>":7056,"does":7057,"ircase</w>":7058,"stum</w>":7059,"lock</w>":7060,"load</w>":7061,"look</w>":7062,"unk</w>":7063,"eating</w>":7064,"oline</w>":7065,"consum":7066,"conference</w>":7067,"trin</w>":7068,"trightarrow</w>":7069,"bei</w>":7070,"vers":7071,"thest</w>":7072,"lian</w>":7073,"living</w>":7074,"liary</w>":7075,"lists</w>":7076,"exclu":7077,"tative</w>":7078,"valov</w>":7079,"gic</w>":7080,"giving</w>":7081,"nodes</w>":7082,"assign</w>":7083,"assist":7084,"deg</w>":7085,"design":7086,"demand</w>":7087,"105":7088,"1010":7089,"tour</w>":7090,"tossed</w>":7091,"misce":7092,"past</w>":7093,"pact</w>":7094,"pays</w>":7095,"paints</w>":7096,"termina":7097,"cipa":7098,"parents</w>":7099,"chant</w>":7100,"basin</w>":7101,"ba1f":7102,"sav":7103,"sales</w>":7104,"prices</w>":7105,"tickets</w>":7106,"commo":7107,"compact</w>":7108,"minde":7109,"bije":7110,"pills</w>":7111,"picking</w>":7112,"pictures</w>":7113,"Deci":7114,"hemi":7115,"heard</w>":7116,"funds</w>":7117,"fact</w>":7118,"showing</w>":7119,"dug</w>":7120,"ducation</w>":7121,"cab":7122,"cate</w>":7123,"tram</w>":7124,"rubb":7125,"burash":7126,"lead</w>":7127,"ranking</w>":7128,"soda</w>":7129,"denars</w>":7130,"142857</w>":7131,"aries</w>":7132,"arian</w>":7133,"addres":7134,"upstream</w>":7135,"1234</w>":7136,"1500</w>":7137,"1569</w>":7138,"acceler":7139,"accommo":7140,"subst":7141,"subsequence</w>":7142,"subject</w>":7143,"eled</w>":7144,"shir":7145,"18x</w>":7146,"280":7147,"estern</w>":7148,"colour</w>":7149,"midway</w>":7150,"else</w>":7151,"staircase</w>":7152,"flow</w>":7153,"cardin":7154,"constra":7155,"world</w>":7156,"1005</w>":7157,"1006</w>":7158,"100000</w>":7159,"465</w>":7160,"577</w>":7161,"575</w>":7162,"dra</w>":7163,"491</w>":7164,"guil":7165,"cycles</w>":7166,"linetype</w>":7167,"spatial</w>":7168,"mono":7169,"Chri":7170,"pret":7171,"6000</w>":7172,"abcd</w>":7173,"1981</w>":7174,"imally</w>":7175,"arranges</w>":7176,"directri":7177,"circumradius</w>":7178,"transform</w>":7179,"transformed</w>":7180,"transport</w>":7181,"777</w>":7182,"Twenty</w>":7183,"check</w>":7184,"signed</w>":7185,"perfectly</w>":7186,"dish</w>":7187,"dismi":7188,"appended</w>":7189,"Reg":7190,"hill</w>":7191,"hitting</w>":7192,"hidden</w>":7193,"outcomes</w>":7194,"outcome</w>":7195,"jects</w>":7196,"vartriangle</w>":7197,"calculations</w>":7198,"stored</w>":7199,"rent</w>":7200,"variances</w>":7201,"chain</w>":7202,"extensions</w>":7203,"imagine</w>":7204,"allowing</w>":7205,"allowbreak</w>":7206,"considering</w>":7207,"shelf</w>":7208,"Miky</w>":7209,"friger":7210,"multiplies</w>":7211,"Martin</w>":7212,"week":7213,"rotates</w>":7214,"banks</w>":7215,"factored</w>":7216,"75th</w>":7217,"split</w>":7218,"formations</w>":7219,"manner</w>":7220,"managed</w>":7221,"named</w>":7222,"visits</w>":7223,"Sum</w>":7224,"doughnuts</w>":7225,"kopec":7226,"ková</w>":7227,"woman</w>":7228,"Triangles</w>":7229,"wheel</w>":7230,"Row</w>":7231,"resident</w>":7232,"residues</w>":7233,"relationships</w>":7234,"0001</w>":7235,"Paper</w>":7236,"bulbs</w>":7237,"farthest</w>":7238,"anticipa":7239,"provides</w>":7240,"Canadian</w>":7241,"flips</w>":7242,"flipped</w>":7243,"filling</w>":7244,"frustum</w>":7245,"support</w>":7246,"purchased</w>":7247,"clean</w>":7248,"oranges</w>":7249,"thousands</w>":7250,"hundredth</w>":7251,"COMP":7252,"Knowledge</w>":7253,"discs</w>":7254,"distinguished</w>":7255,"downstream</w>":7256,"message</w>":7257,"evening</w>":7258,"07g</w>":7259,"Taking</w>":7260,"spot</w>":7261,"4aa8d":7262,"kuta</w>":7263,"Charles</w>":7264,"Steve</w>":7265,"create</w>":7266,"spiral</w>":7267,"projections</w>":7268,"notebooks</w>":7269,"community</w>":7270,"communicated</w>":7271,"Cheburash":7272,"Full</w>":7273,"Pioneers</w>":7274,"calls</w>":7275,"analo":7276,"triplet</w>":7277,"offered</w>":7278,"classroom</w>":7279,"classmates</w>":7280,"successive</w>":7281,"225f8":7282,"3f225f8":7283,"Training</w>":7284,"Vocational</w>":7285,"supply</w>":7286,"horses</w>":7287,"help</w>":7288,"123456":7289,"signal</w>":7290,"Second</w>":7291,"Jenny</w>":7292,"gallons</w>":7293,"belie":7294,"mission</w>":7295,"movement</w>":7296,"movements</w>":7297,"stence</w>":7298,"Petrová</w>":7299,"characteristic</w>":7300,"characteristics</w>":7301,"tunnel</w>":7302,"tunnels</w>":7303,"Angles</w>":7304,"Kiara</w>":7305,"bf722":7306,"realized</w>":7307,"mathematicians</w>":7308,"contestant</w>":7309,"manufact":7310,"Subject</w>":7311,"journalist</w>":7312,"shuffled</w>":7313,"Primary</w>":7314,"replied</w>":7315,"metres</w>":7316,"velocity</w>":7317,"balloon</w>":7318,"Colle":7319,"control</w>":7320,"fortunately</w>":7321,"optimally</w>":7322,"audience</w>":7323,"climbs</w>":7324,"Jiangsu</w>":7325,"Vasily</w>":7326,"xiliary</w>":7327,"concert</w>":7328,"descending</w>":7329,"pizza</w>":7330,"Connect</w>":7331,"International</w>":7332,"Claudia</w>":7333,"diamonds</w>":7334,"Amelia</w>":7335,"Central</w>":7336,"Crups</w>":7337,"Igor</w>":7338,"cupcakes</w>":7339,"baseball</w>":7340,"happened</w>":7341,"Method</w>":7342,"NWF</w>":7343,"a894aa8d":7344,"a7b3g</w>":7345,"namely</w>":7346,"pebbles</w>":7347,"password</w>":7348,"basketball</w>":7349,"delivered</w>":7350,"installations</w>":7351,"Folklore</w>":7352,"09463f225f8":7353,"6ed09463f225f8":7354,"ETITION</w>":7355,"Group</w>":7356,"Ilya</w>":7357,"Lightning</w>":7358,"Schools</w>":7359,"abelian</w>":7360,"b85a894aa8d":7361,"gasoline</w>":7362,"argument</w>":7363,"potatoes</w>":7364,"doesn</w>":7365,"miscellaneous</w>":7366,"ba1f07g</w>":7367,"rubber</w>":7368,"cardinality</w>":7369,"COMPETITION</w>":7370,"bf722a7b3g</w>":7371,"6ed09463f225f8ba1f07g</w>":7372,"b85a894aa8dbf722a7b3g</w>":7373,"0g</w>":7374,"089":7375,"1a":7376,"2s</w>":7377,"2d</w>":7378,"2m</w>":7379,"2q</w>":7380,"214</w>":7381,"217</w>":7382,"218</w>":7383,"222</w>":7384,"235</w>":7385,"228</w>":7386,"2xy</w>":7387,"316</w>":7388,"324</w>":7389,"314</w>":7390,"345</w>":7391,"336</w>":7392,"329</w>":7393,"357</w>":7394,"4b":7395,"4i</w>":7396,"411</w>":7397,"436</w>":7398,"428</w>":7399,"448</w>":7400,"5cm</w>":7401,"6a":7402,"610</w>":7403,"6pt</w>":7404,"633":7405,"6371</w>":7406,"714</w>":7407,"8a</w>":7408,"9a":7409,"990</w>":7410,"AD":7411,"AG":7412,"AP":7413,"AA</w>":7414,"Aro":7415,"Aaron</w>":7416,"Bab":7417,"BCA</w>":7418,"BPC</w>":7419,"CE":7420,"CP</w>":7421,"CAB</w>":7422,"Cut</w>":7423,"CAD</w>":7424,"Cau":7425,"Camp</w>":7426,"Case</w>":7427,"Dor":7428,"Dasha</w>":7429,"DCB</w>":7430,"Equa":7431,"Equi":7432,"Evie</w>":7433,"Fran":7434,"Fren":7435,"FOR</w>":7436,"Ga":7437,"G5</w>":7438,"Grand":7439,"I2</w>":7440,"Jör":7441,"More</w>":7442,"Mars</w>":7443,"Num":7444,"Nor":7445,"OF</w>":7446,"PF</w>":7447,"PR</w>":7448,"PE</w>":7449,"Pat</w>":7450,"Pen</w>":7451,"Pol":7452,"QC</w>":7453,"Run":7454,"Rou":7455,"SI":7456,"Spa":7457,"Scor":7458,"Vol":7459,"Veri":7460,"Winter</w>":7461,"Yan":7462,"Zh":7463,"Zu</w>":7464,"a0":7465,"bd":7466,"brou":7467,"cl</w>":7468,"co</w>":7469,"cq</w>":7470,"c49":7471,"cfb":7472,"dn</w>":7473,"dm</w>":7474,"dwi":7475,"dex":7476,"das":7477,"dered</w>":7478,"dPen</w>":7479,"eq":7480,"fer</w>":7481,"fres":7482,"flu":7483,"fga":7484,"f3g</w>":7485,"gn</w>":7486,"gle</w>":7487,"gen</w>":7488,"gly</w>":7489,"gage</w>":7490,"hare</w>":7491,"han</w>":7492,"ix</w>":7493,"imp":7494,"iors</w>":7495,"kers</w>":7496,"kut":7497,"lll</w>":7498,"lons</w>":7499,"mp</w>":7500,"mers</w>":7501,"med</w>":7502,"mall</w>":7503,"mps</w>":7504,"nin":7505,"narray</w>":7506,"ogh</w>":7507,"ologi":7508,"omitted</w>":7509,"pha":7510,"rr</w>":7511,"si</w>":7512,"sq</w>":7513,"stic</w>":7514,"ti</w>":7515,"tol":7516,"tte</w>":7517,"trou":7518,"tors</w>":7519,"un</w>":7520,"wl</w>":7521,"wine</w>":7522,"wrest":7523,"xel</w>":7524,"xstep</w>":7525,"ystep</w>":7526,"thm</w>":7527,"inradius</w>":7528,"inks</w>":7529,"inson</w>":7530,"instru":7531,"inum</w>":7532,"ancing</w>":7533,"erno":7534,"erases</w>":7535,"ervo":7536,"ernaldo</w>":7537,"tives</w>":7538,"tire</w>":7539,"arrow</w>":7540,"arning</w>":7541,"arrays</w>":7542,"rained</w>":7543,"legi":7544,"leag":7545,"learning</w>":7546,"restru":7547,"rearranging</w>":7548,"refriger":7549,"aly":7550,"alum":7551,"alli":7552,"alpha":7553,"risk</w>":7554,"enters</w>":7555,"sister</w>":7556,"roses</w>":7557,"robin</w>":7558,"roller</w>":7559,"que":7560,"que</w>":7561,"quali":7562,"discri":7563,"sel</w>":7564,"sear":7565,"mation</w>":7566,"mail</w>":7567,"cooper":7568,"laun":7569,"laid</w>":7570,"suit":7571,"wid":7572,"wishes</w>":7573,"dom</w>":7574,"doctor</w>":7575,"iring</w>":7576,"terme":7577,"stu":7578,"strange</w>":7579,"los</w>":7580,"unloading</w>":7581,"hote":7582,"eautiful</w>":7583,"tried</w>":7584,"tward</w>":7585,"twenty</w>":7586,"2025</w>":7587,"exam":7588,"exit</w>":7589,"notin</w>":7590,"notch</w>":7591,"cturing</w>":7592,"muse":7593,"asing</w>":7594,"def</w>":7595,"depar":7596,"dedu":7597,"10x</w>":7598,"1021</w>":7599,"bowl</w>":7600,"pest</w>":7601,"pears</w>":7602,"performing</w>":7603,"viet</w>":7604,"vities</w>":7605,"toč":7606,"tossing</w>":7607,"fies</w>":7608,"fills</w>":7609,"mids</w>":7610,"pack</w>":7611,"packed</w>":7612,"reservo":7613,"vember</w>":7614,"ciph":7615,"atures</w>":7616,"gears</w>":7617,"paring</w>":7618,"neka":7619,"chy</w>":7620,"bad</w>":7621,"sail":7622,"alleng":7623,"cember</w>":7624,"ticks</w>":7625,"minant</w>":7626,"minimally</w>":7627,"equator</w>":7628,"phant":7629,"agree</w>":7630,"1975</w>":7631,"1959</w>":7632,"1963</w>":7633,"1962</w>":7634,"mode</w>":7635,"tists</w>":7636,"pies</w>":7637,"pixel</w>":7638,"solva":7639,"solids</w>":7640,"Defini":7641,"December</w>":7642,"smart":7643,"hear":7644,"hedPen</w>":7645,"ordinary</w>":7646,"facing</w>":7647,"wai":7648,"waste</w>":7649,"waterme":7650,"duty</w>":7651,"capi":7652,"category</w>":7653,"training</w>":7654,"rup</w>":7655,"centur":7656,"cently</w>":7657,"rough":7658,"leap</w>":7659,"finds</w>":7660,"finding</w>":7661,"sopho":7662,"gradu":7663,"gravity</w>":7664,"plants</w>":7665,"pension</w>":7666,"penny</w>":7667,"14x</w>":7668,"addend</w>":7669,"upper":7670,"steel</w>":7671,"12th</w>":7672,"1211</w>":7673,"1300</w>":7674,"Mate":7675,"1512</w>":7676,"probabilities</w>":7677,"activity</w>":7678,"submi":7679,"subten":7680,"elec":7681,"eleventh</w>":7682,"elementary</w>":7683,"shared</w>":7684,"17th</w>":7685,"edboat</w>":7686,"28th</w>":7687,"former</w>":7688,"speedboat</w>":7689,"midd":7690,"midnight</w>":7691,"25th</w>":7692,"Concept</w>":7693,"Cos</w>":7694,"complement</w>":7695,"ises</w>":7696,"candle</w>":7697,"stations</w>":7698,"ABCDE</w>":7699,"axial</w>":7700,"carps</w>":7701,"Ant":7702,"Analy":7703,"Anneka":7704,"worm</w>":7705,"works</w>":7706,"1007</w>":7707,"100th</w>":7708,"10001</w>":7709,"counters</w>":7710,"counties</w>":7711,"object</w>":7712,"464</w>":7713,"colli":7714,"471</w>":7715,"partitioned</w>":7716,"672</w>":7717,"Inter":7718,"decide</w>":7719,"monoli":7720,"Cherno":7721,"606</w>":7722,"cesses</w>":7723,"Novo":7724,"NoZero</w>":7725,"November</w>":7726,"transfer":7727,"consisten":7728,"ential</w>":7729,"pyramids</w>":7730,"shake</w>":7731,"clai":7732,"tings</w>":7733,"discount</w>":7734,"obtains</w>":7735,"stipu":7736,"jogging</w>":7737,"require</w>":7738,"heaps</w>":7739,"sines</w>":7740,"fuel</w>":7741,"While</w>":7742,"Examples</w>":7743,"matching</w>":7744,"keys</w>":7745,"kept</w>":7746,"Comple":7747,"stopping</w>":7748,"Arrow</w>":7749,"octa":7750,"Carol</w>":7751,"voted</w>":7752,"vowel</w>":7753,"jumped</w>":7754,"Beta</w>":7755,"drove</w>":7756,"allowable</w>":7757,"llll</w>":7758,"Segment</w>":7759,"generated</w>":7760,"stances</w>":7761,"shev</w>":7762,"specify</w>":7763,"bloo":7764,"charge</w>":7765,"banana</w>":7766,"limited</w>":7767,"Divi":7768,"spinner</w>":7769,"Time</w>":7770,"mandat":7771,"sale</w>":7772,"bool</w>":7773,"Sun</w>":7774,"Sufficient</w>":7775,"bead</w>":7776,"beam</w>":7777,"Dramps</w>":7778,"semicircular</w>":7779,"drive</w>":7780,"driving</w>":7781,"drical</w>":7782,"kov</w>":7783,"cylindrical</w>":7784,"graphic</w>":7785,"Paris</w>":7786,"subtraction</w>":7787,"palindromic</w>":7788,"Law</w>":7789,"reflections</w>":7790,"denomination</w>":7791,"repeatedly</w>":7792,"rounding</w>":7793,"numeral</w>":7794,"Austra":7795,"Auxiliary</w>":7796,"Aufga":7797,"catty</w>":7798,"printed</w>":7799,"centres</w>":7800,"Necess":7801,"Teacher</w>":7802,"Soviet</w>":7803,"seniors</w>":7804,"sliding</w>":7805,"similarly</w>":7806,"Lef":7807,"flip</w>":7808,"flipping</w>":7809,"happy</w>":7810,"happens</w>":7811,"slopes</w>":7812,"motorcycle</w>":7813,"Sym":7814,"ministers</w>":7815,"estimate</w>":7816,"Niki</w>":7817,"squirrels</w>":7818,"July</w>":7819,"quantities</w>":7820,"socie":7821,"Day</w>":7822,"talk</w>":7823,"programs</w>":7824,"weighing</w>":7825,"engaged</w>":7826,"quiz</w>":7827,"payments</w>":7828,"Enter</w>":7829,"Study</w>":7830,"created</w>":7831,"orthogonal</w>":7832,"ticklength</w>":7833,"tickdown</w>":7834,"Technical</w>":7835,"Union</w>":7836,"merchant</w>":7837,"maintaining</w>":7838,"logic</w>":7839,"proposal</w>":7840,"dotfactor</w>":7841,"Xiaoming</w>":7842,"Identical</w>":7843,"evaluated</w>":7844,"offer</w>":7845,"schools</w>":7846,"someone</w>":7847,"sometimes</w>":7848,"Chief</w>":7849,"expensive</w>":7850,"Numbers</w>":7851,"paintings</w>":7852,"Angle</w>":7853,"Guang":7854,"USA</w>":7855,"sandwi":7856,"involved</w>":7857,"mathematician</w>":7858,"contestants</w>":7859,"trisect</w>":7860,"exponent</w>":7861,"journal</w>":7862,"Vertex</w>":7863,"cqcq":7864,"individual</w>":7865,"bedded</w>":7866,"bedroom</w>":7867,"chicken</w>":7868,"chickens</w>":7869,"scheduled</w>":7870,"practically</w>":7871,"lessons</w>":7872,"advisors</w>":7873,"Rectangle</w>":7874,"Balogh</w>":7875,"Betty</w>":7876,"configuration</w>":7877,"beetles</w>":7878,"customer</w>":7879,"topology</w>":7880,"paired</w>":7881,"candidate</w>":7882,"abscissa</w>":7883,"announced</w>":7884,"Clara</w>":7885,"Linlin</w>":7886,"blank</w>":7887,"resistance</w>":7888,"energy</w>":7889,"assembled</w>":7890,"mixture</w>":7891,"commutes</w>":7892,"mechanisms</w>":7893,"Robinson</w>":7894,"embedded</w>":7895,"warehouse</w>":7896,"zhi</w>":7897,"parabolas</w>":7898,"advance</w>":7899,"Anička</w>":7900,"Investigate</w>":7901,"Chongzhi</w>":7902,"surprise</w>":7903,"appropriate</w>":7904,"mortgage</w>":7905,"Shapovalov</w>":7906,"harmonic</w>":7907,"ancient</w>":7908,"refinancing</w>":7909,"recursively</w>":7910,"ladder</w>":7911,"sunny</w>":7912,"hemisphere</w>":7913,"shirts</w>":7914,"guilty</w>":7915,"kopecks</w>":7916,"Arogs</w>":7917,"Cauchy</w>":7918,"Equilateral</w>":7919,"French</w>":7920,"Jörg</w>":7921,"Numerical</w>":7922,"Route</w>":7923,"Verify</w>":7924,"brought</w>":7925,"dashedPen</w>":7926,"eqnarray</w>":7927,"ninth</w>":7928,"trouble":7929,"league</w>":7930,"restructuring</w>":7931,"refrigerators</w>":7932,"aluminum</w>":7933,"discriminant</w>":7934,"reservoir</w>":7935,"phantine</w>":7936,"watermelons</w>":7937,"century</w>":7938,"Annekatrin</w>":7939,"Chernomor</w>":7940,"mandatory</w>":7941,"Aufgabe</w>":7942,"cqcqcq</w>":7943,"030":7944,"005</w>":7945,"006</w>":7946,"076</w>":7947,"1y</w>":7948,"2g</w>":7949,"2c</w>":7950,"212</w>":7951,"221</w>":7952,"2100</w>":7953,"290</w>":7954,"233</w>":7955,"2ee":7956,"2dg</w>":7957,"3k</w>":7958,"313</w>":7959,"317</w>":7960,"328</w>":7961,"326</w>":7962,"354</w>":7963,"352</w>":7964,"3cg</w>":7965,"422</w>":7966,"455</w>":7967,"441</w>":7968,"444</w>":7969,"454</w>":7970,"41st</w>":7971,"5a</w>":7972,"5t</w>":7973,"520</w>":7974,"517</w>":7975,"519</w>":7976,"540</w>":7977,"523</w>":7978,"534</w>":7979,"549</w>":7980,"546</w>":7981,"6y</w>":7982,"640</w>":7983,"683</w>":7984,"7d":7985,"7p</w>":7986,"735</w>":7987,"726</w>":7988,"789</w>":7989,"8f":7990,"811</w>":7991,"840</w>":7992,"831</w>":7993,"9e":7994,"954</w>":7995,"91c":7996,"AH":7997,"As":7998,"A5</w>":7999,"Ax</w>":8000,"AX</w>":8001,"Ali":8002,"Aline</w>":8003,"Aly":8004,"Aga":8005,"Along</w>":8006,"Ako</w>":8007,"APB</w>":8008,"BC":8009,"BF":8010,"BG":8011,"BK</w>":8012,"Bea":8013,"Bil":8014,"Bram</w>":8015,"Bul":8016,"Belle</w>":8017,"CL":8018,"CN</w>":8019,"DP</w>":8020,"DM</w>":8021,"Dan":8022,"Dou":8023,"DEF</w>":8024,"EM":8025,"Ed</w>":8026,"Either</w>":8027,"Fo":8028,"FF</w>":8029,"FH</w>":8030,"Flo":8031,"GH":8032,"G3</w>":8033,"G7</w>":8034,"G6</w>":8035,"Go</w>":8036,"He":8037,"Hea":8038,"Happ":8039,"HES</w>":8040,"IP</w>":8041,"IAD</w>":8042,"Isosceles</w>":8043,"Ital":8044,"Jer":8045,"Kla":8046,"King</w>":8047,"Kna":8048,"Kyi":8049,"ML</w>":8050,"MK</w>":8051,"Mir":8052,"Mental</w>":8053,"Na":8054,"Nat":8055,"Ol":8056,"Or":8057,"OQ</w>":8058,"Out</w>":8059,"PN</w>":8060,"Pra":8061,"Pas":8062,"Pab":8063,"Phi":8064,"Player</w>":8065,"Players</w>":8066,"PAR":8067,"Ras":8068,"RST</w>":8069,"SE":8070,"Sin</w>":8071,"Slo":8072,"Seven</w>":8073,"Sam</w>":8074,"Shan":8075,"Saf":8076,"SOL":8077,"TH</w>":8078,"Test</w>":8079,"Tong":8080,"Tanja</w>":8081,"UL</w>":8082,"Wal":8083,"Wol":8084,"Will</w>":8085,"WIS":8086,"Xi</w>":8087,"Yn":8088,"YMP":8089,"ZS</w>":8090,"aa":8091,"az</w>":8092,"aver":8093,"ape":8094,"acor":8095,"ability</w>":8096,"aids</w>":8097,"b0":8098,"by":8099,"bd</w>":8100,"band</w>":8101,"bor</w>":8102,"b19":8103,"border</w>":8104,"bring</w>":8105,"c1":8106,"cf":8107,"cat</w>":8108,"cers</w>":8109,"cline</w>":8110,"cch":8111,"clar":8112,"dance</w>":8113,"dness</w>":8114,"ei</w>":8115,"eva":8116,"e85":8117,"estate</w>":8118,"f5":8119,"f1</w>":8120,"fea":8121,"flies</w>":8122,"flights</w>":8123,"gam":8124,"gover":8125,"gran":8126,"gori":8127,"glu":8128,"gged</w>":8129,"garian</w>":8130,"hmen</w>":8131,"hens</w>":8132,"idio":8133,"ja":8134,"jan</w>":8135,"ker":8136,"kne":8137,"lfill</w>":8138,"lvert</w>":8139,"llas</w>":8140,"mg</w>":8141,"ml</w>":8142,"mat</w>":8143,"mba":8144,"mals</w>":8145,"mma</w>":8146,"mouse</w>":8147,"ni</w>":8148,"nu</w>":8149,"nut</w>":8150,"op</w>":8151,"oth</w>":8152,"opp":8153,"osha</w>":8154,"pand</w>":8155,"pare</w>":8156,"ptagon</w>":8157,"rin":8158,"swers</w>":8159,"tz</w>":8160,"tall</w>":8161,"talle":8162,"tted</w>":8163,"tong</w>":8164,"ttage</w>":8165,"uph":8166,"vi</w>":8167,"vases</w>":8168,"wa</w>":8169,"wan":8170,"wea":8171,"wage</w>":8172,"xing</w>":8173,"yard</w>":8174,"yka</w>":8175,"ybook</w>":8176,"youth</w>":8177,"zw</w>":8178,"zard</w>":8179,"ür":8180,"Črt</w>":8181,"ко":8182,"throw</w>":8183,"thread</w>":8184,"thinks</w>":8185,"through":8186,"inve":8187,"invisible</w>":8188,"anim":8189,"tir":8190,"teen":8191,"techni":8192,"rats</w>":8193,"rase</w>":8194,"rations</w>":8195,"rather</w>":8196,"rated</w>":8197,"raff":8198,"rail":8199,"lens</w>":8200,"lementary</w>":8201,"ren</w>":8202,"reve":8203,"repetition</w>":8204,"report</w>":8205,"replaces</w>":8206,"returning</w>":8207,"alone</w>":8208,"rid</w>":8209,"rise</w>":8210,"ridge</w>":8211,"online</w>":8212,"onals</w>":8213,"entrance</w>":8214,"ensures</w>":8215,"encry":8216,"pot</w>":8217,"pots</w>":8218,"pouring</w>":8219,"sius</w>":8220,"sized</w>":8221,"sional</w>":8222,"simplify</w>":8223,"sistence</w>":8224,"royal":8225,"quil":8226,"quite</w>":8227,"quises</w>":8228,"diers</w>":8229,"dial</w>":8230,"disa":8231,"diffi":8232,"dira</w>":8233,"forest</w>":8234,"fragments</w>":8235,"sewn</w>":8236,"secan":8237,"seating</w>":8238,"matic":8239,"maps</w>":8240,"matic</w>":8241,"coal</w>":8242,"cock":8243,"couples</w>":8244,"cottage</w>":8245,"latively</w>":8246,"latter</w>":8247,"lava</w>":8248,"ange":8249,"sus</w>":8250,"sually</w>":8251,"wire</w>":8252,"wires</w>":8253,"wizard</w>":8254,"dog</w>":8255,"where":8256,"pointing</w>":8257,"sti</w>":8258,"stori":8259,"loye":8260,"inten":8261,"ament</w>":8262,"hood</w>":8263,"hospi":8264,"ead":8265,"eaper</w>":8266,"conju":8267,"trix</w>":8268,"trips</w>":8269,"version</w>":8270,"orge</w>":8271,"20x</w>":8272,"mathop</w>":8273,"libr":8274,"expe":8275,"talen":8276,"valley</w>":8277,"giraff":8278,"circu":8279,"circula":8280,"nosi</w>":8281,"proposed</w>":8282,"project</w>":8283,"profess":8284,"mulas</w>":8285,"meer":8286,"metal</w>":8287,"ass</w>":8288,"asi</w>":8289,"asse":8290,"deo</w>":8291,"decomposition</w>":8292,"10a</w>":8293,"10n</w>":8294,"1023</w>":8295,"tionary</w>":8296,"persistence</w>":8297,"video</w>":8298,"toise</w>":8299,"fire":8300,"fits</w>":8301,"fighter</w>":8302,"might</w>":8303,"mixed</w>":8304,"pad</w>":8305,"patro":8306,"outward</w>":8307,"lana</w>":8308,"lance</w>":8309,"gebra</w>":8310,"parent</w>":8311,"draw":8312,"dragon</w>":8313,"chal":8314,"chro":8315,"chen</w>":8316,"chka</w>":8317,"cheaper</w>":8318,"bath":8319,"saw</w>":8320,"textbook</w>":8321,"ago</w>":8322,"aging</w>":8323,"overall</w>":8324,"1951</w>":8325,"1958</w>":8326,"1969</w>":8327,"1967</w>":8328,"1979</w>":8329,"mom</w>":8330,"mole</w>":8331,"moments</w>":8332,"mores</w>":8333,"bitten</w>":8334,"bike</w>":8335,"biologi":8336,"sequently</w>":8337,"pill</w>":8338,"piast":8339,"chose</w>":8340,"lower":8341,"lowed</w>":8342,"soldiers</w>":8343,"Expand</w>":8344,"heptagon</w>":8345,"ordering</w>":8346,"Produ":8347,"Proposition</w>":8348,"posing</w>":8349,"pressed</w>":8350,"presses</w>":8351,"pressure</w>":8352,"forty</w>":8353,"forget</w>":8354,"forgot</w>":8355,"formulas</w>":8356,"dar</w>":8357,"dation</w>":8358,"dates</w>":8359,"cast</w>":8360,"calen":8361,"trail</w>":8362,"centra":8363,"butt":8364,"ttle":8365,"ppy</w>":8366,"ppings</w>":8367,"corn</w>":8368,"graders</w>":8369,"planet</w>":8370,"1400</w>":8371,"1416</w>":8372,"14em</w>":8373,"ckey</w>":8374,"take":8375,"ady</w>":8376,"upwards</w>":8377,"respective</w>":8378,"123":8379,"12x</w>":8380,"1296</w>":8381,"ssa</w>":8382,"mph</w>":8383,"accep":8384,"subspace</w>":8385,"elected</w>":8386,"electri":8387,"shan</w>":8388,"shil":8389,"18th</w>":8390,"1716</w>":8391,"eder":8392,"ed4f":8393,"1600</w>":8394,"2853":8395,"wei</w>":8396,"Color</w>":8397,"relations</w>":8398,"related</w>":8399,"30th</w>":8400,"canoni":8401,"elves</w>":8402,"elsius</w>":8403,"statis":8404,"stairs</w>":8405,"stationary</w>":8406,"27bc":8407,"27089":8408,"5040</w>":8409,"carry</w>":8410,"cartesian</w>":8411,"ordinate</w>":8412,"Anhu":8413,"Answers</w>":8414,"thirty</w>":8415,"thirds</w>":8416,"1000th</w>":8417,"cross":8418,"crosses</w>":8419,"equiangular</w>":8420,"council</w>":8421,"minuend</w>":8422,"57cb":8423,"480</w>":8424,"marble</w>":8425,"marquises</w>":8426,"iling</w>":8427,"illum":8428,"aligns</w>":8429,"spherical</w>":8430,"gum</w>":8431,"guest</w>":8432,"guide</w>":8433,"partially</w>":8434,"Individu":8435,"decimals</w>":8436,"8000</w>":8437,"employe":8438,"monkey</w>":8439,"operator</w>":8440,"prepared</w>":8441,"prepare</w>":8442,"6027bc":8443,"indeed</w>":8444,"970":8445,"directed</w>":8446,"etnam</w>":8447,"lipa</w>":8448,"771</w>":8449,"903</w>":8450,"vation</w>":8451,"trapezoids</w>":8452,"nick":8453,"Box</w>":8454,"Bojan</w>":8455,"surfaces</w>":8456,"surrounded</w>":8457,"stripe</w>":8458,"shapes</w>":8459,"7000</w>":8460,"mediate</w>":8461,"11x</w>":8462,"1110</w>":8463,"Quasi</w>":8464,"discu":8465,"stitu":8466,"join</w>":8467,"requiring</w>":8468,"representing</w>":8469,"applying</w>":8470,"Regi":8471,"Relatively</w>":8472,"summation</w>":8473,"heap</w>":8474,"heavi":8475,"headed</w>":8476,"sinh</w>":8477,"fulfill</w>":8478,"changing</w>":8479,"push</w>":8480,"distributions</w>":8481,"Carlo</w>":8482,"Carli</w>":8483,"vochka</w>":8484,"varies</w>":8485,"arriving</w>":8486,"longs</w>":8487,"frac13</w>":8488,"Olya</w>":8489,"lambs</w>":8490,"bounds</w>":8491,"jumping</w>":8492,"Beth</w>":8493,"Below</w>":8494,"fourteen</w>":8495,"33rd</w>":8496,"Segments</w>":8497,"juices</w>":8498,"Mike</w>":8499,"tual</w>":8500,"current":8501,"porridge</w>":8502,"earning</w>":8503,"Mark</w>":8504,"Maro</w>":8505,"Marta</w>":8506,"Marks</w>":8507,"Marko</w>":8508,"22nd</w>":8509,"singing</w>":8510,"43rd</w>":8511,"spins</w>":8512,"derive</w>":8513,"attains</w>":8514,"attacks</w>":8515,"approach</w>":8516,"flew</w>":8517,"brown</w>":8518,"collect</w>":8519,"mathematically</w>":8520,"Join</w>":8521,"venue</w>":8522,"Alber":8523,"Algebra</w>":8524,"purse</w>":8525,"purple</w>":8526,"reduction</w>":8527,"Supp":8528,"beats</w>":8529,"beautiful</w>":8530,"drives</w>":8531,"wood</w>":8532,"womba":8533,"2121</w>":8534,"Paralle":8535,"Partition</w>":8536,"Roman":8537,"lighter</w>":8538,"subtracts</w>":8539,"quarters</w>":8540,"Auto</w>":8541,"dwarves</w>":8542,"pri</w>":8543,"Sharon</w>":8544,"auto":8545,"clip</w>":8546,"Total</w>":8547,"indices</w>":8548,"Mom</w>":8549,"brick</w>":8550,"slips</w>":8551,"dimensional</w>":8552,"boundaries</w>":8553,"Bertram</w>":8554,"Ray</w>":8555,"Ratio</w>":8556,"king":8557,"sought</w>":8558,"bigcap</w>":8559,"bigcup</w>":8560,"Sylow</w>":8561,"Systems</w>":8562,"everything</w>":8563,"stick</w>":8564,"discard</w>":8565,"separately</w>":8566,"organize</w>":8567,"assumed</w>":8568,"downhill</w>":8569,"science</w>":8570,"youngest</w>":8571,"Uncle</w>":8572,"Unfortunately</w>":8573,"sky</w>":8574,"sket":8575,"skates</w>":8576,"errors</w>":8577,"dominoes</w>":8578,"depending</w>":8579,"capaci":8580,"cb1112":8581,"kug":8582,"sisters</w>":8583,"viewed</w>":8584,"scalar</w>":8585,"Entrance</w>":8586,"Lucky</w>":8587,"loop</w>":8588,"trajectori":8589,"strategic</w>":8590,"TIONA":8591,"languages</w>":8592,"AND</w>":8593,"Karen</w>":8594,"opening</w>":8595,"songs</w>":8596,"Cheby":8597,"Fuwa</w>":8598,"Zah":8599,"proposes</w>":8600,"physical</w>":8601,"dark</w>":8602,"yield</w>":8603,"dotted</w>":8604,"Xiaowei</w>":8605,"Brian</w>":8606,"GRADE</w>":8607,"swap</w>":8608,"watch</w>":8609,"succession</w>":8610,"Sundays</w>":8611,"Vovochka</w>":8612,"bonus</w>":8613,"furlongs</w>":8614,"supplies</w>":8615,"horse</w>":8616,"occupies</w>":8617,"Merlin</w>":8618,"derange":8619,"reversed</w>":8620,"reversing</w>":8621,"missible</w>":8622,"painting</w>":8623,"attempted</w>":8624,"69091c":8625,"exponents</w>":8626,"sausage</w>":8627,"tetrahedrons</w>":8628,"declares</w>":8629,"declaration</w>":8630,"occurs</w>":8631,"occupying</w>":8632,"1c2853":8633,"OLYMP":8634,"Vietnam</w>":8635,"individuals</w>":8636,"schedule</w>":8637,"practicing</w>":8638,"logarithm</w>":8639,"logarithmic</w>":8640,"Apply</w>":8641,"NATIONA":8642,"aims</w>":8643,"photo":8644,"slee":8645,"shooter</w>":8646,"advisor</w>":8647,"Euler</w>":8648,"SUB":8649,"ef69091c":8650,"telephone</w>":8651,"leftmost</w>":8652,"refere":8653,"situation</w>":8654,"Thirty</w>":8655,"storm</w>":8656,"storybook</w>":8657,"easy</w>":8658,"eastern</w>":8659,"consonant</w>":8660,"consonants</w>":8661,"experiment</w>":8662,"victorious</w>":8663,"Diagonals</w>":8664,"competitor</w>":8665,"PROBLEM</w>":8666,"PROBLEM":8667,"Brafs</w>":8668,"wolves</w>":8669,"verify</w>":8670,"accura":8671,"survey</w>":8672,"purchases</w>":8673,"umbrellas</w>":8674,"Sergeant</w>":8675,"Boris</w>":8676,"Corre":8677,"ING</w>":8678,"adults</w>":8679,"frequency</w>":8680,"iznosi</w>":8681,"oak</w>":8682,"entering</w>":8683,"homework</w>":8684,"devices</w>":8685,"model</w>":8686,"daughter</w>":8687,"Angelo</w>":8688,"publi":8689,"handshakes</w>":8690,"justification</w>":8691,"Circumscribed</w>":8692,"Maruška</w>":8693,"Alexan":8694,"chameleon</w>":8695,"Island</w>":8696,"Mountain</w>":8697,"Origin":8698,"Tortoise</w>":8699,"Yulia</w>":8700,"bunches</w>":8701,"gnomes</w>":8702,"assistant</w>":8703,"designated</w>":8704,"terminate</w>":8705,"savings</w>":8706,"mindedness</w>":8707,"Decimal</w>":8708,"acceleration</w>":8709,"substance</w>":8710,"pretty</w>":8711,"weekend</w>":8712,"College</w>":8713,"633f3g</w>":8714,"Baba</w>":8715,"Grandma</w>":8716,"Scoring</w>":8717,"Zhen":8718,"c493cg</w>":8719,"cfb2ee":8720,"freshmen</w>":8721,"fluid</w>":8722,"alphabet</w>":8723,"queue</w>":8724,"cooperative</w>":8725,"hotel</w>":8726,"examples</w>":8727,"departed</w>":8728,"sailboat</w>":8729,"solvable</w>":8730,"Definition</w>":8731,"sophomores</w>":8732,"Analysis</w>":8733,"consistently</w>":8734,"Symmetric</w>":8735,"Alyosha</w>":8736,"Head</w>":8737,"Happy</w>":8738,"Italy</w>":8739,"Klaus</w>":8740,"Knave</w>":8741,"Kyiv</w>":8742,"Natural</w>":8743,"Pascal</w>":8744,"Pablo</w>":8745,"PART</w>":8746,"Safe</w>":8747,"SOLU":8748,"Tongtong</w>":8749,"WISHES</w>":8750,"Yndira</w>":8751,"apex</w>":8752,"acorns</w>":8753,"cchi</w>":8754,"evapo":8755,"e85ef69091c":8756,"gaming</w>":8757,"government</w>":8758,"gorithm</w>":8759,"oppon":8760,"uphill</w>":8761,"throughout</w>":8762,"animals</w>":8763,"teenth</w>":8764,"reveal</w>":8765,"secants</w>":8766,"cocktail</w>":8767,"hospital</w>":8768,"talents</w>":8769,"circuit</w>":8770,"piastres</w>":8771,"ed4fc493cg</w>":8772,"canonical</w>":8773,"27089ed4fc493cg</w>":8774,"Anhui</w>":8775,"57cb633f3g</w>":8776,"illumina":8777,"6027bc27089ed4fc493cg</w>":8778,"Alberto</w>":8779,"wombats</w>":8780,"cb1112cfb2ee":8781,"trajectories</w>":8782,"Chebyshev</w>":8783,"1c2853cb1112cfb2ee":8784,"OLYMPIAD</w>":8785,"NATIONAL</w>":8786,"PROBLEMS</w>":8787,"e85ef69091c57cb633f3g</w>":8788,"1c2853cb1112cfb2ee2dg</w>":8789,"01":8790,"09":8791,"0x</w>":8792,"097":8793,"067</w>":8794,"1b":8795,"1a</w>":8796,"1C</w>":8797,"1P</w>":8798,"1101</w>":8799,"1140</w>":8800,"2B":8801,"2a":8802,"2r</w>":8803,"2v</w>":8804,"213</w>":8805,"230</w>":8806,"231</w>":8807,"237</w>":8808,"238</w>":8809,"2pt</w>":8810,"23x</w>":8811,"2207</w>":8812,"3i</w>":8813,"3B</w>":8814,"3A</w>":8815,"318</w>":8816,"322</w>":8817,"355</w>":8818,"338</w>":8819,"31st</w>":8820,"4e":8821,"4A</w>":8822,"410</w>":8823,"420</w>":8824,"4ca":8825,"414</w>":8826,"430</w>":8827,"425</w>":8828,"418</w>":8829,"460</w>":8830,"423</w>":8831,"431</w>":8832,"456</w>":8833,"4200</w>":8834,"4164</w>":8835,"5y</w>":8836,"5n</w>":8837,"5b</w>":8838,"510</w>":8839,"516</w>":8840,"518</w>":8841,"550</w>":8842,"522</w>":8843,"531</w>":8844,"542</w>":8845,"544</w>":8846,"538</w>":8847,"554</w>":8848,"553</w>":8849,"6d":8850,"6a</w>":8851,"615</w>":8852,"605</w>":8853,"641</w>":8854,"689</w>":8855,"688</w>":8856,"686</w>":8857,"61e":8858,"7z</w>":8859,"720</w>":8860,"725</w>":8861,"750</w>":8862,"723</w>":8863,"731</w>":8864,"739</w>":8865,"747</w>":8866,"784</w>":8867,"8e":8868,"812</w>":8869,"820</w>":8870,"890</w>":8871,"822</w>":8872,"845</w>":8873,"838":8874,"834</w>":8875,"837</w>":8876,"848</w>":8877,"8bp</w>":8878,"911</w>":8879,"922</w>":8880,"929</w>":8881,"AE":8882,"Ab":8883,"Ag":8884,"A7</w>":8885,"AO</w>":8886,"AK</w>":8887,"Aun":8888,"Agi":8889,"AEF</w>":8890,"APM</w>":8891,"Alina</w>":8892,"BE":8893,"BR":8894,"BI</w>":8895,"Bp</w>":8896,"BH</w>":8897,"BX</w>":8898,"Blan":8899,"BDC</w>":8900,"Blake</w>":8901,"BUL</w>":8902,"CI":8903,"Ci":8904,"Cy":8905,"C1</w>":8906,"Cp</w>":8907,"CL</w>":8908,"CQ</w>":8909,"Cri":8910,"Cro":8911,"Care":8912,"Calcula":8913,"Cans</w>":8914,"CCE":8915,"DAB</w>":8916,"Deri":8917,"Due</w>":8918,"Es":8919,"Ev":8920,"Eö":8921,"Esti":8922,"Even":8923,"Eva</w>":8924,"ECT</w>":8925,"Eze":8926,"EAT</w>":8927,"Education</w>":8928,"FE":8929,"Fy":8930,"FA</w>":8931,"FK</w>":8932,"Far":8933,"Fat</w>":8934,"Fun":8935,"Four":8936,"G8</w>":8937,"G10</w>":8938,"Gary</w>":8939,"Gree":8940,"Ha":8941,"HC</w>":8942,"HD</w>":8943,"Hon":8944,"Hen":8945,"Hun":8946,"Hor":8947,"Hel":8948,"Ir":8949,"It":8950,"I4</w>":8951,"ITT":8952,"Jorge</w>":8953,"JECT</w>":8954,"Ken":8955,"Kim":8956,"LO":8957,"Long":8958,"LCM</w>":8959,"MM":8960,"MF</w>":8961,"ME</w>":8962,"Min":8963,"Mini":8964,"Mexi":8965,"NY":8966,"Nе":8967,"ND</w>":8968,"NAM":8969,"OU</w>":8970,"Our</w>":8971,"Pé":8972,"PD</w>":8973,"PK</w>":8974,"Pen":8975,"PAB</w>":8976,"Poli":8977,"Plot</w>":8978,"QQ</w>":8979,"Qiang</w>":8980,"Rab":8981,"Rhombus</w>":8982,"ST":8983,"Sen":8984,"Sam":8985,"Sph":8986,"Some":8987,"Snow</w>":8988,"Sines</w>":8989,"Small</w>":8990,"TR":8991,"TY</w>":8992,"Tang":8993,"Tam":8994,"Tang</w>":8995,"Twel":8996,"Tolya</w>":8997,"Ve":8998,"Ven":8999,"Wor":9000,"Yellow</w>":9001,"Youth</w>":9002,"YOU</w>":9003,"Zo":9004,"ZO</w>":9005,"Zou</w>":9006,"ate":9007,"apo":9008,"aci":9009,"ace":9010,"apri":9011,"awe":9012,"avo":9013,"aeb":9014,"ayka</w>":9015,"atrix</w>":9016,"ba</w>":9017,"bear</w>":9018,"bund":9019,"broom</w>":9020,"blings</w>":9021,"c7":9022,"cit</w>":9023,"cran":9024,"c9a":9025,"cdef</w>":9026,"den</w>":9027,"dles</w>":9028,"dong</w>":9029,"dden":9030,"dney</w>":9031,"eline</w>":9032,"esta":9033,"ears</w>":9034,"eye":9035,"f0":9036,"fü":9037,"fo</w>":9038,"fat</w>":9039,"fen":9040,"fth</w>":9041,"gb</w>":9042,"gone</w>":9043,"gat":9044,"grow</w>":9045,"ggy</w>":9046,"hence</w>":9047,"hong</w>":9048,"hone":9049,"iz</w>":9050,"ico":9051,"ian</w>":9052,"iso":9053,"juni":9054,"junior</w>":9055,"jie</w>":9056,"kong</w>":9057,"kut</w>":9058,"knew</w>":9059,"kings</w>":9060,"koli":9061,"lb</w>":9062,"lis</w>":9063,"lle":9064,"lle</w>":9065,"lla":9066,"lson</w>":9067,"llent</w>":9068,"lfo</w>":9069,"mn":9070,"meri":9071,"nea":9072,"nsubseteq</w>":9073,"om</w>":9074,"oo</w>":9075,"oct":9076,"omi":9077,"oil</w>":9078,"ová</w>":9079,"oya":9080,"osits</w>":9081,"pm":9082,"pa</w>":9083,"ph</w>":9084,"pan</w>":9085,"ptions</w>":9086,"pence</w>":9087,"plant</w>":9088,"pins</w>":9089,"pre</w>":9090,"pear</w>":9091,"qr</w>":9092,"qiang</w>":9093,"rgb</w>":9094,"sz":9095,"ssi":9096,"sto</w>":9097,"squa":9098,"sse</w>":9099,"squad</w>":9100,"song</w>":9101,"spen":9102,"sten</w>":9103,"slow</w>":9104,"ski</w>":9105,"ska</w>":9106,"sfield</w>":9107,"tv":9108,"tter":9109,"ttes</w>":9110,"tant</w>":9111,"tches</w>":9112,"tched</w>":9113,"ux</w>":9114,"useg":9115,"vlo":9116,"vdots</w>":9117,"vard</w>":9118,"vary</w>":9119,"vrh":9120,"w2</w>":9121,"wra":9122,"wind</w>":9123,"wto":9124,"word":9125,"winter</w>":9126,"western</w>":9127,"xt</w>":9128,"xplane</w>":9129,"xequals</w>":9130,"ym</w>":9131,"yer</w>":9132,"yan</w>":9133,"yequals</w>":9134,"yrs</w>":9135,"your":9136,"yangyang</w>":9137,"zz</w>":9138,"zan</w>":9139,"ás</w>":9140,"ös</w>":9141,"зн":9142,"thre":9143,"thly</w>":9144,"thea":9145,"thur</w>":9146,"inse":9147,"invi":9148,"inha":9149,"ingre":9150,"ingot</w>":9151,"indefinitely</w>":9152,"index":9153,"anu</w>":9154,"ert</w>":9155,"ertext</w>":9156,"erboard</w>":9157,"erman</w>":9158,"tie</w>":9159,"tied</w>":9160,"tian</w>":9161,"tires</w>":9162,"arg</w>":9163,"arded</w>":9164,"arance</w>":9165,"telling</w>":9166,"raft</w>":9167,"rapi":9168,"rage</w>":9169,"raise</w>":9170,"ralum":9171,"leq":9172,"lei</w>":9173,"lec</w>":9174,"remo":9175,"reality</w>":9176,"remember</w>":9177,"replacing</w>":9178,"retains</w>":9179,"ald</w>":9180,"almost</w>":9181,"altogether</w>":9182,"althy</w>":9183,"although</w>":9184,"rit</w>":9185,"ride</w>":9186,"riding</w>":9187,"riders</w>":9188,"enclo":9189,"enko</w>":9190,"entists</w>":9191,"sight</w>":9192,"sibly</w>":9193,"siblings</w>":9194,"ros</w>":9195,"rode</w>":9196,"rocket</w>":9197,"rosk":9198,"numeri":9199,"numbering</w>":9200,"foo</w>":9201,"fore":9202,"sea</w>":9203,"sees</w>":9204,"seas":9205,"seven":9206,"seeds</w>":9207,"mats</w>":9208,"maple</w>":9209,"mappings</w>":9210,"cop":9211,"coat</w>":9212,"cock</w>":9213,"cobs</w>":9214,"lap":9215,"lated</w>":9216,"lays</w>":9217,"lating</w>":9218,"lacro":9219,"lash</w>":9220,"labor</w>":9221,"superi":9222,"wish</w>":9223,"That</w>":9224,"doing</w>":9225,"dows</w>":9226,"terns</w>":9227,"sty</w>":9228,"stro":9229,"stly</w>":9230,"stran":9231,"lots</w>":9232,"lous</w>":9233,"lops</w>":9234,"loam</w>":9235,"locked</w>":9236,"intext</w>":9237,"unde":9238,"uncolored</w>":9239,"uncertainty</w>":9240,"unlimited</w>":9241,"hour":9242,"hops</w>":9243,"hoses</w>":9244,"however</w>":9245,"eagle</w>":9246,"cong</w>":9247,"conven":9248,"trical</w>":9249,"beverage</w>":9250,"belt</w>":9251,"beef</w>":9252,"orbit</w>":9253,"2036</w>":9254,"mathsc":9255,"likes</w>":9256,"liament</w>":9257,"exchanged</w>":9258,"exchanges</w>":9259,"extre":9260,"tai</w>":9261,"nom</w>":9262,"promo":9263,"ctu":9264,"ctares</w>":9265,"mud</w>":9266,"mean":9267,"asser":9268,"deed</w>":9269,"details</w>":9270,"describe</w>":9271,"dealt</w>":9272,"1014</w>":9273,"1022</w>":9274,"1045</w>":9275,"1098</w>":9276,"1079</w>":9277,"bogat":9278,"tionali":9279,"perform":9280,"permitted</w>":9281,"vials</w>":9282,"tower</w>":9283,"fiers</w>":9284,"fired</w>":9285,"fically</w>":9286,"hat":9287,"hair":9288,"mix</w>":9289,"migra":9290,"micro":9291,"misses</w>":9292,"missed</w>":9293,"path":9294,"landri":9295,"cia</w>":9296,"attra":9297,"gel</w>":9298,"parliament</w>":9299,"drawer</w>":9300,"squari":9301,"neg":9302,"near":9303,"nese</w>":9304,"need":9305,"chu":9306,"chelle</w>":9307,"bage</w>":9308,"baked</w>":9309,"backs":9310,"sation</w>":9311,"sages</w>":9312,"sahedron</w>":9313,"sail</w>":9314,"primi":9315,"prized</w>":9316,"textnormal</w>":9317,"compres":9318,"compose</w>":9319,"commas</w>":9320,"minder</w>":9321,"minnow</w>":9322,"phic</w>":9323,"phrase</w>":9324,"overtakes</w>":9325,"plastic</w>":9326,"plaintext</w>":9327,"19x</w>":9328,"1950</w>":9329,"1957</w>":9330,"1972</w>":9331,"1961</w>":9332,"1977</w>":9333,"1974</w>":9334,"1971</w>":9335,"mov</w>":9336,"mothers</w>":9337,"bikes</w>":9338,"bicycles</w>":9339,"piggy</w>":9340,"ffc":9341,"ffin</w>":9342,"solver</w>":9343,"Exam</w>":9344,"Excel":9345,"small":9346,"heart":9347,"hectares</w>":9348,"differs</w>":9349,"fabu":9350,"shoes</w>":9351,"duction</w>":9352,"ducks</w>":9353,"dueled</w>":9354,"duralum":9355,"fort":9356,"forgo":9357,"dam</w>":9358,"cable</w>":9359,"trahedron</w>":9360,"ruler</w>":9361,"intersected</w>":9362,"busin":9363,"tart</w>":9364,"sole":9365,"solar</w>":9366,"sound</w>":9367,"someth":9368,"socc":9369,"correlation</w>":9370,"gram</w>":9371,"graded</w>":9372,"gravitational</w>":9373,"dener</w>":9374,"planted</w>":9375,"planets</w>":9376,"pend":9377,"1424</w>":9378,"1440</w>":9379,"1492</w>":9380,"ario</w>":9381,"ariot</w>":9382,"upside</w>":9383,"upward</w>":9384,"stem</w>":9385,"seg2</w>":9386,"seg1</w>":9387,"1212</w>":9388,"1214</w>":9389,"1218</w>":9390,"1232</w>":9391,"1231</w>":9392,"1255</w>":9393,"1275</w>":9394,"1242</w>":9395,"1243</w>":9396,"secondary</w>":9397,"ssors</w>":9398,"13x</w>":9399,"1320</w>":9400,"1319</w>":9401,"Math":9402,"Maja</w>":9403,"syrup</w>":9404,"inclined</w>":9405,"15th</w>":9406,"1523</w>":9407,"1506</w>":9408,"1581</w>":9409,"accumula":9410,"multi</w>":9411,"substances</w>":9412,"elect":9413,"1893</w>":9414,"1682</w>":9415,"esh</w>":9416,"playground</w>":9417,"spews</w>":9418,"wels</w>":9419,"2500</w>":9420,"luck</w>":9421,"lulfo</w>":9422,"feit</w>":9423,"Contest</w>":9424,"Convex</w>":9425,"Consequently</w>":9426,"Comb":9427,"Coordinate</w>":9428,"completing</w>":9429,"complexplane</w>":9430,"canal</w>":9431,"candles</w>":9432,"ometry</w>":9433,"stated</w>":9434,"operate</w>":9435,"4032</w>":9436,"carp</w>":9437,"gation</w>":9438,"37th</w>":9439,"Andr":9440,"Andy</w>":9441,"34th</w>":9442,"thirteen</w>":9443,"1004</w>":9444,"1009</w>":9445,"100x</w>":9446,"10000":9447,"crown</w>":9448,"crossing</w>":9449,"24th</w>":9450,"24a8d":9451,"county</w>":9452,"29th</w>":9453,"2925</w>":9454,"567</w>":9455,"regard</w>":9456,"objects</w>":9457,"46ead":9458,"systems</w>":9459,"drying</w>":9460,"drunk</w>":9461,"47d":9462,"479</w>":9463,"472</w>":9464,"585</w>":9465,"arithme":9466,"goals</w>":9467,"parties</w>":9468,"partitions</w>":9469,"673</w>":9470,"675</w>":9471,"opini":9472,"measuring</w>":9473,"Into</w>":9474,"Inequality</w>":9475,"Indeed</w>":9476,"decimeters</w>":9477,"hedra</w>":9478,"monthly</w>":9479,"Cheng</w>":9480,"Chariot</w>":9481,"prec":9482,"prepar":9483,"874</w>":9484,"abs</w>":9485,"abcdef</w>":9486,"indeterminate</w>":9487,"circumcenters</w>":9488,"transmitted</w>":9489,"transformations</w>":9490,"transparent</w>":9491,"ette</w>":9492,"ounces</w>":9493,"excellent</w>":9494,"adjo":9495,"Comparing</w>":9496,"pezoid</w>":9497,"ashi":9498,"hypo":9499,"hyper</w>":9500,"register</w>":9501,"nifi":9502,"signifi":9503,"strives</w>":9504,"shadow</w>":9505,"receiving</w>":9506,"tina</w>":9507,"11th</w>":9508,"holding</w>":9509,"disk</w>":9510,"disc</w>":9511,"kiel</w>":9512,"parab</w>":9513,"jog</w>":9514,"joins</w>":9515,"applied</w>":9516,"Remark</w>":9517,"Repeat</w>":9518,"Reminder</w>":9519,"calculates</w>":9520,"grill</w>":9521,"amounted</w>":9522,"tyom</w>":9523,"794</w>":9524,"stopped</w>":9525,"connects</w>":9526,"Arthur</w>":9527,"Artyom</w>":9528,"breath</w>":9529,"occurren":9530,"occurrence</w>":9531,"determining</w>":9532,"Carlos</w>":9533,"variance</w>":9534,"variants</w>":9535,"long":9536,"frac32</w>":9537,"2310</w>":9538,"served</w>":9539,"participates</w>":9540,"Beto</w>":9541,"Begin</w>":9542,"tank</w>":9543,"responsible</w>":9544,"handed</w>":9545,"generators</w>":9546,"generatrix</w>":9547,"44th</w>":9548,"4444</w>":9549,"Mihai</w>":9550,"Michelle</w>":9551,"tub</w>":9552,"6524a8d":9553,"bands</w>":9554,"Dio":9555,"Dick</w>":9556,"spea":9557,"spend</w>":9558,"whoosits</w>":9559,"9450</w>":9560,"mantis":9561,"names</w>":9562,"attaching</w>":9563,"swims</w>":9564,"ferries</w>":9565,"inciple</w>":9566,"zzzz":9567,"collections</w>":9568,"expli":9569,"ulti":9570,"fifths</w>":9571,"fifteen</w>":9572,"32nd</w>":9573,"Alpha</w>":9574,"42nd</w>":9575,"Sue</w>":9576,"Such</w>":9577,"semicolon</w>":9578,"doubles</w>":9579,"appeared</w>":9580,"appearance</w>":9581,"drill</w>":9582,"cylinders</w>":9583,"expanded</w>":9584,"teachers</w>":9585,"CDP</w>":9586,"Perform</w>":9587,"21c5":9588,"Rock</w>":9589,"silk</w>":9590,"finishes</w>":9591,"magician</w>":9592,"quartic</w>":9593,"Lau":9594,"Latin</w>":9595,"otonically</w>":9596,"Pavlo":9597,"converg":9598,"convert</w>":9599,"converted</w>":9600,"conversion</w>":9601,"possibility</w>":9602,"Auth":9603,"catties</w>":9604,"seawater</w>":9605,"prints</w>":9606,"Cannon</w>":9607,"New":9608,"Tom</w>":9609,"Town</w>":9610,"coinciding</w>":9611,"bric</w>":9612,"clude</w>":9613,"frosting</w>":9614,"sense</w>":9615,"senten":9616,"sensibly</w>":9617,"slide</w>":9618,"slides</w>":9619,"slipping</w>":9620,"dimension</w>":9621,"measurements</w>":9622,"Earth":9623,"supposed</w>":9624,"shuttle":9625,"Bernaldo</w>":9626,"Squares</w>":9627,"recipe</w>":9628,"EFGH":9629,"Monotonically</w>":9630,"clean":9631,"annually</w>":9632,"bigg</w>":9633,"bigc</w>":9634,"ABCDEFGH</w>":9635,"Jane</w>":9636,"Sydney</w>":9637,"COR":9638,"COMM":9639,"Frida</w>":9640,"Scissors</w>":9641,"discre":9642,"discarding</w>":9643,"counterfeit</w>":9644,"Bono</w>":9645,"assumes</w>":9646,"young</w>":9647,"eventually</w>":9648,"Under</w>":9649,"spot":9650,"spots</w>":9651,"simplifies</w>":9652,"domino</w>":9653,"loaf</w>":9654,"loaded</w>":9655,"program":9656,"keeper</w>":9657,"flag":9658,"flask</w>":9659,"offices</w>":9660,"treated</w>":9661,"inserted</w>":9662,"inserting</w>":9663,"engage</w>":9664,"quick":9665,"observe</w>":9666,"Charter</w>":9667,"Lucia</w>":9668,"creates</w>":9669,"spirit</w>":9670,"tickdown":9671,"competing</w>":9672,"preserves</w>":9673,"preserved</w>":9674,"identify</w>":9675,"Similar</w>":9676,"Baker":9677,"Bajie</w>":9678,"Karlson</w>":9679,"useticks</w>":9680,"simply</w>":9681,"patterns</w>":9682,"communication</w>":9683,"cookie</w>":9684,"AMC</w>":9685,"Fuzhou</w>":9686,"Tetrahedron</w>":9687,"inverses</w>":9688,"courses</w>":9689,"proposer</w>":9690,"physics</w>":9691,"mountains</w>":9692,"Add</w>":9693,"Hua</w>":9694,"dart</w>":9695,"yields</w>":9696,"instance</w>":9697,"cdot3</w>":9698,"cdot2</w>":9699,"Xiaohong</w>":9700,"GREAT</w>":9701,"evaluating</w>":9702,"intercepted</w>":9703,"symmetrical</w>":9704,"successively</w>":9705,"Adapted</w>":9706,"Choose</w>":9707,"Chord</w>":9708,"Chords</w>":9709,"Trapezoid</w>":9710,"dinners</w>":9711,"honey</w>":9712,"morphic</w>":9713,"helped</w>":9714,"Forty</w>":9715,"Jenna</w>":9716,"Select</w>":9717,"dresses</w>":9718,"gallery</w>":9719,"ulated</w>":9720,"contents</w>":9721,"attempt</w>":9722,"attempts</w>":9723,"ffect</w>":9724,"predictions</w>":9725,"predicted</w>":9726,"tourists</w>":9727,"Kati</w>":9728,"crew</w>":9729,"flowers</w>":9730,"festivities</w>":9731,"gardener</w>":9732,"sandy</w>":9733,"realizes</w>":9734,"repayments</w>":9735,"trisected</w>":9736,"association</w>":9737,"associated</w>":9738,"associations</w>":9739,"checkerboard</w>":9740,"occurred</w>":9741,"occurring</w>":9742,"Factorization</w>":9743,"Cathy</w>":9744,"Further</w>":9745,"jedna":9746,"prune</w>":9747,"diametrically</w>":9748,"street</w>":9749,"Brothers</w>":9750,"Ivano":9751,"dancing</w>":9752,"lesson</w>":9753,"controls</w>":9754,"optimal</w>":9755,"Rectangles</w>":9756,"ccccc</w>":9757,"auditori":9758,"Jiangxi</w>":9759,"Dog</w>":9760,"Darren</w>":9761,"Kost":9762,"Principle</w>":9763,"SUCCE":9764,"herself</w>":9765,"times10</w>":9766,"legally</w>":9767,"Third</w>":9768,"configurations</w>":9769,"beetle</w>":9770,"victories</w>":9771,"torial</w>":9772,"paign</w>":9773,"candidates</w>":9774,"abscissas</w>":9775,"organizers</w>":9776,"Grisha</w>":9777,"Griffin</w>":9778,"Sai</w>":9779,"wolf</w>":9780,"thick":9781,"restrictions</w>":9782,"onio</w>":9783,"encounter</w>":9784,"setup</w>":9785,"20212021":9786,"departure</w>":9787,"Council</w>":9788,"issue</w>":9789,"purchasing</w>":9790,"umbrella</w>":9791,"illustrate</w>":9792,"Specifically</w>":9793,"Geometric</w>":9794,"Harold</w>":9795,"Harvard</w>":9796,"Vlad</w>":9797,"Wukong</w>":9798,"campaign</w>":9799,"death</w>":9800,"euros</w>":9801,"odor</w>":9802,"odometer</w>":9803,"wondered</w>":9804,"rainy</w>":9805,"material</w>":9806,"conclude</w>":9807,"concludes</w>":9808,"extraction</w>":9809,"extracted</w>":9810,"culty</w>":9811,"accomplish</w>":9812,"Indicate</w>":9813,"transported</w>":9814,"transportation</w>":9815,"Isabella</w>":9816,"Isabelle</w>":9817,"cumulative</w>":9818,"Cube</w>":9819,"Dushan</w>":9820,"Ellina</w>":9821,"Everyone</w>":9822,"Keal</w>":9823,"Matrosk":9824,"Sandy</w>":9825,"Summer</w>":9826,"Sheep</w>":9827,"Yaoya":9828,"cruise</w>":9829,"grandmother</w>":9830,"hunting</w>":9831,"karp</w>":9832,"often</w>":9833,"introdu":9834,"secant</w>":9835,"consumption</w>":9836,"exclusive</w>":9837,"address</w>":9838,"constraint</w>":9839,"monochro":9840,"directrix</w>":9841,"dismiss</w>":9842,"Regular</w>":9843,"anticipated</w>":9844,"Cheburashka</w>":9845,"analog":9846,"123456789":9847,"believe</w>":9848,"AGE</w>":9849,"Polina</w>":9850,"Runner</w>":9851,"SIT</w>":9852,"Spain</w>":9853,"Yann</w>":9854,"tolars</w>":9855,"legible</w>":9856,"qualification</w>":9857,"launched</w>":9858,"widgets</w>":9859,"museum</w>":9860,"ciphertext</w>":9861,"smartphone</w>":9862,"waiter</w>":9863,"capital</w>":9864,"graduate</w>":9865,"Matematic":9866,"subtended</w>":9867,"electricity</w>":9868,"middlec</w>":9869,"Antonio</w>":9870,"transferred</w>":9871,"claims</w>":9872,"Complex</w>":9873,"octahedron</w>":9874,"Australian</w>":9875,"Leftrightarrow</w>":9876,"societies</w>":9877,"sandwich</w>":9878,"Bulgarian</w>":9879,"Olga</w>":9880,"Sloven":9881,"Shanille</w>":9882,"granulated</w>":9883,"gluing</w>":9884,"idioms</w>":9885,"wanted</w>":9886,"weather</w>":9887,"quilts</w>":9888,"intended</w>":9889,"expedition</w>":9890,"giraffe</w>":9891,"assemb":9892,"patrol</w>":9893,"chalk</w>":9894,"bathtub</w>":9895,"biologist</w>":9896,"Product</w>":9897,"calendar</w>":9898,"centrally</w>":9899,"takeoff</w>":9900,"crossword</w>":9901,"Individual</w>":9902,"employees</w>":9903,"heavier</w>":9904,"sketch</w>":9905,"capacitor</w>":9906,"Zahlen</w>":9907,"SUBJECT</w>":9908,"referee</w>":9909,"accuracy</w>":9910,"Originally</w>":9911,"opponent</w>":9912,"61e21c5":9913,"Agnese</w>":9914,"Aunt</w>":9915,"Agilulfo</w>":9916,"Derive</w>":9917,"Esther</w>":9918,"Eötv":9919,"Ezekiel</w>":9920,"Fyodor</w>":9921,"Horse</w>":9922,"Help</w>":9923,"Itali":9924,"ITTEE</w>":9925,"Kenny</w>":9926,"Kimi</w>":9927,"Ministry</w>":9928,"Nезн":9929,"NAME</w>":9930,"Péter</w>":9931,"Polikarp</w>":9932,"Rabbit</w>":9933,"Someone</w>":9934,"Tamás</w>":9935,"Twelve</w>":9936,"acid</w>":9937,"awesome</w>":9938,"crane</w>":9939,"estab":9940,"eyeb":9941,"honestly</w>":9942,"icosahedron</w>":9943,"juniors</w>":9944,"koliko</w>":9945,"llables</w>":9946,"neatly</w>":9947,"squads</w>":9948,"usegrid</w>":9949,"wording</w>":9950,"yourself</w>":9951,"threw</w>":9952,"insect</w>":9953,"inhabi":9954,"ingredi":9955,"indexed</w>":9956,"rapidly</w>":9957,"remote</w>":9958,"numerically</w>":9959,"season</w>":9960,"lacrosse</w>":9961,"mathscr</w>":9962,"bogatyrs</w>":9963,"tionalize</w>":9964,"performance</w>":9965,"squarish</w>":9966,"backslash</w>":9967,"Excellent</w>":9968,"smallc</w>":9969,"heartsuit</w>":9970,"fabulous</w>":9971,"duralumin</w>":9972,"forgotten</w>":9973,"busine":9974,"something</w>":9975,"soccer</w>":9976,"46ead6524a8d":9977,"occurrences</w>":9978,"zzzzzz</w>":9979,"shuttlecock</w>":9980,"COMMITTEE</w>":9981,"Bakersfield</w>":9982,"auditorium</w>":9983,"SUCCESS</w>":9984,"Matroskin</w>":9985,"Yaoyao</w>":9986,"61e21c51g</w>":9987,"Eötvös</w>":9988,"Nезнayka</w>":9989,"46ead6524a8d61e21c51g</w>":9990,"020</w>":9991,"019</w>":9992,"0ad":9993,"040":9994,"044</w>":9995,"085</w>":9996,"004</w>":9997,"003</w>":9998,"03b":9999,"1s</w>":10000,"1O</w>":10001,"1D</w>":10002,"1cm</w>":10003,"1100</w>":10004,"115":10005,"1169</w>":10006,"1165</w>":10007,"1163</w>":10008,"1188</w>":10009,"1171</w>":10010,"1184</w>":10011,"2e</w>":10012,"2A</w>":10013,"2BC</w>":10014,"227</w>":10015,"226</w>":10016,"229</w>":10017,"239</w>":10018,"2ab</w>":10019,"2yz</w>":10020,"2109</w>":10021,"2122</w>":10022,"2272</w>":10023,"2376</w>":10024,"2341</w>":10025,"320":10026,"310</w>":10027,"390</w>":10028,"340":10029,"334</w>":10030,"353</w>":10031,"351</w>":10032,"358</w>":10033,"359</w>":10034,"323":10035,"3208</w>":10036,"3998</w>":10037,"4l</w>":10038,"4p</w>":10039,"4q</w>":10040,"415</w>":10041,"413</w>":10042,"419</w>":10043,"440</w>":10044,"429</w>":10045,"437</w>":10046,"449</w>":10047,"452</w>":10048,"458</w>":10049,"459</w>":10050,"446</w>":10051,"4xy</w>":10052,"4361</w>":10053,"5e":10054,"5f":10055,"5B</w>":10056,"5z</w>":10057,"513</w>":10058,"514</w>":10059,"530</w>":10060,"525</w>":10061,"536</w>":10062,"547</w>":10063,"613</w>":10064,"621</w>":10065,"650</w>":10066,"634":10067,"655</w>":10068,"638</w>":10069,"654</w>":10070,"685</w>":10071,"646</w>":10072,"666</w>":10073,"662</w>":10074,"6c0":10075,"7a</w>":10076,"7b</w>":10077,"712</w>":10078,"719</w>":10079,"736</w>":10080,"732</w>":10081,"728</w>":10082,"733</w>":10083,"734</w>":10084,"729</w>":10085,"705</w>":10086,"780</w>":10087,"775</w>":10088,"748</w>":10089,"764</w>":10090,"706</w>":10091,"785</w>":10092,"762</w>":10093,"761</w>":10094,"7f9":10095,"8b":10096,"810</w>":10097,"819":10098,"816</w>":10099,"824</w>":10100,"8cm</w>":10101,"818</w>":10102,"823</w>":10103,"835</w>":10104,"833</w>":10105,"875</w>":10106,"842</w>":10107,"864</w>":10108,"8192</w>":10109,"9f":10110,"9g</w>":10111,"9a</w>":10112,"920</w>":10113,"924</w>":10114,"960</w>":10115,"933</w>":10116,"955</w>":10117,"975</w>":10118,"944</w>":10119,"985</w>":10120,"968</w>":10121,"961</w>":10122,"986</w>":10123,"AK":10124,"AQ":10125,"AS":10126,"AT":10127,"A9</w>":10128,"Air</w>":10129,"Average</w>":10130,"Ashe":10131,"ATI":10132,"AMN</w>":10133,"AEC</w>":10134,"Alla</w>":10135,"Alana</w>":10136,"BA":10137,"BG</w>":10138,"BO</w>":10139,"BW</w>":10140,"Bx</w>":10141,"BT</w>":10142,"Ben":10143,"Bran":10144,"Bred</w>":10145,"Bob":10146,"BOC</w>":10147,"BEFG</w>":10148,"BKL</w>":10149,"CO</w>":10150,"CK</w>":10151,"CX</w>":10152,"CJ</w>":10153,"Cti":10154,"Cle":10155,"Cal":10156,"Cas</w>":10157,"Cur":10158,"Che</w>":10159,"Clu":10160,"Cate</w>":10161,"CMO</w>":10162,"CBA</w>":10163,"Cernaldo</w>":10164,"Celsius</w>":10165,"DE":10166,"Dy":10167,"DI</w>":10168,"DR</w>":10169,"DN</w>":10170,"Den":10171,"Don</w>":10172,"Dir":10173,"Dud":10174,"Dis":10175,"Dil":10176,"Dong":10177,"Dana</w>":10178,"DEFG</w>":10179,"Dernaldo</w>":10180,"Dunde":10181,"Dario</w>":10182,"EN":10183,"EA</w>":10184,"EH</w>":10185,"Eri":10186,"Equ":10187,"Eve</w>":10188,"Evalu":10189,"Easy</w>":10190,"EAR</w>":10191,"EDCB</w>":10192,"Emma</w>":10193,"FD</w>":10194,"Fer":10195,"Fres":10196,"Festi":10197,"GE":10198,"GU":10199,"G4</w>":10200,"G1</w>":10201,"GV</w>":10202,"Game</w>":10203,"Glow</w>":10204,"Gau":10205,"GEM</w>":10206,"Gener":10207,"German</w>":10208,"GDR</w>":10209,"Hy":10210,"HG</w>":10211,"HH</w>":10212,"Hare</w>":10213,"Hol":10214,"Hat":10215,"High":10216,"Hexag":10217,"Hau":10218,"Im":10219,"IN</w>":10220,"Iri":10221,"Jun":10222,"Jar</w>":10223,"KM</w>":10224,"Kx</w>":10225,"Ker":10226,"Kra":10227,"Kon":10228,"Kha":10229,"Knight</w>":10230,"LI":10231,"Le</w>":10232,"LC</w>":10233,"LE</w>":10234,"Lin</w>":10235,"Lou":10236,"Lari":10237,"Lena</w>":10238,"MT":10239,"Mu":10240,"Mi</w>":10241,"MD</w>":10242,"Mal":10243,"Mat</w>":10244,"Man</w>":10245,"Mother</w>":10246,"NO":10247,"N3</w>":10248,"N1</w>":10249,"NH</w>":10250,"Nin":10251,"Nast":10252,"ON</w>":10253,"Oct":10254,"Ode":10255,"Oper":10256,"Out":10257,"Oleg</w>":10258,"Ory":10259,"PS</w>":10260,"Pang":10261,"Pan</w>":10262,"Peri":10263,"Pyra":10264,"Phy":10265,"PAM</w>":10266,"Qa":10267,"QQQ</w>":10268,"Re</w>":10269,"Rt</w>":10270,"RB</w>":10271,"Red</w>":10272,"Rach":10273,"SF":10274,"SI</w>":10275,"SC</w>":10276,"Sp</w>":10277,"Sim":10278,"Stir":10279,"SME</w>":10280,"Tr</w>":10281,"Tur":10282,"Tat":10283,"Tasks</w>":10284,"Tena</w>":10285,"TGV</w>":10286,"US</w>":10287,"UK</w>":10288,"UV</w>":10289,"Usually</w>":10290,"Vor":10291,"Win":10292,"Won":10293,"Wat":10294,"Well</w>":10295,"Western</w>":10296,"XY":10297,"XC</w>":10298,"XP</w>":10299,"XA</w>":10300,"Xue</w>":10301,"YW</w>":10302,"Ying</w>":10303,"Yol":10304,"Yas":10305,"Yag":10306,"York</w>":10307,"Ying":10308,"YEAR</w>":10309,"ZW</w>":10310,"ag</w>":10311,"ath":10312,"ats</w>":10313,"ater</w>":10314,"aper":10315,"aside</w>":10316,"awards</w>":10317,"b3":10318,"bg</w>":10319,"bbe":10320,"bent</w>":10321,"bfa":10322,"bru":10323,"broo":10324,"bars</w>":10325,"b77":10326,"bka</w>":10327,"bron":10328,"borders</w>":10329,"c3":10330,"cz</w>":10331,"cles</w>":10332,"cres":10333,"ctional</w>":10334,"ctable</w>":10335,"crate</w>":10336,"d0":10337,"d4":10338,"dang":10339,"dam":10340,"dmin":10341,"dining</w>":10342,"dfrac":10343,"dering</w>":10344,"dream</w>":10345,"d970":10346,"ek</w>":10347,"eur":10348,"esum</w>":10349,"els</w>":10350,"ess":10351,"e92":10352,"efly</w>":10353,"egar</w>":10354,"e2f":10355,"education</w>":10356,"e4b":10357,"esel</w>":10358,"email</w>":10359,"epest</w>":10360,"fg</w>":10361,"fre":10362,"fts</w>":10363,"fba":10364,"fred</w>":10365,"f26":10366,"fying</w>":10367,"fway</w>":10368,"flying</w>":10369,"gal":10370,"gan</w>":10371,"gol":10372,"gare":10373,"grows</w>":10374,"gton</w>":10375,"gspot</w>":10376,"há":10377,"hum":10378,"hang":10379,"hend</w>":10380,"hid</w>":10381,"him":10382,"hini":10383,"ih":10384,"iss":10385,"iders</w>":10386,"ica</w>":10387,"ification</w>":10388,"idi</w>":10389,"jar":10390,"jana</w>":10391,"kö":10392,"kat</w>":10393,"kas</w>":10394,"kling</w>":10395,"kstore</w>":10396,"lu</w>":10397,"lon</w>":10398,"llow":10399,"mo</w>":10400,"mon</w>":10401,"mine</w>":10402,"mory</w>":10403,"ny":10404,"nC</w>":10405,"np</w>":10406,"ná</w>":10407,"nan":10408,"near</w>":10409,"oj":10410,"ow":10411,"og</w>":10412,"p1</w>":10413,"pse":10414,"pun":10415,"pine</w>":10416,"pli":10417,"peach</w>":10418,"plu":10419,"pants</w>":10420,"pans</w>":10421,"pqr</w>":10422,"psto</w>":10423,"qx</w>":10424,"qing</w>":10425,"rum":10426,"rff</w>":10427,"s0</w>":10428,"sdo":10429,"sor</w>":10430,"spar":10431,"slow":10432,"scen":10433,"ssion</w>":10434,"sks</w>":10435,"scoun":10436,"slower</w>":10437,"stern</w>":10438,"ssel</w>":10439,"ton":10440,"tural</w>":10441,"tre</w>":10442,"tya</w>":10443,"tute</w>":10444,"tfrac":10445,"tná</w>":10446,"uk":10447,"uf</w>":10448,"uine</w>":10449,"uli":10450,"usible</w>":10451,"ubka</w>":10452,"vr":10453,"vč":10454,"vre":10455,"vac":10456,"vature</w>":10457,"w1</w>":10458,"wspa":10459,"wages</w>":10460,"x3</w>":10461,"xf</w>":10462,"yo":10463,"yar":10464,"yed</w>":10465,"yab":10466,"zo</w>":10467,"zin":10468,"zen</w>":10469,"zone</w>":10470,"zeb":10471,"zette</w>":10472,"zubka</w>":10473,"zyab":10474,"°C</w>":10475,"ér</w>":10476,"ík</w>":10477,"ća</w>":10478,"ča</w>":10479,"član</w>":10480,"ча</w>":10481,"tha</w>":10482,"thout</w>":10483,"inx</w>":10484,"ano</w>":10485,"anis":10486,"anten":10487,"andro":10488,"era</w>":10489,"eras":10490,"erable</w>":10491,"tist</w>":10492,"titions</w>":10493,"tients</w>":10494,"tired</w>":10495,"tiled</w>":10496,"tiger</w>":10497,"arma":10498,"arsh":10499,"arena</w>":10500,"teed</w>":10501,"teas":10502,"tector</w>":10503,"raz":10504,"rač":10505,"ras</w>":10506,"raw</w>":10507,"rable</w>":10508,"rals</w>":10509,"racing</w>":10510,"lek</w>":10511,"levi":10512,"lement</w>":10513,"leases</w>":10514,"leni":10515,"repe":10516,"rement</w>":10517,"recomm":10518,"rememb":10519,"remembers</w>":10520,"restore</w>":10521,"recep":10522,"redistribute</w>":10523,"recru":10524,"resear":10525,"recently</w>":10526,"revenue</w>":10527,"aly</w>":10528,"allo":10529,"allocated</w>":10530,"algorithm</w>":10531,"ril</w>":10532,"ricul":10533,"onwards</w>":10534,"onovich</w>":10535,"enter</w>":10536,"enci":10537,"engin":10538,"enrolled</w>":10539,"envelo":10540,"poli":10541,"pours</w>":10542,"police</w>":10543,"postage</w>":10544,"polis</w>":10545,"sic</w>":10546,"site</w>":10547,"sime":10548,"sibility</w>":10549,"sibir":10550,"sixes</w>":10551,"silent</w>":10552,"roid</w>":10553,"quid</w>":10554,"dia</w>":10555,"dimi":10556,"dimes</w>":10557,"dials</w>":10558,"dified</w>":10559,"dium</w>":10560,"didate</w>":10561,"digging</w>":10562,"didn</w>":10563,"diesel</w>":10564,"fová</w>":10565,"seat":10566,"seys</w>":10567,"semes":10568,"seille</w>":10569,"secre":10570,"males</w>":10571,"maze</w>":10572,"masco":10573,"mask</w>":10574,"makers</w>":10575,"mapsto</w>":10576,"cob</w>":10577,"cots</w>":10578,"codi":10579,"copies</w>":10580,"lay</w>":10581,"laws</w>":10582,"lasts</w>":10583,"lasses</w>":10584,"latitud":10585,"lasted</w>":10586,"sue</w>":10587,"sung":10588,"susta":10589,"suffici":10590,"sudden":10591,"ghters</w>":10592,"ghnut</w>":10593,"wife</w>":10594,"dor</w>":10595,"doors</w>":10596,"dozen</w>":10597,"stan</w>":10598,"stard</w>":10599,"strings</w>":10600,"locally</w>":10601,"logo</w>":10602,"locking</w>":10603,"lors</w>":10604,"loyal":10605,"lotte</w>":10606,"lotter":10607,"inteng":10608,"unkno":10609,"undefined</w>":10610,"undecided</w>":10611,"unanswered</w>":10612,"uncrossed</w>":10613,"unlei</w>":10614,"integrals</w>":10615,"ama</w>":10616,"ambas":10617,"among":10618,"hot</w>":10619,"hop</w>":10620,"host</w>":10621,"hoste":10622,"east":10623,"eable</w>":10624,"ea8g</w>":10625,"condu":10626,"conden":10627,"confe":10628,"contr":10629,"contin":10630,"conje":10631,"concep":10632,"concyclic</w>":10633,"trio</w>":10634,"tribe</w>":10635,"trice</w>":10636,"beds</w>":10637,"better</w>":10638,"vertex":10639,"versus</w>":10640,"twin</w>":10641,"twins</w>":10642,"orge":10643,"theory</w>":10644,"theore":10645,"thesis</w>":10646,"2090</w>":10647,"2048</w>":10648,"2039</w>":10649,"2046</w>":10650,"2023":10651,"2022":10652,"20502</w>":10653,"2020th</w>":10654,"2016th</w>":10655,"2023x</w>":10656,"lič":10657,"lits</w>":10658,"lily</w>":10659,"lity</w>":10660,"lions</w>":10661,"libri":10662,"life</w>":10663,"litary</w>":10664,"lieu":10665,"lihood</w>":10666,"licop":10667,"liquid</w>":10668,"exercise</w>":10669,"expect</w>":10670,"tato</w>":10671,"tained</w>":10672,"tagged</w>":10673,"tasks</w>":10674,"valve</w>":10675,"gilt</w>":10676,"gitude</w>":10677,"cult</w>":10678,"nost</w>":10679,"nose</w>":10680,"noted</w>":10681,"node</w>":10682,"noons</w>":10683,"novel</w>":10684,"notches</w>":10685,"novč":10686,"processes</w>":10687,"mutual</w>":10688,"mustard</w>":10689,"meti":10690,"memory</w>":10691,"asph":10692,"ascen":10693,"asking</w>":10694,"deb":10695,"descri":10696,"deep</w>":10697,"design</w>":10698,"deceler":10699,"deepest</w>":10700,"detector</w>":10701,"1012</w>":10702,"1020</w>":10703,"1016</w>":10704,"1033</w>":10705,"1031</w>":10706,"1048":10707,"1048</w>":10708,"1059</w>":10709,"1065</w>":10710,"1092</w>":10711,"10101</w>":10712,"bouring</w>":10713,"boil</w>":10714,"boards</w>":10715,"boiling</w>":10716,"peeled</w>":10717,"Why</w>":10718,"pers":10719,"person":10720,"permissible</w>":10721,"vio":10722,"toy</w>":10723,"tops</w>":10724,"tooth":10725,"tomor":10726,"fil":10727,"ham</w>":10728,"hao</w>":10729,"hatters</w>":10730,"urch</w>":10731,"mixes</w>":10732,"military</w>":10733,"digital</w>":10734,"patient</w>":10735,"resour":10736,"vessel</w>":10737,"landed</w>":10738,"landers</w>":10739,"cial</w>":10740,"cigare":10741,"cistern</w>":10742,"geo":10743,"ge1</w>":10744,"parrow</w>":10745,"drach":10746,"squaring</w>":10747,"squared</w>":10748,"neq":10749,"nek</w>":10750,"newspa":10751,"chari":10752,"ches":10753,"chup</w>":10754,"challeng":10755,"baker</w>":10756,"bagel</w>":10757,"badmin":10758,"saved</w>":10759,"sawto":10760,"alley</w>":10761,"ceg</w>":10762,"cea</w>":10763,"prising</w>":10764,"prisms</w>":10765,"divisions</w>":10766,"divisibility</w>":10767,"arev</w>":10768,"arett":10769,"tico</w>":10770,"comprising</w>":10771,"intermediate</w>":10772,"minis":10773,"ngth</w>":10774,"pher</w>":10775,"phin</w>":10776,"pheno":10777,"pharma":10778,"agricul":10779,"plains</w>":10780,"plausible</w>":10781,"1912</w>":10782,"1960</w>":10783,"1940</w>":10784,"1955</w>":10785,"1956</w>":10786,"1949</w>":10787,"1954</w>":10788,"1952</w>":10789,"1970</w>":10790,"1966</w>":10791,"1903</w>":10792,"1973</w>":10793,"moo</w>":10794,"movie</w>":10795,"modified</w>":10796,"Giuli":10797,"bid</w>":10798,"bia</w>":10799,"bite</w>":10800,"biased</w>":10801,"pioneers</w>":10802,"pillow":10803,"Solving</w>":10804,"Solsti":10805,"ffer":10806,"soldo</w>":10807,"Debbi":10808,"Devi</w>":10809,"Decompose</w>":10810,"Excluding</w>":10811,"smon":10812,"hearing</w>":10813,"helicop":10814,"Proof</w>":10815,"Profess":10816,"Processes</w>":10817,"functional</w>":10818,"fake</w>":10819,"favo":10820,"poster</w>":10821,"shoe</w>":10822,"shore</w>":10823,"showed</w>":10824,"duck</w>":10825,"dukes</w>":10826,"dupli":10827,"folding</w>":10828,"damag":10829,"dapest</w>":10830,"cab</w>":10831,"cats</w>":10832,"cabc</w>":10833,"trader</w>":10834,"traced</w>":10835,"traing":10836,"udo</w>":10837,"udine</w>":10838,"rupt</w>":10839,"larity</w>":10840,"cends</w>":10841,"buo":10842,"buying</w>":10843,"bulek</w>":10844,"linger":10845,"lington</w>":10846,"routes</w>":10847,"ranks</w>":10848,"nature</w>":10849,"natür":10850,"ppers</w>":10851,"ppear</w>":10852,"correct":10853,"cordin":10854,"corrupt</w>":10855,"grazed</w>":10856,"dense</w>":10857,"plank</w>":10858,"planning</w>":10859,"14b</w>":10860,"1414</w>":10861,"1417</w>":10862,"14cm</w>":10863,"1428</w>":10864,"1434</w>":10865,"1439</w>":10866,"1464</w>":10867,"1499</w>":10868,"1481</w>":10869,"1458</w>":10870,"rightmost</w>":10871,"radian</w>":10872,"alized</w>":10873,"arik</w>":10874,"cken</w>":10875,"ckage</w>":10876,"ckets</w>":10877,"ckie</w>":10878,"ada</w>":10879,"admi":10880,"advan":10881,"stel":10882,"compani":10883,"producing</w>":10884,"1216</w>":10885,"1224</w>":10886,"1230</w>":10887,"1221</w>":10888,"1250</w>":10889,"1212":10890,"1223</w>":10891,"1238</w>":10892,"1254</w>":10893,"1295</w>":10894,"1292</w>":10895,"1274</w>":10896,"1293</w>":10897,"1271</w>":10898,"12321</w>":10899,"1313</w>":10900,"1350</w>":10901,"1360</w>":10902,"1340</w>":10903,"1331</w>":10904,"1341</w>":10905,"1397":10906,"1346</w>":10907,"1365</w>":10908,"1301</w>":10909,"1384</w>":10910,"1368</w>":10911,"1366</w>":10912,"1387</w>":10913,"13903</w>":10914,"Maj":10915,"Mad</w>":10916,"Matho":10917,"syllables</w>":10918,"scra":10919,"15x</w>":10920,"1517</w>":10921,"1525</w>":10922,"1560</w>":10923,"1544</w>":10924,"knotes</w>":10925,"knowledge</w>":10926,"acteris":10927,"accordin":10928,"subsequences</w>":10929,"subspaces</w>":10930,"substring</w>":10931,"subscribe</w>":10932,"subset":10933,"subjects</w>":10934,"eleven</w>":10935,"elevation</w>":10936,"sher</w>":10937,"shlight</w>":10938,"1800</w>":10939,"1836</w>":10940,"1878</w>":10941,"1876</w>":10942,"1897</w>":10943,"1700</w>":10944,"1717</w>":10945,"1740</w>":10946,"1780</w>":10947,"1743</w>":10948,"1782</w>":10949,"1616</w>":10950,"1646</w>":10951,"1674</w>":10952,"1693</w>":10953,"2800</w>":10954,"28535</w>":10955,"tangyuan</w>":10956,"spewing</w>":10957,"web</w>":10958,"wearing</w>":10959,"wealthy</w>":10960,"midline</w>":10961,"2525</w>":10962,"luxi</w>":10963,"fect</w>":10964,"fewest</w>":10965,"fe5f":10966,"Convert</w>":10967,"contact</w>":10968,"university</w>":10969,"Coins</w>":10970,"ising</w>":10971,"islanders</w>":10972,"relay</w>":10973,"30x</w>":10974,"3024</w>":10975,"3025</w>":10976,"3087</w>":10977,"30c9a":10978,"script</w>":10979,"ells</w>":10980,"elding</w>":10981,"elder</w>":10982,"elder":10983,"stays</w>":10984,"states</w>":10985,"stacked</w>":10986,"stadium</w>":10987,"27th</w>":10988,"2785</w>":10989,"2784</w>":10990,"operates</w>":10991,"4030</w>":10992,"4096</w>":10993,"4007</w>":10994,"tenant</w>":10995,"360":10996,"36th</w>":10997,"3600</w>":10998,"3642</w>":10999,"3665</w>":11000,"36e2f":11001,"ABE</w>":11002,"flown</w>":11003,"flock</w>":11004,"505000</w>":11005,"500th</w>":11006,"50fba":11007,"cargo</w>":11008,"carries</w>":11009,"gates</w>":11010,"Antu":11011,"Anne</w>":11012,"Anchu":11013,"3400</w>":11014,"3429</w>":11015,"3454</w>":11016,"commands</w>":11017,"3838</w>":11018,"26th</w>":11019,"2616</w>":11020,"2677</w>":11021,"crowns</w>":11022,"croiss":11023,"equilibri":11024,"24x</w>":11025,"2423</w>":11026,"2455</w>":11027,"countable</w>":11028,"294a":11029,"568</w>":11030,"563</w>":11031,"regarding</w>":11032,"ober</w>":11033,"obli":11034,"oblong</w>":11035,"46b19":11036,"4603b":11037,"curvature</w>":11038,"3914</w>":11039,"484</w>":11040,"488</w>":11041,"483</w>":11042,"482</w>":11043,"481</w>":11044,"485</w>":11045,"48th</w>":11046,"odbi":11047,"470</w>":11048,"477</w>":11049,"475</w>":11050,"4761</w>":11051,"58a":11052,"584</w>":11053,"580</w>":11054,"586</w>":11055,"58a6":11056,"marine</w>":11057,"ila</w>":11058,"illance</w>":11059,"illegible</w>":11060,"tru</w>":11061,"trying</w>":11062,"59d970":11063,"gust</w>":11064,"clovers</w>":11065,"meadow</w>":11066,"674</w>":11067,"679</w>":11068,"676</w>":11069,"6721</w>":11070,"6789</w>":11071,"opuses</w>":11072,"opposing</w>":11073,"Infinite</w>":11074,"Inser":11075,"Include</w>":11076,"decision</w>":11077,"grouped</w>":11078,"8001</w>":11079,"893b":11080,"Amarett":11081,"Challeng":11082,"Chunlei</w>":11083,"premi":11084,"prefer":11085,"876c0":11086,"gree":11087,"grey</w>":11088,"halved</w>":11089,"halfway</w>":11090,"imed</w>":11091,"impor":11092,"implausible</w>":11093,"selections</w>":11094,"973</w>":11095,"972</w>":11096,"971</w>":11097,"976</w>":11098,"Not</w>":11099,"circumsphere</w>":11100,"Potato</w>":11101,"withdraw":11102,"exception</w>":11103,"consisted</w>":11104,"lipse</w>":11105,"Committee</w>":11106,"Common</w>":11107,"cere":11108,"778</w>":11109,"772</w>":11110,"776</w>":11111,"7777</w>":11112,"909</w>":11113,"9009</w>":11114,"entier</w>":11115,"863</w>":11116,"862</w>":11117,"861</w>":11118,"chewing</w>":11119,"cheanu</w>":11120,"ellipses</w>":11121,"regional</w>":11122,"nitro":11123,"niza</w>":11124,"nivers":11125,"nifer</w>":11126,"Bohan</w>":11127,"Bohini":11128,"strike</w>":11129,"receipt</w>":11130,"708</w>":11131,"claimed</w>":11132,"tinovich</w>":11133,"1112</w>":11134,"11pt</w>":11135,"dreams</w>":11136,"holders</w>":11137,"dissection</w>":11138,"discovered</w>":11139,"kimov</w>":11140,"698</w>":11141,"697</w>":11142,"nonreal</w>":11143,"stin</w>":11144,"stitute</w>":11145,"jogs</w>":11146,"scoo":11147,"chimes</w>":11148,"chipm":11149,"Recently</w>":11150,"hibi":11151,"hike</w>":11152,"summed</w>":11153,"declination</w>":11154,"touched</w>":11155,"outfits</w>":11156,"yel</w>":11157,"matched</w>":11158,"typi":11159,"tyya</w>":11160,"793</w>":11161,"792</w>":11162,"791</w>":11163,"stole</w>":11164,"stores</w>":11165,"storage</w>":11166,"changesum</w>":11167,"Arc</w>":11168,"rental</w>":11169,"rently</w>":11170,"putting</w>":11171,"pulle":11172,"Sig":11173,"genuine</w>":11174,"longitude</w>":11175,"erected</w>":11176,"2312</w>":11177,"bounce</w>":11178,"Becheanu</w>":11179,"drop</w>":11180,"underlined</w>":11181,"tanh</w>":11182,"respondence</w>":11183,"trokuta</w>":11184,"arcctg</w>":11185,"arccot</w>":11186,"See</w>":11187,"984603b":11188,"justify</w>":11189,"progam":11190,"generally</w>":11191,"stantinovich</w>":11192,"54c0":11193,"54321</w>":11194,"Mitya</w>":11195,"progressions</w>":11196,"brass</w>":11197,"blown</w>":11198,"blogspot</w>":11199,"clusion</w>":11200,"tube</w>":11201,"tuple</w>":11202,"friction</w>":11203,"menon</w>":11204,"processed</w>":11205,"multipli":11206,"hypercube</w>":11207,"noring</w>":11208,"normally</w>":11209,"northeast</w>":11210,"charm</w>":11211,"charges</w>":11212,"Maren</w>":11213,"Martian</w>":11214,"Marseille</w>":11215,"congruences</w>":11216,"banner</w>":11217,"banov</w>":11218,"banknotes</w>":11219,"4500</w>":11220,"Digi":11221,"Dipper</w>":11222,"Diana</w>":11223,"4358</w>":11224,"splits</w>":11225,"whole":11226,"window</w>":11227,"windows</w>":11228,"95bg</w>":11229,"simultaneous</w>":11230,"attach</w>":11231,"kilometer</w>":11232,"5320</w>":11233,"53rd</w>":11234,"approach":11235,"derivatives</w>":11236,"ferry</w>":11237,"incident</w>":11238,"incidence</w>":11239,"college</w>":11240,"collecting</w>":11241,"bookstore</w>":11242,"neighbouring</w>":11243,"73a":11244,"ccc</w>":11245,"cccc</w>":11246,"cc4ca":11247,"cc59d970":11248,"hombi</w>":11249,"fifteenth</w>":11250,"32y</w>":11251,"Claire</w>":11252,"Claudine</w>":11253,"Joey</w>":11254,"venerable</w>":11255,"Although</w>":11256,"Allowed</w>":11257,"Alfred</w>":11258,"reduce</w>":11259,"reducing</w>":11260,"visiting</w>":11261,"4216</w>":11262,"milli":11263,"9219</w>":11264,"barge</w>":11265,"dolph</w>":11266,"dolphin</w>":11267,"combining</w>":11268,"workshop</w>":11269,"kog</w>":11270,"kova</w>":11271,"kozyab":11272,"expansions</w>":11273,"Trigon":11274,"rtlist</w>":11275,"wheat</w>":11276,"CDM</w>":11277,"CDA</w>":11278,"Permu":11279,"Perfect</w>":11280,"immediate</w>":11281,"Roy":11282,"Roman</w>":11283,"ronic</w>":11284,"lightest</w>":11285,"finisher</w>":11286,"subtracting</w>":11287,"subtrahend</w>":11288,"Transformations</w>":11289,"Translating</w>":11290,"quartz</w>":11291,"cubical</w>":11292,"centroids</w>":11293,"Last</w>":11294,"Lake</w>":11295,"reflect</w>":11296,"reflects</w>":11297,"reflecting</w>":11298,"reflectable</w>":11299,"sqrt7</w>":11300,"Pavel</w>":11301,"Package</w>":11302,"Payel</w>":11303,"numerous</w>":11304,"numerators</w>":11305,"conversation</w>":11306,"Auction</w>":11307,"August</w>":11308,"catching</w>":11309,"print</w>":11310,"buildings</w>":11311,"Shen":11312,"Sharik</w>":11313,"client</w>":11314,"farmer</w>":11315,"farthings</w>":11316,"antipalindromic</w>":11317,"quadrants</w>":11318,"Cantor</w>":11319,"CanMO</w>":11320,"Candidate</w>":11321,"Top</w>":11322,"Together</w>":11323,"Tournament</w>":11324,"Motion</w>":11325,"Moving</w>":11326,"bribe</w>":11327,"bricks</w>":11328,"briefly</w>":11329,"senator</w>":11330,"slip</w>":11331,"slices</w>":11332,"torn</w>":11333,"crates</w>":11334,"Lei":11335,"Lee</w>":11336,"flippy</w>":11337,"footballs</w>":11338,"likelihood</w>":11339,"fillpen</w>":11340,"fillér</w>":11341,"perpendicularly</w>":11342,"pravo":11343,"records</w>":11344,"supseteq</w>":11345,"computes</w>":11346,"computers</w>":11347,"Bertha</w>":11348,"Radi":11349,"Ravin":11350,"Rationalize</w>":11351,"Raiders</w>":11352,"kina</w>":11353,"kino</w>":11354,"southeast</w>":11355,"Theory</w>":11356,"tailors</w>":11357,"6568</w>":11358,"Liu</w>":11359,"annulus</w>":11360,"motorboat</w>":11361,"bigcirc</w>":11362,"ABCDEFGH":11363,"factorials</w>":11364,"Janous</w>":11365,"approximation</w>":11366,"approximations</w>":11367,"COND</w>":11368,"Science</w>":11369,"Sciences</w>":11370,"Without</w>":11371,"stically</w>":11372,"discarded</w>":11373,"assigning</w>":11374,"counterexamples</w>":11375,"1204</w>":11376,"1208</w>":11377,"Marie</w>":11378,"Mario</w>":11379,"Niko":11380,"Rule</w>":11381,"Rubanov</w>":11382,"Rudolph</w>":11383,"quadrup":11384,"downwards</w>":11385,"downward</w>":11386,"ctionery</w>":11387,"zizubka</w>":11388,"temperatures</w>":11389,"oneic</w>":11390,"quantitative</w>":11391,"crawling</w>":11392,"0784</w>":11393,"Uncertain</w>":11394,"mornings</w>":11395,"spoke</w>":11396,"zak":11397,"revolving</w>":11398,"weighed</w>":11399,"Jackie</w>":11400,"flashlight</w>":11401,"officer</w>":11402,"officers</w>":11403,"Charlie</w>":11404,"Charlotte</w>":11405,"Characteris":11406,"Beibei</w>":11407,"Enzo</w>":11408,"Luluxi</w>":11409,"ddfe5f":11410,"looks</w>":11411,"competes</w>":11412,"cellaneous</w>":11413,"afterwards</w>":11414,"afternoons</w>":11415,"guarantees</w>":11416,"guaranteed</w>":11417,"AMB</w>":11418,"Check</w>":11419,"Final</w>":11420,"Picture</w>":11421,"Pizizubka</w>":11422,"logies</w>":11423,"proposers</w>":11424,"delions</w>":11425,"favor</w>":11426,"3309</w>":11427,"Hubei</w>":11428,"burg</w>":11429,"burning</w>":11430,"yielding</w>":11431,"dotsc</w>":11432,"package</w>":11433,"offers</w>":11434,"somewhere</w>":11435,"Constructions</w>":11436,"hua</w>":11437,"thern</w>":11438,"horn</w>":11439,"mistaking</w>":11440,"backpack</w>":11441,"helmet</w>":11442,"guesses</w>":11443,"Saturdays</w>":11444,"6480</w>":11445,"Danielle</w>":11446,"Jennifer</w>":11447,"astron":11448,"astroid</w>":11449,"gallon</w>":11450,"utility</w>":11451,"cheroo</w>":11452,"acquainted</w>":11453,"prediction</w>":11454,"Petrovna</w>":11455,"6571</w>":11456,"86753</w>":11457,"Folge</w>":11458,"Guide</w>":11459,"creatures</w>":11460,"rye</w>":11461,"snake</w>":11462,"involve</w>":11463,"involves</w>":11464,"trisectors</w>":11465,"depth</w>":11466,"declared</w>":11467,"swimmer</w>":11468,"1eg</w>":11469,"9801</w>":11470,"Cao</w>":11471,"Kabulek</w>":11472,"Prime</w>":11473,"Rigo</w>":11474,"Vitaly</w>":11475,"ketchup</w>":11476,"strength</w>":11477,"metals</w>":11478,"mechanis":11479,"illusions</w>":11480,"Brother</w>":11481,"Broken</w>":11482,"Ivanovich</w>":11483,"dandelions</w>":11484,"sleep</w>":11485,"existing</w>":11486,"vehicles</w>":11487,"shooting</w>":11488,"fortune</w>":11489,"climbing</w>":11490,"Betya</w>":11491,"Darlington</w>":11492,"Eucli":11493,"Love</w>":11494,"bc280":11495,"anyone</w>":11496,"leftrightarrow</w>":11497,"legal</w>":11498,"refers</w>":11499,"situations</w>":11500,"concerning</w>":11501,"descends</w>":11502,"delete</w>":11503,"topologies</w>":11504,"pizzas</w>":11505,"Connecting</w>":11506,"markers</w>":11507,"markings</w>":11508,"Internet</w>":11509,"Midpoint</w>":11510,"Middle</w>":11511,"Diagram</w>":11512,"Claudio</w>":11513,"organizer</w>":11514,"competitions</w>":11515,"diamond":11516,"announcing</w>":11517,"Clarification</w>":11518,"Donkey</w>":11519,"Fabi":11520,"fd2d":11521,"slav</w>":11522,"treat</w>":11523,"resistor</w>":11524,"encountered</w>":11525,"diophantine</w>":11526,"assemble</w>":11527,"department</w>":11528,"mixing</w>":11529,"geq1</w>":11530,"accurate</w>":11531,"Andrey</w>":11532,"Andrej</w>":11533,"surveillance</w>":11534,"AAAAAAAA":11535,"Sergey</w>":11536,"mechanical</w>":11537,"Specify</w>":11538,"2b50fba":11539,"4d8f":11540,"Borya</w>":11541,"Correspondence</w>":11542,"Polynomi":11543,"Vladimi":11544,"Wuhan</w>":11545,"airlines</w>":11546,"adult</w>":11547,"bench</w>":11548,"dealer</w>":11549,"elap":11550,"elastically</w>":11551,"oaks</w>":11552,"seeing</w>":11553,"seems</w>":11554,"materials</w>":11555,"deviation</w>":11556,"models</w>":11557,"solido</w>":11558,"daughters</w>":11559,"accomplice</w>":11560,"Indians</w>":11561,"public</w>":11562,"justified</w>":11563,"Maruša</w>":11564,"Alexei</w>":11565,"chameleons</w>":11566,"celebration</w>":11567,"celebrate</w>":11568,"3d54c0":11569,"AFB</w>":11570,"Budapest</w>":11571,"CAL</w>":11572,"Eden</w>":11573,"Ellipse</w>":11574,"Ernaldo</w>":11575,"Ernie</w>":11576,"Good</w>":11577,"Miscellaneous</w>":11578,"Misfortune</w>":11579,"Palace</w>":11580,"Palkino</w>":11581,"Sums</w>":11582,"evil</w>":11583,"evident</w>":11584,"emerald</w>":11585,"jera</w>":11586,"of5</w>":11587,"skip</w>":11588,"vinegar</w>":11589,"sectional</w>":11590,"versal</w>":11591,"105cc4ca":11592,"bijective</w>":11593,"cabbage</w>":11594,"addresses</w>":11595,"accommodation</w>":11596,"constraints</w>":11597,"Christ":11598,"directrices</w>":11599,"Regardless</w>":11600,"anticipate</w>":11601,"Cheburashkas</w>":11602,"analog</w>":11603,"123456789</w>":11604,"manufacturing</w>":11605,"manufactured</w>":11606,"Dormouse</w>":11607,"Equation</w>":11608,"Gazette</w>":11609,"Northern</w>":11610,"Volume</w>":11611,"Volfová</w>":11612,"bdf</w>":11613,"wrestlers</w>":11614,"alliance</w>":11615,"alliances</w>":11616,"suitcases</w>":11617,"suitcase</w>":11618,"stud</w>":11619,"heart</w>":11620,"submit</w>":11621,"collision</w>":11622,"monolith</w>":11623,"monoliths</w>":11624,"Novotná</w>":11625,"Novosibir":11626,"blooms</w>":11627,"Division</w>":11628,"Necessary</w>":11629,"Necessarily</w>":11630,"Guangzhou</w>":11631,"troublesome</w>":11632,"troublemakers</w>":11633,"AHSME</w>":11634,"Alida</w>":11635,"Beatrice</w>":11636,"Billy</w>":11637,"Doughnut</w>":11638,"Flora</w>":11639,"Heidi</w>":11640,"Mircea</w>":11641,"Pratyya</w>":11642,"Phil</w>":11643,"Raskina</w>":11644,"SECOND</w>":11645,"Wolf</w>":11646,"averages</w>":11647,"clari":11648,"jack</w>":11649,"knee</w>":11650,"rinkets</w>":11651,"tallest</w>":11652,"railway</w>":11653,"encrypted</w>":11654,"royalties</w>":11655,"disappear</w>":11656,"difficult</w>":11657,"whereas</w>":11658,"stories</w>":11659,"conjugate</w>":11660,"library</w>":11661,"circulation</w>":11662,"professors</w>":11663,"meerkat</w>":11664,"firefighter</w>":11665,"button</w>":11666,"electrical</w>":11667,"shillings</w>":11668,"nickels</w>":11669,"discussing</w>":11670,"stitution</w>":11671,"Regional</w>":11672,"currentprojection</w>":11673,"Parallelogram</w>":11674,"Romania</w>":11675,"kingdom</w>":11676,"kugla</w>":11677,"derangement</w>":11678,"sleeps</w>":11679,"Correct</w>":11680,"Alexander</w>":11681,"Zhenya</w>":11682,"SOLUTION</w>":11683,"evaporated</w>":11684,"illuminated</w>":11685,"Absent</w>":11686,"Cyril</w>":11687,"Careless</w>":11688,"Estimate</w>":11689,"Function</w>":11690,"Fourth</w>":11691,"Greece</w>":11692,"Honza</w>":11693,"Hunan</w>":11694,"Irina</w>":11695,"LOCAL</w>":11696,"Longleftrightarrow</w>":11697,"Minded</w>":11698,"Mexico</w>":11699,"STAGE</w>":11700,"Senior</w>":11701,"Samson</w>":11702,"Sphinx</w>":11703,"Venu":11704,"World</w>":11705,"Zoe</w>":11706,"apothem</w>":11707,"acebdf</w>":11708,"apricots</w>":11709,"aeb4d8f":11710,"für</w>":11711,"octopuses</w>":11712,"vrhu</w>":11713,"theater</w>":11714,"enclosure</w>":11715,"laptop</w>":11716,"superior</w>":11717,"promotional</w>":11718,"meanly</w>":11719,"microcars</w>":11720,"landrics</w>":11721,"nearby</w>":11722,"needle</w>":11723,"compressor</w>":11724,"fortnight</w>":11725,"solely</w>":11726,"accumulated</w>":11727,"electronic</w>":11728,"Combina":11729,"47d893b":11730,"arithmetico</w>":11731,"opinions</w>":11732,"hypothesis</w>":11733,"longrightarrow</w>":11734,"Diophantine</w>":11735,"mantissa</w>":11736,"explicit</w>":11737,"Pavlovna</w>":11738,"Newton</w>":11739,"sentence</w>":11740,"Earthling</w>":11741,"discrete</w>":11742,"quickly</w>":11743,"thickness</w>":11744,"analogous</w>":11745,"12345678910":11746,"Slovenia</w>":11747,"ingredients</w>":11748,"business</w>":11749,"0ad36e2f":11750,"8190g</w>":11751,"Asheville</w>":11752,"Branko</w>":11753,"Bobi</w>":11754,"Currently</w>":11755,"Dylan</w>":11756,"Dirk</w>":11757,"Dillinger":11758,"Dongdong</w>":11759,"Dundee</w>":11760,"Equals</w>":11761,"Fresh</w>":11762,"Hatter</w>":11763,"Hausdo":11764,"Irish</w>":11765,"June</w>":11766,"Kerstin</w>":11767,"Krakozyab":11768,"Konstantinovich</w>":11769,"Khacha":11770,"Larissa</w>":11771,"Nini</w>":11772,"Nastya</w>":11773,"October</w>":11774,"Odette</w>":11775,"Operations</w>":11776,"Oryol</w>":11777,"Pangu</w>":11778,"Pyramid</w>":11779,"Physi":11780,"Qasim</w>":11781,"Stirling</w>":11782,"Tatjana</w>":11783,"Voronovich</w>":11784,"Yolki</w>":11785,"Yasmine</w>":11786,"Yaga</w>":11787,"aperture</w>":11788,"brood</w>":11789,"bronze</w>":11790,"crescent</w>":11791,"euro</w>":11792,"e4b8190g</w>":11793,"f26105cc4ca":11794,"humans</w>":11795,"hanging</w>":11796,"himself</w>":11797,"punctu":11798,"sparkling</w>":11799,"slowly</w>":11800,"scoundre":11801,"yarn</w>":11802,"zebra</w>":11803,"antenna</w>":11804,"androids</w>":11805,"teaspo":11806,"levied</w>":11807,"repetitions</w>":11808,"recruits</w>":11809,"alloy</w>":11810,"encies</w>":11811,"engines</w>":11812,"politi":11813,"seatings</w>":11814,"semester</w>":11815,"mascots</w>":11816,"latitude</w>":11817,"sunglasses</w>":11818,"sufficiently</w>":11819,"suddenly</w>":11820,"loyalty</w>":11821,"lottery</w>":11822,"unknowns</w>":11823,"ambassa":11824,"amongst</w>":11825,"hostess</w>":11826,"confectionery</w>":11827,"contrary</w>":11828,"continent</w>":11829,"vertexs</w>":11830,"theoretical</w>":11831,"lieutenant</w>":11832,"novči":11833,"asphalt</w>":11834,"ascension</w>":11835,"1048ea8g</w>":11836,"tomorrow</w>":11837,"cigarettes</w>":11838,"drachmas</w>":11839,"chests</w>":11840,"badminton</w>":11841,"sawtooth</w>":11842,"minister</w>":11843,"phenomenon</w>":11844,"agricultural</w>":11845,"Giulio</w>":11846,"Solstice</w>":11847,"Debbie</w>":11848,"helicopter</w>":11849,"Professor</w>":11850,"favorable</w>":11851,"damaged</w>":11852,"traingle</w>":11853,"natürli":11854,"correctness</w>":11855,"Mathopolis</w>":11856,"accordingly</w>":11857,"30c9a294a":11858,"elderly</w>":11859,"Antun</w>":11860,"Anchuri":11861,"croissant</w>":11862,"equilibrium</w>":11863,"46b1947d893b":11864,"58a6e4b8190g</w>":11865,"Amaretta</w>":11866,"Challenge</w>":11867,"876c0bc280":11868,"withdrawal</w>":11869,"nitrogen</w>":11870,"niversary</w>":11871,"Bohiniková</w>":11872,"chipmunk</w>":11873,"pulleys</w>":11874,"984603b876c0bc280":11875,"approaching</w>":11876,"cc59d970f26105cc4ca":11877,"Ravindra</w>":11878,"ABCDEFGHI":11879,"Characteristics</w>":11880,"ddfe5f1048ea8g</w>":11881,"mechanism</w>":11882,"fd2d0ad36e2f":11883,"2b50fba1g</w>":11884,"Vladimir</w>":11885,"3d54c0ceg</w>":11886,"Novosibirsk</w>":11887,"aeb4d8fddfe5f1048ea8g</w>":11888,"Dillingerová</w>":11889,"Hausdorff</w>":11890,"30c9a294a58a6e4b8190g</w>":11891,"46b1947d893b2b50fba1g</w>":11892,"984603b876c0bc28095bg</w>":11893,"cc59d970f26105cc4ca1g</w>":11894,"fd2d0ad36e2f3d54c0ceg</w>":11895,"04":11896,"0c":11897,"0C</w>":11898,"024</w>":11899,"030</w>":11900,"025</w>":11901,"050</w>":11902,"040</w>":11903,"027</w>":11904,"035</w>":11905,"026</w>":11906,"033</w>":11907,"031</w>":11908,"080":11909,"056</w>":11910,"049</w>":11911,"039</w>":11912,"047</w>":11913,"090":11914,"053</w>":11915,"052</w>":11916,"088</w>":11917,"095</w>":11918,"069</w>":11919,"098</w>":11920,"008</w>":11921,"009</w>":11922,"1b</w>":11923,"1z</w>":11924,"110":11925,"1ce":11926,"114":11927,"117":11928,"1100":11929,"1144</w>":11930,"1102</w>":11931,"1103</w>":11932,"1199</w>":11933,"1143</w>":11934,"1126</w>":11935,"1109</w>":11936,"1122</w>":11937,"1152</w>":11938,"1164</w>":11939,"1127</w>":11940,"1132</w>":11941,"1145</w>":11942,"1172</w>":11943,"1154</w>":11944,"1153</w>":11945,"1151</w>":11946,"1187</w>":11947,"1186</w>":11948,"1149</w>":11949,"1136</w>":11950,"1189</w>":11951,"1174</w>":11952,"2e":11953,"2l</w>":11954,"2C</w>":11955,"2j</w>":11956,"2P</w>":11957,"2w</w>":11958,"2be":11959,"2sqrt</w>":11960,"210":11961,"228":11962,"230":11963,"240":11964,"226":11965,"2AC</w>":11966,"2101</w>":11967,"2ax</w>":11968,"2999</w>":11969,"2103</w>":11970,"2bc</w>":11971,"2143</w>":11972,"2bp</w>":11973,"2ca</w>":11974,"2208</w>":11975,"2159</w>":11976,"2AF</w>":11977,"2288</w>":11978,"2992</w>":11979,"2401</w>":11980,"2405</w>":11981,"2344</w>":11982,"2261</w>":11983,"2392</w>":11984,"2194</w>":11985,"2173</w>":11986,"2370</w>":11987,"2294</w>":11988,"2161</w>":11989,"2307</w>":11990,"2408</w>":11991,"2291</w>":11992,"2381</w>":11993,"3a":11994,"3e":11995,"3m</w>":11996,"3c</w>":11997,"3f</w>":11998,"3P</w>":11999,"310":12000,"3cm</w>":12001,"319</w>":12002,"313":12003,"356</w>":12004,"339</w>":12005,"3120</w>":12006,"3ax</w>":12007,"3bx</w>":12008,"3bp</w>":12009,"3106</w>":12010,"3168</w>":12011,"3153</w>":12012,"3375</w>":12013,"3997</w>":12014,"3195</w>":12015,"3507</w>":12016,"3e0":12017,"3194</w>":12018,"3361</w>":12019,"3a8d":12020,"3342</w>":12021,"3em</w>":12022,"3278</w>":12023,"3298</w>":12024,"3592</w>":12025,"4c":12026,"4c</w>":12027,"4f</w>":12028,"4P</w>":12029,"4b</w>":12030,"4B</w>":12031,"416</w>":12032,"417</w>":12033,"421</w>":12034,"490</w>":12035,"418":12036,"428":12037,"427</w>":12038,"435</w>":12039,"426</w>":12040,"433</w>":12041,"439":12042,"442</w>":12043,"439</w>":12044,"438</w>":12045,"447</w>":12046,"457</w>":12047,"443</w>":12048,"4ax</w>":12049,"4yz</w>":12050,"4135</w>":12051,"4123</w>":12052,"4130</w>":12053,"4146</w>":12054,"4133</w>":12055,"4154</w>":12056,"4183</w>":12057,"4992</w>":12058,"4289</w>":12059,"4297</w>":12060,"4494</w>":12061,"4302</w>":12062,"4499</w>":12063,"4492</w>":12064,"5a":12065,"5p</w>":12066,"5P</w>":12067,"5A</w>":12068,"521</w>":12069,"512":12070,"532</w>":12071,"528</w>":12072,"526</w>":12073,"555</w>":12074,"556</w>":12075,"541</w>":12076,"539</w>":12077,"558</w>":12078,"543</w>":12079,"51st</w>":12080,"5bb":12081,"5103</w>":12082,"5135</w>":12083,"5124</w>":12084,"5168</w>":12085,"5285</w>":12086,"5384</w>":12087,"5388</w>":12088,"5174</w>":12089,"5294</w>":12090,"5468</w>":12091,"5252</w>":12092,"5277</w>":12093,"51eg</w>":12094,"6e":12095,"6p":12096,"6f</w>":12097,"6P</w>":12098,"6A</w>":12099,"620</w>":12100,"611</w>":12101,"616</w>":12102,"614</w>":12103,"630</w>":12104,"6cm</w>":12105,"619</w>":12106,"660</w>":12107,"613":12108,"622</w>":12109,"645</w>":12110,"636</w>":12111,"640":12112,"632</w>":12113,"628</w>":12114,"633</w>":12115,"637</w>":12116,"648</w>":12117,"656</w>":12118,"642</w>":12119,"649</w>":12120,"639</w>":12121,"664</w>":12122,"699</w>":12123,"653</w>":12124,"651</w>":12125,"681</w>":12126,"657</w>":12127,"643</w>":12128,"665</w>":12129,"668</w>":12130,"63x</w>":12131,"682</w>":12132,"6106</w>":12133,"61996</w>":12134,"6134</w>":12135,"6167</w>":12136,"6267</w>":12137,"6507</w>":12138,"6344</w>":12139,"6261</w>":12140,"6399</w>":12141,"6368</w>":12142,"6370</w>":12143,"6346</w>":12144,"6407</w>":12145,"6372</w>":12146,"6299</w>":12147,"6495</w>":12148,"6462</w>":12149,"61a":12150,"654321</w>":12151,"7a":12152,"7e":12153,"7f":12154,"7g</w>":12155,"7y</w>":12156,"7n</w>":12157,"724</w>":12158,"717</w>":12159,"721</w>":12160,"714":12161,"715":12162,"722</w>":12163,"740</w>":12164,"745</w>":12165,"727</w>":12166,"724":12167,"755</w>":12168,"737</w>":12169,"742</w>":12170,"753</w>":12171,"752</w>":12172,"757</w>":12173,"758</w>":12174,"743</w>":12175,"759</w>":12176,"7200</w>":12177,"782</w>":12178,"767</w>":12179,"783</w>":12180,"754":12181,"7208</w>":12182,"71997</w>":12183,"7373</w>":12184,"8a":12185,"8y</w>":12186,"814</w>":12187,"825</w>":12188,"821</w>":12189,"819</w>":12190,"815":12191,"832</w>":12192,"827</w>":12193,"828</w>":12194,"880</w>":12195,"855</w>":12196,"841</w>":12197,"844</w>":12198,"838</w>":12199,"854</w>":12200,"847</w>":12201,"851</w>":12202,"857</w>":12203,"858</w>":12204,"885</w>":12205,"884</w>":12206,"888</w>":12207,"8pt</w>":12208,"883</w>":12209,"8204</w>":12210,"8348</w>":12211,"8em</w>":12212,"8283</w>":12213,"8ae":12214,"8461</w>":12215,"9c":12216,"9s</w>":12217,"9n</w>":12218,"9z</w>":12219,"912</w>":12220,"915</w>":12221,"913</w>":12222,"914</w>":12223,"925</w>":12224,"919</w>":12225,"950</w>":12226,"940</w>":12227,"928":12228,"945</w>":12229,"936</w>":12230,"935</w>":12231,"926</w>":12232,"931</w>":12233,"942</w>":12234,"964</w>":12235,"953</w>":12236,"951</w>":12237,"952</w>":12238,"958</w>":12239,"959</w>":12240,"966</w>":12241,"989</w>":12242,"969</w>":12243,"967</w>":12244,"9181</w>":12245,"9372</w>":12246,"Ah":12247,"Ai":12248,"Av":12249,"A8</w>":12250,"Al</w>":12251,"AI</w>":12252,"AL</w>":12253,"AJ</w>":12254,"Ara":12255,"Ace</w>":12256,"Acu":12257,"Aeri":12258,"Aya</w>":12259,"Around</w>":12260,"APC</w>":12261,"ACE</w>":12262,"AED</w>":12263,"AFG</w>":12264,"ASS</w>":12265,"ACP</w>":12266,"Amuse":12267,"BD":12268,"BT":12269,"Br":12270,"Bé":12271,"B5</w>":12272,"Bir":12273,"Bright</w>":12274,"Bol":12275,"Ball</w>":12276,"Bus</w>":12277,"Blin":12278,"Bly":12279,"Born":12280,"Blue</w>":12281,"BCO":12282,"Buses</w>":12283,"BOP</w>":12284,"BAF</w>":12285,"BMO</w>":12286,"BCDE</w>":12287,"BBB</w>":12288,"BAF":12289,"BMC</w>":12290,"CG":12291,"CS":12292,"CT":12293,"C8</w>":12294,"Cy</w>":12295,"Cr</w>":12296,"Co</w>":12297,"CY</w>":12298,"Cra":12299,"Cre":12300,"Clo":12301,"Cars</w>":12302,"Cul":12303,"CMN</w>":12304,"CPA</w>":12305,"CRO":12306,"CZS</w>":12307,"Celine</w>":12308,"Czak":12309,"DU":12310,"Dr":12311,"DG</w>":12312,"DK</w>":12313,"DJ</w>":12314,"Din":12315,"Dan</w>":12316,"Dam":12317,"DBC</w>":12318,"Dori":12319,"Dund":12320,"Dut":12321,"DFG</w>":12322,"DBA</w>":12323,"Drinkets</w>":12324,"Eg":12325,"EI</w>":12326,"EP</w>":12327,"EB</w>":12328,"EL</w>":12329,"Elo":12330,"Ever":12331,"Evi":12332,"Ess":12333,"EAC</w>":12334,"Elen":12335,"Easter</w>":12336,"ELI":12337,"EDU":12338,"FE</w>":12339,"Fle":12340,"Fli":12341,"Fold</w>":12342,"Face</w>":12343,"Felsius</w>":12344,"GC</w>":12345,"GD</w>":12346,"GB</w>":12347,"Gre":12348,"Gal":12349,"Gen":12350,"Gang":12351,"Gag":12352,"Gus</w>":12353,"Gray</w>":12354,"Gran":12355,"Gab":12356,"Gang</w>":12357,"Green</w>":12358,"Gina</w>":12359,"GGR":12360,"GBKL</w>":12361,"Grum":12362,"GCMN</w>":12363,"HE":12364,"Hi":12365,"HS</w>":12366,"HM</w>":12367,"HT</w>":12368,"HQ</w>":12369,"Has</w>":12370,"Hong</w>":12371,"Hallow":12372,"Hear":12373,"Hong":12374,"I5</w>":12375,"IS</w>":12376,"IC</w>":12377,"IM</w>":12378,"Ing":12379,"Iber":12380,"IAD":12381,"Je":12382,"Jar":12383,"Jur":12384,"Jim":12385,"Jap":12386,"Jones</w>":12387,"Jing":12388,"Jür":12389,"KC</w>":12390,"Kan":12391,"Kal":12392,"Kam":12393,"Kran":12394,"Kev":12395,"Kyle</w>":12396,"Kris</w>":12397,"Knights</w>":12398,"KSI</w>":12399,"KIS</w>":12400,"LI</w>":12401,"Lum":12402,"Lya</w>":12403,"Lab":12404,"LMN</w>":12405,"Leng</w>":12406,"MD":12407,"My":12408,"MM</w>":12409,"Mou":12410,"Mag":12411,"MAB</w>":12412,"Mori":12413,"Mere":12414,"Mee":12415,"Muse":12416,"Mrs</w>":12417,"MNC</w>":12418,"Multi":12419,"Mama</w>":12420,"Nj":12421,"Nu":12422,"N2</w>":12423,"Na</w>":12424,"NS</w>":12425,"NP</w>":12426,"NB</w>":12427,"NT</w>":12428,"Non</w>":12429,"Name</w>":12430,"Neri":12431,"Neder":12432,"NELI":12433,"OR":12434,"Ou":12435,"OE</w>":12436,"OL</w>":12437,"OH</w>":12438,"OY</w>":12439,"Other</w>":12440,"OBC</w>":12441,"Oru":12442,"Odre":12443,"Open</w>":12444,"Oxy</w>":12445,"Omit":12446,"Pa</w>":12447,"Pi</w>":12448,"PO</w>":12449,"Plan":12450,"PBC</w>":12451,"Put</w>":12452,"Pop":12453,"PAD</w>":12454,"PCA</w>":12455,"Pasha</w>":12456,"Peg":12457,"President</w>":12458,"PIAD":12459,"QB</w>":12460,"QA</w>":12461,"Qing</w>":12462,"QAB</w>":12463,"QBP</w>":12464,"RE":12465,"RR":12466,"RT":12467,"Rů":12468,"R1</w>":12469,"RC</w>":12470,"RD</w>":12471,"Ran":12472,"Ren":12473,"Ram":12474,"Rol":12475,"Righ":12476,"RED</w>":12477,"Rya":12478,"SP":12479,"Sp":12480,"SG</w>":12481,"SR</w>":12482,"Sin":12483,"Sla":12484,"Sho":12485,"Smu":12486,"Sequ":12487,"Sou":12488,"Spi":12489,"SBC</w>":12490,"Sca":12491,"Sure</w>":12492,"Sally</w>":12493,"Swe":12494,"Shal":12495,"Shi":12496,"Send":12497,"South</w>":12498,"Span":12499,"SCOR":12500,"Sparrow</w>":12501,"TV":12502,"Ty":12503,"T0</w>":12504,"TM</w>":12505,"TT</w>":12506,"TX</w>":12507,"Ten":12508,"Tro":12509,"Ted</w>":12510,"Tun":12511,"Tall</w>":12512,"Tou":12513,"Text</w>":12514,"Tere":12515,"Tina</w>":12516,"Tara</w>":12517,"TEMATI":12518,"TNY":12519,"UV":12520,"Ur":12521,"Uly":12522,"Uma</w>":12523,"UAR":12524,"V0":12525,"VE</w>":12526,"Vin":12527,"V00":12528,"WV":12529,"WR</w>":12530,"Wu</w>":12531,"Wer":12532,"Who":12533,"Were</w>":12534,"Wil":12535,"Water</w>":12536,"Wells</w>":12537,"Xz":12538,"XB</w>":12539,"XHead</w>":12540,"YZ</w>":12541,"Yes</w>":12542,"Yur":12543,"Yash":12544,"Yang</w>":12545,"YHQ</w>":12546,"Zm":12547,"Zr":12548,"Za</w>":12549,"Zho":12550,"Zor":12551,"Zhao</w>":12552,"a4":12553,"aj":12554,"aw":12555,"aer":12556,"asu":12557,"aba":12558,"aff":12559,"aed":12560,"a50":12561,"a87":12562,"abola</w>":12563,"actors</w>":12564,"ako</w>":12565,"a1g</w>":12566,"asures</w>":12567,"affect</w>":12568,"bn</w>":12569,"bo</w>":12570,"bz</w>":12571,"bre":12572,"bing</w>":12573,"ban</w>":12574,"blow":12575,"bff":12576,"bud":12577,"bbb</w>":12578,"b25":12579,"bni":12580,"b82":12581,"b1f":12582,"b547":12583,"breed</w>":12584,"bsuit</w>":12585,"b6a":12586,"bsite</w>":12587,"c4":12588,"con</w>":12589,"cea":12590,"cbf</w>":12591,"care":12592,"cred</w>":12593,"cance</w>":12594,"cage</w>":12595,"c87":12596,"c79":12597,"c74":12598,"ccot</w>":12599,"creases</w>":12600,"cines</w>":12601,"ctible</w>":12602,"c8g</w>":12603,"ctivity</w>":12604,"cBG":12605,"cashi":12606,"d9":12607,"dn":12608,"dr</w>":12609,"dal":12610,"dvi":12611,"dents</w>":12612,"dari":12613,"d18":12614,"d24":12615,"dined</w>":12616,"dni":12617,"d42":12618,"dla</w>":12619,"done":12620,"d1e":12621,"d5g</w>":12622,"dfrac12</w>":12623,"dfrac14</w>":12624,"dffc":12625,"durch</w>":12626,"dcats</w>":12627,"ei":12628,"ex</w>":12629,"ev</w>":12630,"ece</w>":12631,"eine</w>":12632,"ecu":12633,"eff":12634,"edu":12635,"eding</w>":12636,"etic</w>":12637,"elu":12638,"e67":12639,"edition</w>":12640,"eman":12641,"ebreak":12642,"eyes</w>":12643,"e31":12644,"e105":12645,"etir":12646,"esus</w>":12647,"edam</w>":12648,"effect</w>":12649,"e7f9":12650,"fes</w>":12651,"falle":12652,"f37":12653,"f49":12654,"f84":12655,"fend":12656,"fbb":12657,"fatten":12658,"fands</w>":12659,"feder":12660,"fashi":12661,"gr":12662,"gő</w>":12663,"glo":12664,"gles</w>":12665,"gnon</w>":12666,"gni":12667,"gang</w>":12668,"ggers</w>":12669,"gdan":12670,"gym</w>":12671,"gorge":12672,"hr</w>":12673,"hx</w>":12674,"hin":12675,"hers</w>":12676,"hph":12677,"hares</w>":12678,"h27":12679,"huan</w>":12680,"hard":12681,"h313":12682,"ia":12683,"ig":12684,"ik":12685,"ip</w>":12686,"iri":12687,"ience</w>":12688,"iten</w>":12689,"ical</w>":12690,"iced</w>":12691,"ities</w>":12692,"iff</w>":12693,"isto":12694,"ika</w>":12695,"impli":12696,"iyangyang</w>":12697,"iano</w>":12698,"jA":12699,"jz":12700,"jk</w>":12701,"ju</w>":12702,"jet</w>":12703,"jiang</w>":12704,"janja</w>":12705,"kk":12706,"kv":12707,"kc</w>":12708,"kf</w>":12709,"kan</w>":12710,"kun":12711,"kci":12712,"knot</w>":12713,"kmo":12714,"kni":12715,"kapp":12716,"khan":12717,"kör":12718,"karev</w>":12719,"lj":12720,"ldo</w>":12721,"lvia</w>":12722,"má":12723,"mé":12724,"mc</w>":12725,"mma":12726,"mir":12727,"mind</w>":12728,"mou":12729,"mous</w>":12730,"mland</w>":12731,"mbuses</w>":12732,"mTop</w>":12733,"mjera</w>":12734,"n4</w>":12735,"n3</w>":12736,"n5</w>":12737,"nt</w>":12738,"n6</w>":12739,"nP</w>":12740,"nol":12741,"nad":12742,"nore</w>":12743,"nmid</w>":12744,"nil":12745,"nje":12746,"nings</w>":12747,"nines</w>":12748,"night":12749,"narrow</w>":12750,"nady</w>":12751,"oh</w>":12752,"ole":12753,"ots</w>":12754,"oen</w>":12755,"oam":12756,"opa":12757,"otimes</w>":12758,"oking</w>":12759,"oren":12760,"ovan":12761,"oslav</w>":12762,"omous</w>":12763,"pé":12764,"p2</w>":12765,"py</w>":12766,"pr</w>":12767,"po</w>":12768,"pum":12769,"pers</w>":12770,"ply</w>":12771,"pper":12772,"pment</w>":12773,"p28":12774,"pmost</w>":12775,"pings</w>":12776,"pron":12777,"ppears</w>":12778,"plu</w>":12779,"pík</w>":12780,"rbrace</w>":12781,"rvert</w>":12782,"rrr</w>":12783,"rhombi</w>":12784,"sw":12785,"sx</w>":12786,"sre":12787,"sve</w>":12788,"sal</w>":12789,"san</w>":12790,"sind</w>":12791,"ssible</w>":12792,"smo":12793,"sore</w>":12794,"sdays</w>":12795,"swal":12796,"spu":12797,"ssive</w>":12798,"stered</w>":12799,"swoman</w>":12800,"tö":12801,"tle":12802,"tine</w>":12803,"tto":12804,"trema":12805,"tance</w>":12806,"tals</w>":12807,"tless</w>":12808,"tled</w>":12809,"tants</w>":12810,"tory</w>":12811,"tRight</w>":12812,"tchen</w>":12813,"tmeti":12814,"ura":12815,"ulea":12816,"user</w>":12817,"ureen</w>":12818,"vs</w>":12819,
[...]
